<pad>	0
<unk>	0
<s>	0
</s>	0
,	-2.95555
.	-3.212
s	-3.58479
▁the	-4.14754
▁in	-4.49158
▁	-4.56568
▁to	-4.60422
'	-4.60701
en	-4.64469
▁a	-4.6769
▁of	-4.68568
▁die	-4.7271
e	-4.72738
t	-4.77886
▁and	-4.79357
▁und	-4.87524
n	-4.91064
▁that	-4.95964
▁I	-4.98756
▁der	-5.18005
▁is	-5.25392
▁ist	-5.27894
▁you	-5.29079
▁it	-5.31492
▁das	-5.36824
▁zu	-5.37403
▁we	-5.39577
er	-5.5214
▁wir	-5.53919
▁ich	-5.54145
-	-5.59074
▁was	-5.60215
▁es	-5.63049
▁And	-5.64948
▁ein	-5.69841
d	-5.69858
▁this	-5.72572
▁Sie	-5.75303
▁an	-5.78783
r	-5.78865
?	-5.79318
▁sie	-5.79879
m	-5.79886
:	-5.81804
ing	-5.83397
re	-5.86006
▁nicht	-5.86224
▁so	-5.87451
▁"	-5.8832
▁von	-5.88473
▁--	-5.89576
▁be	-5.89691
▁eine	-5.9051
▁dass	-5.94065
ed	-5.969
▁Und	-5.99616
▁den	-6.01979
▁for	-6.03003
▁mit	-6.07436
▁auf	-6.08011
▁are	-6.12183
▁have	-6.12843
▁So	-6.16087
▁on	-6.19405
▁they	-6.19473
▁with	-6.25544
▁wie	-6.27611
▁Ich	-6.28161
▁can	-6.28903
▁sich	-6.28922
▁sind	-6.33025
▁what	-6.36673
▁all	-6.38384
▁haben	-6.3851
▁für	-6.3866
▁about	-6.39964
y	-6.40071
▁man	-6.40094
▁war	-6.40557
▁do	-6.49398
▁um	-6.5009
es	-6.51155
▁not	-6.5234
l	-6.52652
▁at	-6.55563
▁als	-6.57471
▁Das	-6.57823
▁im	-6.59908
▁er	-6.60734
▁one	-6.63922
▁Es	-6.63939
te	-6.64131
▁diese	-6.64432
▁as	-6.64625
▁aus	-6.64681
ly	-6.64718
▁there	-6.64923
."	-6.67002
▁my	-6.67292
▁like	-6.67427
▁people	-6.68396
▁dem	-6.68509
▁It	-6.70642
▁Wir	-6.70922
al	-6.71405
ve	-6.7184
▁from	-6.72579
▁über	-6.76257
▁me	-6.76539
▁also	-6.7727
c	-6.78299
in	-6.78626
▁wenn	-6.78692
▁uns	-6.79396
▁but	-6.79484
f	-6.79972
▁We	-6.81767
▁or	-6.82346
▁just	-6.84174
▁einen	-6.85225
ten	-6.86989
▁our	-6.87265
▁können	-6.87614
▁werden	-6.89411
▁des	-6.89711
▁out	-6.89921
▁oder	-6.89972
▁hat	-6.91512
k	-6.91713
▁The	-6.91728
st	-6.91729
▁But	-6.92274
b	-6.92653
▁know	-6.92654
▁very	-6.92967
▁these	-6.93172
▁if	-6.93718
▁he	-6.94022
▁up	-6.96128
ll	-6.97012
▁aber	-7.00148
g	-7.00358
▁going	-7.00883
▁by	-7.00977
▁auch	-7.0169
▁kann	-7.02783
▁Die	-7.03219
▁In	-7.04134
▁them	-7.04481
le	-7.0449
▁ver	-7.04628
▁Aber	-7.05107
▁when	-7.05517
▁einer	-7.05923
h	-7.06115
▁einem	-7.06297
▁see	-7.06765
▁because	-7.07386
▁nur	-7.07972
▁had	-7.08421
▁more	-7.08656
▁think	-7.093
p	-7.10862
▁sehr	-7.11095
▁hier	-7.11744
▁wird	-7.12219
▁will	-7.12654
▁who	-7.13298
a	-7.13603
▁Menschen	-7.13735
▁which	-7.14101
▁were	-7.1556
▁get	-7.16842
▁your	-7.17103
▁their	-7.17602
▁really	-7.17752
▁how	-7.18203
▁would	-7.18234
▁mich	-7.18363
▁vor	-7.18551
"	-7.19264
▁ge	-7.19592
o	-7.19802
▁♫	-7.20459
▁gibt	-7.20774
ung	-7.20855
▁us	-7.21181
an	-7.21877
▁–	-7.22925
z	-7.23525
▁sein	-7.23593
▁dann	-7.2407
▁nach	-7.2685
▁time	-7.26947
▁S	-7.2761
▁here	-7.27641
▁has	-7.27761
il	-7.29115
▁You	-7.30039
▁Er	-7.30363
▁world	-7.30977
▁etwas	-7.32258
▁This	-7.32663
ra	-7.32954
u	-7.32959
▁noch	-7.33401
▁A	-7.33527
ü	-7.33673
ä	-7.35508
▁some	-7.35767
▁habe	-7.35996
▁Welt	-7.36134
▁sehen	-7.36562
▁into	-7.36674
▁don	-7.37023
▁way	-7.37157
▁go	-7.37195
▁actually	-7.38005
▁mir	-7.38505
ro	-7.39074
ur	-7.39942
▁dieser	-7.39995
▁want	-7.40661
▁re	-7.40872
▁bei	-7.40906
ge	-7.41838
it	-7.42039
▁where	-7.42534
or	-7.4373
▁years	-7.44256
▁B	-7.44333
▁things	-7.44617
▁other	-7.44735
ter	-7.4494
▁now	-7.4495
▁mehr	-7.45743
w	-7.46365
▁Now	-7.46489
i	-7.46603
▁E	-7.4787
ic	-7.4844
▁Wenn	-7.48941
▁make	-7.49254
▁durch	-7.50101
▁could	-7.50292
▁alle	-7.50999
▁then	-7.51217
▁They	-7.51278
;	-7.5179
▁no	-7.53864
de	-7.54599
ig	-7.54885
▁am	-7.55124
ar	-7.55213
be	-7.55298
▁been	-7.55666
▁meine	-7.56949
ation	-7.57812
▁wurde	-7.57931
▁said	-7.58879
th	-7.59441
S	-7.59948
▁da	-7.60277
▁right	-7.6088
▁Ihnen	-7.61657
▁something	-7.62977
ne	-7.63496
▁wirklich	-7.63714
▁Be	-7.63981
▁He	-7.64171
▁over	-7.64675
▁wo	-7.64829
▁machen	-7.64902
ion	-7.6515
▁two	-7.66161
▁Zeit	-7.67404
▁immer	-7.67441
▁much	-7.67488
▁than	-7.67679
▁unsere	-7.68053
▁zum	-7.6807
▁got	-7.68362
▁tun	-7.68482
▁those	-7.69216
▁back	-7.69303
ri	-7.69477
▁first	-7.69893
▁thing	-7.70379
A	-7.71077
ch	-7.71402
et	-7.71626
▁weil	-7.71716
at	-7.71795
▁little	-7.72214
▁viel	-7.72431
la	-7.72957
ver	-7.73141
▁look	-7.73412
▁Also	-7.73455
▁Ein	-7.74537
den	-7.74688
sch	-7.7502
▁work	-7.75305
▁say	-7.75308
▁keine	-7.75463
ieren	-7.75494
?"	-7.76092
ern	-7.76136
▁even	-7.76639
▁T	-7.76798
▁ihre	-7.77518
▁hatte	-7.7808
▁she	-7.78532
▁her	-7.78859
ul	-7.78935
▁einfach	-7.7902
▁That	-7.79256
▁need	-7.80208
▁life	-7.80746
▁Ver	-7.80895
ut	-7.81422
us	-7.8144
ö	-7.82905
on	-7.8314
▁un	-7.83345
▁kind	-7.83468
▁only	-7.83788
▁Leute	-7.84661
▁zwei	-7.84714
ie	-7.84796
▁his	-7.8493
▁K	-7.85545
▁viele	-7.86262
▁most	-7.8685
▁C	-7.87357
▁Leben	-7.87584
▁müssen	-7.87682
▁take	-7.87728
▁du	-7.87919
▁lot	-7.88477
▁andere	-7.88838
li	-7.88872
▁Dinge	-7.8945
▁bin	-7.89839
▁dieses	-7.89867
▁diesem	-7.90768
▁An	-7.90852
▁Was	-7.91065
▁sagte	-7.91312
▁different	-7.91326
▁sagen	-7.92015
▁Da	-7.92042
▁new	-7.9278
▁good	-7.92916
▁many	-7.92962
el	-7.92969
▁Art	-7.93144
▁down	-7.94281
▁ab	-7.94315
me	-7.94445
▁wissen	-7.94494
▁Jahren	-7.94847
ck	-7.94875
▁waren	-7.95382
▁did	-7.96004
▁diesen	-7.96152
▁There	-7.96809
▁around	-7.96833
ive	-7.96934
▁c	-7.97562
▁What	-7.97925
ste	-7.98098
der	-7.9824
▁ihr	-7.98271
▁st	-7.98481
id	-7.98513
ist	-7.9895
ol	-7.98984
▁jetzt	-7.99213
▁Man	-7.99538
I	-7.99778
▁-	-7.99846
▁anderen	-8.01093
iert	-8.01555
ma	-8.01661
ir	-8.02089
▁würde	-8.02127
▁20	-8.03035
ate	-8.03232
▁use	-8.03368
▁Sch	-8.03942
▁p	-8.03974
▁Jahre	-8.04401
ers	-8.04454
gen	-8.05281
▁come	-8.05489
▁through	-8.05555
▁Der	-8.0576
ment	-8.0582
im	-8.05915
is	-8.0601
▁Re	-8.06149
▁being	-8.06557
▁same	-8.07187
▁gut	-8.07455
▁selbst	-8.07642
▁damit	-8.08165
▁bis	-8.09277
lich	-8.09586
▁zur	-8.09627
▁every	-8.09686
▁wieder	-8.10316
▁put	-8.10602
ach	-8.10813
▁alles	-8.11006
▁10	-8.11166
▁Wie	-8.11824
▁muss	-8.1203
▁de	-8.12097
▁St	-8.12234
▁geht	-8.12466
ce	-8.12592
▁ob	-8.12914
▁M	-8.13527
▁F	-8.13632
▁mein	-8.14093
▁unter	-8.14287
▁doing	-8.14608
igen	-8.14806
▁R	-8.15693
▁three	-8.15948
M	-8.15987
B	-8.16138
!	-8.16169
tra	-8.16345
em	-8.16389
um	-8.16839
▁day	-8.16857
mp	-8.17605
C	-8.18016
am	-8.18386
▁tell	-8.18811
ity	-8.18904
▁human	-8.19171
▁Well	-8.19276
▁zurück	-8.19532
ad	-8.2009
zu	-8.20183
▁percent	-8.20358
ta	-8.20574
D	-8.20701
▁If	-8.20919
▁co	-8.21535
▁schon	-8.22125
▁well	-8.22276
▁seine	-8.22535
▁called	-8.2296
as	-8.23209
lo	-8.23304
▁eines	-8.23332
P	-8.23797
▁pro	-8.24177
▁start	-8.24311
▁part	-8.24411
▁möchte	-8.24482
▁Kinder	-8.24556
▁any	-8.25425
ant	-8.25444
▁find	-8.25648
ien	-8.25951
▁Diese	-8.2598
▁Ge	-8.26481
▁fact	-8.26533
▁P	-8.26963
to	-8.27036
▁vielleicht	-8.27539
▁made	-8.27567
▁ihnen	-8.27867
▁Vor	-8.29161
▁weiter	-8.29589
▁drei	-8.29647
▁own	-8.2984
op	-8.30053
▁denn	-8.30454
x	-8.30507
▁talk	-8.30605
ische	-8.30702
able	-8.30808
▁should	-8.31119
▁year	-8.31262
ia	-8.31396
chen	-8.31405
v	-8.31681
▁davon	-8.32341
T	-8.32373
▁ganz	-8.32418
▁why	-8.32502
▁neue	-8.32941
▁change	-8.33165
we	-8.33333
▁let	-8.33911
▁19	-8.3398
▁einige	-8.34084
▁idea	-8.34291
är	-8.34514
▁Nun	-8.3458
▁great	-8.34729
sten	-8.34766
▁Ma	-8.35216
▁zusammen	-8.3523
age	-8.35359
▁genau	-8.36
▁heute	-8.36185
ag	-8.36628
▁Hier	-8.36681
▁Geschichte	-8.36952
ein	-8.37217
▁real	-8.37403
ha	-8.37462
▁brain	-8.37474
ber	-8.37505
E	-8.37521
K	-8.37523
▁today	-8.37582
▁after	-8.37643
▁important	-8.37679
▁G	-8.37698
▁thought	-8.37962
▁hatten	-8.38409
he	-8.38643
▁D	-8.38696
wa	-8.38754
▁Jahr	-8.3883
▁didn	-8.38846
▁con	-8.3902
▁end	-8.39105
▁Thank	-8.39495
▁last	-8.3956
▁ihn	-8.39722
ier	-8.39797
▁könnte	-8.39869
▁started	-8.41049
ub	-8.41134
▁Teil	-8.41274
▁hin	-8.41607
▁dort	-8.42057
▁Problem	-8.42085
ischen	-8.42096
men	-8.42747
▁bit	-8.42803
▁give	-8.42826
▁problem	-8.43022
▁course	-8.43052
▁Mo	-8.43181
est	-8.43206
▁Aus	-8.43501
▁La	-8.43618
▁W	-8.43641
▁wollen	-8.43763
vi	-8.43936
▁werde	-8.44182
▁gab	-8.44277
ungen	-8.44296
▁went	-8.45013
▁paar	-8.45014
os	-8.4502
▁tatsächlich	-8.45284
▁before	-8.45421
▁big	-8.45561
▁still	-8.45699
▁might	-8.45881
2	-8.45899
ben	-8.45982
▁system	-8.46327
▁L	-8.46572
▁meiner	-8.46619
▁gehen	-8.46671
▁better	-8.46792
▁nun	-8.46821
▁darüber	-8.46842
ke	-8.4698
▁b	-8.47057
▁point	-8.47187
▁Ihre	-8.47242
fe	-8.47293
▁weiß	-8.47412
▁show	-8.47884
▁another	-8.47892
▁wurden	-8.4794
▁sch	-8.47994
▁Ha	-8.48025
▁never	-8.48453
ren	-8.4865
▁off	-8.4872
▁example	-8.48917
▁place	-8.48987
▁Ab	-8.4949
▁U	-8.495
▁Beispiel	-8.49689
▁able	-8.4982
ft	-8.49886
▁sondern	-8.50096
▁story	-8.50338
kt	-8.506
ze	-8.51346
▁tr	-8.51482
▁design	-8.51721
▁few	-8.52179
her	-8.5221
▁found	-8.52253
▁Arbeit	-8.52563
▁long	-8.52636
F	-8.52641
▁water	-8.52847
▁k	-8.52989
▁sort	-8.53075
ab	-8.53152
va	-8.53295
▁came	-8.53527
▁kein	-8.53575
▁ago	-8.53605
bar	-8.53683
▁Le	-8.54239
ine	-8.54435
▁unserer	-8.54877
pe	-8.54995
▁O	-8.55055
▁Gehirn	-8.55297
▁help	-8.55542
▁Auf	-8.55552
▁ja	-8.55579
tor	-8.55608
▁together	-8.55648
tion	-8.55653
▁wäre	-8.55663
▁next	-8.55698
isch	-8.55771
▁him	-8.55907
▁Wasser	-8.55922
ster	-8.56787
▁call	-8.5684
▁3	-8.56963
▁Eine	-8.57
di	-8.57106
▁New	-8.57147
ling	-8.57174
▁school	-8.57516
zen	-8.57657
▁mean	-8.57699
▁dazu	-8.57913
G	-8.58159
▁Als	-8.58228
▁vom	-8.58443
mo	-8.58503
▁denke	-8.58598
▁does	-8.58746
▁To	-8.58755
▁again	-8.5894
ige	-8.59475
▁Dies	-8.59835
▁Ro	-8.60013
▁play	-8.60337
▁Co	-8.60468
mi	-8.60495
ger	-8.60825
▁macht	-8.60998
▁love	-8.61189
▁question	-8.61199
▁kommen	-8.6127
go	-8.61355
▁Tag	-8.61564
mal	-8.61788
▁Mal	-8.61808
▁sogar	-8.6203
iv	-8.62242
▁Z	-8.6232
▁nie	-8.62425
▁natürlich	-8.62541
▁live	-8.62627
ik	-8.6264
▁denken	-8.62646
dem	-8.62669
▁finden	-8.62678
▁each	-8.62689
▁gerade	-8.62703
▁between	-8.6281
▁technology	-8.63068
au	-8.63185
ring	-8.6329
teil	-8.63301
▁einmal	-8.6332
▁große	-8.63338
▁used	-8.63525
▁zwischen	-8.63838
▁gemacht	-8.63851
▁When	-8.63855
▁ent	-8.63935
ner	-8.63964
▁heraus	-8.63973
1	-8.64087
▁Land	-8.64381
R	-8.64426
▁mal	-8.64444
no	-8.64785
▁Internet	-8.64822
▁believe	-8.64986
▁glaube	-8.6502
▁erste	-8.65033
land	-8.65065
▁Frage	-8.65069
▁De	-8.65557
hr	-8.65574
▁form	-8.65637
pp	-8.6572
▁leben	-8.65784
tri	-8.65919
▁30	-8.65953
ler	-8.66017
▁Frauen	-8.66833
▁50	-8.66878
▁kommt	-8.669
▁too	-8.66918
per	-8.66966
up	-8.67039
sp	-8.67141
5	-8.67162
br	-8.67204
▁ohne	-8.67278
▁geben	-8.67327
▁four	-8.67514
ko	-8.67516
heit	-8.67537
▁looking	-8.683
ci	-8.68365
ng	-8.68437
▁feel	-8.68635
▁N	-8.68654
▁Ka	-8.68912
▁data	-8.68991
H	-8.68991
▁d	-8.69172
co	-8.69247
ho	-8.69279
▁All	-8.69288
▁Because	-8.69485
▁understand	-8.69547
▁ex	-8.69735
uch	-8.69783
un	-8.69956
▁f	-8.70101
▁jeder	-8.70192
▁Weg	-8.70216
▁light	-8.70394
ick	-8.70546
▁passiert	-8.70713
nen	-8.70859
▁women	-8.71063
▁zeigen	-8.71163
▁doesn	-8.71428
man	-8.71492
und	-8.71492
▁konnte	-8.71605
▁dafür	-8.71708
▁Grund	-8.71708
pa	-8.71834
ness	-8.7184
▁For	-8.72025
▁car	-8.72032
ken	-8.72176
▁unser	-8.72192
▁home	-8.72306
▁100	-8.72564
▁done	-8.72597
▁würden	-8.72765
▁space	-8.72891
▁sieht	-8.73008
▁million	-8.73043
▁Daten	-8.73069
▁g	-8.73313
O	-8.73388
▁ganze	-8.73438
▁Al	-8.73452
▁second	-8.73521
che	-8.73578
▁Prozent	-8.73595
▁besser	-8.74073
▁di	-8.74188
▁wanted	-8.74273
▁whole	-8.74275
ian	-8.74358
▁ersten	-8.74496
ry	-8.74566
gel	-8.74932
▁ihren	-8.75125
ot	-8.75212
▁meisten	-8.75288
▁person	-8.75317
▁etwa	-8.75327
▁Ja	-8.75515
▁create	-8.75624
▁la	-8.75649
8	-8.75708
▁verstehen	-8.7592
▁denen	-8.76259
na	-8.76276
cht	-8.76292
ug	-8.76309
▁während	-8.76452
bo	-8.76539
halten	-8.76595
ated	-8.76674
▁v	-8.76771
▁daran	-8.76927
▁Un	-8.77017
▁best	-8.77038
▁trying	-8.77107
ton	-8.77234
0	-8.77247
▁Millionen	-8.77249
ies	-8.77429
▁ever	-8.7747
ip	-8.77708
nd	-8.77791
▁TED	-8.7788
N	-8.78107
▁Do	-8.78285
▁Pro	-8.783
,"	-8.78367
▁sollte	-8.78493
▁Se	-8.78585
▁working	-8.78637
▁may	-8.7879
▁high	-8.79089
nder	-8.79137
▁per	-8.79161
▁always	-8.79203
▁welche	-8.79263
▁Bild	-8.79444
▁away	-8.79464
▁hand	-8.79764
▁My	-8.79784
▁Geld	-8.79821
▁warum	-8.79897
ous	-8.79937
▁try	-8.80031
liche	-8.80044
lt	-8.80202
▁lassen	-8.80212
▁hard	-8.80289
▁children	-8.80302
▁building	-8.80452
▁fast	-8.80482
▁wichtig	-8.80488
4	-8.80763
▁moment	-8.81292
▁e	-8.81386
W	-8.81491
▁Idee	-8.81642
L	-8.81688
cy	-8.81881
▁pre	-8.81978
7	-8.82005
▁letzten	-8.82057
▁open	-8.82117
▁power	-8.82208
▁sollten	-8.82396
▁How	-8.82803
▁Ra	-8.83098
ure	-8.83283
▁country	-8.83284
▁H	-8.8362
ff	-8.83725
▁Zu	-8.83777
end	-8.83794
▁Im	-8.83837
so	-8.83882
3	-8.83958
▁wenig	-8.84047
sh	-8.84166
▁r	-8.84181
▁Pa	-8.84365
▁wollte	-8.84473
▁No	-8.84605
zeit	-8.85105
▁meinem	-8.85291
6	-8.85338
▁Raum	-8.85376
ance	-8.85508
▁könnten	-8.85535
▁sp	-8.85873
▁ziemlich	-8.85955
ating	-8.86209
fi	-8.86237
▁vier	-8.86351
▁Bo	-8.86518
▁ging	-8.86745
▁15	-8.86771
form	-8.86777
ör	-8.86789
▁experience	-8.87115
ord	-8.87256
▁Ba	-8.87521
▁Me	-8.87633
▁project	-8.87734
▁dis	-8.87794
9	-8.8785
▁meinen	-8.87857
▁sprechen	-8.87858
ow	-8.88044
▁po	-8.88051
▁System	-8.88092
▁sagt	-8.88125
bel	-8.88131
▁number	-8.8823
▁ko	-8.88465
▁lo	-8.88512
▁using	-8.88604
▁small	-8.8872
▁five	-8.88721
▁old	-8.88943
äu	-8.88974
▁sense	-8.88986
▁Di	-8.89036
▁bekommen	-8.89043
▁m	-8.89047
▁Um	-8.89497
▁become	-8.89525
▁arbeiten	-8.89599
▁kam	-8.89633
▁dabei	-8.89711
lei	-8.89727
▁information	-8.89757
▁took	-8.89931
hen	-8.90002
▁maybe	-8.90311
▁Ho	-8.9041
▁China	-8.90468
bu	-8.90659
od	-8.90667
▁ihrer	-8.90742
▁Ende	-8.90747
▁kids	-8.90821
▁thinking	-8.90836
▁com	-8.90878
▁Spiel	-8.90908
▁bedeutet	-8.90961
▁mind	-8.90972
▁bring	-8.91197
▁Computer	-8.91247
▁money	-8.91322
ga	-8.91387
▁everything	-8.9139
▁darauf	-8.91751
▁Lebens	-8.91763
▁means	-8.91843
ator	-8.91974
▁ca	-8.9202
ür	-8.92341
▁She	-8.92499
ide	-8.92506
▁One	-8.92577
▁eigentlich	-8.92615
▁process	-8.93051
▁As	-8.93315
▁1	-8.93389
▁nehmen	-8.93421
ang	-8.93514
▁Auto	-8.93641
▁...	-8.93714
▁left	-8.93783
▁Du	-8.93784
tic	-8.9407
▁half	-8.94302
▁Wo	-8.94603
▁social	-8.94667
the	-8.94711
▁Dank	-8.94726
bi	-8.9486
▁food	-8.94892
pf	-8.9495
ile	-8.95232
▁enough	-8.95263
ard	-8.95366
▁These	-8.95626
▁quite	-8.9564
pro	-8.95716
▁Mit	-8.95769
▁such	-8.9583
▁Körper	-8.95856
▁weniger	-8.95864
▁getting	-8.95946
ph	-8.96057
▁Dann	-8.96071
ex	-8.96105
stand	-8.96202
los	-8.96204
zi	-8.96205
▁case	-8.96232
▁kleine	-8.96239
,000	-8.96323
▁head	-8.96533
▁doch	-8.96541
▁ma	-8.96571
▁interesting	-8.96627
▁side	-8.96997
▁Mann	-8.97045
▁Dollar	-8.97076
▁sicher	-8.97372
▁kleinen	-8.97593
▁York	-8.97746
ap	-8.97883
▁future	-8.97975
io	-8.97975
ca	-8.98006
▁Fall	-8.98317
▁global	-8.9879
.000	-8.988
▁Technologie	-8.98842
▁probably	-8.99129
▁J	-8.99164
mit	-8.99516
▁energy	-8.99517
hol	-8.99562
log	-8.99732
▁Sp	-8.99762
ted	-8.99771
▁answer	-8.99834
▁4	-8.99917
▁happened	-8.9999
▁Denn	-9.0017
cken	-9.00261
▁sei	-9.00661
▁Sache	-9.00756
ting	-9.00797
hi	-9.01157
ka	-9.01161
▁gute	-9.01358
ud	-9.01407
▁dachte	-9.0142
▁ask	-9.01435
▁line	-9.01496
▁planet	-9.01513
▁Energie	-9.01651
len	-9.01931
▁se	-9.01973
▁move	-9.02079
less	-9.02266
▁less	-9.0232
▁making	-9.02445
lichen	-9.0248
▁simple	-9.02593
leg	-9.0264
▁stuff	-9.02682
▁2	-9.02844
▁talking	-9.02874
▁Menge	-9.02932
▁room	-9.03144
▁Li	-9.03165
tu	-9.03189
▁5	-9.03297
▁care	-9.03368
▁Okay	-9.03403
ib	-9.03472
▁Ne	-9.03495
▁V	-9.03554
äh	-9.03578
▁ihm	-9.0364
ium	-9.03689
▁test	-9.03889
da	-9.0392
▁jemand	-9.03938
▁unseren	-9.03974
▁body	-9.04053
▁brauchen	-9.04138
▁comes	-9.04261
bau	-9.04262
ative	-9.04392
▁Person	-9.04468
▁pass	-9.04503
▁build	-9.04568
▁gesehen	-9.04573
ende	-9.04753
▁reason	-9.04799
▁bringen	-9.04917
▁Weise	-9.04963
▁Ihr	-9.04984
▁gegen	-9.05057
▁seit	-9.0512
fall	-9.05269
▁je	-9.05522
sche	-9.05766
ally	-9.05784
▁Here	-9.0583
▁without	-9.05867
▁told	-9.059
▁normal	-9.05928
ary	-9.06144
▁Nach	-9.06383
▁br	-9.06506
▁schnell	-9.06517
▁recht	-9.06536
▁pretty	-9.0668
▁18	-9.06682
▁Seite	-9.06783
00	-9.06961
▁model	-9.07051
▁Über	-9.07094
▁countries	-9.07101
ty	-9.07107
▁dollars	-9.07272
▁land	-9.07355
▁far	-9.07375
▁happen	-9.07386
▁funktioniert	-9.07434
▁Fa	-9.07547
▁Stadt	-9.07611
▁Moment	-9.07666
▁40	-9.07743
▁möglich	-9.07842
▁Kind	-9.07858
▁bad	-9.07879
iz	-9.07883
▁coming	-9.07956
▁business	-9.08024
ite	-9.08026
▁richtig	-9.08056
▁keep	-9.08109
▁Sa	-9.08134
▁anything	-9.08193
▁Na	-9.08331
▁Or	-9.08397
▁lives	-9.08652
▁job	-9.08703
aus	-9.08732
▁großen	-9.08796
▁sh	-9.09073
ful	-9.09144
▁jeden	-9.0917
if	-9.09198
▁science	-9.09386
▁lang	-9.09406
▁gr	-9.09427
▁Frau	-9.09545
▁Kon	-9.09879
ah	-9.09969
▁Ta	-9.09978
old	-9.10008
▁control	-9.10136
ba	-9.10219
▁men	-9.10225
▁z	-9.10237
▁wahr	-9.10257
▁Am	-9.10269
▁across	-9.1042
▁hätte	-9.10551
son	-9.10586
chte	-9.10653
▁face	-9.10724
▁Licht	-9.10809
▁ange	-9.11009
ß	-9.11173
▁entwickelt	-9.11205
▁Hand	-9.11461
▁piece	-9.11465
▁billion	-9.11483
▁set	-9.11614
Ich	-9.11796
one	-9.11803
lin	-9.11869
▁Africa	-9.1187
▁lange	-9.11922
▁Natur	-9.12003
ni	-9.12089
▁Let	-9.12277
▁kurz	-9.12524
ak	-9.12526
▁matter	-9.12611
▁hoch	-9.12624
▁Ko	-9.12661
▁Ort	-9.12665
▁OK	-9.12828
▁Zukunft	-9.13144
▁später	-9.13405
ight	-9.13434
que	-9.13581
▁gesagt	-9.13588
▁Danke	-9.13709
▁else	-9.13779
▁versuchen	-9.13969
▁ganzen	-9.14007
▁young	-9.14092
▁government	-9.14138
▁saw	-9.14138
▁learn	-9.14204
▁turn	-9.14262
▁living	-9.14306
nehmen	-9.14394
▁fünf	-9.14576
▁later	-9.14618
mon	-9.14979
sa	-9.15108
▁picture	-9.15452
▁braucht	-9.15484
▁asked	-9.15604
▁state	-9.15624
▁hope	-9.16113
▁glauben	-9.1625
ell	-9.16253
▁computer	-9.16304
tz	-9.16317
▁health	-9.16417
▁goes	-9.16438
kommen	-9.16504
les	-9.16525
legen	-9.16572
▁keinen	-9.16616
▁Bi	-9.17025
än	-9.17097
▁having	-9.17323
do	-9.17433
▁erst	-9.17447
▁market	-9.17714
hal	-9.17746
▁Vielen	-9.17864
▁stop	-9.17881
▁times	-9.18128
igkeit	-9.18942
▁stellen	-9.19023
▁mo	-9.1925
▁Männer	-9.19291
▁six	-9.19302
▁happens	-9.19482
▁beim	-9.19504
▁Antwort	-9.19575
▁sub	-9.19639
▁zeigt	-9.19734
ize	-9.19791
▁heißt	-9.19853
▁family	-9.1986
▁konnten	-9.20006
▁lernen	-9.20051
gang	-9.20201
all	-9.20208
▁close	-9.2025
▁eigenen	-9.20451
nom	-9.20453
par	-9.20558
▁weit	-9.20665
▁Erde	-9.20794
▁stand	-9.21061
▁Po	-9.21194
▁level	-9.21235
▁both	-9.21289
▁seen	-9.21337
▁Gr	-9.21365
▁Probleme	-9.21395
▁single	-9.21439
▁research	-9.21686
▁fest	-9.21744
fen	-9.21846
▁book	-9.21848
and	-9.22003
▁wahrscheinlich	-9.22014
▁remember	-9.22074
auf	-9.22116
▁schaffen	-9.2215
▁Earth	-9.22172
▁12	-9.2248
ich	-9.22547
▁art	-9.22587
▁gar	-9.22833
▁city	-9.22957
▁Bei	-9.2307
▁Afrika	-9.2315
▁Mutter	-9.23364
ität	-9.23376
spiel	-9.23542
▁language	-9.23545
ue	-9.2366
arbeit	-9.23687
▁bo	-9.2381
▁vielen	-9.23816
▁Jetzt	-9.23845
".	-9.23879
▁figure	-9.23882
▁guy	-9.2396
▁inside	-9.24021
▁Warum	-9.24024
dy	-9.2403
▁name	-9.2404
▁read	-9.24059
ized	-9.24123
▁jedes	-9.24144
oo	-9.24226
▁says	-9.2424
▁basically	-9.24243
▁nutzen	-9.24438
▁schwer	-9.24452
oc	-9.24549
The	-9.24609
▁Schw	-9.24709
eln	-9.24754
▁Entwicklung	-9.24835
▁under	-9.25038
▁almost	-9.25138
tern	-9.25167
tag	-9.25224
▁possible	-9.25238
▁Film	-9.25242
▁Buch	-9.25244
gehen	-9.25272
▁arm	-9.25274
▁los	-9.25316
▁fl	-9.25352
▁public	-9.25439
▁run	-9.25581
▁sure	-9.25688
▁imagine	-9.25742
▁li	-9.25742
▁yet	-9.25852
▁American	-9.25971
▁Wa	-9.26012
▁machine	-9.2605
▁video	-9.26146
nde	-9.26352
ice	-9.26412
ism	-9.26438
▁saying	-9.26455
▁Wissen	-9.26461
▁ausge	-9.26617
▁music	-9.2665
▁problems	-9.26722
▁Oh	-9.26828
iger	-9.26829
▁Gefühl	-9.26858
▁while	-9.26876
voll	-9.26948
▁Gesellschaft	-9.2696
▁sah	-9.27049
▁Musik	-9.27165
▁Fl	-9.27186
▁once	-9.27234
▁whether	-9.27267
▁USA	-9.27288
lang	-9.2745
gt	-9.27609
reich	-9.27876
ock	-9.27909
tik	-9.28033
▁helfen	-9.28092
sse	-9.28187
▁makes	-9.28281
vo	-9.28331
▁nothing	-9.2851
▁Form	-9.28558
schaft	-9.2857
▁already	-9.28609
▁neu	-9.28689
▁ba	-9.28919
ish	-9.29276
▁Projekt	-9.29327
art	-9.29334
▁wrong	-9.29339
ierte	-9.29421
gu	-9.29465
schen	-9.29548
nce	-9.29549
▁days	-9.29622
▁order	-9.29665
▁genug	-9.2976
▁self	-9.2977
▁disease	-9.29864
▁dich	-9.29888
wi	-9.29899
ble	-9.29947
▁gleich	-9.29977
▁someone	-9.30049
▁top	-9.30264
ja	-9.30478
▁herum	-9.30702
▁seiner	-9.30802
▁looked	-9.30893
▁Dr	-9.31005
▁DNA	-9.31028
▁universe	-9.31028
▁klar	-9.31078
▁erzählen	-9.31094
▁jede	-9.3115
▁Video	-9.31236
▁community	-9.31347
▁couple	-9.31348
▁Herz	-9.3139
af	-9.31398
app	-9.31419
sam	-9.31567
▁Why	-9.31831
▁product	-9.31947
▁history	-9.31991
▁Te	-9.32036
▁ho	-9.32073
▁Not	-9.32076
▁begann	-9.32179
▁unserem	-9.32215
▁large	-9.32222
▁Design	-9.32256
▁myself	-9.32313
pri	-9.32316
▁true	-9.32375
▁nächsten	-9.32494
ities	-9.32562
▁beautiful	-9.32637
▁experiment	-9.32637
keit	-9.32696
▁nichts	-9.32761
▁within	-9.32796
port	-9.3289
▁child	-9.32936
▁kennen	-9.33038
▁heart	-9.33086
▁anders	-9.33091
geben	-9.33098
ise	-9.33128
▁education	-9.33179
▁weg	-9.33325
ions	-9.33359
▁amazing	-9.33506
▁cost	-9.3358
▁neuen	-9.33591
▁cancer	-9.33629
▁Ga	-9.33716
▁Hi	-9.3372
▁fr	-9.33787
▁Nicht	-9.33883
fass	-9.33919
▁Haus	-9.34224
▁heard	-9.34274
ual	-9.34441
▁Punkt	-9.34484
▁ungefähr	-9.34714
ain	-9.34765
▁cells	-9.35264
▁United	-9.35384
▁difference	-9.3549
▁bauen	-9.35616
▁Kunst	-9.3583
▁At	-9.36038
▁air	-9.36053
▁w	-9.36074
▁rest	-9.36095
▁Augen	-9.36169
▁gehört	-9.36374
▁age	-9.36376
ace	-9.36436
use	-9.36464
vor	-9.365
▁80	-9.36507
xi	-9.36627
▁Y	-9.36999
▁group	-9.37007
▁built	-9.3706
▁ideas	-9.37204
▁fa	-9.37329
ding	-9.37334
▁bevor	-9.37337
▁night	-9.3741
▁CA	-9.37489
▁ways	-9.37589
▁words	-9.376
▁verändern	-9.37741
▁liegt	-9.37746
ät	-9.37832
▁bisschen	-9.38007
▁Planeten	-9.38026
▁Ziel	-9.38085
▁Wort	-9.38136
ake	-9.3815
▁Mar	-9.38417
ical	-9.38584
▁lead	-9.38615
▁fish	-9.38693
way	-9.38762
▁Bilder	-9.38776
▁Ca	-9.38836
▁months	-9.38849
▁mother	-9.38896
▁program	-9.38998
▁environment	-9.39015
▁letzte	-9.39307
▁must	-9.3933
▁Selbst	-9.39347
ial	-9.39379
▁Schule	-9.39433
▁plan	-9.39515
▁Ideen	-9.39663
▁60	-9.39708
▁red	-9.39938
ran	-9.39964
red	-9.40166
▁pay	-9.40185
▁Für	-9.40441
▁überall	-9.40656
▁25	-9.40674
▁Informationen	-9.40776
V	-9.4083
▁front	-9.40841
lock	-9.40972
▁app	-9.41194
▁Chris	-9.41216
▁Lo	-9.413
▁Meine	-9.41342
▁Kopf	-9.41351
ind	-9.41392
wer	-9.41407
isten	-9.4145
ek	-9.41452
gi	-9.41474
tin	-9.41613
▁falsch	-9.4169
▁allow	-9.41843
ward	-9.41898
▁verschiedene	-9.41901
mat	-9.41908
▁deal	-9.42023
▁cool	-9.42039
▁modern	-9.42046
▁Sprache	-9.42054
▁gene	-9.42054
▁stehen	-9.42107
▁Leuten	-9.4215
▁Vi	-9.42237
▁eigene	-9.42268
▁species	-9.42285
▁force	-9.42371
▁value	-9.4264
ale	-9.42852
setzen	-9.42915
▁free	-9.42919
▁grow	-9.4293
▁Unternehmen	-9.43009
mmer	-9.4307
▁everybody	-9.43119
▁until	-9.43123
▁often	-9.43184
▁menschliche	-9.43345
▁Gesundheit	-9.43353
▁view	-9.43403
▁hinter	-9.43557
▁Ni	-9.43693
▁past	-9.43745
ismus	-9.4378
ett	-9.43823
▁Wissenschaft	-9.43945
▁darum	-9.44016
▁Weil	-9.44166
ging	-9.44257
▁word	-9.44263
▁decided	-9.44445
▁nennen	-9.44473
recht	-9.44484
▁musste	-9.44517
▁schwierig	-9.44571
du	-9.44598
▁200	-9.44665
▁verändert	-9.44693
▁Krieg	-9.44696
▁Milliarden	-9.44735
▁completely	-9.44742
net	-9.44831
tel	-9.44889
▁qu	-9.44924
▁na	-9.44948
ierung	-9.45052
▁behavior	-9.4506
tru	-9.45214
ose	-9.45398
enden	-9.45425
▁Mädchen	-9.45551
▁einzige	-9.45564
▁Ent	-9.45576
line	-9.4566
▁house	-9.4575
▁Je	-9.45928
▁looks	-9.45954
▁Gebäude	-9.46044
▁mag	-9.46154
▁Fragen	-9.4625
▁share	-9.46336
▁America	-9.46384
lf	-9.46473
▁study	-9.46496
▁India	-9.46516
▁sagten	-9.46529
▁States	-9.46549
▁though	-9.46576
▁nature	-9.46665
▁schön	-9.46691
▁reden	-9.4678
▁hear	-9.46819
▁Freund	-9.46833
▁exactly	-9.46938
▁ihrem	-9.46957
ps	-9.46987
wand	-9.47011
▁star	-9.47012
▁challenge	-9.47039
▁stories	-9.47039
by	-9.47069
▁became	-9.47164
▁natural	-9.47289
▁personal	-9.47443
▁friends	-9.4745
▁Unterschied	-9.4754
ors	-9.47547
▁Arm	-9.47571
▁euch	-9.47593
▁Jahrhundert	-9.47668
▁Mi	-9.47791
▁Universum	-9.47791
▁game	-9.47804
▁Ki	-9.47903
▁taking	-9.47927
amp	-9.48035
▁since	-9.48043
▁happening	-9.4823
▁leave	-9.48296
ther	-9.48365
▁Foto	-9.48562
▁fe	-9.48633
▁huge	-9.48677
ku	-9.48746
▁Unter	-9.4886
▁knew	-9.48931
▁fragen	-9.48937
▁Gott	-9.4894
▁alt	-9.48985
led	-9.49016
▁bereits	-9.49033
▁itself	-9.49058
▁weitere	-9.49069
ations	-9.49183
icht	-9.49272
▁students	-9.49489
▁Si	-9.49501
▁economic	-9.49569
▁ocean	-9.49569
▁erkennen	-9.49569
▁erreichen	-9.49699
mittel	-9.4979
▁places	-9.49829
▁Geschichten	-9.49879
▁somebody	-9.49954
▁Minuten	-9.49985
▁animals	-9.50124
▁inter	-9.50159
▁seinen	-9.50336
▁ourselves	-9.50341
▁woman	-9.50449
▁besonders	-9.5047
▁steht	-9.50471
▁Regierung	-9.50536
king	-9.50564
▁Familie	-9.50681
cher	-9.50712
▁nächste	-9.5077
▁Su	-9.50812
▁learned	-9.50842
▁sechs	-9.50861
▁spielen	-9.50873
▁society	-9.50988
▁namens	-9.51016
rin	-9.51051
pt	-9.51062
▁War	-9.51067
▁stark	-9.51085
▁th	-9.51197
▁Google	-9.51379
▁benutzen	-9.516
▁Fisch	-9.51631
▁works	-9.51642
▁unglaublich	-9.51665
▁sound	-9.5207
▁soll	-9.52142
▁Wirtschaft	-9.52155
▁Mein	-9.52161
▁dir	-9.52164
▁cell	-9.52504
bt	-9.52528
▁company	-9.5256
▁gerne	-9.5257
dung	-9.52599
▁minutes	-9.52686
▁abge	-9.52783
▁themselves	-9.52824
rag	-9.52829
org	-9.52853
▁hätten	-9.5289
▁culture	-9.52913
▁halten	-9.52931
▁allen	-9.53116
des	-9.53221
▁along	-9.53357
▁God	-9.53379
▁Arten	-9.53588
cent	-9.53618
▁Ex	-9.53692
▁darin	-9.537
▁Oder	-9.53718
mut	-9.53811
▁Indien	-9.53893
▁against	-9.53937
▁send	-9.54027
▁Schul	-9.54052
▁rather	-9.54166
▁step	-9.54453
▁Vater	-9.54456
▁won	-9.54481
",	-9.54611
▁hören	-9.5463
hl	-9.54712
▁6	-9.54712
▁Gruppe	-9.54766
▁Macht	-9.54778
▁anzu	-9.54932
▁Kl	-9.55071
▁aller	-9.55075
▁machte	-9.55132
▁oben	-9.55313
▁hi	-9.55316
row	-9.55325
▁versucht	-9.55381
schw	-9.55394
▁created	-9.55437
con	-9.55458
▁hours	-9.55493
com	-9.55635
side	-9.55711
ons	-9.55772
rück	-9.55799
▁Glück	-9.55916
▁exist	-9.55993
▁Lage	-9.56051
▁least	-9.56053
punkt	-9.56299
for	-9.56418
▁versch	-9.56465
▁7	-9.56545
haft	-9.56562
▁Dieses	-9.56569
▁Stück	-9.56601
▁digital	-9.56602
isiert	-9.56691
▁third	-9.56739
▁Doch	-9.56991
▁risk	-9.57015
kal	-9.57034
▁ha	-9.5712
▁turns	-9.57242
▁Angst	-9.57571
▁particular	-9.57577
▁type	-9.57593
▁On	-9.57661
▁jedem	-9.57716
▁Her	-9.57723
chten	-9.57751
tung	-9.57782
▁solche	-9.57808
▁sometimes	-9.57847
▁population	-9.57847
▁walk	-9.57852
▁difficult	-9.57985
▁Vielleicht	-9.58125
▁paper	-9.58265
▁Eltern	-9.58272
▁robot	-9.58334
▁Verhalten	-9.58346
hin	-9.58598
▁worked	-9.58617
▁Roboter	-9.58685
▁tief	-9.58714
▁film	-9.58789
▁Patienten	-9.58815
▁entwickeln	-9.58825
▁structure	-9.59106
▁win	-9.59107
▁seven	-9.59108
▁buy	-9.59251
▁hold	-9.59415
▁phone	-9.59417
▁bewegen	-9.59535
▁Luft	-9.59546
▁vorstellen	-9.59592
lic	-9.59609
▁Sta	-9.59669
▁sea	-9.59677
▁gesamte	-9.59679
▁Modell	-9.59704
▁write	-9.59817
▁questions	-9.5984
▁cause	-9.59857
▁gave	-9.59958
▁early	-9.60035
rum	-9.60074
▁speak	-9.6009
▁Bewegung	-9.60098
wir	-9.60164
▁Bu	-9.6018
▁happy	-9.6024
▁Ju	-9.60332
▁Möglichkeit	-9.60414
bei	-9.60546
▁8	-9.60574
nden	-9.60578
▁Jo	-9.60581
unk	-9.60659
▁anderes	-9.60676
▁thousands	-9.60772
▁11	-9.60799
▁Kultur	-9.60812
▁Ze	-9.60825
▁guys	-9.60944
▁amount	-9.60956
stoff	-9.61199
elle	-9.61289
!"	-9.6145
▁Hause	-9.61529
▁instead	-9.61533
▁everyone	-9.61584
▁Freunde	-9.61626
▁outside	-9.61647
ack	-9.61657
▁Lass	-9.61663
▁law	-9.61668
▁Krebs	-9.61676
bild	-9.61702
▁image	-9.61714
▁poor	-9.61797
▁Prozess	-9.61821
▁color	-9.61823
▁frei	-9.61949
▁team	-9.6195
▁map	-9.61963
▁Verbindung	-9.61966
▁present	-9.61967
▁field	-9.61968
ign	-9.6198
▁bereit	-9.61989
rei	-9.62012
unt	-9.62063
▁irgendwie	-9.62112
▁Stunden	-9.62244
ping	-9.62256
▁erhalten	-9.62294
▁solution	-9.62313
▁niemand	-9.6255
▁couldn	-9.62565
▁oil	-9.62623
▁Fi	-9.62626
▁entire	-9.62711
sel	-9.62717
▁short	-9.62853
▁Tier	-9.62967
▁führen	-9.62979
▁network	-9.62986
lung	-9.63062
rate	-9.63175
▁wer	-9.63205
▁90	-9.63224
press	-9.63237
▁bekannt	-9.6328
▁Tiere	-9.63313
▁protect	-9.63427
▁begin	-9.63552
▁manchmal	-9.63574
▁local	-9.63733
ob	-9.63821
▁gu	-9.63969
sum	-9.63994
▁Geschäft	-9.64017
▁ändern	-9.64017
▁bitte	-9.64026
▁friend	-9.64033
ible	-9.64053
▁pick	-9.64102
▁verschiedenen	-9.64137
weg	-9.64332
stitution	-9.64341
▁wohl	-9.64409
▁beiden	-9.64432
▁relationship	-9.64464
U	-9.64505
▁kinds	-9.64516
▁Pe	-9.64526
▁common	-9.64635
▁Some	-9.64712
▁act	-9.6474
▁scale	-9.64854
▁Go	-9.64895
▁groß	-9.649
▁Bereich	-9.64981
▁Lehrer	-9.65044
▁Cha	-9.65213
▁Vorstellung	-9.65226
▁Fr	-9.65339
▁record	-9.65359
▁black	-9.65379
▁full	-9.65396
Oh	-9.65451
▁liebe	-9.65508
▁sc	-9.65757
▁deep	-9.65872
▁learning	-9.65999
▁Of	-9.66038
▁16	-9.66068
ei	-9.66077
▁nämlich	-9.66111
val	-9.6613
▁einigen	-9.66182
ust	-9.66189
▁expect	-9.66263
▁wollten	-9.66267
igung	-9.66417
ries	-9.66492
▁week	-9.6656
▁choice	-9.66566
fach	-9.66633
▁death	-9.66718
▁leicht	-9.66722
▁area	-9.66771
ration	-9.66848
▁super	-9.66871
▁watch	-9.66882
▁vorher	-9.66965
▁14	-9.67054
▁fragte	-9.67137
▁Lei	-9.6715
▁Gut	-9.67182
▁Gesicht	-9.672
▁Then	-9.67224
▁changed	-9.67233
▁Ku	-9.67333
▁spend	-9.67418
▁offen	-9.67528
▁century	-9.67614
▁sage	-9.67621
▁began	-9.67645
▁cr	-9.67776
▁glücklich	-9.67778
hm	-9.67869
▁online	-9.67897
▁international	-9.67942
▁middle	-9.67942
▁o	-9.68213
▁reich	-9.68251
▁interessant	-9.68286
werk	-9.68333
▁verwenden	-9.68406
▁beginning	-9.68407
pen	-9.6854
▁pattern	-9.6856
▁shape	-9.68563
▁wonderful	-9.6857
▁taken	-9.6857
treten	-9.68737
▁train	-9.68768
▁eher	-9.68794
▁Sachen	-9.68821
▁absolut	-9.68869
▁schw	-9.68943
schau	-9.69001
einander	-9.69029
ious	-9.69076
nis	-9.69138
hu	-9.69158
▁HIV	-9.69182
kraft	-9.69184
▁fand	-9.69211
▁Recht	-9.69243
▁schlecht	-9.69249
▁unterschiedlich	-9.69339
ization	-9.69453
qui	-9.69468
▁perhaps	-9.69494
▁moving	-9.69494
eb	-9.69586
▁effect	-9.69615
▁innerhalb	-9.6965
▁easy	-9.6965
▁Wer	-9.6967
ort	-9.69704
ühl	-9.69725
▁invest	-9.69741
pass	-9.69882
▁besten	-9.6993
▁yourself	-9.69964
▁direkt	-9.69965
▁John	-9.69975
▁certain	-9.69991
▁beginnen	-9.69993
▁eight	-9.70006
▁behind	-9.70055
▁systems	-9.70071
sehen	-9.70208
ki	-9.70264
▁support	-9.70279
ht	-9.70398
▁gemeinsam	-9.70439
▁stellt	-9.70591
▁non	-9.70685
▁9	-9.70742
rung	-9.70772
▁Rück	-9.71071
▁menschlichen	-9.71089
▁turned	-9.71206
▁Aufgabe	-9.71246
▁feeling	-9.7125
▁Länder	-9.71288
▁bio	-9.71345
▁nu	-9.71375
▁überhaupt	-9.71388
▁eyes	-9.71517
▁drive	-9.71566
▁media	-9.71735
▁size	-9.71835
▁explain	-9.71867
▁Forschung	-9.71868
bare	-9.71874
▁Sinn	-9.72001
out	-9.72052
▁street	-9.72189
▁cities	-9.72241
▁Neu	-9.72362
▁given	-9.72369
▁getan	-9.72371
▁Gleich	-9.7251
raum	-9.72559
▁add	-9.72575
▁Mensch	-9.72659
▁Umwelt	-9.72679
▁terms	-9.72747
lan	-9.72787
lichkeit	-9.72884
atur	-9.73102
plan	-9.73215
We	-9.7326
▁finally	-9.73377
bit	-9.7338
▁kid	-9.73438
▁ähnlich	-9.73472
▁rot	-9.7348
▁schauen	-9.73494
▁blue	-9.73535
▁sign	-9.73558
▁Kindern	-9.73579
▁17	-9.73678
▁Anfang	-9.74135
▁low	-9.74267
▁fun	-9.74296
ank	-9.74297
▁ta	-9.74316
▁cut	-9.74347
▁surface	-9.74463
▁physical	-9.74464
▁zwar	-9.74472
▁met	-9.74486
▁photograph	-9.74628
▁Just	-9.74629
▁powerful	-9.74656
▁Liebe	-9.748
▁Bildung	-9.74819
▁cannot	-9.74966
▁news	-9.74993
▁tut	-9.75081
year	-9.75089
▁wegen	-9.75183
▁Programm	-9.75243
▁father	-9.75475
▁Erfahrung	-9.7548
ker	-9.75502
▁Can	-9.75515
ruf	-9.75646
▁gleichen	-9.75676
ome	-9.7577
▁fundamental	-9.75786
▁eat	-9.75867
gesetzt	-9.75923
▁weltweit	-9.75953
▁doctor	-9.75953
▁follow	-9.75994
hy	-9.76002
lau	-9.76054
zahl	-9.76243
▁Schritt	-9.76287
▁key	-9.76298
▁Stellen	-9.76379
Well	-9.7641
▁reach	-9.76451
▁Wochen	-9.76503
▁treffen	-9.76601
▁World	-9.76622
▁Herausforderung	-9.7679
frage	-9.76791
▁Tu	-9.7684
▁simply	-9.76959
▁measure	-9.76959
hand	-9.76982
▁kill	-9.77045
▁Essen	-9.77095
▁companies	-9.77127
kan	-9.77201
mission	-9.77204
ped	-9.77317
▁Eis	-9.77347
▁Bar	-9.77429
fan	-9.77465
▁lebt	-9.77468
▁Mittel	-9.77509
▁hands	-9.77515
iß	-9.77585
wert	-9.77612
▁seeing	-9.77619
▁positive	-9.77697
sicht	-9.77805
ziehen	-9.77805
▁realized	-9.77805
▁save	-9.7781
▁Wahl	-9.77817
▁San	-9.77889
▁pu	-9.77911
▁center	-9.77987
▁lots	-9.78063
▁wall	-9.78095
▁Gemeinschaft	-9.78145
▁device	-9.78145
▁longer	-9.78199
vis	-9.7824
▁access	-9.78316
▁Hu	-9.78422
▁wusste	-9.78434
▁Sonne	-9.78448
▁political	-9.78487
▁dream	-9.78487
▁special	-9.78489
lon	-9.78492
▁Zum	-9.78645
▁stay	-9.7867
▁Typ	-9.78835
▁dark	-9.7894
ari	-9.78975
▁whatever	-9.79012
▁thank	-9.79181
▁zweite	-9.79414
▁führt	-9.7944
▁allem	-9.79492
kel	-9.79504
han	-9.79638
ship	-9.79646
fahren	-9.79648
▁deine	-9.79825
▁decision	-9.79865
▁represent	-9.80039
▁treat	-9.80057
▁needed	-9.80206
▁Experiment	-9.80212
▁Technik	-9.80212
▁produce	-9.80225
▁tried	-9.80235
▁bed	-9.80241
▁mussten	-9.80298
ktion	-9.80317
▁post	-9.80342
▁People	-9.80561
▁voice	-9.80561
stellen	-9.80613
ierten	-9.80678
▁hit	-9.80703
▁allein	-9.80832
akt	-9.80881
▁Versuch	-9.80925
▁Wissenschaftler	-9.8094
▁boy	-9.81038
za	-9.81052
▁jene	-9.81232
▁movement	-9.8125
▁Publikum	-9.81262
▁interested	-9.81282
▁rate	-9.81382
▁parents	-9.81392
day	-9.81423
▁Con	-9.8149
You	-9.81492
uh	-9.81529
▁völlig	-9.81615
▁break	-9.8162
▁70	-9.81626
▁fühlen	-9.81634
▁Sicherheit	-9.81791
▁felt	-9.81831
▁reality	-9.8191
arch	-9.81925
▁Ar	-9.81934
iff	-9.82031
▁result	-9.82038
▁trans	-9.82052
▁Nacht	-9.82145
▁hoffe	-9.82155
▁Bau	-9.82215
▁benutzt	-9.82323
▁Haupt	-9.82324
▁kamen	-9.82468
▁okay	-9.82501
essen	-9.82657
▁Pri	-9.82768
▁Ke	-9.82772
richten	-9.82845
▁ground	-9.8287
▁21	-9.829
▁quickly	-9.82918
ever	-9.8296
▁Red	-9.82987
▁Grunde	-9.83013
▁Job	-9.83096
▁national	-9.83114
▁individual	-9.83138
▁bekam	-9.8322
führen	-9.8325
▁größer	-9.83295
▁Tages	-9.83313
▁Denken	-9.83368
▁gleiche	-9.83446
▁Hilfe	-9.83576
ana	-9.8359
▁Objekt	-9.83756
▁Struktur	-9.83756
▁strong	-9.83756
▁link	-9.83786
schlossen	-9.83864
qua	-9.83871
▁animal	-9.83882
▁pl	-9.83956
bringen	-9.83959
▁essen	-9.83978
▁Markt	-9.84044
▁unten	-9.84057
▁El	-9.84071
▁gone	-9.8408
▁wasn	-9.84195
▁Op	-9.8422
▁green	-9.84324
during	-9.84422
▁complex	-9.84452
gestellt	-9.84474
▁situation	-9.8448
▁solve	-9.84502
▁growth	-9.84557
▁Situation	-9.84662
▁fear	-9.84741
▁Boden	-9.8479
▁Tage	-9.84837
▁Reihe	-9.84845
▁Baby	-9.84865
▁wonder	-9.85024
▁flo	-9.85027
▁South	-9.85033
▁spent	-9.85049
lassen	-9.85056
▁statt	-9.85079
▁Thema	-9.85109
▁Karte	-9.85185
▁approach	-9.85392
▁Dingen	-9.85419
▁kl	-9.85506
▁Richtung	-9.85576
J	-9.85601
▁Erfolg	-9.85633
▁lässt	-9.85636
▁others	-9.85639
▁Information	-9.85711
▁Pol	-9.85725
tische	-9.85764
ists	-9.85791
ney	-9.85809
▁feet	-9.85837
▁einge	-9.85943
▁jedoch	-9.85944
▁damals	-9.85949
▁message	-9.85956
▁gets	-9.86005
▁ability	-9.86013
stelle	-9.86065
Was	-9.86098
ischer	-9.86111
▁worden	-9.86124
▁organization	-9.86132
▁Nord	-9.86137
üsse	-9.86161
system	-9.86174
▁bar	-9.86195
Ge	-9.86386
▁service	-9.86498
sta	-9.8652
▁obwohl	-9.86521
ments	-9.86556
▁Möglichkeiten	-9.86644
trieb	-9.86656
▁generation	-9.86694
put	-9.86694
▁sitting	-9.86698
our	-9.86719
▁Gedanken	-9.86728
▁Arbeits	-9.86786
▁Viele	-9.86828
▁opportunity	-9.8687
▁Labor	-9.86871
▁soziale	-9.86924
▁tend	-9.86928
▁National	-9.86949
änge	-9.86984
▁Stimme	-9.86996
▁travel	-9.87243
▁Generation	-9.87249
ov	-9.87465
▁schreiben	-9.87505
What	-9.87515
▁nice	-9.87634
▁Zwei	-9.87685
meter	-9.87686
ray	-9.8769
▁either	-9.87804
▁Gerät	-9.87805
▁rein	-9.87938
rge	-9.8798
lass	-9.88036
▁parts	-9.88112
▁brachte	-9.8817
▁rich	-9.88302
▁Alter	-9.88309
▁mass	-9.88332
▁economy	-9.88369
▁consider	-9.8837
hören	-9.88405
▁bringt	-9.8841
ition	-9.88442
▁predict	-9.88558
▁Gebiet	-9.8856
▁fight	-9.88595
Z	-9.88659
▁wären	-9.88691
▁auszu	-9.88756
▁stage	-9.88821
ckt	-9.88824
▁13	-9.88837
▁realize	-9.88839
bie	-9.88888
▁hole	-9.88944
▁general	-9.88957
▁Woche	-9.88989
▁Nein	-9.89031
▁focus	-9.89059
▁größte	-9.89087
▁bleiben	-9.89104
▁region	-9.89135
rry	-9.89321
▁weeks	-9.89384
▁Staaten	-9.89424
▁hundert	-9.89494
▁Lösung	-9.89494
▁Chinese	-9.89509
▁kleiner	-9.89541
▁Car	-9.89632
▁Namen	-9.8995
▁girl	-9.90005
▁lösen	-9.90021
low	-9.90048
▁morning	-9.90083
▁class	-9.90121
ay	-9.9014
▁Right	-9.90145
▁sta	-9.9016
▁Alle	-9.90212
▁dessen	-9.90267
▁incredible	-9.90276
▁provide	-9.90277
▁besteht	-9.90282
ziel	-9.90307
▁bottom	-9.90468
issen	-9.90532
▁Che	-9.9054
▁Monate	-9.90584
▁lost	-9.90597
ability	-9.90638
▁increase	-9.90661
▁dritte	-9.90662
▁funktionieren	-9.90662
programm	-9.90692
▁Team	-9.90736
▁genauso	-9.90765
▁Amerika	-9.90829
▁visual	-9.90855
▁average	-9.90857
blick	-9.90892
pla	-9.91012
ände	-9.91028
▁komplett	-9.91049
▁attention	-9.91049
▁compar	-9.91123
▁takes	-9.91139
och	-9.91201
istic	-9.91209
flu	-9.91231
▁betrachten	-9.91243
▁decade	-9.91244
▁lab	-9.91362
upp	-9.91393
▁audience	-9.91437
schließen	-9.91448
▁West	-9.91484
▁Pi	-9.91503
▁Reise	-9.91547
▁Meinung	-9.91559
▁count	-9.91623
▁blood	-9.91632
▁Rolle	-9.91726
schlagen	-9.91751
▁main	-9.91763
oren	-9.91818
▁function	-9.91828
▁Ozean	-9.91828
▁verwendet	-9.9183
hor	-9.91865
▁Mars	-9.919
▁sollen	-9.91955
▁pull	-9.91966
▁zehn	-9.92023
▁entfernt	-9.92219
▁connect	-9.92388
▁based	-9.92461
weise	-9.92519
▁schrieb	-9.92613
▁Jede	-9.92686
ged	-9.92781
tisch	-9.9283
▁cover	-9.92865
▁bewusst	-9.92977
▁character	-9.93008
▁teilen	-9.93048
▁sit	-9.93089
gar	-9.93146
▁office	-9.93161
▁needs	-9.93182
▁Wal	-9.93391
▁Kraft	-9.93413
▁suchen	-9.93435
kauf	-9.93528
▁Lu	-9.93596
▁London	-9.93603
▁persönlich	-9.93603
greifen	-9.93608
▁zuvor	-9.93624
▁Muster	-9.93629
▁patients	-9.9363
ough	-9.9372
▁stellte	-9.93793
▁Bürger	-9.93802
▁Größe	-9.93802
▁impact	-9.93802
▁material	-9.93872
▁box	-9.93968
▁fall	-9.94075
▁fire	-9.94089
50	-9.94094
▁Ländern	-9.94127
▁Zellen	-9.94352
▁innovation	-9.94402
▁langsam	-9.94425
▁beide	-9.94445
▁areas	-9.94571
▁brought	-9.94603
▁Wert	-9.94669
▁sing	-9.94671
▁clear	-9.94675
▁sprach	-9.94827
▁gefunden	-9.95006
▁forward	-9.9501
setzt	-9.95114
▁Preis	-9.95123
▁Gene	-9.95181
▁sex	-9.95202
▁Tatsache	-9.95208
▁wunderbar	-9.9521
▁Groß	-9.95237
▁Fähigkeit	-9.9525
▁Gründe	-9.95258
▁Fo	-9.95269
▁Mu	-9.95351
satz	-9.95386
▁Umgebung	-9.95413
▁object	-9.95482
▁el	-9.95487
▁prop	-9.95532
▁Durch	-9.9561
top	-9.95633
▁chance	-9.95818
▁born	-9.95823
▁hohe	-9.95869
▁continue	-9.95927
▁seem	-9.95934
▁fly	-9.95935
isieren	-9.95954
▁verbunden	-9.9602
▁hab	-9.96074
wal	-9.96143
ließ	-9.96199
▁Wi	-9.96224
▁erreicht	-9.96234
tech	-9.96238
kle	-9.96239
▁artist	-9.96348
deck	-9.9635
▁issue	-9.9636
▁developed	-9.96453
▁books	-9.96524
▁Tat	-9.96529
heim	-9.96602
▁genannt	-9.96633
▁sterben	-9.96635
▁Netzwerk	-9.96638
▁white	-9.96744
Das	-9.96789
▁action	-9.9681
▁kaufen	-9.9685
grad	-9.96858
lose	-9.96973
▁größten	-9.97019
▁Our	-9.97092
▁Unsere	-9.97133
zeichnet	-9.97251
▁Every	-9.97252
▁camera	-9.97325
stehen	-9.97372
▁English	-9.97457
▁Heute	-9.97473
▁Per	-9.9752
In	-9.97543
▁shows	-9.97574
▁knowledge	-9.97664
▁scheint	-9.97669
▁Zahl	-9.97732
▁Gen	-9.97755
▁growing	-9.97756
time	-9.97807
▁500	-9.97849
▁sieben	-9.97863
▁Wahrheit	-9.97872
ular	-9.98023
rich	-9.98038
jährige	-9.9808
▁wrote	-9.9808
druck	-9.98223
▁evolution	-9.98276
▁climate	-9.98288
▁running	-9.98293
▁lesen	-9.98317
▁late	-9.98331
▁aufge	-9.98369
ieg	-9.9838
▁kn	-9.98398
▁erstaunlich	-9.98497
▁literally	-9.98497
ssystem	-9.98498
▁miles	-9.98499
▁smart	-9.98499
▁giving	-9.9851
▁Yeah	-9.98517
ology	-9.98574
gram	-9.98604
▁draußen	-9.98706
▁potential	-9.98706
▁technologies	-9.9872
uer	-9.98726
▁Innovation	-9.98916
▁revolution	-9.98916
▁sun	-9.98942
cker	-9.99093
▁Gi	-9.99099
▁voll	-9.99142
▁gebaut	-9.99177
▁See	-9.9918
genommen	-9.99333
▁emotional	-9.99388
▁nahm	-9.99436
▁CO	-9.99472
band	-9.99492
▁Revolution	-9.99547
▁Organisation	-9.99547
▁entdeckt	-9.99548
▁tat	-9.99592
tzt	-9.99651
ellen	-9.99658
▁schaut	-9.9967
▁spread	-9.99759
▁development	-9.99798
▁hervor	-9.99838
▁theory	-9.99909
▁Hände	-9.99957
▁erinnern	-9.99971
▁gelernt	-9.99971
▁understanding	-9.99989
▁source	-10.0011
krieg	-10.0018
griff	-10.0021
▁manage	-10.0028
▁Vo	-10.0037
▁photo	-10.0039
▁movie	-10.0061
▁Sehen	-10.0063
▁Natürlich	-10.0082
▁similar	-10.0082
schl	-10.0084
▁seems	-10.009
▁schließlich	-10.0104
▁gewisse	-10.0104
▁anderer	-10.0108
tum	-10.0113
▁Fe	-10.0116
▁spielt	-10.0119
▁Ihren	-10.0123
▁acht	-10.0124
▁Medien	-10.0125
pol	-10.0127
war	-10.0128
▁24	-10.0129
▁humans	-10.0131
▁anyone	-10.0132
▁Bio	-10.0136
▁aufzu	-10.0136
▁numbers	-10.0143
▁Jeder	-10.0143
cal	-10.0149
▁gewesen	-10.0151
▁Super	-10.0155
▁scientists	-10.0166
▁Oberfläche	-10.0168
▁worth	-10.0169
▁erschaffen	-10.0173
▁hinein	-10.0185
▁sehe	-10.0187
▁Ganz	-10.0192
▁Test	-10.0193
▁gas	-10.0197
▁known	-10.0207
▁serious	-10.0211
▁eye	-10.0217
▁einfache	-10.0226
▁verb	-10.0231
pel	-10.0234
▁path	-10.0234
rus	-10.0245
▁Wind	-10.0249
ook	-10.0251
▁plötzlich	-10.0255
▁suggest	-10.0255
▁North	-10.0255
brechen	-10.0257
▁passieren	-10.0266
zug	-10.0269
▁Bevölkerung	-10.0277
▁tools	-10.0278
▁alone	-10.0279
▁starting	-10.0279
elt	-10.0279
▁moral	-10.0285
▁Meter	-10.0285
▁transform	-10.0291
▁erklären	-10.0298
▁Blut	-10.0299
▁limit	-10.0301
▁halb	-10.0307
ina	-10.0309
▁hundreds	-10.0314
▁Autos	-10.032
▁gegenüber	-10.0321
▁City	-10.0323
▁wa	-10.0336
▁private	-10.0342
▁guess	-10.0343
▁länger	-10.0343
uell	-10.0345
isierung	-10.0345
uelle	-10.0346
▁fo	-10.035
▁fanden	-10.0352
je	-10.0352
▁text	-10.0364
▁Familien	-10.0366
▁junge	-10.0372
ologie	-10.0374
ball	-10.0385
▁Bedeutung	-10.0386
▁bessere	-10.039
light	-10.0394
chi	-10.0405
▁wouldn	-10.0408
▁Bücher	-10.0408
▁bewegt	-10.041
▁site	-10.0411
▁zer	-10.0414
▁Spa	-10.0416
gleich	-10.0426
uß	-10.043
▁Studenten	-10.043
▁jemals	-10.0431
▁Hund	-10.0432
▁Einige	-10.0436
▁mine	-10.044
stellung	-10.0446
▁Afghanistan	-10.0453
▁daraus	-10.0454
▁Pu	-10.0459
▁telling	-10.0463
▁Europe	-10.0468
wie	-10.0474
▁geworden	-10.0475
▁village	-10.0475
▁blind	-10.0475
▁total	-10.0479
▁block	-10.0479
▁Ob	-10.0487
▁mache	-10.0493
▁fi	-10.0493
bot	-10.0495
▁micro	-10.0497
kehr	-10.0498
▁hinaus	-10.0503
▁300	-10.0511
off	-10.0513
▁wachsen	-10.0514
▁dead	-10.0516
▁gezeigt	-10.0519
▁Sam	-10.053
▁Süd	-10.0533
▁nimmt	-10.0545
ok	-10.0547
wohn	-10.0561
▁page	-10.0562
▁soon	-10.0564
▁safe	-10.0564
▁interessiert	-10.0564
▁deshalb	-10.0564
▁raus	-10.057
are	-10.0572
▁ice	-10.0574
gent	-10.0576
▁cur	-10.0579
▁interessante	-10.0582
▁Japan	-10.0587
▁Platz	-10.0588
▁mis	-10.059
cle	-10.0593
▁Min	-10.0597
▁wind	-10.0607
▁creating	-10.0609
▁miteinander	-10.062
▁enter	-10.0622
schrei	-10.0624
▁aussehen	-10.0628
▁discovered	-10.0629
zellen	-10.063
▁affect	-10.0632
▁neben	-10.0632
▁among	-10.0632
für	-10.0633
▁Anzahl	-10.0637
▁nachdem	-10.0639
▁US	-10.0652
▁Ri	-10.0652
▁wild	-10.0655
▁images	-10.066
▁Berg	-10.0662
▁meet	-10.0674
del	-10.0675
▁changes	-10.0676
mark	-10.0677
▁Web	-10.068
▁ju	-10.0688
wo	-10.0689
fähig	-10.07
▁Tatsächlich	-10.07
▁verloren	-10.07
▁concept	-10.07
▁beginnt	-10.0701
▁hot	-10.0707
▁Ph	-10.0709
ju	-10.071
Re	-10.0711
Sch	-10.0715
▁goal	-10.072
▁Tra	-10.0722
▁anfangen	-10.0723
▁require	-10.0723
▁road	-10.0723
wunder	-10.0725
▁patient	-10.0734
▁schlechte	-10.0735
▁playing	-10.0736
lauf	-10.0737
▁schlimm	-10.0746
▁absolutely	-10.0746
leben	-10.0753
▁Rest	-10.0753
▁Technologien	-10.0758
▁math	-10.0761
ically	-10.0774
auch	-10.0777
▁showed	-10.0782
liebt	-10.0791
▁erfolgreich	-10.0791
▁hospital	-10.0791
fu	-10.0796
▁Linie	-10.0796
▁Krankheit	-10.0809
▁Geist	-10.0814
▁Park	-10.0817
weit	-10.082
▁table	-10.0821
▁recently	-10.0821
schlag	-10.0822
▁klein	-10.0823
▁Teile	-10.0832
▁riesige	-10.0833
▁sofort	-10.0838
ica	-10.0839
aw	-10.0844
▁With	-10.0845
zustellen	-10.0849
▁welches	-10.085
▁Städte	-10.0856
▁Gewalt	-10.086
▁strange	-10.0864
▁develop	-10.087
▁sell	-10.0871
stall	-10.0882
▁industry	-10.0884
▁perfekt	-10.0884
▁attack	-10.0884
auer	-10.0888
▁Genau	-10.0892
▁danach	-10.0907
▁Realität	-10.0909
▁track	-10.0911
▁Meer	-10.0913
▁developing	-10.0913
▁interest	-10.0926
▁nahe	-10.0927
▁perfect	-10.094
lit	-10.0945
mun	-10.0945
▁Konzept	-10.0953
▁Fuß	-10.0957
▁Studie	-10.097
▁engage	-10.098
▁By	-10.098
▁mental	-10.0989
▁bat	-10.0992
▁Alles	-10.0992
▁ear	-10.0994
▁bist	-10.0996
▁pain	-10.0997
▁Veränderung	-10.0997
▁major	-10.0997
▁Deshalb	-10.1
▁incredibly	-10.1
▁truth	-10.1
▁para	-10.1002
▁findet	-10.1003
Ma	-10.101
bin	-10.1011
No	-10.1026
▁teach	-10.1027
rig	-10.1033
▁report	-10.1038
viel	-10.104
▁Hälfte	-10.1047
stück	-10.105
▁egal	-10.105
▁subject	-10.1071
▁möchten	-10.1072
▁multi	-10.1077
▁resources	-10.1077
▁hundred	-10.1078
izing	-10.1089
▁Ist	-10.1092
▁evidence	-10.1094
▁improve	-10.1094
▁Hoffnung	-10.1095
▁baby	-10.1096
▁East	-10.1097
▁push	-10.11
▁Tod	-10.11
▁talked	-10.1109
▁laufen	-10.1114
▁tu	-10.1116
▁stimmt	-10.1117
▁Universität	-10.1118
Wir	-10.1121
▁anti	-10.1122
▁period	-10.1142
▁join	-10.1142
▁song	-10.1143
▁detail	-10.1144
▁solar	-10.1145
▁dec	-10.1148
▁hast	-10.1153
▁Ur	-10.1165
▁asking	-10.1165
▁Methode	-10.1166
rew	-10.1184
▁Material	-10.1187
rüber	-10.1187
▁bekommt	-10.1188
▁available	-10.1189
▁Vortrag	-10.119
▁Lauf	-10.1195
Die	-10.12
▁card	-10.1201
▁extra	-10.1201
▁touch	-10.1201
▁unbe	-10.1211
▁höher	-10.1213
▁wish	-10.1217
ush	-10.1224
▁falls	-10.1224
geführt	-10.1238
träge	-10.1239
haus	-10.1254
▁Straßen	-10.1256
▁sold	-10.1256
führ	-10.1266
schätz	-10.1267
▁involved	-10.1274
rand	-10.1279
▁list	-10.128
▁Europa	-10.1286
▁großartige	-10.1289
▁Worte	-10.1307
▁Nahrung	-10.131
▁listen	-10.1312
▁hart	-10.1314
▁millions	-10.1318
▁pack	-10.1326
▁Facebook	-10.1334
▁recognize	-10.1334
▁Fehler	-10.1336
▁door	-10.1338
lam	-10.1339
▁traf	-10.1342
▁foot	-10.1344
▁Ihrer	-10.1346
▁issues	-10.1347
▁conversation	-10.1358
▁Während	-10.1358
▁tiny	-10.1359
▁describe	-10.1359
▁sonst	-10.1365
wohl	-10.1373
▁lie	-10.1374
▁Interesse	-10.1379
▁Ad	-10.1382
▁appear	-10.1383
▁Fernseh	-10.1383
Be	-10.139
▁Mitte	-10.1396
uit	-10.1399
▁Spe	-10.1399
machen	-10.1402
▁David	-10.1407
▁Papier	-10.1407
▁plant	-10.1415
▁designed	-10.1416
sagen	-10.1419
▁effective	-10.1422
▁richtige	-10.1423
mann	-10.1425
▁Mikro	-10.1429
▁einzelne	-10.1431
▁Künstler	-10.1431
▁search	-10.1433
▁nachdenken	-10.1438
geht	-10.1441
▁Nation	-10.1451
▁writing	-10.1456
▁changing	-10.1456
▁Chance	-10.1457
j	-10.1465
innen	-10.1472
weisen	-10.1472
▁especially	-10.148
▁niemals	-10.1481
▁beste	-10.1482
▁fliegen	-10.1486
▁wichtige	-10.1486
win	-10.1487
▁aktiv	-10.1491
▁interact	-10.1501
cha	-10.1503
▁vision	-10.1504
▁compassion	-10.1505
▁echte	-10.1515
stein	-10.1521
ase	-10.1523
chan	-10.1542
▁eng	-10.1546
▁rid	-10.1555
▁fix	-10.1559
▁bigger	-10.1565
lies	-10.1565
rzte	-10.157
▁bus	-10.1571
ified	-10.1578
▁Har	-10.1579
▁price	-10.1579
▁cars	-10.1582
arm	-10.1596
▁success	-10.1603
▁Kamera	-10.1604
▁carbon	-10.1604
ulation	-10.1608
ley	-10.1608
▁dog	-10.161
gebracht	-10.1611
▁yes	-10.1612
▁kleines	-10.1617
lte	-10.1621
▁medical	-10.163
ark	-10.1637
▁Produkt	-10.164
erweise	-10.1641
zieh	-10.1647
▁schneller	-10.1653
▁offensichtlich	-10.1654
▁transport	-10.1655
▁feed	-10.1658
▁putting	-10.1666
spect	-10.1666
▁flow	-10.1667
▁Hy	-10.1669
▁gives	-10.167
▁flu	-10.167
▁glaubt	-10.1679
▁collect	-10.1692
platz	-10.1693
▁intelligent	-10.1704
▁sleep	-10.1704
▁screen	-10.1705
▁liegen	-10.171
oh	-10.1712
▁African	-10.1714
▁tausend	-10.1721
die	-10.1723
▁arbeitet	-10.1728
gal	-10.1729
▁mögen	-10.1729
mar	-10.173
▁zeige	-10.1731
▁equal	-10.1731
▁Bank	-10.1741
▁Mark	-10.1743
dom	-10.1745
▁slow	-10.1746
▁Organ	-10.1755
▁element	-10.1755
▁Herr	-10.1762
▁sent	-10.1766
ix	-10.1772
▁Prinzip	-10.178
▁Vereinigte	-10.178
▁verrückt	-10.1781
▁Theorie	-10.1781
load	-10.1782
▁nine	-10.1784
▁Entscheidungen	-10.179
car	-10.1799
▁connection	-10.1801
▁response	-10.1805
▁bird	-10.1806
▁scientific	-10.1806
▁trust	-10.181
▁ständig	-10.1816
▁Will	-10.1817
▁position	-10.1829
▁depend	-10.1837
▁Straße	-10.1837
▁Plan	-10.1862
▁store	-10.1865
steigen	-10.1876
▁Mathematik	-10.1882
▁ließ	-10.1885
lage	-10.1887
▁Rat	-10.1894
span	-10.1899
▁reasons	-10.1901
dimensional	-10.1908
▁Wachstum	-10.1908
▁beyond	-10.1908
▁erlaubt	-10.1908
▁practice	-10.1908
▁software	-10.1908
▁Even	-10.1909
▁miss	-10.1913
▁lived	-10.1914
▁park	-10.1914
▁Para	-10.1931
▁jemanden	-10.1932
▁progress	-10.1933
▁First	-10.1933
▁daher	-10.1935
▁agree	-10.1935
▁Nur	-10.1936
▁role	-10.1936
▁Kein	-10.1938
▁massive	-10.1938
aging	-10.1946
▁Iran	-10.1946
frei	-10.1949
folge	-10.195
▁meaning	-10.1951
▁draw	-10.1956
▁fahren	-10.1958
Ja	-10.1963
▁drug	-10.1966
▁einzu	-10.1971
wende	-10.1973
30	-10.1984
▁Medizin	-10.1985
▁Schüler	-10.1985
▁throw	-10.1987
▁towards	-10.1991
▁month	-10.1993
▁genetic	-10.1999
▁blau	-10.2002
netz	-10.2004
▁extrem	-10.2004
▁gegeben	-10.2006
▁gesch	-10.2008
▁degree	-10.2011
▁ziehen	-10.2015
▁fing	-10.2018
▁alten	-10.2028
▁genommen	-10.2035
▁basic	-10.2036
liege	-10.2039
▁guten	-10.2039
▁forest	-10.2042
▁Kosten	-10.2045
▁großartig	-10.2059
▁achieve	-10.2063
▁peace	-10.2063
▁versuchte	-10.2066
▁Beziehung	-10.2073
▁abzu	-10.2081
denken	-10.2087
▁several	-10.2089
▁Flugzeug	-10.2089
▁Gegen	-10.2097
▁Maschine	-10.2102
unter	-10.2104
teilen	-10.2105
▁favorite	-10.2115
▁capital	-10.2118
▁Don	-10.2119
berg	-10.2124
licht	-10.2135
▁Sex	-10.2137
nah	-10.214
▁gingen	-10.215
▁near	-10.2156
▁stick	-10.2157
▁arbeitete	-10.2163
▁näher	-10.2168
▁pictures	-10.2177
▁Ebene	-10.2177
▁Zahlen	-10.2185
▁Von	-10.2192
▁Zusammen	-10.2193
▁breath	-10.2194
▁geschieht	-10.2194
▁Strom	-10.2194
▁Mitgefühl	-10.2195
rang	-10.2201
eller	-10.2201
▁lieben	-10.2202
set	-10.2203
▁girls	-10.2205
round	-10.221
gabe	-10.221
ied	-10.2214
▁rules	-10.2217
zieren	-10.2219
▁journey	-10.2221
stellt	-10.2221
▁speed	-10.2221
▁Yes	-10.2229
▁manche	-10.2231
▁las	-10.2234
über	-10.2234
▁Sc	-10.2236
▁dein	-10.2244
▁particularly	-10.2245
▁Demokratie	-10.2247
▁herauszufinden	-10.2247
▁standard	-10.2251
▁enorm	-10.2273
▁anybody	-10.2274
▁benefit	-10.2274
▁geboren	-10.2274
füll	-10.2274
▁likely	-10.2275
▁links	-10.2275
▁Geh	-10.2278
iving	-10.228
▁setzt	-10.2282
▁student	-10.229
▁Firma	-10.23
▁Schauen	-10.23
of	-10.2305
▁Ergebnis	-10.2305
▁oh	-10.2306
▁pen	-10.2307
wasser	-10.2321
▁fund	-10.2326
▁Druck	-10.2327
▁Nachrichten	-10.2331
fiel	-10.2336
ably	-10.2337
gab	-10.2338
▁drugs	-10.2347
▁Tro	-10.2347
▁rep	-10.2349
▁setzen	-10.2351
▁molecule	-10.2354
▁quality	-10.2354
▁nennt	-10.2354
▁wichtiger	-10.2355
▁relativ	-10.2355
cep	-10.2355
▁computers	-10.2357
erie	-10.2358
right	-10.2359
ogen	-10.2366
▁Evolution	-10.2381
▁virus	-10.2381
▁Blick	-10.2381
fälle	-10.2381
▁Zeug	-10.2384
▁mu	-10.2393
▁onto	-10.2396
▁Ding	-10.2407
▁Where	-10.2408
▁ran	-10.242
▁früher	-10.242
▁groups	-10.242
merk	-10.2421
sprechen	-10.2421
▁nation	-10.2432
▁Israel	-10.2435
▁000	-10.2435
▁scar	-10.2438
▁roll	-10.2439
bald	-10.244
▁sounds	-10.245
▁Fähigkeiten	-10.2456
▁Jahrzehnt	-10.2462
hop	-10.2462
▁lose	-10.2463
richtung	-10.2467
▁becomes	-10.247
▁adult	-10.2489
▁Chi	-10.249
▁moved	-10.2495
▁gebe	-10.2504
▁Who	-10.2508
ua	-10.2512
▁bestimmt	-10.2515
▁successful	-10.2518
▁Arab	-10.252
▁Staat	-10.2528
▁Star	-10.2531
▁print	-10.2532
▁Bill	-10.2535
▁Reaktion	-10.2545
▁Islam	-10.2546
stream	-10.2548
▁farm	-10.2561
▁nein	-10.2578
▁offer	-10.2579
ify	-10.2581
▁gest	-10.259
▁Maybe	-10.2595
▁chemical	-10.2598
▁fehl	-10.26
tail	-10.2605
▁obviously	-10.2608
▁Wörter	-10.2616
▁University	-10.2626
▁sat	-10.2631
▁Pla	-10.2633
▁treatment	-10.2637
welt	-10.2646
▁35	-10.2649
▁außer	-10.2652
▁further	-10.2654
▁Fortschritt	-10.2654
▁Büro	-10.2654
▁walking	-10.2657
arten	-10.2659
seite	-10.266
▁hum	-10.2666
▁certainly	-10.2677
▁argument	-10.2681
▁deliver	-10.2681
▁After	-10.2682
▁wider	-10.2696
▁geschrieben	-10.2699
▁gleichzeitig	-10.2709
▁medicine	-10.2709
▁Folge	-10.271
▁direction	-10.2715
▁organ	-10.2718
raten	-10.2723
▁Ton	-10.2735
▁passion	-10.2735
▁lief	-10.2741
▁Kor	-10.2744
▁TV	-10.2747
breite	-10.2752
▁verbracht	-10.2754
verse	-10.2754
▁context	-10.2765
▁bomb	-10.2765
ump	-10.2767
laufen	-10.2768
▁machten	-10.2769
▁wait	-10.2772
zy	-10.2774
▁showing	-10.2774
▁bank	-10.2779
board	-10.2779
▁hour	-10.2783
▁totally	-10.2784
▁Gemeinde	-10.2793
▁gesprochen	-10.2793
▁remain	-10.2793
▁sozialen	-10.2796
▁Wieder	-10.2797
▁Wand	-10.2798
gewalt	-10.28
▁zuerst	-10.2803
▁apart	-10.2808
▁tragen	-10.282
▁anstatt	-10.282
▁Aufmerksamkeit	-10.2821
▁Elektro	-10.2821
▁mark	-10.2822
wissenschaftlich	-10.2827
ony	-10.2828
▁Auch	-10.2828
▁notice	-10.2829
▁größere	-10.2837
▁exciting	-10.2849
▁nobody	-10.2849
▁surprise	-10.2849
▁laugh	-10.2849
▁biggest	-10.2849
▁Frank	-10.2853
▁erzählt	-10.2864
kam	-10.2864
▁signal	-10.287
▁finding	-10.2874
iziert	-10.2876
▁urban	-10.2877
▁clean	-10.2878
▁Atom	-10.2878
▁largest	-10.2881
▁begannen	-10.2882
▁extremely	-10.2887
ktiv	-10.2895
▁dachten	-10.2897
▁skin	-10.2902
ford	-10.2903
ette	-10.2905
▁account	-10.2906
▁fit	-10.2909
▁gesund	-10.291
tausend	-10.2918
▁Gruppen	-10.2919
▁Pflanzen	-10.2922
▁Entscheidung	-10.2922
▁Bewusstsein	-10.2934
▁everywhere	-10.2934
▁check	-10.2935
▁thousand	-10.2942
▁bestimmte	-10.2946
illa	-10.2952
▁mehrere	-10.2955
test	-10.2959
ffer	-10.296
▁engineer	-10.2963
▁Trans	-10.2965
▁alte	-10.2969
▁fill	-10.2978
▁ball	-10.2979
▁drop	-10.2991
▁memory	-10.2991
▁cross	-10.2991
last	-10.2993
▁Kar	-10.2995
▁Uhr	-10.3002
▁visit	-10.302
▁Orte	-10.3022
▁heiß	-10.3038
▁folgende	-10.3039
▁lag	-10.3045
▁400	-10.3045
▁älter	-10.3049
▁author	-10.3049
▁Dorf	-10.3049
▁cap	-10.3063
▁vorbei	-10.3066
▁Ergebnisse	-10.3072
▁materials	-10.3075
▁Va	-10.3077
▁müsst	-10.3077
▁rock	-10.3078
▁fertig	-10.3086
▁Wohn	-10.3089
schnitt	-10.3091
well	-10.3098
▁Behandlung	-10.3106
▁gern	-10.3109
ory	-10.3113
▁carry	-10.3116
typ	-10.3126
ograph	-10.3127
▁games	-10.3135
▁beobachten	-10.3135
▁security	-10.3135
▁version	-10.3143
▁Studien	-10.3143
▁verlassen	-10.3149
▁discover	-10.3151
▁bald	-10.316
▁scan	-10.3163
▁bacteria	-10.3164
▁mountain	-10.3164
▁teachers	-10.3168
▁sitzen	-10.3169
▁Bra	-10.3169
wachsen	-10.3171
▁großer	-10.3173
▁150	-10.3174
▁higher	-10.3176
selben	-10.3177
▁Kontrolle	-10.318
▁partner	-10.3184
wort	-10.3193
▁happiness	-10.3194
▁gearbeitet	-10.3194
▁creative	-10.3194
▁magic	-10.3194
▁member	-10.3194
▁Zugang	-10.3198
▁echt	-10.3205
halte	-10.3205
tanz	-10.3209
kor	-10.3222
▁Software	-10.3223
▁Are	-10.3232
▁Most	-10.3237
▁Tür	-10.3241
hung	-10.3251
▁violence	-10.3252
▁shift	-10.3252
▁trial	-10.3258
tischen	-10.326
▁supposed	-10.3263
part	-10.328
▁Region	-10.3282
▁etc	-10.3284
Wie	-10.3286
▁früh	-10.3289
▁meeting	-10.3291
ison	-10.3292
▁sahen	-10.3296
sinn	-10.3298
▁Seiten	-10.331
▁Funktion	-10.3311
▁Telefon	-10.3311
▁threat	-10.3311
▁Höhe	-10.3311
▁sky	-10.3311
▁ermöglicht	-10.3311
▁Himmel	-10.3312
▁neuro	-10.3317
▁Gold	-10.3321
▁Armut	-10.3322
▁critical	-10.3325
▁fu	-10.3328
▁zweiten	-10.3334
▁conflict	-10.3341
▁bestimmten	-10.3345
▁Los	-10.3348
▁Monat	-10.3351
▁passierte	-10.3351
eute	-10.3357
▁ansehen	-10.337
▁kreativ	-10.3371
▁Ber	-10.3373
▁cat	-10.3373
zeug	-10.3378
grund	-10.338
▁folgen	-10.3383
▁Schulen	-10.3384
▁tolle	-10.3387
jo	-10.3388
macht	-10.3388
▁Kern	-10.3396
▁democracy	-10.34
▁eventually	-10.34
▁poverty	-10.34
▁Einfluss	-10.3403
mine	-10.3403
▁leaders	-10.3411
wirtschaft	-10.3412
▁results	-10.3418
▁Abend	-10.343
▁bedeuten	-10.343
▁Morgen	-10.343
▁shot	-10.3436
▁fine	-10.3444
▁Th	-10.3446
▁ready	-10.345
work	-10.3455
zugehen	-10.3459
▁Regeln	-10.3459
▁betrachtet	-10.346
▁choose	-10.346
▁kompliziert	-10.346
▁slide	-10.346
▁fuel	-10.3465
▁connected	-10.3469
▁named	-10.3472
▁code	-10.3477
sicher	-10.348
▁gross	-10.3481
kommt	-10.3483
▁Pf	-10.3485
▁Meeres	-10.3486
▁led	-10.3488
▁bunch	-10.349
▁Partner	-10.3492
▁ship	-10.3496
bahn	-10.3496
▁2000	-10.3505
▁führte	-10.3507
sensor	-10.351
▁bla	-10.3511
▁citizen	-10.352
▁England	-10.352
▁prevent	-10.352
▁worse	-10.3521
▁leid	-10.3521
▁Amerikaner	-10.3524
▁Sohn	-10.3524
▁Netz	-10.3525
▁Indian	-10.3527
nahmen	-10.3548
▁Führung	-10.355
▁fantastisch	-10.355
▁crazy	-10.355
▁Monaten	-10.3553
▁base	-10.356
▁traditional	-10.357
▁Inter	-10.3573
▁wave	-10.3574
zeichnen	-10.358
▁Muslim	-10.358
▁secret	-10.358
▁activity	-10.3581
▁Menschheit	-10.3584
▁essentially	-10.3586
▁handelt	-10.3587
▁Fahr	-10.3587
▁lä	-10.3587
can	-10.3588
wing	-10.36
▁Schl	-10.3607
▁watching	-10.3609
▁square	-10.3611
▁Steve	-10.3612
▁bi	-10.3622
▁dahin	-10.3624
ständig	-10.3633
istische	-10.3639
▁verbessern	-10.3641
▁hörte	-10.3643
glich	-10.3655
▁Physik	-10.3657
▁trees	-10.3658
üge	-10.366
like	-10.3664
▁Richard	-10.3672
▁please	-10.3672
▁return	-10.3672
▁prison	-10.3672
▁content	-10.3673
pot	-10.3676
▁mini	-10.3694
▁Stelle	-10.37
▁bleibt	-10.3703
▁perspective	-10.3703
▁grew	-10.3705
▁Finger	-10.3706
mie	-10.3712
▁Sinne	-10.3731
uff	-10.3733
▁communities	-10.3733
▁speziell	-10.3733
▁unge	-10.3735
▁Ok	-10.3735
▁legal	-10.3737
▁suddenly	-10.374
▁Daher	-10.3757
▁accept	-10.3764
▁schafft	-10.3764
▁vergessen	-10.3764
ille	-10.3767
▁finde	-10.3774
▁faster	-10.3779
▁Politik	-10.3781
▁Sicht	-10.3781
▁teacher	-10.3788
▁minute	-10.3789
lig	-10.3793
▁nuclear	-10.3795
▁Nigeria	-10.3795
▁bilden	-10.3798
durch	-10.38
▁hielt	-10.3808
▁Twitter	-10.3826
pfen	-10.3845
▁board	-10.3853
▁zumindest	-10.3857
▁collaborat	-10.3857
▁burn	-10.3858
▁Erinnerung	-10.3858
▁indeed	-10.3863
▁perform	-10.3863
erei	-10.3869
▁original	-10.3869
▁Look	-10.3871
arian	-10.3884
▁Molekül	-10.3889
▁enjoy	-10.3889
▁launch	-10.3889
prüf	-10.3889
▁Beginn	-10.3889
werfen	-10.3892
▁Krankheiten	-10.3895
▁wussten	-10.3898
▁individuals	-10.3902
rika	-10.3903
▁emotion	-10.3912
▁Paul	-10.3913
▁tap	-10.3917
buch	-10.3919
▁Washington	-10.392
▁colleague	-10.392
▁wirtschaftliche	-10.3921
▁inner	-10.3939
▁Sha	-10.3944
▁danke	-10.3944
▁Museum	-10.3951
▁somewhere	-10.3951
▁bemerkt	-10.3954
▁conditions	-10.3955
ualität	-10.3955
▁komme	-10.3965
▁Können	-10.3983
▁impossible	-10.3983
▁profit	-10.3983
▁High	-10.3984
▁Spaß	-10.3985
▁extraordinary	-10.3986
▁Hin	-10.3986
tritt	-10.3987
▁wi	-10.3999
▁Beweis	-10.4006
▁Nachricht	-10.4013
▁principle	-10.4015
▁Firmen	-10.4015
schrift	-10.4015
▁anschauen	-10.4015
▁entscheiden	-10.4017
▁Gesetz	-10.4021
pie	-10.4021
feld	-10.403
▁plants	-10.4032
▁survive	-10.4046
▁website	-10.4046
▁ändert	-10.4046
▁interview	-10.4047
▁task	-10.4047
▁unmöglich	-10.4049
gung	-10.4051
nderung	-10.4052
▁Tri	-10.4057
rennen	-10.406
aking	-10.4072
▁Neuro	-10.4078
▁reduce	-10.4078
▁erzeugen	-10.4078
▁verlieren	-10.4078
▁above	-10.4079
sitz	-10.4081
air	-10.4083
▁Grenzen	-10.4083
▁hell	-10.4085
▁45	-10.409
▁Industrie	-10.4095
▁larger	-10.4104
▁Vergangenheit	-10.411
▁taught	-10.411
▁address	-10.411
▁stress	-10.411
▁Sterne	-10.4115
▁Baum	-10.4116
▁komplexe	-10.4116
▁lower	-10.4133
▁Stein	-10.414
▁college	-10.4142
▁explore	-10.4142
▁respond	-10.4142
▁Wirklichkeit	-10.4143
▁medizinische	-10.4143
statt	-10.4155
gebaut	-10.4158
▁killed	-10.4159
mmel	-10.416
▁fan	-10.416
▁Komm	-10.4166
▁unglaubliche	-10.4168
▁dance	-10.4169
▁Mil	-10.4171
▁aussieht	-10.4174
▁detect	-10.4174
▁jump	-10.4179
▁Maß	-10.4183
▁Liste	-10.4185
qual	-10.4185
▁poll	-10.4194
▁voller	-10.4206
▁complicated	-10.4207
▁including	-10.4207
▁allowed	-10.4212
▁rise	-10.4216
▁rund	-10.4219
▁nachzudenken	-10.4239
▁receive	-10.4239
▁police	-10.4239
▁Those	-10.424
▁wife	-10.4241
▁letter	-10.4259
▁objects	-10.426
Ver	-10.426
▁tree	-10.4262
▁shown	-10.4267
▁glo	-10.4269
▁morgen	-10.4272
▁irgendwo	-10.4272
ographic	-10.4273
▁Kol	-10.4276
▁rat	-10.428
▁zeigte	-10.4282
rank	-10.4283
▁spa	-10.4284
▁möglichen	-10.4288
▁Nummer	-10.4304
▁Bakterien	-10.4304
▁produzieren	-10.4304
▁usually	-10.4304
gruppe	-10.4306
▁denkt	-10.4316
lly	-10.4321
▁complete	-10.4324
kosten	-10.4325
▁Beispiele	-10.4326
▁schöne	-10.433
▁famous	-10.4337
▁afford	-10.4337
▁Leistung	-10.4337
▁window	-10.4339
▁factor	-10.4341
▁alive	-10.4341
ologen	-10.4343
▁Spezies	-10.437
▁truly	-10.437
▁studies	-10.4371
▁Today	-10.4374
▁rain	-10.4378
▁opt	-10.4382
▁Konflikt	-10.4402
▁erklärt	-10.4402
wor	-10.4405
▁Früh	-10.4408
cop	-10.441
▁kannst	-10.441
▁Like	-10.4411
▁Landes	-10.4412
▁meant	-10.4414
▁auto	-10.4425
▁erzählte	-10.4426
▁eben	-10.4426
▁versuche	-10.4427
▁Haut	-10.4431
▁training	-10.4432
▁term	-10.4433
▁reading	-10.4434
▁Klima	-10.4435
▁Sein	-10.4435
▁Galaxie	-10.4435
▁creature	-10.4435
▁excited	-10.4435
▁sodass	-10.4436
▁families	-10.4436
▁Klasse	-10.444
▁gebracht	-10.4441
20	-10.4447
▁Sekunden	-10.4451
Un	-10.4455
Hey	-10.4459
pit	-10.4461
▁Orten	-10.4462
krat	-10.4463
▁range	-10.4464
sprach	-10.4466
▁Religion	-10.4469
▁schrecklich	-10.4469
▁Element	-10.4469
▁ended	-10.4475
▁Einzel	-10.4482
fisch	-10.4484
laden	-10.4494
▁plastic	-10.4502
▁symbol	-10.4502
▁George	-10.4502
▁kaum	-10.4502
▁Spitze	-10.4503
▁Text	-10.4503
▁trotzdem	-10.4503
▁specific	-10.4504
▁finger	-10.4509
Le	-10.4514
▁lu	-10.4528
▁gefährlich	-10.4535
▁winzig	-10.4535
▁gewinnen	-10.4536
▁spring	-10.4544
▁veröffentlicht	-10.4569
▁verkauft	-10.4569
▁Wesen	-10.4572
leitet	-10.4574
Mo	-10.4577
▁Personen	-10.4598
urf	-10.4598
▁Ressourcen	-10.4602
▁heutzutage	-10.4602
▁seltsam	-10.4602
▁retten	-10.4604
▁standing	-10.4605
▁ban	-10.4608
▁befinden	-10.4621
gegeben	-10.4623
▁existiert	-10.4625
▁male	-10.4627
▁nenne	-10.463
▁Ehe	-10.4632
▁gehe	-10.4633
▁Bühne	-10.4636
▁Kommunikation	-10.4636
▁purpose	-10.4636
▁yeah	-10.4636
▁Second	-10.4636
▁irgendeine	-10.4637
▁electricity	-10.4637
roll	-10.4637
▁negative	-10.4639
räume	-10.4643
▁Reich	-10.4646
▁Million	-10.4647
▁floor	-10.4653
Do	-10.4654
▁current	-10.4657
▁Englisch	-10.467
▁crisis	-10.467
▁Bäume	-10.467
▁Freiheit	-10.4671
▁series	-10.4673
▁Einstein	-10.4676
▁pop	-10.4684
gezogen	-10.4692
▁older	-10.4698
▁Wahrscheinlich	-10.4703
▁geschehen	-10.4703
▁somehow	-10.4703
▁AIDS	-10.4706
▁spin	-10.4713
▁cold	-10.4719
▁Mc	-10.4721
mobil	-10.4729
▁radio	-10.4736
▁verbinden	-10.4737
▁Uni	-10.4738
▁solchen	-10.4741
▁Flug	-10.4743
▁cook	-10.4748
▁trade	-10.4752
▁rap	-10.4757
▁runter	-10.476
▁erfahren	-10.4765
▁upon	-10.477
industrie	-10.4772
▁policy	-10.4772
▁Stand	-10.4774
▁dar	-10.4774
▁Medikamente	-10.4777
▁respect	-10.478
minister	-10.4786
▁gekommen	-10.4792
▁Tagen	-10.4793
▁Hoch	-10.4798
▁Handy	-10.4802
▁untersuchen	-10.4806
▁Kampf	-10.4806
▁female	-10.4806
▁Frieden	-10.481
zunehmen	-10.4813
lief	-10.4821
stände	-10.4832
dependent	-10.4832
▁healthy	-10.4833
▁lesson	-10.4834
flat	-10.4836
▁Aktivität	-10.484
▁advance	-10.484
▁gefragt	-10.484
▁expert	-10.484
▁kept	-10.484
▁physics	-10.484
▁eure	-10.4842
▁typical	-10.4842
▁entstand	-10.4848
aktiv	-10.4854
gy	-10.4859
ou	-10.4864
▁Risiko	-10.4875
▁document	-10.4875
▁written	-10.4875
▁Darwin	-10.4875
▁fühlte	-10.488
▁Gefängnis	-10.4909
▁Präsident	-10.4909
▁anywhere	-10.4909
▁separate	-10.4909
▁biology	-10.491
▁architecture	-10.4911
▁neurons	-10.4912
atom	-10.4924
▁tea	-10.493
▁aufgrund	-10.4936
▁arbeite	-10.4937
▁Ordnung	-10.4944
▁communication	-10.4944
▁saß	-10.4944
▁einzelnen	-10.4944
▁wann	-10.4946
▁decide	-10.4947
term	-10.4949
▁dreht	-10.4959
▁town	-10.4959
bal	-10.4974
ani	-10.4977
wechsel	-10.4978
▁Gespräch	-10.4979
▁religion	-10.4979
▁täglich	-10.4979
▁himself	-10.4979
▁freedom	-10.498
▁Bezug	-10.4987
lied	-10.4995
drücke	-10.4996
▁Regierungen	-10.4996
▁Designer	-10.4998
▁Mach	-10.4998
▁actual	-10.5003
kur	-10.5006
▁smaller	-10.5007
▁hört	-10.5012
▁military	-10.5014
▁ehrlich	-10.5014
▁entdecken	-10.5014
▁charge	-10.5014
▁Drei	-10.5026
▁press	-10.5026
▁Sand	-10.5028
style	-10.5031
▁König	-10.5049
▁hilft	-10.5049
▁release	-10.5049
▁anymore	-10.5049
trägt	-10.5049
▁Kollegen	-10.505
▁Feld	-10.505
▁performance	-10.505
▁raise	-10.5051
▁neun	-10.5054
stimme	-10.5055
tragen	-10.5057
▁rule	-10.5062
▁MIT	-10.5084
▁Schmerz	-10.5084
▁gestellt	-10.5084
gibt	-10.509
0,000	-10.5112
▁enormous	-10.5121
▁race	-10.5126
▁Mr	-10.5131
▁trick	-10.5132
hält	-10.5138
▁gering	-10.514
▁zero	-10.514
▁Ball	-10.5146
▁häufig	-10.5149
▁environmental	-10.5151
▁effort	-10.5155
▁reflect	-10.5155
▁Which	-10.5155
▁niedrig	-10.5155
▁School	-10.5155
▁protein	-10.5155
▁verstanden	-10.5155
▁herausfinden	-10.5156
▁Kri	-10.5156
▁Arzt	-10.5162
▁mobile	-10.517
▁Times	-10.517
▁Traum	-10.5171
alter	-10.5173
▁messen	-10.518
▁Auswirkungen	-10.5191
▁unique	-10.5191
▁bodies	-10.5191
▁particle	-10.5191
▁dauert	-10.5191
schneid	-10.5194
position	-10.5195
▁sand	-10.5202
▁serve	-10.5206
▁career	-10.5219
avi	-10.5225
▁instance	-10.5227
▁Damit	-10.5243
▁zufällig	-10.526
▁email	-10.5262
▁cheap	-10.5262
▁leisten	-10.5262
▁temperature	-10.5263
maschine	-10.5263
▁Wichtig	-10.5264
▁weight	-10.5266
▁globalen	-10.5281
▁Pra	-10.5282
zone	-10.5296
▁fair	-10.5298
▁convince	-10.5298
▁Finanz	-10.5298
▁Artikel	-10.5298
▁earlier	-10.5298
▁entschieden	-10.5299
▁dangerous	-10.5299
▁Bienen	-10.5302
▁lernte	-10.5314
ivity	-10.5316
▁läuft	-10.5322
modell	-10.5324
▁Vorteil	-10.5327
wesen	-10.5333
produkt	-10.5334
▁benötigt	-10.5334
▁expensive	-10.5334
▁vehicle	-10.5334
▁alternative	-10.5334
▁Botschaft	-10.5334
▁becoming	-10.5334
▁nutzt	-10.5335
▁dadurch	-10.534
▁jungen	-10.5344
▁Mond	-10.5344
▁Sun	-10.5352
11	-10.5358
▁painting	-10.5366
▁daughter	-10.537
▁fantastic	-10.537
gh	-10.5371
▁normalerweise	-10.5372
handel	-10.5378
▁Lehr	-10.5383
▁dank	-10.5389
▁final	-10.5394
▁sammeln	-10.54
▁laut	-10.5401
▁Glauben	-10.5407
▁target	-10.5407
▁remind	-10.5407
▁Feuer	-10.5408
steuer	-10.5408
▁politische	-10.5408
▁glass	-10.541
▁Gl	-10.5412
▁Vergleich	-10.5413
▁motor	-10.5415
▁catch	-10.5421
rief	-10.5422
▁unit	-10.5429
▁clearly	-10.543
▁hält	-10.5441
▁brother	-10.5443
▁Another	-10.5443
▁besondere	-10.5443
▁verbreitet	-10.5444
▁Drogen	-10.5445
▁übrigens	-10.5445
▁income	-10.5448
▁mom	-10.5449
▁throughout	-10.5451
▁listening	-10.5451
gerät	-10.5453
▁Gel	-10.5457
▁Name	-10.546
▁Gal	-10.5461
▁camp	-10.5468
karte	-10.5473
▁öffentlichen	-10.5479
▁Gelegenheit	-10.548
▁Harvard	-10.548
▁cloud	-10.548
▁familiar	-10.548
▁Krankenhaus	-10.548
▁pressure	-10.5482
energie	-10.5484
▁geschaffen	-10.5485
▁fat	-10.5514
istisch	-10.5516
▁außerhalb	-10.5517
▁diejenigen	-10.5517
▁significant	-10.5517
▁bone	-10.5517
tausch	-10.5517
▁Genom	-10.552
▁starb	-10.5526
▁skills	-10.5527
bereit	-10.553
Ha	-10.5531
▁production	-10.5534
▁paint	-10.5539
▁schwarze	-10.5541
▁Kal	-10.5541
▁App	-10.5544
▁wert	-10.5549
cut	-10.5553
▁September	-10.5554
▁befindet	-10.5554
▁höchst	-10.5554
▁financial	-10.5554
▁therefore	-10.5554
▁Erwachsene	-10.5561
▁worry	-10.5563
▁Grad	-10.5565
▁bestehen	-10.5569
▁drink	-10.5569
plica	-10.557
reiben	-10.5572
▁except	-10.5575
▁einander	-10.5579
▁Aspekt	-10.5591
▁Schlüssel	-10.5591
▁virtual	-10.5591
▁nannte	-10.5591
▁Glas	-10.5591
▁Fluss	-10.5591
▁random	-10.5591
script	-10.5591
gebildet	-10.5592
▁Punkte	-10.5594
problem	-10.5598
▁Tisch	-10.5601
▁loved	-10.5603
▁Regel	-10.5616
▁fallen	-10.562
▁Nerven	-10.5628
▁adapt	-10.5628
▁Projekte	-10.5629
werte	-10.5635
▁Life	-10.5638
Wo	-10.5646
▁herunter	-10.5661
▁hinzu	-10.5663
▁Hirn	-10.5666
duct	-10.5673
zogen	-10.5675
dollar	-10.5681
▁gold	-10.5681
▁harm	-10.5681
▁hero	-10.5682
▁Formen	-10.5693
gie	-10.5698
▁Manche	-10.5699
▁greater	-10.57
▁Imagine	-10.5702
▁accident	-10.5702
▁intelligence	-10.5702
▁expand	-10.5703
▁unterstützen	-10.5703
▁antworte	-10.5703
▁schützen	-10.5704
▁north	-10.5704
▁ebenso	-10.5705
▁mix	-10.5705
geschichte	-10.5706
▁Beste	-10.5714
▁Regen	-10.5729
▁Beziehungen	-10.5729
▁Noch	-10.5731
▁globale	-10.5736
▁architect	-10.5739
▁Verständnis	-10.574
▁contain	-10.574
▁corner	-10.574
▁waiting	-10.5742
▁Architektur	-10.5745
▁demand	-10.5754
▁bisher	-10.5765
▁Werte	-10.5766
äst	-10.5772
▁Geräusch	-10.5778
▁influence	-10.5778
▁Signal	-10.5778
▁gift	-10.5778
leistung	-10.5779
▁geschah	-10.578
▁Farbe	-10.5782
▁Brot	-10.5795
▁öffentliche	-10.5798
grün	-10.5804
▁Rand	-10.5807
▁praktisch	-10.5816
durchschnittlich	-10.5823
grat	-10.5823
▁Dia	-10.5825
▁continu	-10.5833
▁Motor	-10.5834
▁wide	-10.5838
▁greatest	-10.5838
motiv	-10.5842
▁Ingenieur	-10.5854
▁erinnert	-10.5854
▁beauty	-10.5854
prozess	-10.5854
▁dunkle	-10.5854
▁coral	-10.5854
▁saving	-10.5856
▁Maschinen	-10.586
▁Jungen	-10.586
▁Zeitpunkt	-10.5867
nisse	-10.5867
wissenschaft	-10.5868
▁interaction	-10.5879
▁mistake	-10.5892
▁define	-10.5892
▁erzeugt	-10.5892
▁weapon	-10.5892
strahl	-10.5897
wähl	-10.5898
▁brand	-10.59
▁teaching	-10.5901
▁Auge	-10.5901
▁Band	-10.5902
▁taten	-10.5903
▁spot	-10.5905
▁Handel	-10.5916
▁welcher	-10.5921
▁walked	-10.5925
▁trouble	-10.593
▁mächtig	-10.593
▁fossil	-10.593
zubringen	-10.5959
▁Pakistan	-10.5969
▁cultural	-10.5969
▁entweder	-10.5969
▁Entdeckung	-10.5969
▁Gewinn	-10.5969
▁Stunde	-10.5972
gebiet	-10.5973
▁Western	-10.598
▁prove	-10.5986
▁selben	-10.5991
▁heat	-10.5991
Nein	-10.5996
▁Port	-10.6003
gelegt	-10.6003
▁berühmt	-10.6007
▁introduce	-10.6007
conscious	-10.6007
▁mess	-10.6011
▁immediately	-10.6011
heben	-10.6016
▁herstellen	-10.6017
▁Beruf	-10.6019
▁Gang	-10.6028
komm	-10.603
▁quick	-10.6038
sistent	-10.6042
▁einzigen	-10.6046
▁California	-10.6046
▁landscape	-10.6046
▁verursacht	-10.6046
▁wunderschön	-10.6046
schuldig	-10.6046
▁driving	-10.6046
▁statistic	-10.6046
▁illegal	-10.6046
▁Klimawandel	-10.6046
▁75	-10.6048
▁active	-10.605
▁edge	-10.6054
bank	-10.6072
▁fühlt	-10.6079
▁condition	-10.6081
▁spirit	-10.6084
▁produziert	-10.6085
▁Manchmal	-10.6085
▁allgemein	-10.6085
▁effektiv	-10.6085
▁shark	-10.6087
▁Solar	-10.6088
riech	-10.6099
▁Klein	-10.6101
schicht	-10.6108
▁grüne	-10.6117
markt	-10.6118
▁ernst	-10.6118
▁Wald	-10.6122
▁getroffen	-10.6124
▁Wunder	-10.6124
schutz	-10.6124
▁dasselbe	-10.6124
▁emerge	-10.6125
▁match	-10.6125
▁wealth	-10.6125
▁gain	-10.6131
▁Lang	-10.6131
design	-10.6143
▁invented	-10.6144
▁obvious	-10.615
▁Fu	-10.6156
star	-10.6157
▁Verantwortung	-10.6163
▁include	-10.6163
▁various	-10.6163
setzung	-10.6163
▁select	-10.6165
▁Version	-10.6166
▁99	-10.6167
ference	-10.6167
▁hair	-10.6173
▁boat	-10.6195
▁Kilometer	-10.6203
▁erwarten	-10.6203
▁biological	-10.6203
▁Francisco	-10.6203
tial	-10.6203
▁Anderson	-10.6204
▁generate	-10.6208
source	-10.6211
▁Arch	-10.6221
▁erleben	-10.6227
hau	-10.6232
▁Werk	-10.6235
▁Chicago	-10.6242
▁bloß	-10.6242
▁erwartet	-10.6242
▁Freude	-10.6242
▁instrument	-10.6242
▁genome	-10.6243
▁Schlaf	-10.6244
▁Two	-10.625
▁ideal	-10.6255
wood	-10.6261
▁Hä	-10.6261
▁Unser	-10.6272
kind	-10.6274
▁seat	-10.6277
▁beschäftigt	-10.6282
▁neighborhood	-10.6282
▁climb	-10.6282
▁ahead	-10.6283
▁Detail	-10.6284
stadt	-10.6286
▁tens	-10.6295
▁Einkommen	-10.6301
▁trip	-10.6305
▁Asia	-10.6307
▁amerikanischen	-10.6308
▁heutigen	-10.6312
craft	-10.6313
▁humanity	-10.6314
▁Schiff	-10.632
▁Produkte	-10.632
▁disappear	-10.6322
▁erinnere	-10.6322
hob	-10.633
▁Bett	-10.633
führung	-10.6336
öl	-10.6354
▁behaupte	-10.6362
▁method	-10.6362
▁biologische	-10.6362
▁Nähe	-10.6362
▁useful	-10.6377
alität	-10.6397
▁although	-10.6402
▁babies	-10.6402
gelöst	-10.6402
▁popular	-10.6402
▁apply	-10.6407
▁Junge	-10.6408
barkeit	-10.6409
▁fällt	-10.6419
▁traditionelle	-10.6441
▁Leidenschaft	-10.6442
▁terrible	-10.6442
▁insect	-10.6442
▁kostet	-10.6443
▁spoke	-10.6444
▁forget	-10.6448
▁anyway	-10.6452
▁cra	-10.6453
▁sowie	-10.6455
▁Frei	-10.6467
▁km	-10.6468
▁following	-10.6473
▁Sommer	-10.6473
▁summer	-10.6478
▁extreme	-10.648
▁remarkable	-10.6483
▁sequence	-10.6483
▁sample	-10.6483
▁spricht	-10.6483
▁Volk	-10.6483
▁schicken	-10.6483
▁Schwester	-10.6483
▁Lösungen	-10.6486
La	-10.6487
wirkung	-10.6493
▁Cor	-10.6495
▁Island	-10.6497
Warum	-10.6501
figur	-10.6512
▁professional	-10.6514
So	-10.6515
▁Erfahrungen	-10.6517
▁civil	-10.6523
▁Instrument	-10.6523
▁beeinflusst	-10.6523
▁possibly	-10.6523
▁Charles	-10.6523
▁ebenfalls	-10.6523
▁Betracht	-10.6523
▁verkaufen	-10.6523
▁Opfer	-10.6524
▁copy	-10.6524
▁Kurz	-10.6526
▁sad	-10.6527
▁Westen	-10.6533
▁blog	-10.6535
▁Kreis	-10.6535
▁Lernen	-10.6547
▁honest	-10.6564
▁steckt	-10.6564
▁Veränderungen	-10.657
▁nett	-10.6578
leiten	-10.6587
▁Juli	-10.659
▁vote	-10.6593
▁engine	-10.6596
▁Mut	-10.6602
▁voraus	-10.6603
▁Polizei	-10.6605
▁Position	-10.6605
▁Think	-10.6605
▁communicate	-10.6605
einhalb	-10.6605
▁behandeln	-10.6606
▁selten	-10.6606
▁wählen	-10.6606
▁failure	-10.6607
▁Inhalt	-10.6609
▁Air	-10.6616
zählen	-10.6619
▁Gefahr	-10.6619
wandel	-10.6625
▁drin	-10.6631
▁Beine	-10.6639
▁unver	-10.6642
▁Akt	-10.6642
▁NASA	-10.6646
▁journal	-10.6646
▁politics	-10.6646
▁television	-10.6646
▁gedacht	-10.6646
▁atmosphere	-10.6646
▁Sozial	-10.6647
▁Ahnung	-10.665
person	-10.6663
▁central	-10.6688
▁circle	-10.6688
▁infrastructure	-10.6688
▁aufregend	-10.6688
schütz	-10.6691
ulate	-10.6691
▁flying	-10.6706
▁Haben	-10.6707
▁Kapital	-10.6729
▁erfunden	-10.6729
▁genutzt	-10.6729
▁societies	-10.6729
▁vollständig	-10.673
▁behandelt	-10.673
▁sexual	-10.6731
▁aware	-10.6732
▁jemandem	-10.6745
fried	-10.6746
▁Au	-10.675
▁Sport	-10.6759
länder	-10.6764
▁fail	-10.6768
▁Anti	-10.677
struktur	-10.6771
▁außergewöhnlich	-10.6771
▁Fenster	-10.6771
▁river	-10.6772
▁Erkenntnis	-10.6772
▁nahmen	-10.6773
▁Erstens	-10.6773
▁pan	-10.6776
▁2008	-10.6776
▁Part	-10.6779
▁attract	-10.6783
▁shop	-10.6787
▁organize	-10.6799
▁Eigenschaften	-10.6809
▁Geburt	-10.6813
▁Schönheit	-10.6813
▁slightly	-10.6813
▁double	-10.6813
mäßig	-10.6814
place	-10.6821
verbrauch	-10.6821
▁fragt	-10.6824
▁station	-10.6824
▁Gesetze	-10.6825
bruch	-10.6832
▁option	-10.6837
▁Miss	-10.6837
kreis	-10.6844
▁Many	-10.6848
▁pig	-10.685
▁occur	-10.6854
▁tissue	-10.6855
▁understood	-10.6855
▁supply	-10.6855
▁straight	-10.6855
▁wesentlich	-10.6855
▁distance	-10.6855
▁layer	-10.6855
▁engineering	-10.6856
fällt	-10.6878
▁Lied	-10.6879
▁Big	-10.6886
▁express	-10.6889
▁surround	-10.6897
▁capacity	-10.6897
▁speech	-10.6897
▁capture	-10.6897
▁sister	-10.6897
▁Forscher	-10.6897
▁worst	-10.6898
▁James	-10.6898
▁Tim	-10.6899
▁Werkzeuge	-10.6899
How	-10.6931
▁belief	-10.6931
stoß	-10.6932
▁beobachtet	-10.6939
▁konzentrieren	-10.6939
▁Kontakt	-10.6939
▁Operation	-10.6939
▁none	-10.6939
▁Great	-10.6939
hängen	-10.694
▁Last	-10.6965
burg	-10.6968
meister	-10.6971
▁interpret	-10.6982
▁From	-10.6982
▁Protein	-10.6983
▁Zustand	-10.699
▁directly	-10.6991
zel	-10.6993
▁Suche	-10.6993
▁Professor	-10.6997
harm	-10.7
▁verbringen	-10.7002
▁Osten	-10.7007
▁Pre	-10.7014
▁destroy	-10.7024
▁switch	-10.7024
▁feature	-10.7025
nahme	-10.7025
▁conference	-10.7027
▁helped	-10.7031
▁dieselbe	-10.7038
▁beschloss	-10.7042
▁below	-10.7043
▁überleben	-10.7046
▁Gesch	-10.7063
▁Werkzeug	-10.7066
▁Charakter	-10.7067
▁Michael	-10.7067
▁nachhaltig	-10.7067
▁öffnen	-10.7067
▁paid	-10.7068
▁Biologie	-10.7069
ological	-10.708
afrikanische	-10.7089
matic	-10.7102
▁alter	-10.7106
▁2010	-10.711
▁tremendous	-10.711
▁iPhone	-10.711
▁Schutz	-10.7111
▁sentence	-10.7111
▁Street	-10.7111
▁labor	-10.7111
▁Standard	-10.7112
▁spreche	-10.7114
▁lautet	-10.7119
möglich	-10.7132
▁mach	-10.7132
▁shared	-10.7141
abhängig	-10.715
artige	-10.7152
▁custom	-10.7154
▁Anwendung	-10.7154
▁YouTube	-10.7154
▁kontrollieren	-10.7154
▁erlebt	-10.7154
▁deutlich	-10.7154
▁chair	-10.7154
▁shoot	-10.7154
▁whose	-10.7155
▁legt	-10.7156
▁south	-10.7157
▁unabhängig	-10.7158
▁fangen	-10.7159
▁Städten	-10.7162
▁spät	-10.7164
▁wood	-10.7168
▁sau	-10.7169
▁mid	-10.7182
Why	-10.7184
▁Insel	-10.719
▁Phänomen	-10.7197
▁Verfügung	-10.7197
▁Gedicht	-10.7197
Mail	-10.7199
▁hack	-10.72
▁iron	-10.7204
▁recent	-10.7205
usch	-10.7214
▁Post	-10.7215
▁23	-10.7221
▁angefangen	-10.7223
pack	-10.7225
▁trifft	-10.7241
▁Titel	-10.7241
▁überzeugt	-10.7241
▁bridge	-10.7242
▁quote	-10.7247
▁frühen	-10.7254
▁Boot	-10.7256
▁published	-10.7258
▁consumer	-10.726
▁ill	-10.7272
itude	-10.7278
▁gegangen	-10.7283
▁birth	-10.7284
▁Geschwindigkeit	-10.7285
▁Lieblings	-10.7285
▁creativity	-10.7285
▁industrial	-10.7285
▁ursprünglich	-10.7285
▁Effekt	-10.7285
▁muscle	-10.7285
▁Again	-10.7285
▁Karriere	-10.7285
▁argue	-10.7285
▁funny	-10.7285
▁Link	-10.7287
▁Welche	-10.7289
▁Materialien	-10.729
▁mostly	-10.7292
fahrt	-10.7295
▁Gar	-10.7301
▁billig	-10.7304
▁sick	-10.7306
▁Waffen	-10.731
▁meters	-10.7313
▁Center	-10.7321
ification	-10.7325
verständlich	-10.7329
▁algorithm	-10.7329
▁oxygen	-10.7329
▁profound	-10.7329
▁Schwarz	-10.733
▁combine	-10.733
▁Begriff	-10.7339
zusetzen	-10.7349
▁Aufnahme	-10.7361
▁Sauerstoff	-10.7373
▁begonnen	-10.7373
▁dynamic	-10.7373
▁technique	-10.7373
▁Knochen	-10.7373
▁balance	-10.7373
▁untersucht	-10.7376
▁entstehen	-10.7377
▁collective	-10.7379
▁noticed	-10.7383
char	-10.7401
▁Mill	-10.7403
▁Infrastruktur	-10.7417
▁geschafft	-10.7417
▁arrive	-10.7418
▁Überleben	-10.742
▁Letzt	-10.7422
▁herzustellen	-10.7426
▁existieren	-10.7432
sucht	-10.7434
▁Zelle	-10.7442
fertig	-10.745
technologie	-10.7459
▁Amazon	-10.7462
▁brilliant	-10.7462
▁campaign	-10.7462
▁Gewicht	-10.7462
▁Global	-10.7462
▁sector	-10.7462
▁folgt	-10.7462
▁Nehmen	-10.7462
gänge	-10.7469
▁Green	-10.7469
theorie	-10.7471
▁amerikanische	-10.748
▁moralische	-10.7492
▁Bur	-10.7494
▁Todes	-10.7505
▁surgery	-10.7507
▁twice	-10.7507
forschung	-10.7507
lager	-10.7509
▁rational	-10.7509
▁stopped	-10.751
▁Wandel	-10.7513
▁replace	-10.7514
▁Mess	-10.7515
▁22	-10.7515
▁Dort	-10.7516
▁Ansicht	-10.7517
▁astro	-10.7528
▁afraid	-10.7552
▁faszinierend	-10.7552
▁Tausende	-10.7552
▁speaking	-10.7555
▁Ausdruck	-10.7557
▁closer	-10.7559
▁riesigen	-10.7561
▁UN	-10.7567
▁endlich	-10.7576
▁Mir	-10.7578
▁Pass	-10.758
gewicht	-10.7587
tron	-10.7591
▁Over	-10.7593
▁electro	-10.7596
▁Großbritannien	-10.7597
▁Vertrauen	-10.7597
▁Iraq	-10.7597
▁Tochter	-10.7597
▁aufgenommen	-10.7601
▁Radio	-10.7612
60	-10.7612
▁evolved	-10.7612
▁expo	-10.7614
uadrat	-10.7617
Ein	-10.7623
material	-10.763
▁Kreativität	-10.7643
▁elektrische	-10.7643
▁erwähnt	-10.7643
▁relevant	-10.7643
▁reagieren	-10.7643
▁Zeichen	-10.7643
▁component	-10.7643
▁überzeugen	-10.7643
▁sustainable	-10.7644
▁Massen	-10.7647
skop	-10.7648
▁Farben	-10.7679
▁produced	-10.7685
▁workers	-10.7686
▁Vielfalt	-10.7688
▁bought	-10.7688
▁cycle	-10.7688
▁gather	-10.7688
▁kämpfen	-10.7689
▁civilization	-10.7689
▁fuhr	-10.7691
▁shock	-10.7693
▁Lebensmittel	-10.7694
▁Adam	-10.7694
▁grand	-10.7698
▁lack	-10.7716
▁besucht	-10.7717
▁wichtigsten	-10.7723
▁irgend	-10.7732
▁commercial	-10.7734
▁consequence	-10.7734
▁ermöglichen	-10.7734
▁Boston	-10.7735
▁basis	-10.7735
▁Richtig	-10.7735
▁Durchschnitt	-10.7735
▁vast	-10.7736
▁Ausbildung	-10.7736
▁enable	-10.7746
head	-10.776
▁fühle	-10.7775
▁Seit	-10.778
▁determine	-10.778
▁easily	-10.778
▁responsibility	-10.778
▁sogenannte	-10.778
sequenz	-10.778
▁Instead	-10.778
▁Angeles	-10.778
▁Häuser	-10.778
▁smell	-10.778
▁highly	-10.7783
▁missing	-10.7789
▁weiterhin	-10.7789
▁disc	-10.779
▁ski	-10.7796
▁kenne	-10.7796
▁driver	-10.7822
▁College	-10.7827
▁beeinflussen	-10.7827
▁bottle	-10.7827
▁politischen	-10.7828
▁dying	-10.7829
schütte	-10.7829
▁entlang	-10.7835
▁Korea	-10.7835
▁Stimm	-10.7842
▁seemed	-10.7843
▁10,000	-10.7847
ziehung	-10.7847
▁grab	-10.7869
▁Strategie	-10.7873
▁imagination	-10.7873
▁neighbor	-10.7873
schleunig	-10.7873
▁surprising	-10.7873
▁Müll	-10.7873
▁Steuer	-10.7873
▁classroom	-10.7874
hilfe	-10.7875
▁dorthin	-10.7881
▁nochmal	-10.7885
ifi	-10.7888
maß	-10.789
▁pal	-10.7896
▁600	-10.79
▁epi	-10.7905
▁Grün	-10.7909
philosoph	-10.792
▁Temperatur	-10.792
▁nötig	-10.792
▁Brazil	-10.792
▁Holz	-10.792
▁Materie	-10.792
▁Kohle	-10.7921
▁Paris	-10.7921
▁handeln	-10.7928
▁Ansatz	-10.7928
▁investment	-10.7939
▁grundlegende	-10.794
Wenn	-10.7964
▁Atmosphäre	-10.7967
▁Identität	-10.7967
▁Russia	-10.7967
▁Vision	-10.7967
▁gilt	-10.7967
▁scientist	-10.7973
▁Tru	-10.7977
bereich	-10.7981
jahr	-10.799
▁Mode	-10.7992
körper	-10.8013
▁Wikipedia	-10.8014
▁definition	-10.8014
▁article	-10.8014
▁tax	-10.8014
phone	-10.8015
zimmer	-10.8019
▁2007	-10.802
▁magnet	-10.802
sätze	-10.8021
tauchen	-10.8024
bildung	-10.8024
▁nehme	-10.8035
▁Gegend	-10.8039
▁efficient	-10.8043
▁trotz	-10.806
▁Kra	-10.8061
▁diversity	-10.8061
▁graduate	-10.8061
▁metaphor	-10.8061
▁nützlich	-10.8061
▁Schluss	-10.8062
spiegel	-10.8062
▁Online	-10.8064
▁eating	-10.8067
▁tie	-10.8068
Na	-10.8076
▁rare	-10.8077
▁tradition	-10.8079
▁Loch	-10.8086
ehren	-10.8092
▁erlauben	-10.8109
▁überrascht	-10.8109
▁lustig	-10.8109
▁sucht	-10.811
▁blieb	-10.8114
▁drawing	-10.8116
▁Landschaft	-10.8117
▁master	-10.8124
▁hang	-10.8126
▁Mont	-10.8127
▁react	-10.8129
▁reward	-10.8135
▁Blog	-10.8146
Wow	-10.8151
volv	-10.8154
▁Terror	-10.8156
▁Statistik	-10.8157
▁satellite	-10.8157
▁crowd	-10.8157
▁traffic	-10.8157
▁typisch	-10.8159
▁Vogel	-10.816
▁Neuronen	-10.8161
▁weird	-10.8163
▁Mehr	-10.8168
▁May	-10.8169
▁Konferenz	-10.8173
▁wohin	-10.8174
▁genetische	-10.8191
▁stabil	-10.8193
neu	-10.8196
nimmt	-10.8197
▁entscheidend	-10.8201
▁Take	-10.8204
▁entschied	-10.8204
▁Intelligenz	-10.8205
▁entsteht	-10.8205
▁Ameisen	-10.8205
▁background	-10.8205
▁Soldaten	-10.8205
bewegung	-10.8205
▁Tumor	-10.8205
▁Bildschirm	-10.8206
▁grade	-10.8206
▁Virus	-10.8207
▁graph	-10.8209
▁blow	-10.821
▁complexity	-10.8212
fluss	-10.8216
▁durchgeführt	-10.8216
▁hearing	-10.8223
▁nearly	-10.8229
▁erstellen	-10.8247
▁Science	-10.8253
▁Zusammenhang	-10.8253
▁correct	-10.8253
▁dinosaur	-10.8253
▁Plastik	-10.8253
▁Robert	-10.8254
▁broken	-10.8256
▁Kunden	-10.8256
Du	-10.8256
▁Good	-10.8258
▁erhielt	-10.8262
▁flight	-10.8262
▁earth	-10.8264
▁desire	-10.8266
▁gap	-10.8268
▁European	-10.8269
▁westliche	-10.8283
▁Produktion	-10.8283
gehend	-10.8286
schein	-10.8288
▁chinesische	-10.8302
▁continent	-10.8302
▁dramatic	-10.8302
▁einzigartig	-10.8302
▁Korallen	-10.8302
▁technische	-10.8302
▁airplane	-10.8302
▁giant	-10.8302
anischen	-10.8311
aci	-10.8316
▁darf	-10.8319
luck	-10.8343
▁spending	-10.8346
▁Ecke	-10.8347
▁Australia	-10.8351
▁Komplexität	-10.8351
▁contact	-10.8351
▁erforschen	-10.8351
▁Wunsch	-10.8351
▁application	-10.8351
▁consciousness	-10.8351
▁avoid	-10.8351
▁promise	-10.8351
▁addition	-10.8352
▁dagegen	-10.8356
▁Satz	-10.8357
▁tough	-10.8358
▁Einsatz	-10.8361
Y	-10.8364
▁flag	-10.8364
▁Norm	-10.8374
▁Architekt	-10.8393
▁1990	-10.84
▁Niemand	-10.84
▁künstlich	-10.84
▁GPS	-10.84
▁divide	-10.84
rechnung	-10.84
zeichen	-10.84
amme	-10.84
▁whale	-10.84
▁Institute	-10.8401
▁operation	-10.8401
▁tip	-10.8407
▁1,000	-10.8408
gegen	-10.8411
▁sport	-10.8418
▁erhält	-10.8419
öpfe	-10.842
gefallen	-10.843
kunde	-10.8439
hnlich	-10.8447
▁heran	-10.8447
▁flower	-10.8447
▁breast	-10.8449
▁Bedingungen	-10.8449
▁Insekten	-10.8449
▁Unterstützung	-10.8449
▁betrifft	-10.8449
▁opportunities	-10.8449
▁zusätzlich	-10.8449
▁bemerkenswert	-10.8449
▁Golf	-10.8452
kosystem	-10.8453
▁fold	-10.846
▁stem	-10.8464
▁studying	-10.8467
funktion	-10.8468
ografie	-10.8473
▁Hinter	-10.8479
▁Diskussion	-10.8498
▁Middle	-10.8498
▁coffee	-10.8498
▁struggle	-10.8498
▁universal	-10.8498
▁Würde	-10.8499
▁chain	-10.8499
▁Andere	-10.8501
fällig	-10.8502
▁mill	-10.8514
▁invent	-10.8516
▁erstellt	-10.8529
▁Zentrum	-10.8548
▁ecosystem	-10.8548
▁encourage	-10.8548
▁monkey	-10.8548
▁strength	-10.8548
▁visuelle	-10.8548
▁outcome	-10.8549
▁held	-10.8552
▁Human	-10.8553
▁Dienst	-10.8555
▁BG	-10.8556
▁pet	-10.856
▁investieren	-10.8562
▁reaction	-10.8563
▁focused	-10.8566
▁davor	-10.857
▁noise	-10.8575
zusehen	-10.8578
▁Actually	-10.8598
▁Mütter	-10.8598
▁Resultat	-10.8598
▁benötigen	-10.8598
▁husband	-10.8598
▁verfügbar	-10.8598
▁yellow	-10.8598
▁kulturelle	-10.8598
▁Zusammenarbeit	-10.86
▁Patient	-10.8602
▁fairly	-10.8616
▁leer	-10.862
▁forever	-10.8623
▁Sekunde	-10.8626
▁Fest	-10.8636
▁End	-10.8637
Okay	-10.8645
▁gewonnen	-10.8648
▁victim	-10.8648
▁remove	-10.8648
▁fully	-10.8655
zelle	-10.8657
▁Drittel	-10.8657
▁27	-10.8658
finden	-10.8659
▁beschreiben	-10.8666
ologische	-10.8669
▁desert	-10.8669
▁jung	-10.8674
based	-10.8696
gelassen	-10.8696
fährt	-10.8699
▁competition	-10.8699
▁identity	-10.8699
▁kommunizieren	-10.8699
▁opposite	-10.8699
▁ancient	-10.8699
▁cartoon	-10.8699
▁Gewebe	-10.8699
▁click	-10.8699
rechnen	-10.87
▁Irak	-10.8706
▁Brief	-10.8707
life	-10.8713
▁schien	-10.8729
kräfte	-10.875
▁Tradition	-10.875
▁museum	-10.875
▁technical	-10.875
▁border	-10.875
▁bread	-10.875
▁remote	-10.875
▁joy	-10.875
▁Basis	-10.875
▁klingt	-10.875
Sie	-10.8752
▁crash	-10.8752
▁1960	-10.8752
▁2005	-10.8757
▁weiss	-10.8765
▁trend	-10.8773
▁lernt	-10.8778
▁Medikament	-10.8793
wick	-10.8795
▁Perspektive	-10.8801
▁begeistert	-10.8801
▁bubble	-10.8801
▁stolz	-10.8801
▁root	-10.8801
▁Zweitens	-10.8801
assembl	-10.8802
▁bezahlt	-10.8804
stab	-10.8804
▁Träume	-10.8807
▁scene	-10.8808
▁Haar	-10.8836
daten	-10.8841
▁entrepreneur	-10.8849
staat	-10.8851
▁Untersuchung	-10.8852
▁phenomenon	-10.8852
▁unbedingt	-10.8852
▁lucky	-10.8852
▁Geheimnis	-10.8852
▁electronic	-10.8853
▁Mai	-10.8859
▁Stoff	-10.8859
phase	-10.8865
▁inspired	-10.8867
▁leider	-10.887
▁summ	-10.8898
▁Higgs	-10.8903
▁Mitglied	-10.8903
▁effizient	-10.8903
▁magazine	-10.8903
▁possibility	-10.8903
▁religious	-10.8903
▁vermutlich	-10.8903
▁recover	-10.8903
▁Jugend	-10.8904
▁Faktor	-10.8904
▁despite	-10.8904
▁radical	-10.8904
▁Geschlecht	-10.8905
▁score	-10.8905
▁Act	-10.8907
▁crime	-10.8908
▁farmers	-10.8912
▁edit	-10.8924
▁Spi	-10.8925
▁psych	-10.8951
▁Depression	-10.8955
▁Kontext	-10.8955
▁buchstäblich	-10.8955
▁mechanism	-10.8955
fügen	-10.8956
▁psycho	-10.8956
▁Code	-10.8957
▁Kurs	-10.8962
▁suit	-10.8962
geladen	-10.8987
▁whi	-10.8988
▁Viel	-10.9005
schluss	-10.9006
▁fashion	-10.9007
▁advantage	-10.9007
▁herausgefunden	-10.9007
▁easier	-10.9007
▁Obama	-10.9007
▁mouth	-10.9007
▁Kenya	-10.9007
▁talent	-10.9007
▁clever	-10.9008
▁Hintergrund	-10.9008
▁prior	-10.9008
▁damage	-10.9008
▁coast	-10.9008
▁Fällen	-10.9009
▁2009	-10.9013
▁umgehen	-10.9014
▁Astro	-10.9036
▁65	-10.9049
▁krank	-10.9052
pound	-10.9055
▁Kräfte	-10.906
▁verdienen	-10.906
▁sharing	-10.906
▁adopt	-10.906
▁British	-10.906
▁chose	-10.9061
▁vollkommen	-10.9062
▁außerdem	-10.9063
▁Großteil	-10.9064
unternehmen	-10.9066
▁Masse	-10.9069
▁notwendig	-10.9074
gewinn	-10.9074
▁host	-10.9079
▁kalt	-10.9079
sprech	-10.908
▁Fach	-10.9086
▁Such	-10.9088
▁Denk	-10.9089
▁Einheit	-10.91
▁wiederum	-10.9107
▁Thomas	-10.9112
▁hängt	-10.9112
projekt	-10.9112
▁roof	-10.9112
▁General	-10.9114
This	-10.9115
▁repeat	-10.9119
▁übertragen	-10.913
quelle	-10.913
gefangen	-10.9134
▁sorry	-10.9138
▁suffering	-10.914
▁raised	-10.9163
▁Rock	-10.9164
▁konzentriert	-10.9165
günstig	-10.9165
▁Fünf	-10.9165
▁estimate	-10.9165
speicher	-10.9165
▁besitzen	-10.9166
▁foreign	-10.9166
▁cri	-10.9168
▁Landwirtschaft	-10.9168
▁Laden	-10.9169
▁basiert	-10.9173
gegangen	-10.9174
▁sicherlich	-10.919
ography	-10.9191
Tech	-10.9195
sichtlich	-10.9198
vision	-10.92
▁entirely	-10.9213
▁Valley	-10.9218
▁professor	-10.9218
▁selber	-10.9219
▁French	-10.9219
▁Interaktion	-10.9219
▁stecken	-10.9219
▁Fläche	-10.9219
▁gestalten	-10.9219
erseits	-10.9219
▁sitzt	-10.922
fähigkeit	-10.9221
▁1980	-10.9221
▁sorgen	-10.9221
▁bright	-10.923
tract	-10.9238
▁Politiker	-10.9243
▁Zeitung	-10.9247
stimmt	-10.9247
kunft	-10.9271
▁Jack	-10.9271
▁Fabrik	-10.9272
▁zerstört	-10.9272
▁president	-10.9272
▁regular	-10.9272
▁disorder	-10.9272
▁Zuerst	-10.9273
▁bezahlen	-10.9273
▁Sorgen	-10.9274
▁However	-10.9277
▁erkannte	-10.9283
▁expression	-10.9288
wagen	-10.9317
▁250	-10.932
▁Erklärung	-10.9326
▁necessarily	-10.9326
▁Nutzen	-10.9326
▁versteckt	-10.9326
▁location	-10.9326
▁Affen	-10.9326
▁Haiti	-10.9327
▁Küste	-10.9328
▁Wild	-10.9328
▁Hai	-10.9339
▁poem	-10.935
▁cry	-10.9352
▁Lern	-10.9356
▁Mexico	-10.938
▁Ghana	-10.938
▁Januar	-10.938
▁sozusagen	-10.938
würdig	-10.938
▁letztendlich	-10.938
▁gelangen	-10.938
▁tumor	-10.938
▁Stufe	-10.938
▁zog	-10.9381
▁Apple	-10.9396
▁solch	-10.94
erfolg	-10.9403
▁moon	-10.9417
▁Sehr	-10.9423
▁auseinander	-10.9425
▁govern	-10.9428
▁dürfen	-10.9434
▁hauptsächlich	-10.9434
▁kümmern	-10.9434
▁responsible	-10.9434
▁restaurant	-10.9434
▁verbessert	-10.9434
▁Kontinent	-10.9434
▁attempt	-10.9434
▁überraschend	-10.9434
▁Zweck	-10.9434
▁Sometimes	-10.9434
▁aktuelle	-10.9434
▁election	-10.9434
▁Unternehmer	-10.9435
▁bestimmen	-10.9435
▁creation	-10.9435
▁stammt	-10.9437
▁stärker	-10.9438
▁hinweg	-10.9442
▁Bitte	-10.9446
▁plus	-10.9448
▁proud	-10.9452
schalten	-10.9463
▁Milliarde	-10.947
▁physische	-10.9482
▁Krise	-10.9484
kultur	-10.9488
schule	-10.9489
▁Symbol	-10.9489
▁appreciat	-10.9489
▁getötet	-10.9489
▁leadership	-10.9489
▁mindestens	-10.9489
▁chemische	-10.9489
▁wuchs	-10.9489
▁Stift	-10.949
aving	-10.9491
▁grass	-10.9492
▁grau	-10.9496
▁Kindheit	-10.95
▁solid	-10.9502
▁Militär	-10.9544
▁previous	-10.9544
▁teenage	-10.9544
▁Child	-10.9544
▁translate	-10.9545
▁Wüste	-10.9545
▁pounds	-10.9547
▁Kann	-10.9551
▁Mission	-10.9552
▁drag	-10.9552
▁Brücke	-10.9554
▁suffer	-10.957
dienst	-10.9572
zugeben	-10.9595
▁Erfindung	-10.9599
▁Grafik	-10.9599
▁Kalifornien	-10.9599
▁Zivilisation	-10.9599
▁innovative	-10.9599
▁necessary	-10.9599
▁claim	-10.9599
▁egg	-10.9599
▁studied	-10.9599
▁sink	-10.9601
▁entwerfen	-10.9602
fläche	-10.9605
▁pair	-10.9605
treffen	-10.9606
ehrt	-10.9607
▁mode	-10.9613
geteilt	-10.9621
room	-10.9625
anlage	-10.9631
stamm	-10.9646
▁Kaffee	-10.9654
▁hurt	-10.9655
▁wächst	-10.9655
▁Institutionen	-10.9655
▁concentrat	-10.9655
▁debate	-10.9655
▁battle	-10.9655
▁conduct	-10.9658
▁dran	-10.9666
öffentlich	-10.9682
▁inspiriert	-10.971
▁irgendwann	-10.971
▁interagieren	-10.971
▁verwandeln	-10.971
▁Brust	-10.971
▁horse	-10.9711
schritt	-10.9711
▁Egypt	-10.9712
▁Grundlage	-10.9715
▁mouse	-10.9716
▁Trick	-10.9717
▁ultimately	-10.9719
▁Roman	-10.973
▁transformation	-10.9735
▁related	-10.9736
hesi	-10.9736
▁daß	-10.9743
▁Weiß	-10.9746
▁wichtigste	-10.9749
▁Sprach	-10.9762
▁hall	-10.9762
gefühl	-10.9766
▁Laptop	-10.9767
▁Zimmer	-10.9767
▁broad	-10.9767
▁faith	-10.9767
▁stuck	-10.9767
▁verfolgen	-10.9767
▁unfortunately	-10.9769
▁versus	-10.9772
bewusst	-10.9775
▁failed	-10.9802
▁Tasche	-10.9822
▁International	-10.9823
▁childhood	-10.9823
▁gewöhnlich	-10.9823
▁identify	-10.9823
▁monitor	-10.9823
▁succeed	-10.9823
▁verantwortlich	-10.9823
▁collapse	-10.9823
▁Verlust	-10.9823
▁truck	-10.9823
▁Stress	-10.9823
▁Maus	-10.9824
▁extend	-10.9824
▁scheinen	-10.9825
▁hyper	-10.9828
▁Paar	-10.9854
▁finish	-10.9854
▁Teilchen	-10.9856
▁32	-10.9857
▁beschrieb	-10.988
▁töten	-10.988
▁Stärke	-10.988
▁honor	-10.988
▁filter	-10.988
▁Fahrzeug	-10.988
▁Jungs	-10.9882
▁Augenblick	-10.9882
▁1950	-10.9887
▁Verkehr	-10.989
therapie	-10.9896
reife	-10.9896
▁schwarz	-10.9899
▁DH	-10.9903
▁bill	-10.9925
▁Außerdem	-10.9937
▁Microsoft	-10.9937
▁platform	-10.9937
▁Heimat	-10.9937
▁Fleisch	-10.9937
▁Gegenteil	-10.9941
▁operate	-10.9943
front	-10.9946
▁pump	-10.9954
▁Homo	-10.9954
▁Gras	-10.9959
▁concerned	-10.9959
▁Once	-10.9961
Psycho	-10.9966
▁sudden	-10.9981
▁übrig	-10.9992
▁exercise	-10.9994
▁university	-10.9994
▁Kohlenstoff	-10.9994
▁leaving	-10.9995
▁Interview	-10.9995
▁Zitat	-10.9996
▁metal	-11.0004
▁Bauern	-11.001
▁Kerl	-11.0012
▁Stamm	-11.0015
▁discovery	-11.0027
▁interessieren	-11.0052
▁newspaper	-11.0052
▁exhibit	-11.0052
▁Rahmen	-11.0052
▁lunch	-11.0052
▁möglicherweise	-11.0055
▁unlike	-11.006
▁direct	-11.0067
▁Katze	-11.0071
▁slowly	-11.0082
▁blu	-11.0087
schaffen	-11.0102
▁deeply	-11.0102
▁Wahrnehmung	-11.011
▁caught	-11.011
▁interface	-11.011
▁Bruder	-11.011
▁Muskel	-11.011
▁unsichtbar	-11.0111
▁novel	-11.0111
▁Bush	-11.0115
▁Sitz	-11.0119
▁gegenseitig	-11.0125
▁parent	-11.0126
frau	-11.0131
▁curve	-11.0143
▁erzähle	-11.0152
▁komplex	-11.0158
▁Stanford	-11.0169
rechnet	-11.0169
▁vorhanden	-11.0169
▁Hunger	-11.0169
▁constantly	-11.0178
gekommen	-11.0181
ounce	-11.0181
▁Come	-11.0193
▁Jim	-11.0193
80	-11.0198
Nun	-11.0198
▁Verstand	-11.0201
▁reform	-11.0224
nvention	-11.0228
▁Dinosaurier	-11.0228
▁Vögel	-11.0228
▁erhöht	-11.0228
▁finanziell	-11.0228
▁verhindern	-11.0228
▁depression	-11.0228
▁gehabt	-11.0228
▁gäbe	-11.0228
▁studiert	-11.0228
▁Außen	-11.0228
▁reveal	-11.0228
▁verwandelt	-11.0228
▁Umstände	-11.023
muster	-11.0231
masse	-11.0251
▁bag	-11.0263
ffentlichkeit	-11.0287
▁1970	-11.0287
▁Schrift	-11.0287
▁fascinating	-11.0287
▁Experten	-11.0287
▁Spiegel	-11.0287
▁patent	-11.0287
▁multiple	-11.0287
▁fresh	-11.0287
▁Meilen	-11.0288
▁majority	-11.0294
▁discussion	-11.0297
▁motion	-11.03
power	-11.0305
▁insight	-11.0307
▁Euro	-11.031
▁finished	-11.0314
▁factory	-11.0323
▁Minute	-11.0332
▁strategy	-11.0346
▁opinion	-11.0346
gebrochen	-11.0346
▁empower	-11.0346
▁Verhältnis	-11.0346
▁Website	-11.0346
▁Mitarbeiter	-11.0346
▁Fremd	-11.0347
▁capable	-11.0352
▁sichtbar	-11.0356
▁hunt	-11.0359
▁profession	-11.036
▁Hör	-11.036
getrieben	-11.036
schaftliche	-11.0374
▁garden	-11.0376
film	-11.038
▁Audience	-11.0406
▁budget	-11.0406
▁mathematics	-11.0406
▁puzzle	-11.0406
▁quantum	-11.0406
▁otherwise	-11.0406
▁vertraut	-11.0406
krebs	-11.0406
▁teuer	-11.0407
▁quiet	-11.0407
▁bieten	-11.0407
▁organisiert	-11.0408
▁attach	-11.0409
▁anfing	-11.0413
▁26	-11.0424
▁Peter	-11.0433
üssig	-11.0446
▁Shi	-11.0448
point	-11.0453
▁irgendetwas	-11.0467
▁Haufen	-11.0467
▁kostenlos	-11.0467
lösung	-11.0468
▁Seh	-11.0468
▁operating	-11.0468
elect	-11.0468
▁wertvoll	-11.0468
▁Matt	-11.0469
▁verteilt	-11.047
▁lebendig	-11.047
▁error	-11.0472
länge	-11.0485
linie	-11.0487
▁verschieden	-11.049
lohn	-11.0495
ji	-11.0497
▁topic	-11.0516
▁Still	-11.0524
zeichnung	-11.0527
▁Ernährung	-11.0527
▁cognitive	-11.0527
▁entworfen	-11.0527
▁equivalent	-11.0527
▁extinct	-11.0527
▁unterscheiden	-11.0527
▁zukünftige	-11.0527
▁display	-11.0527
▁smile	-11.0527
▁organisms	-11.053
▁Zucker	-11.0531
▁Schicht	-11.0544
▁comment	-11.0554
▁perfectly	-11.0561
▁origin	-11.0565
▁logic	-11.0573
▁Cent	-11.0577
organism	-11.0584
▁consumption	-11.0588
▁Texas	-11.0588
▁disaster	-11.0588
spruch	-11.0588
▁Doktor	-11.0588
▁Folgendes	-11.0588
▁kennt	-11.0588
▁Investition	-11.0589
▁Prä	-11.0589
▁odd	-11.0592
▁promot	-11.0593
▁Handlung	-11.0594
▁Seele	-11.0597
▁Absicht	-11.0601
▁assume	-11.0602
▁currently	-11.0612
▁könnt	-11.0615
illion	-11.0624
labor	-11.0631
▁Gedanke	-11.0635
▁electric	-11.0648
▁Wettbewerb	-11.0649
pflanzen	-11.0649
▁Manhattan	-11.0649
▁galaxies	-11.0649
▁volunteer	-11.0649
▁präsent	-11.0649
▁invisible	-11.0649
effekt	-11.0649
▁Zuschauer	-11.0649
leuchten	-11.065
▁dinner	-11.065
▁clip	-11.065
▁Three	-11.065
▁contract	-11.0652
▁Martin	-11.0655
▁120	-11.066
▁Einstellung	-11.0662
▁hergestellt	-11.0664
▁clinic	-11.0668
▁mentioned	-11.0672
▁Sag	-11.0676
▁Mund	-11.0694
zukommen	-11.0697
nny	-11.0699
▁construct	-11.0704
▁Restaurant	-11.0711
▁Uganda	-11.0711
▁artificial	-11.0711
▁beantworten	-11.0711
▁channel	-11.0711
▁circuit	-11.0711
▁feedback	-11.0712
schläge	-11.0712
▁weather	-11.0712
▁Trend	-11.0712
▁Ausmaß	-11.0714
maker	-11.0728
läuft	-11.0731
lösen	-11.0732
grab	-11.074
▁Halt	-11.0742
ffnung	-11.0746
menge	-11.0759
▁wartet	-11.0766
▁employ	-11.0773
▁Rätsel	-11.0773
▁Schimpansen	-11.0773
▁elephant	-11.0773
▁marriage	-11.0773
▁politician	-11.0773
▁practical	-11.0773
▁worried	-11.0773
▁vergleichen	-11.0774
▁besagt	-11.0774
▁Streit	-11.0774
▁ernsthaft	-11.0774
▁brief	-11.0777
▁Feind	-11.0778
▁Phase	-11.0778
▁irre	-11.0792
▁clinical	-11.0817
▁PM	-11.082
▁Katastrophe	-11.0836
▁entspricht	-11.0836
▁grandmother	-11.0836
▁hoffentlich	-11.0836
▁exchange	-11.0836
▁traurig	-11.0836
▁wisdom	-11.0836
▁mirror	-11.0838
▁Tanz	-11.0839
▁angesehen	-11.084
▁wearing	-11.0841
▁spec	-11.0863
▁gemein	-11.0865
back	-11.0869
▁refer	-11.0869
Bahn	-11.0872
▁Individuen	-11.0899
▁Märkte	-11.0899
▁Project	-11.0899
▁distribution	-11.0899
▁galaxy	-11.0899
▁intellectual	-11.0899
▁laptop	-11.0899
▁unterstützt	-11.0899
▁precise	-11.0899
▁Null	-11.0899
▁Unterhaltung	-11.0899
▁belong	-11.09
▁chip	-11.09
▁Annahme	-11.0902
▁Pflege	-11.0903
▁2004	-11.0906
▁everyday	-11.091
▁crack	-11.0911
▁organic	-11.0912
▁Gericht	-11.0938
aktion	-11.095
▁Hinweis	-11.0961
▁Everybody	-11.0962
▁Kreuz	-11.0962
▁epidemic	-11.0962
▁nervous	-11.0962
zentrum	-11.0962
▁allerdings	-11.0962
▁Jemand	-11.0962
▁Gegensatz	-11.0963
▁Lektion	-11.0969
q	-11.0985
▁Nano	-11.0991
▁grundlegend	-11.0998
▁Bedürfnisse	-11.1001
▁Diagramm	-11.1026
▁married	-11.1026
▁mathematical	-11.1026
▁zugänglich	-11.1026
rhythm	-11.1026
▁fellow	-11.1026
▁awful	-11.1026
▁relation	-11.1026
▁analog	-11.1027
▁planning	-11.1027
▁aufbauen	-11.1028
▁Theater	-11.1028
▁Gib	-11.103
boot	-11.103
▁dennoch	-11.1035
▁Eindruck	-11.1039
▁bull	-11.1039
▁lift	-11.1041
▁Stock	-11.1045
▁collection	-11.1048
▁kick	-11.1049
▁unless	-11.1059
litz	-11.106
▁involve	-11.1062
▁kürzlich	-11.109
erkennung	-11.109
▁Toilette	-11.109
▁William	-11.109
▁zoom	-11.109
▁Figur	-11.109
▁peak	-11.1091
▁Obwohl	-11.1091
▁chart	-11.1095
▁Zeitalter	-11.1099
gründe	-11.1105
▁100,000	-11.1109
▁Atem	-11.1121
▁Klang	-11.1121
kette	-11.1124
▁publish	-11.1128
▁Camp	-11.1132
▁Planet	-11.1137
▁gelb	-11.1143
▁Grenze	-11.1145
bound	-11.1154
▁Brasilien	-11.1154
▁Dimension	-11.1154
▁agriculture	-11.1154
▁economist	-11.1154
▁equipment	-11.1154
▁fördern	-11.1154
▁survey	-11.1154
▁survival	-11.1154
▁wheel	-11.1154
▁chicken	-11.1154
▁Would	-11.1154
▁dress	-11.1155
freund	-11.1155
lässig	-11.1155
▁anonym	-11.1155
▁ethic	-11.1159
▁gestern	-11.1168
▁invention	-11.1169
▁Ya	-11.1178
▁highest	-11.1179
▁robotic	-11.1187
▁hide	-11.1191
haltung	-11.1198
▁28	-11.12
zählt	-11.1206
Yes	-11.1206
ridge	-11.1208
▁resource	-11.1213
▁taste	-11.1215
▁Satelliten	-11.1219
▁Eigentlich	-11.1219
▁Metapher	-11.1219
▁Oxford	-11.1219
▁narrative	-11.1219
▁öffnet	-11.1219
▁stupid	-11.1219
▁Titan	-11.1219
▁erscheinen	-11.122
▁Räume	-11.122
▁gelesen	-11.122
▁Folie	-11.1225
▁Besitz	-11.1229
▁pill	-11.1238
▁Hinsicht	-11.1243
hnung	-11.125
▁theater	-11.1257
züge	-11.1258
▁brauche	-11.1275
▁skill	-11.128
▁electrical	-11.1283
▁Argument	-11.1285
▁reduzieren	-11.1285
▁hopefully	-11.1285
▁Zuhause	-11.1285
▁geschickt	-11.1285
▁Fakten	-11.1285
▁curious	-11.1286
▁Pferd	-11.1287
▁zahlen	-11.1289
▁schlau	-11.1294
▁Germany	-11.1298
krankheit	-11.1299
▁dry	-11.1307
▁10.000	-11.131
▁actor	-11.1312
ologists	-11.1325
box	-11.1338
sorge	-11.1339
achtet	-11.1348
▁Definition	-11.135
▁Höhle	-11.135
▁contribute	-11.135
▁inspirieren	-11.135
▁Show	-11.135
▁verbreiten	-11.1351
▁existence	-11.1351
▁observe	-11.1351
Gesundheitswesen	-11.1354
▁Other	-11.1361
▁Bericht	-11.1367
▁erfinden	-11.1369
▁Dichte	-11.1391
stimmung	-11.1417
▁Chirurg	-11.1417
▁beinhaltet	-11.1417
▁perception	-11.1417
▁verschwinden	-11.1417
möglichkeiten	-11.1417
Magazin	-11.1417
▁Alternative	-11.1417
▁Malaria	-11.1417
▁joke	-11.1417
▁Schatten	-11.1417
▁kilometers	-11.1418
▁reef	-11.1421
▁Milch	-11.1426
▁increasingly	-11.1428
▁religiöse	-11.1438
▁terrorist	-11.1452
▁concern	-11.1457
stärke	-11.1463
▁Australien	-11.1483
▁berührt	-11.1483
▁eindeutig	-11.1483
▁folks	-11.1483
▁geändert	-11.1483
▁yesterday	-11.1483
▁Erlebnis	-11.1483
▁property	-11.1483
ämpft	-11.1483
▁credit	-11.1483
▁hidden	-11.1483
▁Smith	-11.1483
▁Gestalt	-11.1483
aufnahme	-11.1484
▁Fels	-11.1487
▁extract	-11.1488
▁teure	-11.1489
▁2006	-11.1491
▁2,000	-11.1494
▁wake	-11.1496
krise	-11.1497
▁Farm	-11.1498
▁Lebewesen	-11.155
▁Prototyp	-11.155
▁according	-11.155
▁dolphin	-11.155
▁equation	-11.155
▁gestorben	-11.155
▁ordinary	-11.155
▁zerstören	-11.155
▁doppelt	-11.155
▁parallel	-11.155
▁studieren	-11.155
strategie	-11.155
▁mammal	-11.155
▁rural	-11.155
▁kontrolliert	-11.1551
▁gewählt	-11.1551
▁Webseite	-11.1551
▁weibliche	-11.1553
▁Wirkung	-11.1553
▁Straf	-11.1554
▁Mikroben	-11.1556
▁Photo	-11.156
losigkeit	-11.156
print	-11.1564
▁vermute	-11.1571
▁tube	-11.158
▁physi	-11.1583
house	-11.16
▁Dokument	-11.1618
▁Füße	-11.1618
▁Hollywood	-11.1618
▁permanent	-11.1618
▁Organismen	-11.1618
▁üblich	-11.1618
▁sugar	-11.1618
▁comfortable	-11.162
▁illness	-11.1621
▁Abschluss	-11.1621
▁construction	-11.1626
getragen	-11.1627
quot	-11.1633
grenze	-11.1636
▁Sprech	-11.1638
fusion	-11.1644
▁gehören	-11.1645
down	-11.1647
That	-11.165
▁exact	-11.1673
▁Darau	-11.1673
preis	-11.1679
scale	-11.1684
▁Elektrizität	-11.1686
▁Existenz	-11.1686
▁Kombination	-11.1686
▁official	-11.1686
ibility	-11.1686
orientiert	-11.1686
▁stood	-11.1686
▁shoes	-11.1686
▁Gesamt	-11.1686
▁command	-11.1686
▁daily	-11.1687
▁safety	-11.169
▁Hotel	-11.1694
▁flip	-11.1697
▁lifetime	-11.1699
▁95	-11.1705
gras	-11.171
▁dumm	-11.1727
positiv	-11.173
plätze	-11.1754
▁Florida	-11.1754
▁Foundation	-11.1754
▁Mexiko	-11.1754
▁combination	-11.1754
▁fängt	-11.1754
▁grundsätzlich	-11.1754
▁heavy	-11.1754
▁importance	-11.1754
▁vessel	-11.1754
▁Everything	-11.1755
▁Viertel	-11.1755
▁automatisch	-11.1755
▁Japanese	-11.1755
▁initial	-11.1755
▁trillion	-11.1757
▁Küche	-11.1757
▁entgegen	-11.1757
▁Umfeld	-11.1757
▁setting	-11.1766
▁Garten	-11.1778
sländern	-11.1785
▁Rio	-11.181
organisation	-11.1823
versorgung	-11.1823
▁transparent	-11.1823
▁distinct	-11.1823
▁empty	-11.1823
▁evil	-11.1824
▁ignore	-11.1824
▁Chemie	-11.1825
▁glu	-11.1825
▁virtuelle	-11.1827
▁season	-11.183
▁rocket	-11.1836
fremd	-11.1844
▁nano	-11.1858
▁zunehmend	-11.1866
▁definieren	-11.1893
▁drüben	-11.1893
▁volume	-11.1893
anthrop	-11.1893
Sahara	-11.1894
▁Britain	-11.1894
▁Invest	-11.1894
▁transition	-11.1895
schaltet	-11.1896
▁Wetter	-11.1898
▁Wohl	-11.19
▁toilet	-11.1903
▁Viren	-11.1909
▁Brit	-11.191
▁broke	-11.196
▁Korruption	-11.1963
▁begrenzt	-11.1963
▁vaccine	-11.1963
▁poetry	-11.1963
▁pocket	-11.1963
fahrer	-11.1963
▁bildet	-11.1963
▁Wohlstand	-11.1964
▁schickte	-11.1964
▁Talk	-11.1965
▁instant	-11.1966
▁komisch	-11.1966
▁Hunderte	-11.1968
▁Schlag	-11.1969
▁Vorfahren	-11.1973
▁plate	-11.1977
▁River	-11.198
name	-11.1999
▁erkennt	-11.2018
▁essential	-11.2021
▁mention	-11.2027
▁Alzheimer	-11.2033
▁Emotionen	-11.2033
▁President	-11.2033
▁Vietnam	-11.2033
▁analysis	-11.2033
▁prototype	-11.2033
▁radikal	-11.2033
▁maintain	-11.2033
▁abstract	-11.2033
▁Health	-11.2033
▁incentive	-11.2033
▁Hilfs	-11.2033
▁Privat	-11.2033
▁reagiert	-11.2034
▁microbes	-11.2034
▁darstellen	-11.2034
▁Kirche	-11.2035
▁admit	-11.2036
▁Witz	-11.204
▁consume	-11.2077
▁Nase	-11.2101
▁Allgemein	-11.2104
▁ungewöhnlich	-11.2104
▁verbindet	-11.2104
▁vertrauen	-11.2104
▁erscheint	-11.2104
heiratet	-11.2104
Please	-11.2105
▁anwenden	-11.2105
▁manipulat	-11.2108
ermaßen	-11.2114
ville	-11.2115
▁bias	-11.2117
witz	-11.2146
▁Ereignisse	-11.2164
turm	-11.2167
▁classic	-11.2175
Ü	-11.2176
▁Deutschland	-11.2176
▁dramatisch	-11.2176
▁explanation	-11.2176
▁pleasure	-11.2176
▁possibilities	-11.2176
▁Canada	-11.2176
▁battery	-11.2176
▁SMS	-11.2176
▁Nachbarn	-11.2176
▁deswegen	-11.2176
▁dauern	-11.2176
▁historisch	-11.2177
▁tribe	-11.2177
▁cutting	-11.2182
▁management	-11.2186
▁Zufall	-11.2188
▁pray	-11.2189
▁700	-11.219
▁Anruf	-11.2192
feuer	-11.2204
▁prefer	-11.2205
gesellschaft	-11.2206
activat	-11.224
▁Fälle	-11.2246
▁accurate	-11.2248
▁chemistry	-11.2248
▁encounter	-11.2248
▁establish	-11.2248
▁fasziniert	-11.2248
▁variety	-11.2248
▁quasi	-11.2248
▁aufzubauen	-11.2248
▁healthcare	-11.2248
▁verdient	-11.2248
▁Maßstab	-11.2248
technik	-11.2248
▁convert	-11.225
▁Spielzeug	-11.2251
▁addict	-11.2252
▁klug	-11.2254
▁grain	-11.2255
▁orange	-11.2261
▁flies	-11.2265
▁Journalist	-11.2282
lution	-11.2296
bringt	-11.2308
▁conclusion	-11.232
▁Darstellung	-11.232
▁Training	-11.232
▁Flagge	-11.232
▁Kenia	-11.2322
▁Ausstellung	-11.2327
▁Ruf	-11.2349
▁Aussage	-11.236
dreht	-11.2366
größe	-11.2392
▁demonstrate	-11.2393
▁surgeon	-11.2393
▁symptom	-11.2393
▁tomorrow	-11.2393
▁underneath	-11.2393
Sequenz	-11.2393
▁vermitteln	-11.2393
▁review	-11.2399
▁musician	-11.2405
▁crop	-11.2405
▁Angriff	-11.2406
▁relate	-11.2433
▁discuss	-11.2454
▁participate	-11.2467
▁penguin	-11.2467
▁absorb	-11.2467
▁Christian	-11.2467
geworfen	-11.2467
▁title	-11.2467
▁Saturn	-11.2467
▁spider	-11.2467
▁Riesen	-11.2467
▁corruption	-11.2468
▁mittlere	-11.2469
▁court	-11.247
▁Köpfe	-11.2473
▁Partei	-11.2474
▁2001	-11.2477
▁zusammenarbeite	-11.2485
▁Südafrika	-11.2503
ebene	-11.2504
▁habit	-11.2511
▁increasing	-11.2528
▁höre	-11.2537
▁valuable	-11.2541
▁äußerst	-11.2541
▁DNS	-11.2541
▁Zwischen	-11.2541
Erkrankung	-11.2541
▁Anyway	-11.2541
▁teeth	-11.2541
▁klassische	-11.2541
▁relatively	-11.2541
▁Zehn	-11.2541
▁unendlich	-11.2541
▁Winter	-11.2541
▁Güte	-11.2542
▁außen	-11.2544
▁Bombe	-11.2547
▁Moral	-11.2548
▁Besuch	-11.2549
▁swim	-11.255
▁85	-11.256
friend	-11.2586
▁erkannt	-11.2599
▁Auswahl	-11.2615
▁celebrate	-11.2615
▁criminal	-11.2615
▁embrace	-11.2615
▁occasion	-11.2615
▁carefully	-11.2615
▁elegant	-11.2615
▁rapidly	-11.2615
▁roughly	-11.2615
▁physicist	-11.2615
▁sweet	-11.2615
▁ruhig	-11.2615
▁Werbung	-11.2615
▁regard	-11.2615
▁status	-11.2616
▁körperlich	-11.2617
▁schätzen	-11.2618
▁Anreiz	-11.262
▁2003	-11.2624
streben	-11.2625
wahrscheinlich	-11.2662
schränkung	-11.269
▁Könnte	-11.269
▁emerging	-11.269
▁jährlich	-11.269
diagnose	-11.269
▁Erwartung	-11.269
▁Löcher	-11.269
▁spontan	-11.269
▁Klinik	-11.269
▁gelebt	-11.269
▁Fahrrad	-11.269
▁Minister	-11.269
▁besorgt	-11.2691
▁facing	-11.2691
▁prime	-11.2691
▁lawyer	-11.2691
▁Geschenk	-11.2691
▁Damals	-11.2692
▁decline	-11.2693
▁Blase	-11.2694
▁prä	-11.2698
klasse	-11.2704
▁loud	-11.2705
▁Grand	-11.2707
ologe	-11.272
Erinner	-11.272
zwei	-11.2723
bücher	-11.2739
rude	-11.2754
▁assumption	-11.2766
▁length	-11.2766
▁producing	-11.2766
▁sculpture	-11.2766
▁telescope	-11.2766
▁vermeiden	-11.2766
▁vulnerable	-11.2766
▁Batterie	-11.2766
▁stattdessen	-11.2766
▁Black	-11.2766
▁Ursache	-11.2766
▁Could	-11.2766
▁beinahe	-11.2766
▁gebraucht	-11.2768
▁Transport	-11.2769
▁hydrogen	-11.2769
▁specifically	-11.2769
▁graphic	-11.2771
▁Gates	-11.2771
▁protest	-11.2775
▁gay	-11.2775
Achse	-11.2782
▁peer	-11.2798
▁bike	-11.2804
view	-11.2809
hielt	-11.2834
post	-11.2837
▁Cambridge	-11.2842
▁Congress	-11.2842
▁Entfernung	-11.2842
▁Großmutter	-11.2842
▁Risiken	-11.2842
▁TEDTalk	-11.2842
▁chimpanzee	-11.2842
▁primary	-11.2842
▁privilege	-11.2842
▁properties	-11.2842
▁refugee	-11.2842
▁Buchstaben	-11.2842
▁GDP	-11.2842
▁password	-11.2843
▁Stuhl	-11.2843
▁studio	-11.2843
▁emissions	-11.2843
stiegen	-11.2855
▁wach	-11.2873
▁exception	-11.2874
tempo	-11.2878
artikel	-11.2883
foot	-11.2893
▁Potential	-11.2919
▁langfristig	-11.2919
▁Februar	-11.2919
▁infinite	-11.2919
▁rescue	-11.2919
▁schwimmen	-11.2919
▁spannend	-11.2919
▁verfolgt	-11.292
serving	-11.292
▁Kurve	-11.292
▁malaria	-11.292
▁firm	-11.292
Epidemie	-11.292
▁doubt	-11.2922
schreiben	-11.2922
wissenschaftler	-11.2923
▁tank	-11.2925
▁Tonnen	-11.2927
▁France	-11.2927
digit	-11.2932
▁lady	-11.2933
ähnliche	-11.2933
gerufen	-11.2938
▁critic	-11.2962
▁fiber	-11.298
▁Haushalt	-11.299
vermögen	-11.2997
▁Philip	-11.2997
▁Teenager	-11.2997
▁Verbesserung	-11.2997
▁Virgin	-11.2997
▁technological	-11.2997
▁CEO	-11.2997
▁Pinguin	-11.2997
▁Wesentlichen	-11.2997
▁versteht	-11.2997
▁liberal	-11.2997
▁Zahn	-11.2997
▁snow	-11.2997
▁judge	-11.2997
▁historical	-11.2998
▁Lunge	-11.2999
level	-11.3017
▁shall	-11.3017
▁director	-11.302
pool	-11.3032
▁opera	-11.3054
▁habitat	-11.3054
actic	-11.3064
politik	-11.3075
▁calculate	-11.3075
▁Zauber	-11.3075
▁fiction	-11.3075
▁kitchen	-11.3075
▁Wolken	-11.3075
▁illusion	-11.3075
▁Kredit	-11.3075
▁branch	-11.3075
▁Brown	-11.3076
▁darstellt	-11.3076
▁limb	-11.3076
▁Teilnehmer	-11.3077
▁steel	-11.3078
▁Pfund	-11.3079
▁verstehe	-11.308
▁anschaut	-11.308
▁gründete	-11.3082
liebe	-11.3085
lässt	-11.3129
▁Decke	-11.3143
▁Bedrohung	-11.3154
▁Kongress	-11.3154
▁Persönlichkeit	-11.3154
▁Wurzel	-11.3154
▁molecular	-11.3154
▁mortality	-11.3154
▁reduziert	-11.3154
▁schlafen	-11.3154
▁client	-11.3154
▁perceive	-11.3154
▁drauf	-11.3154
Verbrauch	-11.3154
▁prize	-11.3155
▁marine	-11.3158
▁pipe	-11.3159
▁split	-11.3159
▁Ausnahme	-11.3159
▁panel	-11.3161
▁nest	-11.3175
▁stehe	-11.3195
gesellschaftlich	-11.3199
Look	-11.3214
▁German	-11.3217
▁Präsentation	-11.3233
▁Respekt	-11.3233
▁democratic	-11.3233
▁Debatte	-11.3233
▁LED	-11.3233
▁academic	-11.3233
▁robust	-11.3233
▁Echtzeit	-11.3233
▁Belohnung	-11.3233
▁Dutzend	-11.3233
▁empfinde	-11.3233
▁implant	-11.3234
▁steuern	-11.3235
▁sexuelle	-11.3236
▁feststellen	-11.3238
▁Weiter	-11.324
▁sparen	-11.3243
▁quarter	-11.3259
kontroll	-11.3313
▁NGO	-11.3313
▁Taliban	-11.3313
▁Völker	-11.3313
▁definiert	-11.3313
▁inspiration	-11.3313
▁lecture	-11.3313
▁lediglich	-11.3313
▁männliche	-11.3313
wässer	-11.3313
▁bietet	-11.3313
▁transplant	-11.3313
▁Blue	-11.3313
▁gegründet	-11.3313
▁Stammzellen	-11.3314
▁gespielt	-11.3314
▁englische	-11.3314
▁darunter	-11.3314
▁Multi	-11.3314
▁Sechs	-11.3315
▁Schild	-11.3317
▁enthält	-11.3317
▁Since	-11.332
▁staff	-11.3321
▁Magie	-11.3327
leitung	-11.3334
▁atoms	-11.3358
▁liebte	-11.3363
▁comfort	-11.3391
▁danger	-11.3393
▁Chemikalien	-11.3394
▁Nutzung	-11.3394
▁entfernen	-11.3394
▁Teufel	-11.3394
sammlung	-11.3394
▁Kommentar	-11.3394
▁Therapie	-11.3394
▁liquid	-11.3394
▁Wechsel	-11.3394
▁scheinbar	-11.3394
▁Metall	-11.3394
▁Alpha	-11.3394
▁psychological	-11.3394
▁terrorism	-11.3394
▁nerve	-11.3396
▁Mehrheit	-11.3397
▁icon	-11.3399
▁Ehre	-11.3436
▁Führer	-11.3475
▁Komponente	-11.3475
▁Literatur	-11.3475
▁Pacific	-11.3475
▁langweilig	-11.3475
▁radiation	-11.3475
▁tötet	-11.3475
▁August	-11.3475
▁beteiligt	-11.3475
▁employees	-11.3475
▁transfer	-11.3475
▁Danach	-11.3476
▁Hallo	-11.3476
▁boom	-11.3478
▁Rakete	-11.3479
▁guide	-11.3484
▁internal	-11.3484
▁Fehl	-11.3555
▁Interessante	-11.3556
▁implement	-11.3557
▁Stattdessen	-11.3557
▁aggressiv	-11.3557
▁beeindruckend	-11.3557
▁definitely	-11.3557
▁gravity	-11.3557
▁silence	-11.3557
▁variation	-11.3557
▁proportion	-11.3557
▁Blatt	-11.3557
▁überwinden	-11.3557
▁kreieren	-11.3557
▁medium	-11.3558
▁sphere	-11.3558
▁klinische	-11.3558
▁Blind	-11.356
ordnung	-11.356
▁meaningful	-11.3561
▁kriegen	-11.3561
▁east	-11.3562
▁diverse	-11.3562
▁plot	-11.3566
▁biologist	-11.3567
öcke	-11.362
▁Brennstoff	-11.364
▁Deswegen	-11.364
▁harvest	-11.364
▁Überraschung	-11.364
▁pollution	-11.364
▁spectrum	-11.364
▁Extrem	-11.364
▁silk	-11.364
▁froh	-11.3643
▁route	-11.3643
▁evolutionary	-11.3644
nehmer	-11.3655
▁Unterricht	-11.3687
▁sozial	-11.3689
▁angle	-11.3703
bezüglich	-11.3723
▁Gedächtnis	-11.3723
▁akzeptieren	-11.3723
▁observation	-11.3723
▁phrase	-11.3723
▁Bibliothek	-11.3723
▁fortunate	-11.3723
▁false	-11.3723
▁Spezial	-11.3723
▁heisst	-11.3723
▁Mäuse	-11.3724
straße	-11.3724
▁wrap	-11.3724
▁Media	-11.3724
▁polar	-11.3724
▁severe	-11.3725
▁Pilz	-11.3726
▁toxic	-11.3729
ürzt	-11.373
läufe	-11.374
▁Szene	-11.3802
▁sustain	-11.3804
▁Gerechtigkeit	-11.3807
▁Plattform	-11.3807
▁Schicksal	-11.3807
▁Wälder	-11.3807
▁complain	-11.3807
▁cortex	-11.3807
▁demokratische	-11.3807
▁ingredient	-11.3807
▁primitive	-11.3807
▁telephone	-11.3807
▁wünsche	-11.3807
▁Übung	-11.3807
▁unusual	-11.3807
▁afternoon	-11.3807
▁erweitern	-11.3807
▁license	-11.3807
▁sammelt	-11.3807
oberfläche	-11.3807
▁dünn	-11.3807
▁Central	-11.3807
▁Scott	-11.3807
▁hieß	-11.3807
▁worldwide	-11.3807
▁drill	-11.3807
▁drone	-11.3807
▁Zähne	-11.3807
▁industrielle	-11.3807
▁Schlacht	-11.3808
▁strip	-11.3808
▁wiederholt	-11.3809
▁Alexander	-11.3892
▁Gemälde	-11.3892
▁Klassenzimmer	-11.3892
▁Perhaps	-11.3892
▁Spektrum	-11.3892
▁erhöhen	-11.3892
▁kollektive	-11.3892
▁literature	-11.3892
▁privacy	-11.3892
▁sophisticated	-11.3892
▁Gegenwart	-11.3892
▁Rezept	-11.3892
▁wüsste	-11.3892
▁integrate	-11.3892
▁mechanical	-11.3892
▁durfte	-11.3892
▁bemerken	-11.3892
▁psychology	-11.3893
▁Jesus	-11.3893
▁Terrorismus	-11.3893
▁britische	-11.3893
▁dropped	-11.3894
▁saubere	-11.3894
▁fruit	-11.3895
▁ought	-11.3896
▁Patent	-11.3901
fliegen	-11.394
stunde	-11.3957
▁constant	-11.3964
▁Dritte	-11.3968
▁Kleidung	-11.3977
▁Russland	-11.3977
▁Studio	-11.3977
▁irgendjemand	-11.3977
▁paradigm	-11.3977
▁Grippe	-11.3977
▁Kanada	-11.3977
▁jünger	-11.3977
▁gewann	-11.3977
förmig	-11.3977
▁Anführer	-11.3977
ländische	-11.3978
▁Störung	-11.3978
▁applied	-11.3979
▁hoping	-11.3984
modul	-11.3996
▁ultimate	-11.405
▁Fried	-11.4056
▁Symptom	-11.4064
▁analyze	-11.4064
▁destruction	-11.4064
▁unbekannt	-11.4064
▁pilot	-11.4064
▁section	-11.4064
▁courage	-11.4064
▁Geburtstag	-11.4064
▁suck	-11.4064
▁Billionen	-11.4064
▁shame	-11.4064
▁besitzt	-11.4064
▁intention	-11.4066
▁confront	-11.4067
shirt	-11.4079
▁urge	-11.4098
▁Schnitt	-11.4128
Dollar	-11.4134
▁Business	-11.415
▁Nachbarschaft	-11.415
▁Teleskop	-11.415
▁Zunächst	-11.415
▁activities	-11.415
▁ansieht	-11.415
▁church	-11.415
▁efficiency	-11.415
▁eröffnet	-11.415
▁iPod	-11.415
▁infection	-11.415
▁intervention	-11.415
▁Säugetier	-11.415
▁sinnvoll	-11.415
▁Überzeugung	-11.4151
▁predator	-11.4151
▁Marketing	-11.4151
▁attitude	-11.4151
▁arabische	-11.4151
▁behave	-11.4151
▁birthday	-11.4152
schieben	-11.4154
▁awareness	-11.4154
▁Stahl	-11.4155
schließt	-11.4155
▁Albert	-11.4155
▁bekomme	-11.4165
▁Sterbe	-11.4167
▁Schlange	-11.417
▁Kopie	-11.4198
▁department	-11.4238
▁framework	-11.4238
▁furchtbar	-11.4238
▁instruction	-11.4238
▁manufacturing	-11.4238
▁shadow	-11.4238
▁memories	-11.4238
▁underwater	-11.4238
▁getrennt	-11.4238
▁löst	-11.4238
▁dargestellt	-11.424
▁sunlight	-11.424
▁spiritual	-11.424
▁occurred	-11.424
▁Gui	-11.4269
studie	-11.43
System	-11.4311
waffe	-11.4314
▁Zeichnung	-11.4327
▁beispielsweise	-11.4327
▁bicycle	-11.4327
▁dominant	-11.4327
▁empathy	-11.4327
▁physician	-11.4327
▁Kapitel	-11.4327
▁legitim	-11.4327
▁Magnet	-11.4327
▁pitch	-11.4327
▁trauma	-11.4328
▁aufgewachsen	-11.4328
▁Schuhe	-11.4331
▁wechseln	-11.4335
▁knee	-11.4342
▁suppose	-11.4382
▁weigh	-11.4411
▁advice	-11.4416
▁conservation	-11.4416
▁somewhat	-11.4416
▁erforscht	-11.4416
▁kümmert	-11.4416
▁berichtet	-11.4416
▁computing	-11.4416
▁vorbereitet	-11.4416
▁witness	-11.4416
▁piano	-11.4416
▁Fokus	-11.4416
▁smoke	-11.4416
▁erschien	-11.4416
▁zufrieden	-11.4417
▁drücken	-11.4418
▁reisen	-11.4419
▁Schnee	-11.442
▁settle	-11.4427
▁Knie	-11.4433
geschaut	-11.4442
▁Moore	-11.4455
ruhe	-11.4487
Spiel	-11.4493
seitige	-11.4504
▁accomplish	-11.4506
▁computation	-11.4506
▁Nobody	-11.4506
▁Ursprung	-11.4506
▁Verwendung	-11.4506
▁concrete	-11.4506
▁regelmäßig	-11.4506
▁revenue	-11.4506
▁verschwunden	-11.4506
▁2012	-11.4506
▁presence	-11.4506
▁ritual	-11.4506
▁Saudi	-11.4506
▁hypo	-11.4506
▁swimming	-11.4506
geschäft	-11.4506
▁Kolonie	-11.4506
▁teilweise	-11.4506
▁animation	-11.4507
▁compete	-11.4507
▁Studierende	-11.4508
▁hunger	-11.451
▁merken	-11.451
▁steal	-11.4514
▁Ereignis	-11.4521
graph	-11.4568
▁Inspiration	-11.4597
▁flexible	-11.4597
▁sensitive	-11.4597
▁Flügel	-11.4597
▁Number	-11.4597
▁While	-11.4597
▁balloon	-11.4597
▁visible	-11.4597
▁finance	-11.4597
▁Something	-11.4597
▁repair	-11.4598
▁escape	-11.4599
▁erneut	-11.46
▁Schweine	-11.4603
▁lebe	-11.4606
▁Angestellte	-11.4613
Erzähl	-11.4626
▁kilo	-11.467
geschwindigkeit	-11.4689
▁Männchen	-11.4689
▁Nächste	-11.4689
▁Skulptur	-11.4689
▁Unfortunately	-11.4689
▁phenomena	-11.4689
▁spezifische	-11.4689
▁contrast	-11.4689
▁schlug	-11.4689
▁überlebt	-11.4689
▁Talent	-11.469
▁böse	-11.469
schirm	-11.4691
▁gelangt	-11.4692
schmerz	-11.4695
▁1,5	-11.471
spitze	-11.4725
fressen	-11.4752
groß	-11.477
wickelt	-11.4781
▁Symmetrie	-11.4781
▁Analyse	-11.4781
▁Beobachtung	-11.4781
▁Nachhaltigkeit	-11.4781
▁Schließlich	-11.4781
▁chapter	-11.4781
▁exploration	-11.4781
▁geholfen	-11.4781
▁genügend	-11.4781
▁ökologisch	-11.4781
▁Skelett	-11.4781
▁FBI	-11.4781
▁Zweifel	-11.4781
▁Animation	-11.4781
▁milk	-11.4781
▁gekauft	-11.4782
▁organisieren	-11.4783
▁solange	-11.4784
▁cheat	-11.4829
Institut	-11.4855
basierte	-11.4871
▁Budget	-11.4875
▁circumstances	-11.4875
▁clothes	-11.4875
▁elektronische	-11.4875
▁infected	-11.4875
▁providing	-11.4875
▁technologische	-11.4875
▁violent	-11.4875
▁Christmas	-11.4875
▁Widerstand	-11.4875
▁betroffen	-11.4875
▁deploy	-11.4875
▁wütend	-11.4875
▁dunkel	-11.4875
▁worauf	-11.4875
▁Rettung	-11.4875
▁motivation	-11.4875
▁entsprechend	-11.4875
▁infiziert	-11.4875
▁Status	-11.4875
▁sustainability	-11.4875
▁brutal	-11.4875
▁Presse	-11.4877
▁Schweden	-11.4878
▁intense	-11.4878
▁hook	-11.4879
käme	-11.4882
▁Sichtweise	-11.4888
Yeah	-11.496
künstler	-11.4969
synchron	-11.4969
▁manufacture	-11.4969
▁Gandhi	-11.4969
▁Shanghai	-11.4969
▁glamour	-11.4969
▁kognitive	-11.4969
▁reject	-11.4969
▁städtische	-11.4969
▁tödlich	-11.4969
▁commitment	-11.4969
▁Sonnenlicht	-11.4969
▁ruin	-11.4969
▁Vorhersage	-11.4969
▁Ruhe	-11.4969
▁flew	-11.497
▁betreiben	-11.497
▁freue	-11.497
▁Lücke	-11.497
▁Schaden	-11.497
▁wisst	-11.497
▁nowhere	-11.4971
▁treiben	-11.4971
küste	-11.4984
gefasst	-11.4999
gestalt	-11.5018
computer	-11.5056
gypten	-11.5061
▁Blätter	-11.5064
▁Potenzial	-11.5064
▁cluster	-11.5064
▁dynamisch	-11.5064
▁horrible	-11.5064
▁nachgedacht	-11.5064
▁unknown	-11.5064
▁Verletzung	-11.5064
▁stretch	-11.5064
▁trigger	-11.5064
▁punish	-11.5064
▁Mandela	-11.5064
▁Meister	-11.5065
▁retire	-11.5065
▁verglichen	-11.5065
▁Schwimm	-11.5065
communica	-11.5065
kamera	-11.5124
strom	-11.5138
uanten	-11.5159
▁Bronx	-11.516
▁Freiwillige	-11.516
▁Gemüse	-11.516
▁Versorgung	-11.516
▁Zerstörung	-11.516
▁begegnen	-11.516
▁challenging	-11.516
▁discipline	-11.516
▁nervös	-11.516
▁disrupt	-11.516
▁gerettet	-11.516
▁heaven	-11.516
▁kaputt	-11.516
▁Population	-11.5161
▁Nelson	-11.5161
▁Sonnensystem	-11.5161
▁therapy	-11.5161
▁hormone	-11.5161
▁schreibt	-11.5161
▁housing	-11.5161
▁vorsichtig	-11.5161
▁depth	-11.5161
▁Basically	-11.5161
▁Futter	-11.5161
anstalt	-11.5161
▁Henry	-11.5161
gebung	-11.5162
▁neural	-11.5163
automat	-11.5171
gesetz	-11.5174
▁heutige	-11.5185
▁regime	-11.5189
geschnitten	-11.5191
still	-11.5199
AIDS	-11.5251
▁politisch	-11.5251
▁Diagnose	-11.5258
▁Research	-11.5258
▁Verbreitung	-11.5258
▁centuries	-11.5258
▁europäische	-11.5258
▁gentlemen	-11.5258
▁1998	-11.5258
▁aufgeregt	-11.5258
▁laboratory	-11.5258
▁weshalb	-11.5258
▁Bestandteil	-11.5258
▁thumb	-11.5258
▁Wirklich	-11.5258
▁Square	-11.5258
▁Brian	-11.5258
▁greenhouse	-11.5258
Drohne	-11.5264
▁liefert	-11.5265
▁wünschte	-11.5267
▁impos	-11.528
▁vertical	-11.5304
amerikanische	-11.5315
▁Silicon	-11.5356
▁Tätigkeit	-11.5356
▁genießen	-11.5356
▁insbesondere	-11.5356
▁neugierig	-11.5356
▁regret	-11.5356
▁physikalische	-11.5356
▁secure	-11.5356
▁unmittelbar	-11.5356
lusion	-11.5356
▁Gulf	-11.5356
▁veröffentlichen	-11.5356
▁Enkel	-11.5356
▁autism	-11.5356
▁wenigstens	-11.5357
▁betrieben	-11.5357
▁ewig	-11.5358
▁Brooklyn	-11.5455
▁Kategorie	-11.5455
▁Lincoln	-11.5455
▁gesammelt	-11.5455
▁identical	-11.5455
▁erweitert	-11.5455
▁navigat	-11.5455
▁suspect	-11.5455
▁Kreatur	-11.5455
▁gestaltet	-11.5455
▁angry	-11.5456
▁extent	-11.5456
▁gründen	-11.5456
▁database	-11.5464
▁Denkweise	-11.5464
▁hydro	-11.5467
▁logisch	-11.547
glücklicherweise	-11.5477
lehnen	-11.5488
▁evolve	-11.5521
region	-11.5553
▁correspond	-11.5555
schießen	-11.5555
▁Schauspieler	-11.5555
▁mosquito	-11.5555
▁policies	-11.5555
▁Wärme	-11.5555
▁Krankenhäuser	-11.5555
▁reserve	-11.5555
▁versorgen	-11.5555
▁spüren	-11.5555
▁footprint	-11.5555
ggle	-11.5559
▁psychologist	-11.556
▁Palm	-11.556
▁motivate	-11.5561
unterricht	-11.5635
medizin	-11.5654
▁Asteroid	-11.5656
▁Gebrauch	-11.5656
▁Lebenserwartung	-11.5656
▁conclude	-11.5656
▁corporate	-11.5656
▁verdammt	-11.5656
▁Feynman	-11.5656
▁dancing	-11.5656
▁merkwürdig	-11.5656
▁narrow	-11.5656
▁Sektor	-11.5656
▁session	-11.5656
▁Before	-11.5656
▁verliert	-11.5656
▁hinzufügen	-11.5656
gebunden	-11.5656
▁unterwegs	-11.5656
▁schuf	-11.5657
▁sail	-11.5657
▁taucht	-11.5657
▁produktiv	-11.5658
flüge	-11.5665
▁audit	-11.5677
plikat	-11.5728
American	-11.5756
▁Flüchtling	-11.5757
kapital	-11.5758
▁Carolina	-11.5758
▁Impfstoff	-11.5758
▁earthquake	-11.5758
▁measuring	-11.5758
▁verursachen	-11.5758
▁grateful	-11.5758
sterblichkeit	-11.5758
▁domestic	-11.5758
▁Zentral	-11.5758
▁Greek	-11.5758
▁frog	-11.5758
▁barrier	-11.5758
▁causing	-11.5758
osphere	-11.5758
▁Dün	-11.5761
▁Videospiele	-11.5762
▁verlangt	-11.5763
▁constrain	-11.5861
▁Abraham	-11.5861
▁Algorithmen	-11.5861
▁Detroit	-11.5861
▁Dörfer	-11.5861
▁Erdbeben	-11.5861
▁chocolate	-11.5861
▁judgment	-11.5861
▁unexpected	-11.5861
clusive	-11.5861
▁erfuhr	-11.5861
▁exponential	-11.5861
▁Infektion	-11.5861
▁activist	-11.5861
▁frankly	-11.5861
▁Weisheit	-11.5861
▁murder	-11.5861
▁preserve	-11.5861
▁inject	-11.5861
▁Brustkrebs	-11.5861
▁Geruch	-11.5861
▁wovon	-11.5861
▁immense	-11.5863
▁erfüllt	-11.5863
▁Gipfel	-11.5965
▁Psychologie	-11.5965
▁Trotzdem	-11.5965
▁irgendwelche	-11.5965
▁library	-11.5965
▁obsessed	-11.5965
▁romantic	-11.5965
▁Beijing	-11.5965
▁DVD	-11.5965
▁automatically	-11.5965
▁struck	-11.5965
▁silent	-11.5965
▁Sweden	-11.5965
▁Finally	-11.5965
▁Illusion	-11.5965
▁carried	-11.5965
faktor	-11.5965
▁lehrt	-11.5965
▁Pilot	-11.5966
▁slum	-11.5966
▁geschützt	-11.5966
▁mechanisch	-11.5966
▁Comic	-11.5967
▁staatliche	-11.5967
▁befand	-11.5969
schlecht	-11.5974
bomb	-11.5986
pflege	-11.6007
Kreislauf	-11.6048
nnerhalb	-11.607
▁Mountain	-11.607
▁November	-11.607
▁Plötzlich	-11.607
▁Treffen	-11.607
▁distributed	-11.607
▁economies	-11.607
▁mathematician	-11.607
▁recognition	-11.607
▁resistance	-11.607
▁vegetable	-11.607
gespräch	-11.607
▁Mobiltelefon	-11.607
▁Stämme	-11.607
▁Vagina	-11.607
▁asteroid	-11.607
▁bedroht	-11.607
▁instinct	-11.607
▁konfrontiert	-11.607
▁diagram	-11.607
▁fabric	-11.607
▁Anstieg	-11.607
▁conventional	-11.607
▁manifest	-11.607
▁polio	-11.607
behörde	-11.607
▁zurückkehren	-11.607
▁Hitze	-11.6071
▁Rwanda	-11.6071
▁vital	-11.6071
▁mystery	-11.6071
▁Erzählung	-11.6072
▁pretend	-11.6072
▁Eigenschaft	-11.6079
held	-11.6116
Philosoph	-11.6176
leuchtet	-11.6177
▁Antibiotika	-11.6177
▁Dunkelheit	-11.6177
▁Heutzutage	-11.6177
▁Motivation	-11.6177
▁Normalerweise	-11.6177
▁Remember	-11.6177
▁Ungleichheit	-11.6177
▁medication	-11.6177
▁Clinton	-11.6177
▁Klavier	-11.6177
gängig	-11.6177
▁BIP	-11.6177
▁clue	-11.6177
▁arrest	-11.6177
▁properly	-11.6177
▁overcome	-11.6177
▁sweat	-11.6177
▁angenehm	-11.6203
opfer	-11.6211
▁Medica	-11.623
▁Benjamin	-11.6284
▁Angelegenheit	-11.6284
▁Entwurf	-11.6284
▁Fantasie	-11.6284
▁ernähren	-11.6284
▁neither	-11.6284
▁Geschmack	-11.6284
▁Stephen	-11.6284
▁ceiling	-11.6284
▁reduction	-11.6284
▁zwang	-11.6284
▁miracle	-11.6284
▁Weibchen	-11.6284
▁Niveau	-11.6284
▁household	-11.6284
▁enemy	-11.6284
grafische	-11.6284
▁Watson	-11.6284
▁Kevin	-11.6284
▁bekämpfen	-11.6284
▁indicate	-11.6284
▁fotografiert	-11.6284
▁lehren	-11.6284
▁Level	-11.6285
▁Tempo	-11.6285
▁Nothing	-11.6285
▁agenda	-11.6285
▁defend	-11.6285
▁alarm	-11.6285
▁leap	-11.6286
school	-11.6289
Source	-11.6306
istori	-11.6323
gemeinschaft	-11.6342
▁Epi	-11.6357
▁Bruno	-11.6393
▁Leonardo	-11.6393
▁Shakespeare	-11.6393
▁column	-11.6393
▁grandfather	-11.6393
▁obstacle	-11.6393
▁recommend	-11.6393
▁Angebot	-11.6393
▁fragment	-11.6393
▁Delhi	-11.6393
▁Neugier	-11.6393
▁genius	-11.6393
▁obesity	-11.6393
▁hardware	-11.6393
▁Humor	-11.6393
▁herrscht	-11.6393
▁Italien	-11.6393
▁shelter	-11.6394
▁kreiert	-11.6394
▁erfüllen	-11.6394
▁jegliche	-11.6395
▁Jones	-11.6396
scribe	-11.6435
▁Physi	-11.647
teressanterweise	-11.6501
entwicklung	-11.6503
▁Privatsphäre	-11.6503
▁Weltbevölkerung	-11.6503
▁antibiotics	-11.6503
▁cooperation	-11.6503
▁inequality	-11.6503
▁1999	-11.6503
▁raising	-11.6503
▁MRI	-11.6503
▁defense	-11.6503
▁County	-11.6503
▁Spannung	-11.6503
▁strike	-11.6503
▁plenty	-11.6503
▁Louis	-11.6503
▁welcome	-11.6503
methode	-11.6503
männer	-11.6503
▁ausgewählt	-11.6503
▁Medium	-11.6503
▁philosophy	-11.6503
▁Einwohner	-11.6503
▁till	-11.6504
▁Fertig	-11.6509
firma	-11.6511
kilometer	-11.6526
▁Platte	-11.6536
▁benutze	-11.6537
▁inspire	-11.658
▁McDonald	-11.6614
▁exploit	-11.6614
▁Diabetes	-11.6614
▁Diplomat	-11.6614
▁Initiative	-11.6614
▁gestartet	-11.6614
▁microscope	-11.6614
▁optimistisch	-11.6614
▁scenario	-11.6614
▁beschreibt	-11.6614
▁incident	-11.6614
unclear	-11.6614
▁Ritual	-11.6614
konomen	-11.6614
▁grave	-11.6614
▁Girl	-11.6614
▁IBM	-11.6614
▁rising	-11.6614
▁Schlechte	-11.6615
▁widme	-11.6617
Projekt	-11.6622
Emissionen	-11.6637
wünscht	-11.6715
▁mushroom	-11.6726
geblieben	-11.6726
schlägt	-11.6726
▁Atlantic	-11.6726
▁Hawaii	-11.6726
▁Monterey	-11.6726
▁berühren	-11.6726
▁exponentiell	-11.6726
▁fascinated	-11.6726
▁finanziert	-11.6726
▁furniture	-11.6726
▁integriert	-11.6726
▁optimistic	-11.6726
▁procedure	-11.6726
▁surveillance	-11.6726
▁älteste	-11.6726
▁emergency	-11.6726
▁süß	-11.6726
▁Autismus	-11.6726
▁colony	-11.6726
städte	-11.6726
▁gemessen	-11.6726
▁external	-11.6726
nseits	-11.6726
▁Front	-11.6727
stütze	-11.6729
▁geistige	-11.6731
hundert	-11.6734
brachte	-11.6734
tschaftswachstum	-11.6741
▁könne	-11.6766
▁Journal	-11.6785
physik	-11.6796
fotograf	-11.6796
▁Olympic	-11.684
▁Vergnügen	-11.684
▁committed	-11.684
▁exploring	-11.684
▁gezwungen	-11.684
▁portrait	-11.684
▁pyramid	-11.684
▁verblüffend	-11.684
▁yield	-11.684
läufig	-11.684
▁Church	-11.684
▁awesome	-11.684
▁description	-11.684
▁lächerlich	-11.684
▁concert	-11.684
▁vielmehr	-11.684
▁Neuigkeiten	-11.684
▁bulb	-11.684
▁request	-11.684
▁psychologische	-11.684
▁spill	-11.6841
▁Farb	-11.685
gehört	-11.685
Aktivist	-11.6855
hydr	-11.6904
▁adjust	-11.6955
▁Ethiopia	-11.6955
▁Flüssigkeit	-11.6955
▁Röntgen	-11.6955
▁curiosity	-11.6955
▁dazwischen	-11.6955
▁diabetes	-11.6955
▁dioxide	-11.6955
▁explosion	-11.6955
▁gefährdet	-11.6955
▁guarantee	-11.6955
▁identifizieren	-11.6955
▁korrekt	-11.6955
▁repräsentiert	-11.6955
▁vernünftig	-11.6955
▁Überwachung	-11.6955
▁öfter	-11.6955
▁Besondere	-11.6955
▁Schätzung	-11.6955
▁alltäglich	-11.6955
▁Speicher	-11.6955
▁scream	-11.6955
▁stroke	-11.6955
▁Verteilung	-11.6955
▁drove	-11.6955
▁Delfin	-11.6955
▁angepasst	-11.6955
▁Next	-11.6955
▁mimic	-11.6955
▁erfand	-11.6957
▁Schnell	-11.6958
empfindlich	-11.7071
▁Brüder	-11.7071
▁Digital	-11.7071
▁Gletscher	-11.7071
▁Hypothese	-11.7071
▁SETI	-11.7071
▁crucial	-11.7071
▁erwähnen	-11.7071
▁gewöhnt	-11.7071
▁sandwich	-11.7071
▁scratch	-11.7071
▁stirbt	-11.7071
▁unerwartet	-11.7071
▁Erfinder	-11.7071
▁dignity	-11.7071
▁Impuls	-11.7071
häuser	-11.7071
▁Ocean	-11.7071
▁Philosophie	-11.7071
▁brown	-11.7071
greift	-11.7071
▁distant	-11.7072
▁cyber	-11.7072
▁horizontal	-11.7072
▁Narrator	-11.7189
▁Parkinson	-11.7189
▁Tragödie	-11.7189
▁calculation	-11.7189
▁embedded	-11.7189
▁ignorieren	-11.7189
▁illustrate	-11.7189
▁orchestra	-11.7189
▁rebuild	-11.7189
▁renewable	-11.7189
▁resolution	-11.7189
▁routine	-11.7189
▁umgekehrt	-11.7189
▁Knopf	-11.7189
▁angemessen	-11.7189
▁Polizist	-11.7189
▁April	-11.7189
▁Nahrungsmittel	-11.7189
▁Schweiz	-11.7189
▁replicate	-11.7189
▁Mögliche	-11.7189
▁schief	-11.7189
verhältnis	-11.7189
▁Gramm	-11.7192
bleiben	-11.7207
▁Nordamerika	-11.723
active	-11.7247
▁Tränen	-11.7308
▁Täuschung	-11.7308
▁adventure	-11.7308
▁geeignet	-11.7308
▁insgesamt	-11.7308
▁ridiculous	-11.7308
▁skeleton	-11.7308
▁suicide	-11.7308
▁anscheinend	-11.7308
▁authentic	-11.7308
▁Hölle	-11.7308
▁heiraten	-11.7308
▁Cartoon	-11.7308
▁insurance	-11.7308
▁disgust	-11.7308
▁frozen	-11.7308
▁compose	-11.7308
▁sensation	-11.7308
▁Cyber	-11.7308
▁Bewohner	-11.7308
▁abandon	-11.7308
▁Strasse	-11.7308
▁Slum	-11.7308
▁ladies	-11.7308
▁Meeting	-11.7308
brecher	-11.7308
▁slip	-11.7309
glück	-11.7309
▁blend	-11.7315
century	-11.7324
gestoßen	-11.7329
objekt	-11.7357
gesundheit	-11.7415
▁Abenteuer	-11.7428
▁Charlie	-11.7428
▁Effizienz	-11.7428
▁Jedenfalls	-11.7428
▁Schokolade	-11.7428
▁Transparenz	-11.7428
▁candidate	-11.7428
▁demonstration	-11.7428
▁hilfreich	-11.7428
▁intellektuelle	-11.7428
▁legacy	-11.7428
▁margin	-11.7428
▁molekulare	-11.7428
▁rainforest	-11.7428
nutzung	-11.7428
▁Schädel	-11.7428
▁acquire	-11.7428
▁hässlich	-11.7428
▁Hügel	-11.7428
▁drift	-11.7428
▁Logik	-11.7428
▁fliegt	-11.7428
▁zwingen	-11.7428
▁Sätze	-11.7429
▁blank	-11.7429
▁Strecke	-11.7434
stätte	-11.7438
Auf	-11.7446
▁Bedürfnis	-11.7475
cellular	-11.7539
▁Alkohol	-11.755
▁Berkeley	-11.755
▁Lächeln	-11.755
▁Neanderthal	-11.755
▁advertising	-11.755
▁analysieren	-11.755
▁autonomous	-11.755
▁corporation	-11.755
▁neuroscience	-11.755
▁universities	-11.755
▁Größenordnung	-11.755
▁Sammlung	-11.755
▁Weihnachts	-11.755
▁reparieren	-11.755
▁hungry	-11.755
▁charity	-11.755
ifikation	-11.755
▁Anpassung	-11.755
kreuz	-11.755
▁getestet	-11.755
▁Soviet	-11.755
▁herausfand	-11.7551
▁sharp	-11.7551
▁Hawk	-11.7553
▁Aufstieg	-11.7554
Technologie	-11.7569
gebrauch	-11.7671
unterschied	-11.7673
rgendwo	-11.7674
▁Anstrengung	-11.7674
▁Bedarf	-11.7674
▁Käfer	-11.7674
▁Oxytocin	-11.7674
▁Service	-11.7674
▁Verteidigung	-11.7674
▁dauerhaft	-11.7674
▁französische	-11.7674
▁fulfill	-11.7674
▁geöffnet	-11.7674
▁inzwischen	-11.7674
▁mechanics	-11.7674
▁musikalische	-11.7674
▁pursue	-11.7674
▁schizophren	-11.7674
▁simulation	-11.7674
▁smooth	-11.7674
▁Befehl	-11.7674
▁probability	-11.7674
▁senior	-11.7674
▁skull	-11.7674
▁reputation	-11.7674
▁unterrichtet	-11.7674
▁feiern	-11.7674
▁arrange	-11.7674
▁Richter	-11.7674
▁viral	-11.7674
wichtig	-11.7724
drängt	-11.7799
▁Jerusalem	-11.7799
▁Mumbai	-11.7799
▁Seattle	-11.7799
▁Vermögen	-11.7799
▁abstrakte	-11.7799
▁apparently	-11.7799
▁boundaries	-11.7799
▁elsewhere	-11.7799
▁jeweils	-11.7799
▁simplicity	-11.7799
▁sketch	-11.7799
▁Übrigens	-11.7799
▁Beschreibung	-11.7799
▁Jewish	-11.7799
▁Mozart	-11.7799
▁decrease	-11.7799
▁Schriftsteller	-11.7799
▁hervorragend	-11.7799
▁borrow	-11.7799
▁facial	-11.7799
erkrankung	-11.7799
▁herself	-11.7799
▁nachdenkt	-11.7799
▁minus	-11.7799
▁identisch	-11.7799
▁whistle	-11.7799
▁minor	-11.7799
▁Daniel	-11.7799
▁Schöne	-11.7799
▁Arthur	-11.7799
würfe	-11.78
bedarf	-11.7801
▁freak	-11.7802
▁Pflanze	-11.7851
gefügt	-11.7925
▁Joseph	-11.7925
▁Schlagzeile	-11.7925
▁inklusive	-11.7925
▁interconnect	-11.7925
▁jüngste	-11.7925
▁letztlich	-11.7925
▁potentiell	-11.7925
▁pregnant	-11.7925
▁symmetry	-11.7925
▁Karikatur	-11.7925
▁Löwen	-11.7925
▁underground	-11.7925
frequent	-11.7925
Schaltkreis	-11.7925
▁Simulation	-11.7925
Nobelpreis	-11.7925
▁scholar	-11.7925
▁fifth	-11.7925
▁fließt	-11.7925
▁intuition	-11.7925
▁auftaucht	-11.7925
▁profile	-11.7925
Dienstleistungen	-11.7926
▁refuse	-11.7926
▁freundlich	-11.7926
▁Anzeige	-11.7927
sammeln	-11.7949
▁Kranken	-11.8053
▁psychiatri	-11.8053
gebäude	-11.8053
▁Atlanta	-11.8053
▁Blickwinkel	-11.8053
▁Disziplin	-11.8053
▁Explosion	-11.8053
▁acknowledge	-11.8053
▁transparency	-11.8053
▁ungeheuer	-11.8053
▁vagina	-11.8053
Origami	-11.8053
▁Möbel	-11.8053
schränke	-11.8053
▁enhance	-11.8053
▁shrimp	-11.8053
kontakt	-11.8053
▁translation	-11.8054
▁ausreichend	-11.8054
▁systematisch	-11.8055
▁Akteur	-11.8056
▁Waffe	-11.8111
▁unglücklich	-11.8162
▁capita	-11.8167
temperatur	-11.8181
völker	-11.8183
▁Dynamik	-11.8183
▁Entstehung	-11.8183
▁Kooperation	-11.8183
▁Original	-11.8183
▁Passwörter	-11.8183
▁anfängt	-11.8183
▁beschränkt	-11.8183
▁diskutieren	-11.8183
▁erfordert	-11.8183
▁evaluat	-11.8183
▁sorgfältig	-11.8183
▁variable	-11.8183
▁vorwärts	-11.8183
▁Intuition	-11.8183
▁substance	-11.8183
▁Variation	-11.8183
▁verstecken	-11.8183
▁gelehrt	-11.8183
▁Schwanz	-11.8183
▁granted	-11.8183
▁örtliche	-11.8183
▁dringend	-11.8184
▁rettet	-11.8185
▁Gerade	-11.8185
stadium	-11.8187
▁Ziege	-11.8199
technology	-11.821
ponent	-11.8219
▁formula	-11.8226
▁Kontroll	-11.8245
▁suspend	-11.8315
▁Anweisung	-11.8315
▁Department	-11.8315
▁Frequenz	-11.8315
▁Ruanda	-11.8315
▁announced	-11.8315
▁ausschließlich	-11.8315
▁definitiv	-11.8315
▁freiwillig	-11.8315
▁irrational	-11.8315
▁muslimische	-11.8315
▁origami	-11.8315
▁recruit	-11.8315
▁spectacular	-11.8315
▁synthetic	-11.8315
▁verdoppelt	-11.8315
▁verzweifelt	-11.8315
▁Behinderung	-11.8315
▁Großvater	-11.8315
▁smoking	-11.8315
▁südlich	-11.8315
▁FDA	-11.8315
▁Jordan	-11.8315
▁twist	-11.8315
▁depressed	-11.8315
▁relax	-11.8315
▁Treppe	-11.8315
▁zivil	-11.8315
▁federal	-11.8315
▁Sarah	-11.8315
▁japanische	-11.8315
▁terror	-11.8376
blasen	-11.8388
▁negativ	-11.8436
▁Feedback	-11.8448
chirurg	-11.8448
▁Baseball	-11.8448
▁Columbia	-11.8448
▁Verhandlung	-11.8448
▁agricultural	-11.8448
▁breakthrough	-11.8448
▁category	-11.8448
▁district	-11.8448
▁disturb	-11.8448
▁happier	-11.8448
▁paradox	-11.8448
▁sacrifice	-11.8448
▁uncomfortable	-11.8448
▁verschwindet	-11.8448
Jährige	-11.8448
▁Studium	-11.8448
▁chief	-11.8448
▁Angesicht	-11.8448
▁auszudrücken	-11.8448
▁regulation	-11.8448
▁entwarf	-11.8448
▁verringern	-11.8448
▁Verwandte	-11.8453
second	-11.8502
Energieverbrauch	-11.8558
▁virtue	-11.8576
gemäß	-11.8578
▁Benutzer	-11.8583
▁Treibstoff	-11.8583
▁fraction	-11.8583
▁reconstruct	-11.8583
▁Buddha	-11.8583
▁Mechanismus	-11.8583
▁Moskito	-11.8583
▁Strahlung	-11.8583
▁gemeinnützige	-11.8583
▁helicopter	-11.8583
▁pandemic	-11.8583
▁trivial	-11.8583
▁vacuum	-11.8583
bedingungen	-11.8583
▁Benzin	-11.8583
▁circa	-11.8583
▁Alaska	-11.8583
▁fügt	-11.8583
▁Third	-11.8583
▁Winkel	-11.8583
▁erledigen	-11.8583
süchtig	-11.8583
▁consult	-11.8583
▁Everest	-11.8583
▁Knoten	-11.8583
▁absurd	-11.8583
stärkste	-11.8584
brüche	-11.8584
minute	-11.8617
wachstum	-11.8703
▁Parlament	-11.872
▁Engagement	-11.872
▁Urknall	-11.872
▁Wohlbefinden	-11.872
▁Zufriedenheit	-11.872
▁accelerate	-11.872
▁aesthetic	-11.872
▁agencies	-11.872
▁anxiety	-11.872
▁assignment	-11.872
▁bedeutsam	-11.872
▁dictionary	-11.872
▁hübsch	-11.872
▁identified	-11.872
▁ignorance	-11.872
▁Jupiter	-11.872
▁Kandidat	-11.872
▁Priorität	-11.872
▁unterhalb	-11.872
▁Canyon	-11.872
▁tackle	-11.872
▁Mittlere	-11.8721
▁deutsche	-11.8721
Komm	-11.8752
fahrzeug	-11.8859
schaffung	-11.8859
▁Abhängigkeit	-11.8859
▁Anthrop	-11.8859
▁Bundesstaat	-11.8859
▁Democrat	-11.8859
▁Kapazität	-11.8859
▁Kohlendioxid	-11.8859
▁Konzentration	-11.8859
▁Nährstoffe	-11.8859
▁Obviously	-11.8859
▁Oktober	-11.8859
▁Privileg	-11.8859
▁Substanz	-11.8859
▁Sylvia	-11.8859
▁Thunfisch	-11.8859
▁bathroom	-11.8859
▁bewahren	-11.8859
▁diskutiert	-11.8859
▁erneuerbare	-11.8859
▁fabulous	-11.8859
▁militärische	-11.8859
▁oxytocin	-11.8859
▁smallpox	-11.8859
▁wheelchair	-11.8859
blätter	-11.8859
prinzip	-11.8859
▁1994	-11.8859
▁1995	-11.8859
▁Entschuldigung	-11.8859
▁verurteilt	-11.8859
▁Chinesisch	-11.8859
▁Management	-11.8859
▁Rechner	-11.8859
▁cliff	-11.8859
▁gegessen	-11.8859
▁impression	-11.8859
resistant	-11.8859
▁Graph	-11.8859
▁Variante	-11.886
▁Scheibe	-11.886
▁Branche	-11.8863
viertel	-11.8864
▁tragic	-11.8866
reservat	-11.8868
▁Afghan	-11.9
▁Joshua	-11.9
▁October	-11.9
▁Phoenix	-11.9
▁akzeptiert	-11.9
▁alcohol	-11.9
▁außerordentlich	-11.9
▁contribution	-11.9
▁explode	-11.9
▁facility	-11.9
▁kombiniert	-11.9
▁primarily	-11.9
▁schlussendlich	-11.9
▁verhindert	-11.9
▁vielfältig	-11.9
▁ärmsten	-11.9
▁Pläne	-11.9
▁fragile	-11.9
▁schmerzhaft	-11.9
▁präzise	-11.9
missbrauch	-11.9
▁zahlreiche	-11.9
▁besaß	-11.9
▁Syria	-11.9
▁optimal	-11.9
▁dominate	-11.9
▁crystal	-11.9028
Programm	-11.9038
engineer	-11.9038
▁Ehrlich	-11.9042
pflanzt	-11.9143
▁Individuum	-11.9143
▁Lebensqualität	-11.9143
▁Produktivität	-11.9143
▁Prüfung	-11.9143
▁Richtlinie	-11.9143
▁Schreibtisch	-11.9143
▁anticipate	-11.9143
▁attribute	-11.9143
▁aufmerksam	-11.9143
▁dialogue	-11.9143
▁disagree	-11.9143
▁ehemalige	-11.9143
▁expansion	-11.9143
▁genocide	-11.9143
▁glacier	-11.9143
▁grandchildren	-11.9143
▁ignoriert	-11.9143
▁inevitable	-11.9143
▁threshold	-11.9143
▁unterscheidet	-11.9143
fabrik	-11.9143
▁offiziell	-11.9143
▁ethnic	-11.9143
▁automobile	-11.9143
▁excuse	-11.9143
▁recipe	-11.9143
▁rabbi	-11.9143
▁confirm	-11.9143
röhre	-11.9145
▁Hochschul	-11.9173
katastrophe	-11.9288
thiopien	-11.9288
♫	-12.0425
–	-12.147
