<pad>	0
<unk>	0
<s>	0
</s>	0
,	-2.87002
.	-3.12716
s	-3.81644
▁the	-4.06656
▁in	-4.44415
'	-4.52312
▁to	-4.53167
▁of	-4.60686
▁a	-4.63635
▁die	-4.64643
▁and	-4.70892
▁und	-4.79074
▁	-4.85245
▁that	-4.8738
▁I	-4.92349
en	-5.01515
▁der	-5.09905
n	-5.14671
t	-5.16691
▁ist	-5.18978
▁is	-5.18993
e	-5.19805
▁you	-5.20628
▁it	-5.25522
▁das	-5.28758
▁zu	-5.30258
▁we	-5.33691
▁ich	-5.45547
▁wir	-5.46843
-	-5.52039
▁was	-5.52623
▁es	-5.54416
▁And	-5.57122
▁this	-5.63987
▁ein	-5.64773
▁Sie	-5.66904
?	-5.70729
▁sie	-5.71318
:	-5.7322
▁an	-5.75968
▁nicht	-5.78252
▁"	-5.79661
▁von	-5.80247
▁--	-5.80996
▁eine	-5.82495
▁dass	-5.84424
▁so	-5.84601
▁Und	-5.91019
▁den	-5.94577
er	-5.96807
▁for	-5.99149
▁mit	-6.00533
re	-6.0258
▁auf	-6.02717
▁are	-6.04415
▁have	-6.05565
▁be	-6.06429
▁they	-6.10327
▁So	-6.11212
m	-6.11322
▁on	-6.11528
d	-6.13129
▁with	-6.17013
▁Ich	-6.19491
▁wie	-6.203
▁sich	-6.20458
ing	-6.2054
▁can	-6.21044
▁sind	-6.24441
▁what	-6.28091
▁haben	-6.29856
▁für	-6.30208
▁all	-6.30886
▁about	-6.31379
r	-6.3159
▁man	-6.32942
▁war	-6.36825
ed	-6.39611
▁not	-6.4489
▁do	-6.45701
▁at	-6.46587
▁um	-6.47094
▁als	-6.48929
▁Das	-6.49139
▁Es	-6.54833
▁there	-6.55783
▁as	-6.56687
▁diese	-6.56754
▁one	-6.57701
."	-6.58678
▁im	-6.58927
▁like	-6.59246
▁people	-6.59814
▁my	-6.60712
▁dem	-6.61197
▁It	-6.61323
▁Wir	-6.62326
▁from	-6.63995
▁aus	-6.65217
▁er	-6.68236
▁also	-6.68646
▁wenn	-6.701
▁uns	-6.70918
▁but	-6.72273
▁einen	-6.75174
▁We	-6.76262
▁or	-6.76444
▁just	-6.77082
▁über	-6.77271
▁our	-6.7864
▁können	-6.7903
▁me	-6.79498
▁werden	-6.80791
▁oder	-6.81386
es	-6.82356
ve	-6.82888
▁hat	-6.83008
▁out	-6.83104
▁But	-6.83641
▁very	-6.84278
▁these	-6.84387
▁if	-6.85062
▁des	-6.86644
▁The	-6.87265
▁know	-6.8838
▁up	-6.90584
▁aber	-6.91377
▁going	-6.92232
▁by	-6.92543
▁auch	-6.92973
▁he	-6.93184
▁them	-6.94342
▁Die	-6.95622
▁kann	-6.95786
y	-6.96112
▁einer	-6.96339
▁Aber	-6.96464
▁when	-6.96932
▁einem	-6.97414
▁because	-6.98802
▁had	-6.99819
▁more	-7.00053
▁see	-7.00589
▁think	-7.00809
▁nur	-7.0173
▁sehr	-7.02509
▁wird	-7.03042
ly	-7.03499
▁which	-7.05516
▁hier	-7.05938
▁Menschen	-7.06242
▁who	-7.06605
▁your	-7.0842
▁get	-7.08533
▁will	-7.08578
▁their	-7.08637
▁were	-7.08719
▁In	-7.08795
▁really	-7.09146
▁mich	-7.09778
▁would	-7.09815
▁how	-7.11233
▁♫	-7.11873
▁gibt	-7.12171
"	-7.13201
▁–	-7.14339
▁dann	-7.15485
▁sein	-7.15794
▁us	-7.18658
▁time	-7.18949
▁here	-7.2029
▁has	-7.20513
▁vor	-7.21239
▁nach	-7.21708
▁world	-7.22399
▁etwas	-7.23532
▁This	-7.24071
▁noch	-7.24809
▁You	-7.24849
l	-7.25281
▁habe	-7.27529
▁sehen	-7.2791
▁some	-7.27972
▁into	-7.27991
ll	-7.28336
▁way	-7.29085
▁actually	-7.2942
▁don	-7.29649
▁mir	-7.30256
▁go	-7.30969
▁dieser	-7.31068
▁Welt	-7.34762
▁years	-7.35423
▁things	-7.35574
▁where	-7.35594
▁want	-7.35857
▁other	-7.3677
▁now	-7.36958
▁mehr	-7.37051
al	-7.37131
te	-7.37615
▁then	-7.37786
▁Now	-7.37882
in	-7.37933
▁bei	-7.38303
▁Wenn	-7.40341
▁make	-7.40975
▁could	-7.41871
▁They	-7.42556
▁alle	-7.42837
▁Er	-7.42932
;	-7.43206
▁durch	-7.4394
st	-7.44745
▁been	-7.46513
c	-7.47204
k	-7.47619
▁wurde	-7.49508
▁said	-7.50295
▁am	-7.50321
▁right	-7.52246
f	-7.5278
▁Ihnen	-7.53074
▁no	-7.53393
▁something	-7.54393
▁wirklich	-7.5513
▁machen	-7.56213
▁two	-7.57576
▁meine	-7.57607
▁zum	-7.58613
▁immer	-7.58872
▁much	-7.58898
▁than	-7.59129
g	-7.60044
▁those	-7.60631
▁over	-7.60695
▁first	-7.61309
▁ver	-7.61607
▁thing	-7.6236
▁weil	-7.62741
▁tun	-7.63414
▁back	-7.63552
▁little	-7.63631
▁da	-7.64023
▁got	-7.6403
▁Also	-7.64861
a	-7.65147
▁look	-7.65626
ten	-7.6698
▁say	-7.67423
▁viel	-7.67446
?"	-7.67545
▁A	-7.6793
▁unsere	-7.68296
▁Zeit	-7.69137
▁hatte	-7.69498
▁keine	-7.69995
▁work	-7.70103
▁That	-7.7066
▁wo	-7.71547
h	-7.73052
▁ihre	-7.74285
▁need	-7.74607
▁only	-7.74983
▁He	-7.75137
▁life	-7.75844
ung	-7.76149
▁Leute	-7.76238
▁her	-7.76454
▁kind	-7.76456
o	-7.77035
S	-7.77293
▁viele	-7.78078
▁his	-7.78083
▁most	-7.78286
▁Leben	-7.78398
▁she	-7.78553
b	-7.78806
▁müssen	-7.79098
▁dieses	-7.79122
▁even	-7.79348
▁take	-7.7994
▁einfach	-7.80236
▁Dinge	-7.81019
▁bin	-7.81045
▁wissen	-7.81059
▁lot	-7.81296
▁S	-7.81682
▁diesem	-7.81882
▁zwei	-7.82218
an	-7.82417
▁Was	-7.82487
▁sagte	-7.82762
p	-7.83293
▁sagen	-7.8334
▁many	-7.84038
▁Art	-7.84776
▁new	-7.84815
▁waren	-7.85215
▁good	-7.85231
▁andere	-7.85877
▁Jahren	-7.85877
▁diesen	-7.86636
▁did	-7.87439
▁around	-7.88194
▁-	-7.88256
▁There	-7.89103
▁different	-7.89519
▁du	-7.90099
▁jetzt	-7.90628
▁down	-7.90717
▁ihr	-7.90781
▁What	-7.90913
ü	-7.91611
▁anderen	-7.92372
le	-7.92383
u	-7.93341
de	-7.93603
▁würde	-7.93705
▁ab	-7.94927
▁through	-7.96973
z	-7.97689
▁same	-7.986
▁come	-7.9879
▁use	-7.9886
▁zur	-7.99156
▁Man	-7.99449
▁ge	-7.99506
▁damit	-7.99569
▁selbst	-7.99685
i	-8.00627
▁Der	-8.00808
▁bis	-8.00824
▁alles	-8.01036
▁every	-8.01076
▁re	-8.01094
▁put	-8.01702
▁Jahre	-8.02071
ge	-8.03383
▁geht	-8.03848
▁being	-8.04172
th	-8.04316
▁Ein	-8.04628
▁doing	-8.05497
or	-8.05563
▁B	-8.05758
be	-8.06054
▁gut	-8.06228
▁wieder	-8.06911
it	-8.0697
▁three	-8.07364
!	-8.07576
▁un	-8.07826
▁eines	-8.08
▁muss	-8.08174
▁day	-8.08579
▁Wie	-8.08944
▁10	-8.0914
ic	-8.10477
▁Well	-8.10501
ro	-8.10558
▁If	-8.10926
▁E	-8.11264
▁mein	-8.11526
▁well	-8.13203
▁seine	-8.13222
▁schon	-8.13518
ter	-8.13544
il	-8.1373
▁called	-8.14329
▁human	-8.14677
ä	-8.14812
ig	-8.15639
▁any	-8.15914
▁percent	-8.15928
▁Kinder	-8.16056
▁möchte	-8.16061
ra	-8.16716
ur	-8.16734
▁20	-8.16928
den	-8.17491
▁find	-8.1783
▁Diese	-8.18069
▁fact	-8.18089
▁vielleicht	-8.18955
▁made	-8.19009
▁ihnen	-8.19009
▁ob	-8.1925
▁zurück	-8.20091
▁denn	-8.20209
▁tell	-8.20271
ation	-8.21153
w	-8.22103
▁talk	-8.22206
▁unter	-8.22352
▁year	-8.23214
A	-8.23258
▁own	-8.23644
▁davon	-8.23758
▁why	-8.23917
▁ganz	-8.24518
▁change	-8.25327
ch	-8.25559
I	-8.25851
▁Nun	-8.25985
▁great	-8.26306
▁idea	-8.26508
ar	-8.26577
▁Geschichte	-8.27091
▁should	-8.27297
▁heute	-8.276
▁drei	-8.27849
▁today	-8.28842
▁hatten	-8.29268
▁thought	-8.29286
▁einige	-8.29414
▁Hier	-8.29926
▁didn	-8.30015
▁part	-8.30025
▁let	-8.30035
ne	-8.30391
▁last	-8.30758
▁könnte	-8.31422
▁ihn	-8.31448
us	-8.31864
▁Thank	-8.32079
ion	-8.32257
▁started	-8.32313
▁after	-8.32372
▁zusammen	-8.32826
▁Jahr	-8.3301
▁T	-8.33103
▁dort	-8.33461
▁genau	-8.34442
▁course	-8.34468
sten	-8.34601
▁weiter	-8.34812
▁give	-8.34996
▁wollen	-8.35198
▁werde	-8.35755
▁went	-8.36363
▁paar	-8.3643
▁C	-8.36471
on	-8.36593
▁tatsächlich	-8.36701
▁before	-8.36836
▁bit	-8.36845
▁big	-8.36932
▁Da	-8.37033
ri	-8.37037
▁still	-8.37101
▁end	-8.3721
▁might	-8.37291
▁important	-8.37293
ste	-8.37323
▁meiner	-8.37472
▁gehen	-8.37837
▁real	-8.3799
ieren	-8.38008
ern	-8.38036
ers	-8.38038
▁nun	-8.38089
▁start	-8.38175
▁better	-8.38204
▁problem	-8.38233
▁darüber	-8.38254
▁Ihre	-8.38732
▁off	-8.3875
▁wurden	-8.38961
▁another	-8.39318
ul	-8.39411
▁Problem	-8.39529
▁show	-8.40268
▁able	-8.40415
▁place	-8.40925
ie	-8.412
▁brain	-8.41221
▁never	-8.4137
▁Beispiel	-8.41475
▁Be	-8.41492
▁sondern	-8.41511
▁system	-8.4201
▁Teil	-8.42348
is	-8.42513
sch	-8.42628
▁An	-8.43317
B	-8.4343
▁weiß	-8.44226
▁water	-8.44315
▁gab	-8.44611
▁ago	-8.44661
▁came	-8.44962
et	-8.44969
▁Ver	-8.45005
▁neue	-8.45257
C	-8.45327
▁pro	-8.45485
to	-8.45807
▁unserer	-8.45836
▁long	-8.46104
▁story	-8.46217
em	-8.4693
▁together	-8.47064
▁next	-8.47114
▁him	-8.47233
▁wäre	-8.47255
▁Dies	-8.4823
▁Als	-8.48394
▁does	-8.49848
▁mean	-8.49857
▁vom	-8.4988
▁few	-8.4992
▁denke	-8.50062
▁again	-8.50408
▁dazu	-8.50489
▁Vor	-8.50965
▁kein	-8.51271
▁point	-8.51361
▁found	-8.51982
▁Wasser	-8.52053
ö	-8.52158
▁kommen	-8.5235
▁K	-8.52554
▁macht	-8.52868
▁question	-8.53219
▁sogar	-8.53406
▁finden	-8.53561
▁Tag	-8.53592
▁denken	-8.53615
ck	-8.53689
▁each	-8.54074
▁gerade	-8.54119
▁between	-8.54226
▁used	-8.54282
▁New	-8.54331
▁technology	-8.54473
▁einmal	-8.54552
▁zwischen	-8.55254
ist	-8.55268
▁When	-8.55284
▁gemacht	-8.55308
▁call	-8.55626
la	-8.55891
zu	-8.55956
iert	-8.55992
▁Mal	-8.5618
▁Internet	-8.56248
able	-8.56467
▁mal	-8.56476
at	-8.56614
▁glaube	-8.56614
▁Frage	-8.56641
▁example	-8.56829
▁love	-8.57209
▁Arbeit	-8.57329
▁Land	-8.57573
▁Frauen	-8.58048
▁ja	-8.58099
ver	-8.58106
▁kommt	-8.58267
▁geben	-8.58325
▁live	-8.5857
▁ohne	-8.58688
ive	-8.58862
▁too	-8.58909
▁30	-8.59118
ment	-8.59312
▁sort	-8.59317
▁looking	-8.59499
▁erste	-8.59958
K	-8.60044
▁data	-8.60365
ity	-8.60438
P	-8.60817
▁Because	-8.60901
▁understand	-8.61051
ant	-8.61057
me	-8.61364
T	-8.61479
▁hin	-8.616
D	-8.61705
el	-8.61807
▁help	-8.62162
▁done	-8.62428
▁women	-8.62432
▁passiert	-8.62467
▁zeigen	-8.62542
▁doesn	-8.6266
▁U	-8.62662
▁denen	-8.62773
▁dafür	-8.63114
▁konnte	-8.63182
M	-8.63267
▁G	-8.63554
▁unser	-8.63838
▁würden	-8.63855
▁Eine	-8.63861
li	-8.63929
▁nie	-8.64267
▁de	-8.64316
▁sieht	-8.64358
▁ganze	-8.64458
▁jeder	-8.64639
▁heraus	-8.64763
ta	-8.64866
▁Prozent	-8.65011
▁million	-8.6509
▁50	-8.65193
▁wanted	-8.65318
▁ersten	-8.65357
▁ihren	-8.6536
▁whole	-8.65419
▁believe	-8.66548
lich	-8.66638
▁meisten	-8.66797
gen	-8.66977
▁verstehen	-8.67321
▁etwa	-8.67339
▁school	-8.67505
▁person	-8.67834
▁während	-8.67868
▁four	-8.68182
▁daran	-8.68325
▁trying	-8.68434
▁Millionen	-8.68608
▁ever	-8.68712
ma	-8.68989
▁Daten	-8.69302
▁leben	-8.69576
▁working	-8.69776
im	-8.6979
▁Grund	-8.69822
▁sollte	-8.70039
▁Gehirn	-8.70056
▁may	-8.70114
▁All	-8.70499
▁always	-8.70619
▁away	-8.70673
▁Auf	-8.70752
▁design	-8.71074
▁Geld	-8.7116
▁warum	-8.71163
▁feel	-8.71258
▁try	-8.71355
▁welche	-8.71398
,"	-8.71458
▁lassen	-8.71459
▁große	-8.71518
▁children	-8.71711
ol	-8.72094
▁Weg	-8.72442
▁car	-8.72571
dem	-8.72594
▁Idee	-8.73206
▁100	-8.73235
▁letzten	-8.73274
▁power	-8.73548
▁sollten	-8.73614
▁light	-8.73666
um	-8.73684
▁Bild	-8.74005
▁besser	-8.74121
▁home	-8.74622
▁country	-8.74698
▁natürlich	-8.74852
▁R	-8.75111
▁best	-8.75207
▁wollte	-8.76072
▁fast	-8.76113
ut	-8.76312
▁meinem	-8.76325
▁15	-8.76592
▁könnten	-8.76663
▁ziemlich	-8.77372
▁space	-8.77489
▁meinen	-8.77773
▁ging	-8.77884
▁create	-8.78977
▁How	-8.79074
▁sprechen	-8.7912
▁My	-8.79202
▁using	-8.79463
▁Ab	-8.79907
▁Im	-8.80067
▁five	-8.80086
▁high	-8.80107
▁sagt	-8.80193
▁number	-8.80254
id	-8.8028
▁small	-8.80285
▁Re	-8.80359
▁sense	-8.80401
▁Sch	-8.80408
▁bekommen	-8.80425
▁hand	-8.80467
▁Raum	-8.80478
▁wichtig	-8.80788
ha	-8.80858
▁arbeiten	-8.81053
▁dabei	-8.81121
▁information	-8.81173
▁took	-8.81185
▁ent	-8.81227
▁ihrer	-8.81376
▁M	-8.81415
▁kam	-8.81472
▁become	-8.81544
▁thinking	-8.8169
▁maybe	-8.81703
▁kids	-8.81808
▁For	-8.81809
▁second	-8.81864
▁China	-8.81894
der	-8.82166
▁TED	-8.82202
▁hard	-8.82335
▁bedeutet	-8.82388
▁means	-8.82406
▁Computer	-8.82687
▁money	-8.82736
▁Ende	-8.82749
▁everything	-8.82807
ir	-8.83295
▁darauf	-8.83497
up	-8.83603
▁One	-8.8369
he	-8.83975
▁eigentlich	-8.84031
▁nehmen	-8.84198
lo	-8.84201
▁p	-8.84291
isch	-8.84383
G	-8.84647
▁left	-8.85198
▁play	-8.85208
▁vier	-8.85371
▁She	-8.85806
▁old	-8.85928
ach	-8.86064
F	-8.86081
▁social	-8.861
ce	-8.8629
▁food	-8.86342
as	-8.86434
▁Dank	-8.86489
▁enough	-8.86676
▁These	-8.86891
ness	-8.86944
▁weniger	-8.87068
▁quite	-8.87083
▁Körper	-8.87273
▁Ja	-8.87274
▁getting	-8.87334
▁Dann	-8.87554
▁doch	-8.87713
R	-8.87867
▁interesting	-8.87996
O	-8.88283
▁Dollar	-8.8847
▁kleinen	-8.88722
▁F	-8.89202
▁future	-8.89392
▁half	-8.89616
▁...	-8.89943
ate	-8.90143
▁D	-8.90287
▁Technologie	-8.90404
▁probably	-8.90545
▁energy	-8.90933
▁kleine	-8.91235
▁happened	-8.9132
▁per	-8.91749
▁As	-8.91843
▁side	-8.92202
▁Sache	-8.92321
▁ask	-8.92505
▁such	-8.92582
▁Aus	-8.92603
▁moment	-8.92685
▁building	-8.9273
man	-8.92758
▁its	-8.92905
ischen	-8.92915
▁dachte	-8.92971
2	-8.93014
ische	-8.93133
▁less	-8.93321
we	-8.93361
▁Ge	-8.93664
▁comes	-8.9384
▁Mann	-8.93849
▁making	-8.93925
▁simple	-8.94009
▁Energie	-8.94054
▁stuff	-8.94092
▁talking	-8.94101
▁unseren	-8.94167
▁room	-8.94487
▁Okay	-8.94777
am	-8.94815
▁ihm	-8.95056
E	-8.95478
▁body	-8.95505
▁brauchen	-8.95534
▁jemand	-8.95674
mp	-8.95684
▁bringen	-8.95686
ia	-8.95974
▁gesehen	-8.96024
▁bring	-8.96027
▁build	-8.96075
▁Weise	-8.96329
▁Here	-8.96562
▁Ihr	-8.96767
▁reason	-8.96826
▁No	-8.96852
▁sicher	-8.969
▁without	-8.97255
▁told	-8.97281
▁P	-8.97319
▁Denn	-8.97538
▁St	-8.97697
▁st	-8.97875
▁40	-8.97991
▁schnell	-8.98052
▁pretty	-8.98096
▁Seite	-8.98299
▁countries	-8.98515
▁dollars	-8.99015
▁Stadt	-8.99035
▁bad	-8.99074
▁coming	-8.99086
▁happen	-8.99594
chen	-8.99602
vi	-8.99603
▁anything	-8.9961
▁großen	-8.99639
est	-9.00283
ab	-9.00368
▁richtig	-9.00739
▁science	-9.00803
▁System	-9.0082
ry	-9.0096
▁O	-9.01273
▁Frau	-9.01282
▁York	-9.01532
▁Mit	-9.01636
▁across	-9.01836
▁lives	-9.02123
▁hätte	-9.02128
▁set	-9.02177
igen	-9.02417
ien	-9.02431
▁Lebens	-9.02671
▁Let	-9.02687
▁form	-9.02808
▁head	-9.03032
pe	-9.03174
▁Hand	-9.03298
▁open	-9.03384
Ich	-9.03391
▁far	-9.03425
▁Africa	-9.03463
ber	-9.03626
▁Um	-9.03785
▁global	-9.03876
▁Menge	-9.03985
L	-9.04204
▁OK	-9.04284
▁Ort	-9.04327
▁experience	-9.04395
▁Person	-9.044
▁ganzen	-9.04483
▁Zukunft	-9.04559
▁Licht	-9.04569
▁gegen	-9.0469
▁Do	-9.0471
▁später	-9.04793
▁gesagt	-9.05042
N	-9.05142
▁else	-9.05187
ungen	-9.05206
▁care	-9.05241
ze	-9.05249
▁versuchen	-9.05347
▁jeden	-9.05422
▁process	-9.05489
ren	-9.05506
▁times	-9.05535
▁saw	-9.05546
▁living	-9.05722
▁learn	-9.05805
▁later	-9.05901
▁L	-9.05983
▁fünf	-9.05993
▁move	-9.06178
▁wenig	-9.06544
▁keinen	-9.06664
▁c	-9.06788
▁3	-9.06821
▁seit	-9.06871
▁asked	-9.06912
▁co	-9.06925
ke	-9.07011
▁nichts	-9.07079
▁mind	-9.07115
▁H	-9.07306
age	-9.07367
▁Fall	-9.07419
▁glauben	-9.07433
▁picture	-9.0747
▁hope	-9.07479
▁goes	-9.07516
▁Natur	-9.07634
x	-9.07658
mo	-9.07852
v	-9.07983
▁Du	-9.08168
▁computer	-9.08305
▁Kind	-9.08517
▁answer	-9.08531
▁under	-9.08624
▁having	-9.08739
os	-9.08905
▁funktioniert	-9.09074
▁men	-9.09083
▁Vielen	-9.09095
▁Mo	-9.0927
H	-9.09347
▁planet	-9.09359
▁Moment	-9.0941
bar	-9.09416
ad	-9.09498
tra	-9.09501
ik	-9.09572
▁Danke	-9.0976
▁beim	-9.0984
▁möglich	-9.1011
▁happens	-9.1022
▁stellen	-9.10291
▁seen	-9.10393
ko	-9.1056
▁je	-9.10591
▁hoch	-9.10655
▁six	-9.10711
▁project	-9.10987
▁heißt	-9.11052
▁konnten	-9.11162
▁family	-9.11277
▁18	-9.1139
▁keep	-9.11412
▁lernen	-9.11467
pa	-9.11494
▁case	-9.11546
▁eigenen	-9.1166
op	-9.11778
▁Erde	-9.12297
na	-9.12559
▁both	-9.12598
ling	-9.12692
▁single	-9.12821
▁Le	-9.12879
ler	-9.12964
▁says	-9.1301
▁vielen	-9.13094
▁wahrscheinlich	-9.13331
▁health	-9.13486
▁remember	-9.1349
▁schaffen	-9.13539
ein	-9.1357
▁Earth	-9.13588
▁young	-9.13758
sp	-9.13813
▁business	-9.13857
▁book	-9.13931
▁19	-9.13978
▁city	-9.14362
1	-9.14457
▁gute	-9.14584
▁Mutter	-9.14771
her	-9.14841
▁Un	-9.14981
▁jedes	-9.14994
iv	-9.15078
▁Jetzt	-9.15285
▁inside	-9.15346
▁Warum	-9.15358
br	-9.15548
▁read	-9.1559
▁basically	-9.15658
▁sch	-9.15704
▁lange	-9.15815
▁guy	-9.15887
▁nutzen	-9.15927
tion	-9.16067
un	-9.16078
▁Entwicklung	-9.16219
▁Probleme	-9.16248
▁Buch	-9.16515
▁almost	-9.16554
3	-9.16596
▁problems	-9.16606
▁possible	-9.16654
▁public	-9.16874
co	-9.16906
ci	-9.1711
fe	-9.17193
▁run	-9.17245
▁yet	-9.1726
▁De	-9.17331
".	-9.17336
▁top	-9.17432
▁makes	-9.17434
▁saying	-9.1745
▁video	-9.176
▁Wissen	-9.1782
ige	-9.17958
di	-9.18059
▁Al	-9.18098
▁once	-9.18279
▁while	-9.18279
▁weit	-9.18327
▁billion	-9.18357
ag	-9.18618
▁whether	-9.18684
▁USA	-9.18695
▁sah	-9.18753
▁matter	-9.19088
▁days	-9.19189
▁12	-9.19303
ben	-9.19333
ner	-9.19479
▁helfen	-9.19545
ster	-9.19654
The	-9.19805
nen	-9.19854
▁nothing	-9.19923
▁already	-9.20025
▁control	-9.20064
▁zeigt	-9.20562
▁seiner	-9.20658
▁lang	-9.20694
▁wrong	-9.20755
▁order	-9.20835
heit	-9.20886
äu	-9.21005
▁Auto	-9.21083
▁genug	-9.21175
▁Projekt	-9.21317
▁someone	-9.21417
▁sei	-9.21459
▁gleich	-9.21768
▁looked	-9.21861
▁N	-9.2193
▁To	-9.21933
▁land	-9.21997
▁Ka	-9.22079
▁2	-9.22341
▁klar	-9.22455
▁DNA	-9.22468
▁erzählen	-9.22479
▁Pro	-9.22549
▁Z	-9.22571
5	-9.22679
▁community	-9.22764
▁couple	-9.22764
va	-9.22816
▁weg	-9.22992
▁Ma	-9.23023
▁Am	-9.23042
▁art	-9.23098
▁unserem	-9.23099
▁within	-9.23119
▁Why	-9.23172
fi	-9.23329
▁history	-9.23407
▁jede	-9.23518
▁W	-9.23555
ger	-9.2356
▁nächsten	-9.23677
▁myself	-9.2373
▁true	-9.23745
▁neuen	-9.23749
▁begann	-9.23796
▁Design	-9.24036
▁beautiful	-9.24053
▁stand	-9.24117
ip	-9.24153
▁heart	-9.24247
▁Or	-9.24253
▁child	-9.24399
no	-9.24436
ub	-9.24501
ring	-9.24608
▁ways	-9.24628
lt	-9.24634
ho	-9.2465
▁amazing	-9.24923
▁stop	-9.2504
▁cancer	-9.25067
▁Nach	-9.25109
▁z	-9.25179
▁Afrika	-9.25264
ine	-9.25489
▁heard	-9.25537
▁age	-9.25614
▁turn	-9.25872
▁ungefähr	-9.2613
▁cells	-9.26174
▁face	-9.26194
▁imagine	-9.26356
▁sure	-9.26387
▁Punkt	-9.26466
▁Form	-9.26502
▁United	-9.26798
▁ideas	-9.26943
▁bauen	-9.27023
▁Zu	-9.27166
ard	-9.27308
▁gehört	-9.27763
land	-9.27931
ft	-9.28086
▁often	-9.28213
▁research	-9.28335
▁self	-9.28361
sa	-9.28474
▁built	-9.2851
cht	-9.28679
▁anders	-9.28696
▁CA	-9.2877
▁words	-9.28784
▁herum	-9.28995
▁group	-9.29026
▁verändern	-9.29161
▁liegt	-9.29202
▁model	-9.29208
▁government	-9.29331
▁Planeten	-9.29388
▁bisschen	-9.29411
▁universe	-9.29469
ton	-9.29538
▁Augen	-9.29558
▁language	-9.2985
▁25	-9.29942
hr	-9.2995
▁months	-9.30001
▁music	-9.3035
▁schwer	-9.30514
▁environment	-9.30522
▁Schule	-9.30527
▁piece	-9.3055
▁line	-9.30719
▁Ideen	-9.30767
tri	-9.30985
aus	-9.31016
▁Bei	-9.31149
kt	-9.31241
▁Haus	-9.31248
gt	-9.31259
är	-9.31803
▁Für	-9.31818
▁Informationen	-9.3187
▁Co	-9.31888
▁job	-9.31974
▁überall	-9.31979
▁Musik	-9.3227
▁kennen	-9.32318
▁Meine	-9.32421
ting	-9.32542
liche	-9.32555
und	-9.32589
less	-9.32692
4	-9.32762
▁Leuten	-9.3279
▁stehen	-9.33238
▁con	-9.33289
▁60	-9.33314
▁cool	-9.33363
mal	-9.33441
▁dich	-9.33481
▁night	-9.33581
old	-9.33584
bau	-9.33641
▁erst	-9.33662
▁species	-9.33699
▁k	-9.33774
▁At	-9.33859
ff	-9.33895
▁Wo	-9.33975
▁looks	-9.3401
au	-9.34122
▁name	-9.34175
da	-9.34215
▁Spiel	-9.34235
▁Unternehmen	-9.3446
8	-9.34481
▁until	-9.34536
▁everybody	-9.34538
ary	-9.34603
▁view	-9.34778
▁Antwort	-9.34798
kommen	-9.35149
▁past	-9.3515
log	-9.35333
▁must	-9.35383
▁darum	-9.35402
▁Wissenschaft	-9.35526
▁Männer	-9.35531
▁decided	-9.3582
▁nennen	-9.3583
▁musste	-9.3593
▁education	-9.35946
ated	-9.35948
zen	-9.35977
bu	-9.36004
▁figure	-9.36016
▁allen	-9.3606
▁Milliarden	-9.36116
▁completely	-9.36142
ous	-9.36291
▁word	-9.363
ating	-9.36319
▁fest	-9.36505
▁sagten	-9.3663
▁large	-9.36632
▁la	-9.36678
▁80	-9.36789
ted	-9.36877
▁Mädchen	-9.36967
▁Über	-9.36995
▁Se	-9.37096
▁house	-9.3711
▁Fragen	-9.37302
▁Gebäude	-9.37461
▁reden	-9.37511
▁ihrem	-9.37829
▁Ro	-9.3785
▁share	-9.37866
▁America	-9.37951
▁study	-9.38004
▁India	-9.38045
▁nature	-9.38081
▁seinen	-9.38163
▁einzige	-9.38203
▁friends	-9.38261
▁though	-9.38262
▁exactly	-9.38346
▁hear	-9.3835
ba	-9.38421
ph	-9.38423
▁States	-9.38426
▁front	-9.38443
▁stories	-9.38457
▁entwickelt	-9.38496
▁became	-9.3858
▁bevor	-9.38591
▁gar	-9.38788
▁euch	-9.38967
▁Dr	-9.39026
▁Kopf	-9.3903
▁taking	-9.39336
▁e	-9.39356
men	-9.39361
the	-9.39366
▁since	-9.39462
▁happening	-9.39506
che	-9.39518
▁free	-9.39545
7	-9.39572
▁places	-9.39595
▁bereits	-9.39759
▁game	-9.39813
ism	-9.39891
▁J	-9.39973
▁Ha	-9.40008
▁huge	-9.40129
▁level	-9.40306
▁knew	-9.40347
▁itself	-9.40474
▁Video	-9.40571
▁fragen	-9.40592
▁test	-9.40612
▁students	-9.40619
ian	-9.40921
▁erkennen	-9.40985
▁animals	-9.41116
▁erreichen	-9.41145
son	-9.41199
▁Minuten	-9.41367
▁somebody	-9.41376
▁Gesellschaft	-9.41482
go	-9.4162
mi	-9.41689
▁ourselves	-9.41757
▁woman	-9.41831
▁sound	-9.41883
▁besonders	-9.41886
▁steht	-9.41971
▁close	-9.42055
tor	-9.42056
▁verschiedene	-9.42091
▁learned	-9.42126
▁sechs	-9.42275
▁Familie	-9.42299
▁Regierung	-9.42318
and	-9.42395
▁society	-9.42405
▁namens	-9.4242
▁spielen	-9.42463
▁Film	-9.42562
▁halten	-9.42766
▁Google	-9.42795
▁soll	-9.42866
▁benutzen	-9.43015
ier	-9.43205
▁wahr	-9.4329
tic	-9.43369
▁Arten	-9.43411
▁Gefühl	-9.43451
rs	-9.4358
▁gerne	-9.4383
▁Kunst	-9.43836
▁Selbst	-9.43839
▁minutes	-9.43848
▁Mein	-9.43871
▁company	-9.43976
▁hätten	-9.44061
bel	-9.44083
▁air	-9.44117
ance	-9.44203
▁themselves	-9.44241
▁culture	-9.44295
bi	-9.44305
▁1	-9.4447
▁cell	-9.44545
ator	-9.44582
wa	-9.44584
▁God	-9.44591
ized	-9.44639
sh	-9.44854
▁along	-9.44917
▁state	-9.44922
▁oben	-9.44937
cy	-9.44959
▁pre	-9.44971
▁darin	-9.45052
▁Oder	-9.45063
▁Sa	-9.45108
▁against	-9.45218
▁Indien	-9.45307
▁Geschichten	-9.4539
▁dis	-9.45441
▁hören	-9.45462
▁r	-9.45476
▁Pa	-9.45482
▁rather	-9.45576
▁Dieses	-9.45647
▁works	-9.45718
▁machte	-9.45797
00	-9.45809
▁Vater	-9.45847
▁Macht	-9.45885
ty	-9.46087
▁won	-9.46148
ga	-9.46263
▁ca	-9.46295
▁Gruppe	-9.46398
9	-9.46416
▁created	-9.46535
▁hours	-9.4662
ug	-9.46823
▁turns	-9.47197
gel	-9.47232
W	-9.47308
line	-9.47369
▁least	-9.47469
▁mother	-9.47626
▁braucht	-9.47637
zi	-9.47656
▁disease	-9.4804
do	-9.4811
▁anderes	-9.4817
▁machine	-9.48191
▁third	-9.48232
art	-9.483
teil	-9.48312
▁Doch	-9.48343
uch	-9.48401
▁risk	-9.48431
▁La	-9.48626
▁American	-9.48839
▁jedem	-9.49017
▁particular	-9.49035
▁Angst	-9.49058
stand	-9.49125
▁sometimes	-9.49263
▁population	-9.49309
▁worked	-9.49425
▁walk	-9.49452
▁Vielleicht	-9.49572
▁Bilder	-9.49648
▁questions	-9.49658
ally	-9.49666
▁paper	-9.49681
▁Eltern	-9.49683
▁Glück	-9.4982
cken	-9.49852
",	-9.49898
▁wer	-9.49905
▁behavior	-9.49919
▁Weil	-9.50132
▁Roboter	-9.50137
▁Patienten	-9.50145
▁tr	-9.50178
▁entwickeln	-9.50241
äh	-9.50254
▁Sprache	-9.50255
▁Nicht	-9.50355
▁seven	-9.50523
▁sp	-9.50602
end	-9.50649
ure	-9.50664
▁vorstellen	-9.50995
▁bewegen	-9.50997
▁Ra	-9.51033
▁gesamte	-9.51089
per	-9.51128
▁gave	-9.51373
▁early	-9.51386
,000	-9.51401
▁guys	-9.51497
los	-9.51512
▁speak	-9.51598
▁Chris	-9.51643
▁happy	-9.51657
▁thousands	-9.51889
zeit	-9.51981
▁Möglichkeit	-9.5214
▁aller	-9.52147
▁kinds	-9.52178
▁Wort	-9.52212
▁Luft	-9.52232
▁menschliche	-9.5227
▁market	-9.523
▁amount	-9.52372
▁Hause	-9.52386
hi	-9.52536
▁deal	-9.5261
▁couldn	-9.52632
▁frei	-9.52696
▁4	-9.5282
▁d	-9.52828
▁verändert	-9.52861
▁pay	-9.529
!"	-9.52905
▁Ho	-9.52912
▁instead	-9.52948
▁everyone	-9.52969
▁dir	-9.53051
▁outside	-9.53053
▁Oh	-9.53059
▁Krebs	-9.53092
form	-9.53098
ken	-9.53126
keit	-9.53167
▁team	-9.53405
▁erhalten	-9.53456
▁Bo	-9.53526
▁irgendwie	-9.53528
▁v	-9.53531
▁Stunden	-9.53631
▁difference	-9.53975
▁oil	-9.53997
▁führen	-9.5407
▁entire	-9.54168
▁normal	-9.5424
▁short	-9.54258
▁natural	-9.54461
▁neu	-9.54731
▁Not	-9.5489
▁manchmal	-9.5499
▁local	-9.55139
▁verschiedenen	-9.55153
▁schön	-9.55222
▁unglaublich	-9.55289
▁grow	-9.55376
▁Then	-9.55381
▁ko	-9.5547
▁ändern	-9.5551
▁beiden	-9.5554
▁wohl	-9.5564
▁Ziel	-9.55866
ful	-9.55885
▁einigen	-9.55999
▁common	-9.56031
▁Gott	-9.56114
ial	-9.5614
▁scale	-9.56202
▁fish	-9.56276
ah	-9.56361
▁Lehrer	-9.56414
▁m	-9.56477
▁black	-9.5678
▁full	-9.56853
side	-9.56858
Oh	-9.56998
▁film	-9.57076
▁sea	-9.57256
▁learning	-9.57261
▁200	-9.57317
▁wollten	-9.57362
▁cost	-9.57447
que	-9.57474
▁nämlich	-9.57528
▁alt	-9.57603
▁area	-9.57732
▁Na	-9.57802
▁groß	-9.57845
pf	-9.57958
▁death	-9.58134
▁changed	-9.58189
ize	-9.58212
ich	-9.58283
▁leave	-9.58399
▁mag	-9.58451
▁spend	-9.58766
▁began	-9.58872
▁taken	-9.58966
▁century	-9.58997
▁sage	-9.59116
▁systems	-9.59165
▁90	-9.59174
▁6	-9.59231
▁difficult	-9.59264
▁online	-9.59299
▁middle	-9.59359
ca	-9.59366
▁11	-9.59536
▁Ko	-9.59644
▁verwenden	-9.59822
▁beginning	-9.59822
gehen	-9.59834
▁Sachen	-9.59886
▁rest	-9.59897
▁wonderful	-9.60012
▁eher	-9.60152
▁sub	-9.60459
▁economic	-9.60501
les	-9.6053
▁HIV	-9.60598
▁unterschiedlich	-9.60755
▁fand	-9.60809
▁moving	-9.6091
▁perhaps	-9.6091
▁easy	-9.61067
▁innerhalb	-9.61067
schen	-9.61132
▁direkt	-9.61381
len	-9.61381
▁eight	-9.61388
▁yourself	-9.61398
▁besten	-9.61449
▁certain	-9.6145
▁beginnen	-9.61475
▁support	-9.61695
▁map	-9.61794
▁behind	-9.61829
ies	-9.61956
▁menschlichen	-9.62226
▁turned	-9.62409
▁kurz	-9.62476
▁eyes	-9.62491
nd	-9.62572
▁Some	-9.62579
▁niemand	-9.62623
▁news	-9.62737
▁überhaupt	-9.62804
▁Länder	-9.62865
▁getan	-9.63114
▁given	-9.63185
▁size	-9.63197
▁red	-9.63223
▁Stück	-9.63475
ex	-9.63477
▁cities	-9.63614
iz	-9.63698
▁terms	-9.63758
▁V	-9.63804
6	-9.63835
▁solche	-9.63971
▁wasn	-9.64043
▁image	-9.64066
▁media	-9.64108
▁War	-9.64207
▁hinter	-9.64211
▁Sinn	-9.64229
▁Kindern	-9.64236
ow	-9.64343
▁5	-9.64415
▁friend	-9.64443
▁bereit	-9.64472
spiel	-9.64486
▁versucht	-9.64566
.000	-9.64588
▁finally	-9.64775
▁blue	-9.64801
▁wegen	-9.64927
▁tut	-9.64997
▁ocean	-9.65001
▁eigene	-9.65098
▁Lage	-9.65101
▁schauen	-9.65189
▁ex	-9.65233
▁lots	-9.65358
▁cut	-9.65359
▁Universum	-9.65501
▁Anfang	-9.65551
▁nächste	-9.65588
än	-9.65785
▁16	-9.65804
▁surface	-9.65879
▁zwar	-9.65884
▁Just	-9.65927
▁17	-9.65991
ierte	-9.66017
ative	-9.66077
▁powerful	-9.66174
▁Liebe	-9.66255
▁cannot	-9.66446
▁Freunde	-9.6645
▁gleichen	-9.66452
gu	-9.66535
year	-9.66755
ium	-9.66772
▁hands	-9.66796
▁father	-9.66876
bo	-9.669
des	-9.6701
▁Erfahrung	-9.67207
▁eat	-9.67208
▁7	-9.67248
pp	-9.67355
▁Tiere	-9.67484
▁seeing	-9.67589
▁Lass	-9.67608
▁los	-9.67647
▁Stellen	-9.67686
lichen	-9.67772
▁experiment	-9.67845
▁treffen	-9.6789
▁Po	-9.67938
Well	-9.68001
nder	-9.68029
ka	-9.6809
▁14	-9.68095
▁Krieg	-9.6812
▁Herausforderung	-9.68207
▁Unter	-9.68223
▁simply	-9.68375
▁poor	-9.68384
igkeit	-9.68419
▁companies	-9.68544
▁gets	-9.6861
amp	-9.68713
▁week	-9.68798
▁value	-9.68904
ot	-9.69046
▁longer	-9.69076
▁realized	-9.69104
▁recht	-9.6924
ite	-9.69338
▁center	-9.69394
ende	-9.69597
▁buy	-9.69702
▁allem	-9.69817
ale	-9.69856
bt	-9.69876
▁political	-9.69903
▁weitere	-9.69984
▁wusste	-9.70011
V	-9.7003
▁zweite	-9.70135
▁thank	-9.7023
mon	-9.70234
▁whatever	-9.7037
▁others	-9.70498
ran	-9.70498
▁gr	-9.70705
if	-9.70793
during	-9.70861
▁needed	-9.7091
▁letzte	-9.71235
▁mussten	-9.71306
▁g	-9.71356
ak	-9.71376
▁tried	-9.71634
▁Technik	-9.71648
▁produce	-9.71763
▁li	-9.71818
▁World	-9.71837
▁bekannt	-9.71844
▁program	-9.71859
▁Me	-9.71866
iger	-9.71877
▁People	-9.72007
▁70	-9.72142
▁challenge	-9.72249
▁Essen	-9.72269
▁schwierig	-9.72329
▁Wissenschaftler	-9.72345
▁Unterschied	-9.72389
▁Herz	-9.72504
▁positive	-9.72542
▁interessant	-9.72559
▁interested	-9.72593
▁movement	-9.72602
▁parents	-9.72629
▁Umwelt	-9.72684
▁Publikum	-9.72699
ib	-9.72892
▁fühlen	-9.72978
ome	-9.72995
▁völlig	-9.73031
▁kamen	-9.73099
▁Kultur	-9.73109
You	-9.73153
▁felt	-9.73218
legen	-9.73231
▁reality	-9.73279
▁b	-9.73448
ierung	-9.73552
▁Grunde	-9.73562
▁glücklich	-9.73616
▁personal	-9.73641
▁benutzt	-9.7374
▁okay	-9.73918
ör	-9.73981
▁result	-9.74054
▁ground	-9.74277
▁Tages	-9.74312
▁quickly	-9.74315
▁act	-9.74396
▁national	-9.74448
▁Vorstellung	-9.7452
▁gleiche	-9.74601
cher	-9.74657
▁low	-9.74663
▁Denken	-9.74677
ble	-9.74751
▁field	-9.74814
▁unten	-9.74901
▁Markt	-9.74972
▁Hilfe	-9.74992
vo	-9.75027
▁Zum	-9.75039
▁gone	-9.75138
▁individual	-9.75154
▁Jahrhundert	-9.75159
bei	-9.75167
▁parts	-9.75195
od	-9.75205
▁Prozess	-9.75267
▁Tage	-9.75294
nde	-9.75428
▁Verhalten	-9.75455
▁Dingen	-9.75471
▁phone	-9.75479
▁21	-9.75535
▁Bewegung	-9.75659
▁green	-9.75718
▁complex	-9.75878
▁animal	-9.75893
▁growth	-9.75936
ap	-9.75966
▁write	-9.75986
▁mo	-9.76078
▁fear	-9.76096
▁Wahl	-9.76102
▁Boden	-9.76115
▁allow	-9.76117
▁Wirtschaft	-9.76278
▁bitte	-9.76359
▁South	-9.76446
▁spent	-9.76448
▁stark	-9.7651
▁Tier	-9.76523
com	-9.76598
▁Mensch	-9.76607
▁ability	-9.7678
▁approach	-9.76809
▁Haupt	-9.76809
▁isn	-9.76979
▁lässt	-9.76989
▁f	-9.76993
▁falsch	-9.77013
▁worden	-9.77067
▁met	-9.77122
sche	-9.77146
▁feet	-9.77193
▁fun	-9.77299
mat	-9.77301
▁Ca	-9.77313
▁jedoch	-9.7736
▁damals	-9.77362
auf	-9.77515
ical	-9.77546
▁Möglichkeiten	-9.77659
Was	-9.77713
mit	-9.77757
▁Thema	-9.77821
▁Eis	-9.77846
▁Wochen	-9.77927
▁obwohl	-9.77936
▁takes	-9.77989
▁Can	-9.78022
▁Viele	-9.78088
▁Gedanken	-9.78089
▁sitting	-9.78109
▁On	-9.78134
ismus	-9.78178
▁opportunity	-9.78286
ue	-9.78478
▁bringt	-9.78844
▁pick	-9.78878
▁schreiben	-9.78936
▁nice	-9.79045
▁Zwei	-9.79061
What	-9.79193
▁needs	-9.79211
▁either	-9.79222
▁Alter	-9.79232
▁Go	-9.79244
▁mass	-9.79309
hand	-9.79321
geben	-9.79429
▁structure	-9.79489
▁Nacht	-9.79556
▁wären	-9.79563
▁fragte	-9.79578
pro	-9.79639
▁Mittel	-9.79767
▁weeks	-9.79779
▁economy	-9.79785
rate	-9.80022
▁stage	-9.80041
▁Nein	-9.80047
▁Ta	-9.80062
▁8	-9.80077
▁leicht	-9.80227
▁realize	-9.80356
hal	-9.80424
▁Staaten	-9.80428
▁bleiben	-9.80499
▁Woche	-9.8055
▁focus	-9.80567
▁größte	-9.80588
▁lost	-9.80655
▁color	-9.80707
▁hold	-9.80728
▁step	-9.80876
▁modern	-9.80948
▁key	-9.81116
▁Namen	-9.81239
▁Lösung	-9.8125
▁lösen	-9.81332
▁dessen	-9.81398
▁Ent	-9.81498
▁morning	-9.815
▁Right	-9.81513
▁incredible	-9.81692
▁besteht	-9.81732
ität	-9.81742
ng	-9.81787
▁bottom	-9.81885
▁explain	-9.8191
▁Monate	-9.81944
▁genauso	-9.82121
▁Team	-9.82165
▁average	-9.82272
ging	-9.8238
▁komplett	-9.82465
▁attention	-9.82465
▁Ba	-9.82475
isten	-9.82714
▁betrachten	-9.82718
▁Modell	-9.82773
▁Meinung	-9.8285
▁audience	-9.82854
▁sollen	-9.82893
eln	-9.82969
▁blood	-9.83049
▁Rolle	-9.83072
ß	-9.83228
▁verwendet	-9.83245
▁oft	-9.83274
▁hit	-9.83339
▁Labor	-9.83455
schaft	-9.83475
▁Erfolg	-9.83572
▁entfernt	-9.83636
▁based	-9.8366
ja	-9.83742
▁drive	-9.83752
▁San	-9.83897
▁schrieb	-9.84065
▁West	-9.84103
▁inter	-9.84156
▁suchen	-9.84206
tz	-9.84215
▁teilen	-9.84295
gi	-9.8439
▁super	-9.84424
▁patients	-9.84527
▁stellt	-9.84555
▁bewusst	-9.84593
▁areas	-9.84597
▁kid	-9.84663
▁zuvor	-9.84687
▁beide	-9.84715
▁se	-9.84728
▁Kraft	-9.84824
▁London	-9.85019
ities	-9.85023
▁Muster	-9.85045
▁See	-9.85047
▁Größe	-9.85218
▁impact	-9.85247
▁feeling	-9.85249
io	-9.85289
▁Gesundheit	-9.85307
▁fire	-9.85312
▁führt	-9.85316
▁Ländern	-9.85343
▁sit	-9.85648
▁watch	-9.8565
▁dark	-9.85681
▁material	-9.85702
eh	-9.85749
▁Wert	-9.85795
▁innovation	-9.85818
▁Zellen	-9.85881
▁brought	-9.86019
lin	-9.8604
▁rein	-9.86062
▁clear	-9.86132
▁forward	-9.86209
▁shows	-9.86289
▁Li	-9.86316
▁National	-9.86321
wer	-9.8642
▁gefunden	-9.86422
▁br	-9.86506
▁physical	-9.86536
▁access	-9.8662
▁Tatsache	-9.86624
▁books	-9.86684
▁fly	-9.86804
▁Umgebung	-9.86829
▁ma	-9.86894
▁Fähigkeit	-9.86977
▁Recht	-9.86987
▁chance	-9.87233
▁deine	-9.87343
▁born	-9.87396
▁verbunden	-9.87436
oo	-9.87468
▁arm	-9.87562
▁plan	-9.87622
▁erreicht	-9.87643
king	-9.87774
▁developed	-9.87788
ek	-9.87829
▁measure	-9.87832
▁Reihe	-9.87845
ish	-9.87973
▁genannt	-9.8805
▁sterben	-9.8805
▁white	-9.88096
▁Alle	-9.88099
▁action	-9.88135
▁kaufen	-9.88257
▁Kon	-9.88281
▁Our	-9.88323
▁issue	-9.88353
▁Unsere	-9.88363
▁force	-9.88396
fen	-9.88404
mittel	-9.88408
▁Mars	-9.88489
▁sieben	-9.88528
▁fundamental	-9.88579
▁humans	-9.8861
▁English	-9.88874
▁Heute	-9.88877
▁shape	-9.88888
▁growing	-9.88948
chte	-9.89044
▁knowledge	-9.89081
▁scheint	-9.89083
Das	-9.89105
We	-9.89117
▁ausge	-9.89228
▁Wahrheit	-9.89289
▁known	-9.894
▁vorher	-9.89442
▁wrote	-9.89496
▁break	-9.89502
▁Zahl	-9.89549
▁di	-9.89645
▁climate	-9.89704
▁running	-9.89707
▁Schritt	-9.89731
▁lesen	-9.89784
▁Yeah	-9.89876
▁literally	-9.89913
▁giving	-9.89916
▁Gemeinschaft	-9.89925
▁stay	-9.90001
▁gebaut	-9.9005
▁draußen	-9.90122
▁technologies	-9.9013
▁John	-9.90165
▁Familien	-9.90207
▁tend	-9.90239
▁type	-9.90331
▁revolution	-9.90332
ile	-9.90473
dy	-9.90491
ps	-9.90522
rin	-9.90578
▁meines	-9.90629
pt	-9.90671
▁soziale	-9.90696
con	-9.90765
▁13	-9.90793
▁CO	-9.90818
▁Autos	-9.90841
▁special	-9.90858
▁Revolution	-9.90964
▁numbers	-9.91001
▁tief	-9.91016
▁deep	-9.91033
▁Ihren	-9.91066
▁theory	-9.91066
▁Lo	-9.91067
▁understanding	-9.91068
▁development	-9.912
▁anderer	-9.91213
▁nahm	-9.91248
▁network	-9.91326
▁erinnern	-9.91387
▁gelernt	-9.91387
▁seems	-9.91394
▁Tat	-9.91413
▁Verbindung	-9.91575
▁present	-9.91583
▁digital	-9.91656
▁Wer	-9.91792
▁Sehen	-9.9188
▁girl	-9.91975
▁miles	-9.91979
▁Natürlich	-9.92239
▁similar	-9.92239
▁post	-9.92324
▁500	-9.92411
▁funktionieren	-9.92416
▁schließlich	-9.92453
ization	-9.92484
▁Of	-9.92534
▁Jeder	-9.92572
▁wouldn	-9.92663
▁anyone	-9.92694
▁kleiner	-9.92735
▁scientists	-9.92799
vor	-9.92879
▁gewesen	-9.92897
▁Amerika	-9.929
▁Freund	-9.92923
▁erschaffen	-9.93145
▁sun	-9.93149
stellen	-9.93163
▁hinein	-9.93164
▁Bau	-9.93308
▁schlecht	-9.93364
▁sehe	-9.93394
▁non	-9.93402
▁starting	-9.93405
▁Meter	-9.93505
▁ba	-9.93666
red	-9.93752
lei	-9.93846
▁plötzlich	-9.93965
▁passieren	-9.93984
▁hundreds	-9.94005
▁24	-9.94061
▁eye	-9.9418
▁alone	-9.9419
ud	-9.94243
wand	-9.94299
fall	-9.94308
mmer	-9.94308
▁erklären	-9.94462
stoff	-9.94462
▁fanden	-9.94471
▁City	-9.94491
plan	-9.94492
ni	-9.94493
▁rate	-9.94493
▁gegenüber	-9.94627
ding	-9.94656
tel	-9.94657
tin	-9.9473
▁changes	-9.9479
▁guess	-9.94841
▁länger	-9.94846
▁bio	-9.94978
▁Sp	-9.95164
▁mine	-9.95212
▁zehn	-9.95279
▁Bedeutung	-9.95279
▁telling	-9.95332
▁Gesicht	-9.95338
af	-9.95415
▁ice	-9.95449
werk	-9.95453
▁Bücher	-9.955
▁Einige	-9.95501
▁bewegt	-9.95564
U	-9.95578
▁jemals	-9.95722
▁begin	-9.95749
▁relationship	-9.95756
hu	-9.95781
▁tools	-9.9581
▁essen	-9.95841
▁soon	-9.95842
ür	-9.95942
▁Afghanistan	-9.95943
▁Richtung	-9.95947
▁daraus	-9.95948
▁Studenten	-9.95963
▁9	-9.95974
▁Fl	-9.96059
▁total	-9.96065
ell	-9.96066
ged	-9.96078
▁Europe	-9.9613
▁mache	-9.96133
▁liebe	-9.96155
▁auszu	-9.96165
▁geworden	-9.96165
▁village	-9.96165
way	-9.96175
▁blind	-9.96252
lang	-9.96325
▁hinaus	-9.96424
▁dead	-9.9643
▁voice	-9.9644
▁send	-9.96466
▁Fi	-9.96473
▁bar	-9.96571
ide	-9.96584
▁gezeigt	-9.96611
▁law	-9.96669
▁images	-9.96737
▁nimmt	-9.96813
▁Medien	-9.96837
ick	-9.969
ät	-9.96945
In	-9.96972
▁voll	-9.96992
▁Neu	-9.96999
▁safe	-9.97054
▁interessiert	-9.97059
▁deshalb	-9.97059
isieren	-9.97078
▁wind	-9.97119
time	-9.97163
▁add	-9.97259
▁Japan	-9.97284
▁Platz	-9.97287
▁bed	-9.974
▁private	-9.97404
led	-9.97422
▁meet	-9.97427
▁Foto	-9.97447
▁miteinander	-9.97492
▁Schul	-9.97504
▁creating	-9.97509
▁discovered	-9.97612
▁aussehen	-9.97624
▁Rest	-9.97638
▁raus	-9.97676
▁Bevölkerung	-9.97724
▁welches	-9.97739
▁Anzahl	-9.97752
▁nachdem	-9.97769
bringen	-9.97841
ise	-9.97842
▁Gene	-9.97842
▁hast	-9.97935
ind	-9.97959
ku	-9.97963
by	-9.98063
▁playing	-9.98129
▁save	-9.98202
ziehen	-9.98219
pen	-9.98273
▁Tatsächlich	-9.98415
▁beginnt	-9.98418
▁record	-9.98502
▁lab	-9.98507
▁Technologien	-9.9852
▁seem	-9.98534
▁verloren	-9.98534
▁anfangen	-9.98643
▁road	-9.98643
▁Gen	-9.98653
▁showed	-9.9877
leben	-9.98895
▁absolutely	-9.98917
▁Ist	-9.98958
leg	-9.98972
▁worth	-9.99014
▁robot	-9.99048
▁solve	-9.99073
▁größten	-9.99107
bild	-9.99113
▁na	-9.99132
▁hervor	-9.99146
▁bist	-9.99154
▁patient	-9.99319
▁hospital	-9.99329
▁erfolgreich	-9.99329
▁ha	-9.99344
▁Web	-9.99371
▁follow	-9.9942
▁By	-9.99515
so	-9.99533
▁Park	-9.99567
▁table	-9.99581
▁recently	-9.99606
oc	-9.99658
▁zer	-9.99683
▁Her	-9.99718
ari	-9.99725
▁acht	-9.99753
▁einfache	-9.9977
▁sofort	-9.99791
▁Stimme	-9.99807
ei	-9.99853
No	-9.99863
▁Je	-9.9987
tung	-9.99909
satz	-9.99924
▁bessere	-9.99942
hm	-9.99951
▁strange	-10.0003
▁Ne	-10.0003
▁expect	-10.0008
▁Städte	-10.0014
▁Alles	-10.0018
▁ones	-10.0018
hl	-10.0019
▁Tod	-10.0025
▁industry	-10.0025
▁attack	-10.0026
▁develop	-10.0032
▁Aufgabe	-10.0038
▁klein	-10.004
▁developing	-10.0045
▁Realität	-10.0049
▁danach	-10.005
▁Chinese	-10.006
▁Jo	-10.0061
▁Fa	-10.0066
▁product	-10.0083
ped	-10.0086
▁perfect	-10.0086
▁Versuch	-10.0088
▁Konzept	-10.0095
▁Reise	-10.0096
▁findet	-10.0107
▁möchten	-10.011
▁300	-10.0111
▁wall	-10.0119
▁mental	-10.0123
▁stellte	-10.0125
▁fa	-10.0129
▁Bildung	-10.0136
▁Studie	-10.0138
▁major	-10.014
ions	-10.0141
▁situation	-10.0141
▁Deshalb	-10.0142
▁incredibly	-10.0142
▁truth	-10.0142
▁ähnlich	-10.0146
▁Vi	-10.0151
▁beste	-10.016
▁solution	-10.0166
▁Veränderung	-10.017
org	-10.0171
sse	-10.0185
▁Hälfte	-10.0189
▁egal	-10.0189
▁teach	-10.0189
ight	-10.0194
▁talked	-10.0195
▁resources	-10.0197
▁Forschung	-10.0198
▁Programm	-10.0206
▁song	-10.0206
▁po	-10.0209
▁subject	-10.0212
▁continue	-10.0215
▁richtige	-10.0217
▁millions	-10.0218
tu	-10.0219
▁riesige	-10.0221
▁falls	-10.0228
▁office	-10.0232
▁laufen	-10.0232
▁Di	-10.0235
▁evidence	-10.0236
▁Hoffnung	-10.0236
▁smart	-10.0236
▁baby	-10.0236
▁stimmt	-10.024
▁Gewalt	-10.0249
▁Universität	-10.0265
▁asking	-10.0268
▁hundred	-10.0279
▁choice	-10.0279
Wir	-10.0279
▁period	-10.0283
▁solar	-10.0285
▁tat	-10.0288
▁door	-10.0315
▁Situation	-10.0317
▁bekommt	-10.0326
▁Material	-10.033
▁available	-10.0331
ker	-10.0333
Ge	-10.0334
ang	-10.0336
▁Vortrag	-10.0338
▁absolut	-10.035
▁Blut	-10.0355
▁provide	-10.0357
▁wish	-10.0358
▁star	-10.0369
▁Straßen	-10.0378
▁Ihrer	-10.0379
▁plant	-10.0385
system	-10.0387
▁cars	-10.039
▁treat	-10.0407
▁involved	-10.0411
▁issues	-10.0418
rag	-10.0427
▁Europa	-10.0428
▁listen	-10.0429
▁Krankheit	-10.0433
▁list	-10.0434
off	-10.0447
▁message	-10.0452
▁weltweit	-10.0463
▁gives	-10.0471
▁Bio	-10.0472
▁Facebook	-10.0476
▁com	-10.0478
▁Teile	-10.0479
▁street	-10.0485
▁visual	-10.0485
▁sex	-10.0489
▁US	-10.049
▁designed	-10.0491
▁Während	-10.05
▁conversation	-10.05
▁tiny	-10.05
▁sonst	-10.0508
▁Wind	-10.0508
qua	-10.0521
▁aufzu	-10.0523
setzen	-10.0532
hin	-10.0534
▁kleines	-10.0534
wohl	-10.0541
bare	-10.0545
▁David	-10.0549
▁Papier	-10.0549
▁Mitte	-10.0549
out	-10.0555
▁class	-10.0556
J	-10.0563
▁größer	-10.0565
▁nachdenken	-10.0576
▁Künstler	-10.0577
▁Su	-10.0583
▁hoffe	-10.0585
▁einzelne	-10.0589
▁Fehler	-10.059
▁abge	-10.0593
▁writing	-10.0602
▁changing	-10.0612
▁vision	-10.0615
▁especially	-10.0622
▁niemals	-10.0622
▁dog	-10.0625
qui	-10.0648
▁late	-10.0661
▁Preis	-10.0662
▁allein	-10.0676
▁evolution	-10.068
ors	-10.0689
▁box	-10.069
▁ange	-10.0691
haft	-10.0694
▁effect	-10.0699
▁increase	-10.0699
▁dream	-10.0701
▁bigger	-10.0701
▁Pe	-10.072
▁price	-10.0721
▁Experiment	-10.0733
▁Sicherheit	-10.0739
▁success	-10.0745
▁bekam	-10.0745
▁yes	-10.0748
▁Kamera	-10.0752
one	-10.0753
▁carbon	-10.0757
▁schneller	-10.0759
▁medical	-10.0771
▁object	-10.0775
halten	-10.0777
▁general	-10.0787
▁guten	-10.0787
app	-10.0793
▁offensichtlich	-10.0796
▁function	-10.0797
nce	-10.0799
▁interessante	-10.0802
▁putting	-10.0804
▁African	-10.0809
▁North	-10.0818
▁Bereich	-10.0829
▁rich	-10.0837
▁sleep	-10.0846
▁screen	-10.0853
▁reasons	-10.0854
▁pass	-10.0862
▁flow	-10.0865
▁generation	-10.0871
▁mögen	-10.0871
ckt	-10.0872
▁Bank	-10.0875
▁Produkt	-10.0877
▁unseres	-10.0879
nehmen	-10.088
▁slow	-10.0888
▁zeige	-10.0889
sam	-10.0898
sehen	-10.0902
▁Entscheidungen	-10.0905
reich	-10.0913
▁ständig	-10.0921
▁position	-10.0921
▁Vereinigte	-10.0922
▁nine	-10.0924
▁Arm	-10.0931
▁Gr	-10.0934
▁concept	-10.0947
▁response	-10.0947
▁scientific	-10.0947
▁trust	-10.0948
▁Fisch	-10.0949
ual	-10.0972
▁jemanden	-10.0975
ord	-10.0979
hen	-10.0981
▁lived	-10.0994
▁reach	-10.0999
▁Straße	-10.0999
▁store	-10.1
▁Generation	-10.1009
▁device	-10.101
▁fahren	-10.1021
ations	-10.1025
▁Si	-10.1028
▁Bar	-10.103
schw	-10.1038
▁meaning	-10.1039
▁Ri	-10.1044
▁fall	-10.1048
▁statt	-10.1048
▁Wachstum	-10.1049
▁beyond	-10.1049
▁erlaubt	-10.1049
▁practice	-10.1049
▁software	-10.1054
▁Mar	-10.1057
▁Sonne	-10.1058
▁Hu	-10.106
▁Nur	-10.1061
▁daher	-10.1062
▁alten	-10.1066
▁progress	-10.1075
▁First	-10.1075
▁role	-10.1075
▁massive	-10.1078
Ja	-10.108
for	-10.108
▁ziehen	-10.1086
▁wichtige	-10.1086
ack	-10.1094
▁Gebiet	-10.1098
▁langsam	-10.1099
enden	-10.1102
▁gegeben	-10.1102
dung	-10.1102
▁draw	-10.1106
▁genommen	-10.1109
▁consider	-10.111
▁links	-10.1113
▁fl	-10.112
▁Medizin	-10.1127
▁Schüler	-10.1127
▁sh	-10.1141
rzte	-10.1142
tru	-10.1145
▁pictures	-10.1146
zug	-10.1149
of	-10.1152
▁drug	-10.1168
chi	-10.117
▁gingen	-10.1171
▁basic	-10.1178
▁Kosten	-10.1183
▁international	-10.1191
▁month	-10.1195
▁extrem	-10.12
▁anzu	-10.1212
▁liegen	-10.1214
▁towards	-10.1216
▁lose	-10.1225
▁several	-10.1231
▁Flugzeug	-10.1231
▁girls	-10.1237
▁wild	-10.1238
▁Sex	-10.124
▁Beziehung	-10.1244
ki	-10.1247
▁lieben	-10.1247
▁favorite	-10.1257
▁Maschine	-10.1257
▁Von	-10.1257
▁likely	-10.1268
▁Ozean	-10.1269
▁Typ	-10.1275
▁Bu	-10.1279
ward	-10.1285
lichkeit	-10.1286
▁Zahlen	-10.1288
▁Information	-10.1289
▁brachte	-10.1296
▁Struktur	-10.13
▁stick	-10.1304
▁näher	-10.1309
▁Ebene	-10.1311
▁rules	-10.1314
▁spread	-10.1316
▁computers	-10.1325
▁character	-10.1335
▁geschieht	-10.1336
▁Strom	-10.1336
▁Mitgefühl	-10.1336
▁Oberfläche	-10.1342
▁setzen	-10.1343
▁junge	-10.1355
▁Fr	-10.136
▁Nahrung	-10.1362
▁journey	-10.1362
▁speed	-10.1362
eb	-10.1365
▁oh	-10.1369
gleich	-10.1375
einander	-10.1379
▁particularly	-10.1379
ov	-10.1379
▁becomes	-10.1382
▁Demokratie	-10.1389
▁herauszufinden	-10.1389
▁standard	-10.1391
▁strong	-10.1407
▁anybody	-10.1416
▁extra	-10.1417
vis	-10.1417
▁groups	-10.142
▁fe	-10.1424
▁drugs	-10.1426
▁geboren	-10.1428
stehen	-10.143
▁Firma	-10.1442
val	-10.1443
▁wichtiger	-10.1443
▁Nachrichten	-10.1445
heim	-10.1451
▁Ergebnis	-10.1462
all	-10.1468
▁Ding	-10.1469
▁Schauen	-10.147
weg	-10.1479
▁th	-10.148
lan	-10.1489
▁nennt	-10.1496
▁quality	-10.1496
▁With	-10.1499
sta	-10.15
▁student	-10.1503
sicht	-10.1505
▁onto	-10.1507
chten	-10.1512
▁Bill	-10.1516
▁Evolution	-10.1522
▁Zeug	-10.1523
▁Blick	-10.1523
▁Genau	-10.1528
▁gemeinsam	-10.1529
▁connect	-10.1536
ay	-10.1537
▁roll	-10.1544
▁photograph	-10.1552
Be	-10.1553
▁Fähigkeiten	-10.1556
ank	-10.1562
ever	-10.1573
▁000	-10.1577
▁moved	-10.1587
bald	-10.1595
▁El	-10.1612
▁Karte	-10.1615
▁potential	-10.1622
▁früher	-10.1638
▁Who	-10.1655
ons	-10.1673
▁Don	-10.1675
▁Car	-10.1676
treten	-10.1687
▁Every	-10.1691
0	-10.1698
▁protect	-10.1699
innen	-10.1702
▁machten	-10.1706
▁bestimmt	-10.1714
▁nein	-10.1714
ob	-10.1716
ere	-10.1724
meter	-10.1724
▁Super	-10.1726
▁großartige	-10.1729
Die	-10.1729
▁Maybe	-10.1739
▁obviously	-10.1746
▁University	-10.1768
atur	-10.1769
▁treatment	-10.1773
▁lead	-10.1778
▁walking	-10.178
führen	-10.1781
▁Yes	-10.1784
▁camera	-10.1786
▁among	-10.1788
izing	-10.179
▁emotional	-10.179
▁kill	-10.1794
▁Büro	-10.1795
▁further	-10.1795
▁certainly	-10.1811
▁Innovation	-10.1816
laufen	-10.1817
▁argument	-10.1823
▁After	-10.1823
▁geschrieben	-10.1836
▁bank	-10.1839
ign	-10.1848
gestellt	-10.185
▁gleichzeitig	-10.1851
▁medicine	-10.1851
pass	-10.1852
▁direction	-10.1854
▁pattern	-10.1855
▁showing	-10.1859
▁fight	-10.1859
▁sounds	-10.1863
▁sprach	-10.1867
▁TV	-10.1883
▁sozialen	-10.189
zahl	-10.1898
▁count	-10.1901
▁hot	-10.1903
▁context	-10.1907
▁sent	-10.1909
▁Are	-10.1912
lf	-10.1912
net	-10.1916
▁wait	-10.1917
▁totally	-10.1919
▁multi	-10.1929
ology	-10.1934
▁gesprochen	-10.1935
▁zuerst	-10.1939
▁begannen	-10.1941
well	-10.1941
▁tragen	-10.1941
▁finding	-10.1945
▁anstatt	-10.1945
▁Auch	-10.1945
▁Cha	-10.1948
▁alte	-10.1952
▁notice	-10.1957
▁Aufmerksamkeit	-10.1963
▁gas	-10.1963
▁fit	-10.1967
▁fliegen	-10.1968
▁dachten	-10.1975
▁Ju	-10.1977
port	-10.1983
▁exciting	-10.1991
▁biggest	-10.1991
▁Even	-10.1991
▁nobody	-10.1992
ists	-10.1994
▁hour	-10.1994
▁Ex	-10.1996
▁ball	-10.2001
▁Worte	-10.2006
▁largest	-10.2007
▁urban	-10.2019
▁clean	-10.2019
▁extremely	-10.2025
▁Gruppen	-10.2027
lass	-10.2038
▁Orte	-10.204
▁bat	-10.2046
▁Pflanzen	-10.206
▁anti	-10.2061
lassen	-10.2072
▁bestimmte	-10.2072
▁everywhere	-10.2076
▁Bewusstsein	-10.2076
greifen	-10.2081
▁skin	-10.2093
▁Entscheidung	-10.2095
▁Los	-10.2102
▁Y	-10.2117
▁erzählt	-10.2119
press	-10.2121
▁materials	-10.2131
▁memory	-10.2133
▁Con	-10.2134
▁Uhr	-10.2137
▁games	-10.2139
▁thousand	-10.2144
▁Job	-10.2145
▁fi	-10.2151
▁boy	-10.2153
▁fertig	-10.2188
▁Dorf	-10.219
▁touch	-10.2195
▁Ergebnisse	-10.2197
▁vorbei	-10.2203
▁großer	-10.2204
del	-10.2208
▁Druck	-10.2228
▁abzu	-10.2229
▁wachsen	-10.2231
▁higher	-10.2238
▁rock	-10.2247
▁Behandlung	-10.2248
▁neues	-10.225
▁mehrere	-10.225
▁teachers	-10.2252
▁w	-10.2257
▁Kl	-10.2257
▁gern	-10.2258
▁Studien	-10.2262
▁train	-10.227
▁moral	-10.2273
▁bald	-10.2274
nden	-10.2274
▁East	-10.2275
cent	-10.2277
▁path	-10.2277
▁verlassen	-10.2282
▁beobachten	-10.2283
▁security	-10.2283
ierten	-10.2288
rat	-10.229
ls	-10.2296
▁version	-10.2301
igung	-10.2304
▁bacteria	-10.2306
lose	-10.2306
▁sitzen	-10.2308
▁passierte	-10.2309
pol	-10.2313
▁Most	-10.2316
ett	-10.233
▁compassion	-10.2334
▁Durch	-10.2334
▁happiness	-10.2335
▁creative	-10.2335
▁Zugang	-10.2336
▁Pi	-10.2339
fahren	-10.2339
▁gearbeitet	-10.2341
▁Wand	-10.2343
▁bo	-10.2343
icht	-10.2346
▁sahen	-10.2348
▁Ke	-10.2359
▁Schulen	-10.2361
▁Kontrolle	-10.2364
▁Tür	-10.2368
▁Software	-10.2372
▁zweiten	-10.2373
▁report	-10.2381
▁Seiten	-10.2381
berg	-10.239
▁violence	-10.2394
▁source	-10.2398
ship	-10.2399
▁supposed	-10.2401
▁shift	-10.2401
▁unbe	-10.2403
tern	-10.2419
▁meeting	-10.242
▁fr	-10.2421
▁Mu	-10.2425
▁versuchte	-10.2426
▁bestimmten	-10.2436
▁echte	-10.2438
Wie	-10.2439
▁critical	-10.245
▁ermöglicht	-10.2453
▁Himmel	-10.2453
▁Armut	-10.2455
▁results	-10.246
▁etc	-10.2466
▁exist	-10.2469
▁led	-10.2471
▁Objekt	-10.2473
▁conflict	-10.2488
▁ansehen	-10.249
▁schlechte	-10.2493
wi	-10.2497
▁sat	-10.2499
med	-10.2508
▁cause	-10.251
▁ho	-10.2513
▁mu	-10.2525
tes	-10.2526
▁democracy	-10.2542
▁eventually	-10.2542
▁poverty	-10.2542
▁code	-10.2542
▁Einfluss	-10.2543
ries	-10.255
isiert	-10.2552
▁Monat	-10.2556
▁cr	-10.2559
▁fine	-10.2566
▁named	-10.2566
▁ready	-10.257
▁außer	-10.257
▁Morgen	-10.2572
ete	-10.2585
istic	-10.2585
▁block	-10.2586
▁Regeln	-10.2588
▁shot	-10.2589
▁connected	-10.2594
▁choose	-10.2601
▁slide	-10.2601
▁fuel	-10.2603
▁o	-10.2604
▁manche	-10.2615
kommt	-10.2623
za	-10.2628
▁projects	-10.2629
▁bunch	-10.2632
▁Monaten	-10.2638
▁2000	-10.2639
▁betrachtet	-10.264
▁Indian	-10.2641
▁schools	-10.2641
▁versch	-10.2646
▁Gerät	-10.2646
erweise	-10.265
▁leaders	-10.2651
▁movie	-10.2654
▁Ar	-10.2655
rück	-10.2657
▁England	-10.2662
▁worse	-10.2662
▁lag	-10.2663
▁main	-10.2663
▁Sohn	-10.2663
▁Netz	-10.2666
▁danke	-10.2671
arten	-10.2671
▁Amerikaner	-10.2674
▁finde	-10.2678
welt	-10.268
haus	-10.2684
▁crazy	-10.2692
▁Ad	-10.2693
top	-10.2698
stein	-10.2701
▁traditional	-10.2706
▁nahe	-10.2708
▁Gesundheits	-10.2711
▁400	-10.2721
▁Muslim	-10.2722
▁secret	-10.2722
▁watching	-10.2722
▁Menschheit	-10.2724
▁handelt	-10.2725
▁essentially	-10.2726
▁activity	-10.2728
arbeit	-10.2729
deck	-10.2734
ice	-10.2734
▁Kern	-10.2737
▁trees	-10.2743
▁Bi	-10.2746
▁travel	-10.2746
▁square	-10.2753
▁Sinne	-10.2757
▁35	-10.276
▁search	-10.2763
▁Iran	-10.2767
eren	-10.2779
ose	-10.2783
▁verbessern	-10.2783
▁pack	-10.279
▁mis	-10.2792
arm	-10.2799
like	-10.2803
stellung	-10.2808
▁Richard	-10.2814
▁prison	-10.2814
▁content	-10.2814
▁please	-10.2816
programm	-10.2818
▁recognize	-10.2822
▁goal	-10.2837
▁faster	-10.284
▁perspective	-10.2844
▁grew	-10.2845
▁Finger	-10.2845
▁bleibt	-10.2849
▁Gut	-10.285
▁Stelle	-10.285
wir	-10.2853
▁check	-10.2859
▁communities	-10.2875
▁suddenly	-10.288
▁Daher	-10.2882
▁examples	-10.2883
lon	-10.2892
ration	-10.2896
▁near	-10.2897
▁genetic	-10.2906
▁schafft	-10.2906
▁vergessen	-10.2906
▁Sicht	-10.2907
▁Te	-10.2917
▁track	-10.2918
▁el	-10.2925
▁nuclear	-10.2937
▁Nigeria	-10.2937
par	-10.2937
▁bilden	-10.2938
▁board	-10.2939
▁individuals	-10.294
▁legal	-10.2943
▁affect	-10.2951
▁text	-10.2957
▁site	-10.2962
▁Politik	-10.2965
▁doctor	-10.2967
▁Twitter	-10.2968
▁teacher	-10.2969
▁toll	-10.2983
▁minute	-10.2985
▁hohe	-10.2989
▁Krankheiten	-10.2991
▁pain	-10.2992
▁zumindest	-10.2999
▁organization	-10.2999
▁Look	-10.3
▁indeed	-10.3001
▁ran	-10.3006
▁wussten	-10.3011
▁jobs	-10.3018
▁enjoy	-10.303
geht	-10.303
▁Beginn	-10.303
▁Paul	-10.3037
▁150	-10.3039
▁Rat	-10.3046
▁tool	-10.3047
▁entdeckt	-10.3048
▁conditions	-10.3048
ible	-10.3056
▁Washington	-10.3062
▁großartig	-10.3069
hy	-10.3084
▁Bürger	-10.3089
▁Museum	-10.3093
▁somewhere	-10.3093
▁pull	-10.3094
unt	-10.3098
▁plants	-10.3099
▁wider	-10.3115
▁hell	-10.3117
▁Liste	-10.3119
▁cover	-10.3121
▁impossible	-10.3125
▁Spaß	-10.3125
▁arbeitete	-10.3125
▁extraordinary	-10.3126
▁Können	-10.3131
▁join	-10.314
▁Firmen	-10.3156
▁sky	-10.3156
▁entscheiden	-10.3162
▁anschauen	-10.3172
▁pl	-10.3174
▁sc	-10.3175
▁Nachricht	-10.3185
▁survive	-10.3188
▁website	-10.3188
▁interview	-10.3188
▁task	-10.3188
du	-10.3189
▁unmöglich	-10.3189
▁larger	-10.3203
▁improve	-10.3213
▁Beispiele	-10.3215
kel	-10.3215
▁neben	-10.3219
seite	-10.3219
▁verlieren	-10.322
▁erzeugen	-10.322
▁above	-10.322
▁Grenzen	-10.3225
▁Industrie	-10.3232
▁waste	-10.3233
▁lower	-10.3236
▁Ki	-10.3236
▁Where	-10.3237
▁Gesetz	-10.3243
▁objects	-10.3243
▁Geist	-10.3247
▁account	-10.3252
▁Telefon	-10.3252
▁Vergangenheit	-10.3252
▁address	-10.3252
▁stress	-10.3252
▁taught	-10.3252
▁win	-10.3255
▁Netzwerk	-10.3255
feld	-10.3256
▁Gründe	-10.3256
▁Stein	-10.3257
▁dritte	-10.3258
▁app	-10.327
▁killed	-10.3271
nis	-10.3283
▁college	-10.3284
▁explore	-10.3284
▁respond	-10.3284
▁medizinische	-10.3284
▁Wirklichkeit	-10.3284
▁models	-10.3288
▁shown	-10.3293
▁dance	-10.3294
▁rund	-10.3303
akt	-10.3305
▁möglichen	-10.3307
▁allowed	-10.3313
sel	-10.3315
ssystem	-10.3315
▁jump	-10.3317
▁aussieht	-10.3317
▁voller	-10.3321
▁Baby	-10.3324
▁meant	-10.3343
▁including	-10.3348
▁complicated	-10.335
▁offen	-10.335
▁rise	-10.3351
▁sell	-10.3354
▁Hände	-10.3357
▁denkt	-10.3358
uh	-10.3363
gebracht	-10.3371
▁spielt	-10.3374
▁nachzudenken	-10.3381
▁police	-10.3381
▁Those	-10.3381
▁wife	-10.3381
▁starts	-10.3387
▁kannst	-10.339
▁Arbeits	-10.3393
ular	-10.3399
▁einzu	-10.34
▁flu	-10.3401
row	-10.3402
▁wa	-10.3404
▁interest	-10.3404
▁serious	-10.3404
▁micro	-10.3413
▁wonder	-10.3414
▁irgendwo	-10.3414
pri	-10.342
▁decision	-10.3423
▁male	-10.3424
▁Ga	-10.343
zellen	-10.343
lung	-10.3432
je	-10.3438
▁arbeitet	-10.3442
▁Orten	-10.3443
▁erzählte	-10.3444
▁Bakterien	-10.3446
▁produzieren	-10.3446
▁Nummer	-10.3446
▁usually	-10.3448
▁Spe	-10.345
▁tree	-10.3457
▁complete	-10.347
use	-10.3473
▁famous	-10.3478
▁Leistung	-10.3478
Re	-10.3479
▁window	-10.3479
▁alive	-10.3481
tische	-10.3484
▁transform	-10.3488
▁region	-10.3491
ition	-10.3495
war	-10.3499
laden	-10.35
ious	-10.3502
ischer	-10.3506
▁truly	-10.3511
▁studies	-10.3512
▁traf	-10.3512
▁Today	-10.3512
▁rain	-10.3513
▁qu	-10.3514
▁Min	-10.3519
▁Landes	-10.3523
▁gebracht	-10.3524
tag	-10.3527
▁fix	-10.3529
lit	-10.3533
▁training	-10.3534
▁ended	-10.3534
▁Spezies	-10.3538
schlag	-10.3539
▁drop	-10.3544
▁reading	-10.3545
▁Like	-10.3546
▁eben	-10.3555
▁jene	-10.3556
▁sodass	-10.3577
▁families	-10.3577
▁excited	-10.3579
▁Sekunden	-10.3582
▁versuche	-10.3587
▁Personen	-10.3591
ake	-10.3594
▁range	-10.3596
▁hundert	-10.3602
rung	-10.3605
▁führte	-10.361
▁Religion	-10.361
▁products	-10.3622
▁Theorie	-10.3628
▁successful	-10.3635
▁dein	-10.3641
genommen	-10.3642
▁plastic	-10.3643
▁symbol	-10.3643
▁George	-10.3643
▁Text	-10.3644
▁Spitze	-10.3644
▁feed	-10.3644
▁trotzdem	-10.3645
ase	-10.3647
▁kaum	-10.3648
xi	-10.3653
▁specific	-10.3655
rad	-10.3656
term	-10.3676
▁gefährlich	-10.3677
▁gewinnen	-10.3677
▁Wi	-10.3681
▁mark	-10.3682
bin	-10.3684
▁peace	-10.3687
▁gehe	-10.3691
raum	-10.3692
▁Wörter	-10.3695
▁Tagen	-10.3696
▁page	-10.3698
▁standing	-10.3706
▁veröffentlicht	-10.371
▁verkauft	-10.3711
▁Test	-10.3711
▁negative	-10.3723
ments	-10.3736
▁existiert	-10.3737
▁Tri	-10.3737
voll	-10.3741
▁heutzutage	-10.3744
▁retten	-10.3744
▁rep	-10.3745
▁Mathematik	-10.3748
▁Ressourcen	-10.3752
▁Chance	-10.3754
▁befinden	-10.3754
rei	-10.376
▁older	-10.376
▁limit	-10.3762
▁Bühne	-10.3777
▁Kommunikation	-10.3777
▁Second	-10.3777
▁purpose	-10.3777
▁yeah	-10.3777
▁electricity	-10.3778
▁floor	-10.378
dimensional	-10.3786
▁nenne	-10.3787
▁solchen	-10.3796
ray	-10.3798
▁current	-10.3802
ther	-10.3806
▁Mikro	-10.381
▁Englisch	-10.3811
▁crisis	-10.3811
▁Bäume	-10.3811
▁Freiheit	-10.3812
▁series	-10.3812
▁Einstein	-10.3815
▁Million	-10.3816
Z	-10.3823
ina	-10.3829
rum	-10.3832
▁AIDS	-10.3838
▁geschehen	-10.3845
▁Wahrscheinlich	-10.3845
▁somehow	-10.3849
▁cold	-10.3849
▁Haut	-10.3849
▁aktiv	-10.3852
▁upon	-10.3853
▁radio	-10.3856
▁buildings	-10.3863
last	-10.3872
j	-10.3874
▁verbinden	-10.3879
▁allows	-10.3879
▁haven	-10.388
▁trade	-10.3881
▁gekommen	-10.3885
▁tolle	-10.3888
▁runter	-10.389
▁park	-10.3893
ley	-10.3893
▁erfahren	-10.3894
▁fühlte	-10.3894
▁policy	-10.3913
▁respect	-10.3915
▁Handy	-10.3916
lauf	-10.3923
▁verrückt	-10.3931
▁Bis	-10.3931
▁Berg	-10.3941
▁service	-10.3942
sum	-10.3945
▁healthy	-10.3946
▁Kampf	-10.3947
▁female	-10.3947
▁untersuchen	-10.3949
die	-10.3958
▁aufge	-10.3968
▁photo	-10.397
▁eure	-10.3978
▁zeigte	-10.3978
▁hab	-10.398
▁gefragt	-10.3982
▁kept	-10.3982
▁physics	-10.3982
▁press	-10.3986
ruf	-10.3992
recht	-10.4013
▁Darwin	-10.4016
▁Risiko	-10.4016
▁document	-10.4016
▁written	-10.4016
gang	-10.4028
gram	-10.4031
▁Ton	-10.4031
Ma	-10.4033
▁Designer	-10.4036
▁Fe	-10.4048
▁Präsident	-10.4051
▁anywhere	-10.4051
▁biology	-10.4051
▁architecture	-10.4051
▁stars	-10.4052
▁Mr	-10.4053
▁Regierungen	-10.4054
▁sign	-10.4054
ualität	-10.4058
▁Linie	-10.4063
▁einzelnen	-10.4063
▁Ni	-10.4066
ust	-10.4069
▁aufgrund	-10.4071
▁smaller	-10.4074
isierung	-10.4078
▁unglaubliche	-10.4081
▁neun	-10.4083
▁Ordnung	-10.4086
▁communication	-10.4086
▁lebt	-10.4087
iß	-10.4088
▁town	-10.4091
▁wann	-10.4094
▁decide	-10.4099
druck	-10.41
▁folgen	-10.4105
▁Sand	-10.4112
▁gestellt	-10.4114
mark	-10.4118
▁himself	-10.412
▁religion	-10.412
▁täglich	-10.412
▁freedom	-10.4121
▁Bezug	-10.4123
▁Eines	-10.4127
▁forms	-10.4127
▁45	-10.4136
▁neurons	-10.4136
▁einge	-10.414
▁miss	-10.4147
▁actual	-10.4147
schau	-10.415
▁patterns	-10.415
▁größere	-10.4155
▁military	-10.4155
▁ehrlich	-10.4155
▁entdecken	-10.4155
▁charge	-10.4156
▁Meer	-10.4176
▁großes	-10.4179
hor	-10.4183
▁hilft	-10.4191
▁anymore	-10.4191
▁Sha	-10.4191
▁performance	-10.4191
nom	-10.4191
▁Kollegen	-10.4202
▁raise	-10.4204
ok	-10.4212
▁Prinzip	-10.4225
▁MIT	-10.4226
▁globalen	-10.4227
lau	-10.424
▁son	-10.4241
Ha	-10.4244
▁cases	-10.4255
▁Mi	-10.4255
▁rule	-10.4257
▁enormous	-10.4262
▁race	-10.4262
▁environmental	-10.4264
▁Organisation	-10.4271
▁career	-10.4272
über	-10.4284
▁messen	-10.4289
tisch	-10.429
▁weight	-10.4291
▁trick	-10.4292
own	-10.4294
▁zero	-10.4296
▁School	-10.4297
▁Which	-10.4297
▁effort	-10.4297
▁herausfinden	-10.4297
▁mobile	-10.4301
▁Arzt	-10.4302
▁Traum	-10.4302
▁sorts	-10.4307
▁bi	-10.432
▁Che	-10.4321
▁verstanden	-10.4322
▁häufig	-10.4323
▁Frieden	-10.4324
punkt	-10.4326
▁genes	-10.433
▁bodies	-10.4332
▁unique	-10.4332
▁High	-10.4332
▁capital	-10.4333
▁sand	-10.4337
▁erstaunlich	-10.4338
lock	-10.4346
unk	-10.4348
▁magic	-10.4349
▁Auswirkungen	-10.4349
ges	-10.4362
▁Plan	-10.4362
tik	-10.4363
▁hörte	-10.4364
▁prevent	-10.4365
▁Ob	-10.4365
▁instance	-10.4368
▁intelligent	-10.4368
bie	-10.437
▁Damit	-10.4372
Sch	-10.4373
▁Mond	-10.4374
▁arbeite	-10.4376
▁Times	-10.4386
▁finger	-10.4398
essen	-10.44
cle	-10.44
kam	-10.4403
▁email	-10.4404
▁zufällig	-10.4404
▁leisten	-10.4404
▁temperature	-10.4404
▁Fuß	-10.4405
▁effective	-10.4409
▁jungen	-10.441
▁entschieden	-10.4417
▁cross	-10.4419
▁fing	-10.4423
▁ship	-10.4428
▁unit	-10.4431
▁fair	-10.4434
▁earlier	-10.444
▁Artikel	-10.444
▁dangerous	-10.444
▁doctors	-10.444
▁brains	-10.4447
▁läuft	-10.4449
▁robots	-10.4459
▁Systeme	-10.4464
▁lines	-10.4476
▁alternative	-10.4476
▁benötigt	-10.4476
▁expensive	-10.4476
▁Botschaft	-10.4476
▁becoming	-10.4476
▁nutzt	-10.4476
▁dadurch	-10.4477
▁Schw	-10.4478
▁predict	-10.4479
ologie	-10.448
kal	-10.4488
set	-10.4491
▁painting	-10.4492
▁Israel	-10.4494
▁Har	-10.4495
▁pieces	-10.4507
▁fantastic	-10.4512
▁daughter	-10.4512
▁normalerweise	-10.4513
▁laut	-10.4515
▁Lehr	-10.4516
Ver	-10.4519
▁Herr	-10.4519
▁mom	-10.452
▁forest	-10.4521
▁hält	-10.4525
jo	-10.4528
▁sammeln	-10.4534
▁final	-10.454
▁legs	-10.4542
▁Punkte	-10.4547
▁Islam	-10.4547
▁target	-10.4548
▁Feuer	-10.4549
▁glass	-10.4549
▁Vergleich	-10.4551
rang	-10.4555
▁catch	-10.4558
▁Glauben	-10.456
▁Projekte	-10.4561
lam	-10.4562
weisen	-10.4564
▁clearly	-10.4564
▁politische	-10.4572
▁motor	-10.4573
▁listening	-10.4579
ani	-10.458
▁einander	-10.4582
▁verbreitet	-10.4585
▁brother	-10.4585
▁Tisch	-10.4585
▁Another	-10.4585
▁Drogen	-10.4585
▁übrigens	-10.4586
▁Flug	-10.4586
ühl	-10.4589
▁throughout	-10.459
rge	-10.4597
oren	-10.4598
▁income	-10.46
▁globale	-10.4607
▁Name	-10.4608
▁ta	-10.461
▁schöne	-10.4613
flu	-10.4613
han	-10.4618
▁Ok	-10.462
▁Gelegenheit	-10.4621
▁Harvard	-10.4621
▁cloud	-10.4621
▁familiar	-10.4621
▁Krankenhaus	-10.4622
▁pressure	-10.4622
▁geschaffen	-10.4624
▁öffentlichen	-10.4629
▁bone	-10.4629
▁tells	-10.4631
▁discover	-10.4632
▁cat	-10.4634
▁skills	-10.4636
▁offer	-10.4641
▁Methode	-10.465
▁hart	-10.4652
▁loved	-10.4655
▁außerhalb	-10.4658
▁Klima	-10.4658
▁production	-10.4662
▁diejenigen	-10.4663
▁Neuro	-10.4677
▁visit	-10.4678
▁Jede	-10.4693
fälle	-10.4694
▁September	-10.4695
▁befindet	-10.4695
▁financial	-10.4695
▁therefore	-10.4695
▁worry	-10.4698
▁math	-10.4698
▁Formen	-10.4699
▁Grad	-10.4699
▁Werte	-10.4702
▁wirtschaftliche	-10.4704
▁Reaktion	-10.4704
▁greater	-10.4705
▁invest	-10.4709
▁term	-10.4714
▁fallen	-10.4716
▁Wesen	-10.4718
▁except	-10.4723
▁eng	-10.4726
▁Zusammen	-10.4728
hung	-10.4732
▁Schlüssel	-10.4732
▁random	-10.4732
▁Den	-10.4743
▁Inter	-10.4745
▁Rand	-10.4745
▁aren	-10.4747
▁bomb	-10.4749
wie	-10.4752
▁Abend	-10.4752
▁Regel	-10.4754
▁decisions	-10.4759
▁web	-10.4761
rank	-10.4762
▁foot	-10.4769
▁adapt	-10.4769
pot	-10.477
▁Life	-10.4771
heben	-10.4776
fu	-10.4777
▁Per	-10.4786
erung	-10.4795
tritt	-10.48
▁Americans	-10.4801
▁herunter	-10.4803
▁Hirn	-10.4807
rig	-10.4807
▁lie	-10.4815
part	-10.4821
▁Will	-10.4823
▁Interesse	-10.4824
▁Manche	-10.4825
▁Beziehungen	-10.4826
krieg	-10.4837
▁Imagine	-10.4844
▁accident	-10.4844
▁intelligence	-10.4844
▁unterstützen	-10.4844
▁schützen	-10.4844
ort	-10.4845
▁ebenso	-10.4845
Hey	-10.4849
▁decade	-10.4852
tum	-10.4854
▁Noch	-10.4857
aging	-10.4868
▁waiting	-10.4871
ände	-10.488
▁Verständnis	-10.4882
▁contain	-10.4882
▁Architektur	-10.4882
▁demand	-10.4884
▁bisher	-10.4895
▁corner	-10.4896
▁heat	-10.4905
▁warten	-10.491
▁rechts	-10.4912
▁Partner	-10.4913
zunehmen	-10.4914
▁echt	-10.4919
ically	-10.4919
▁influence	-10.4919
▁geschah	-10.492
▁Sam	-10.4923
▁Brot	-10.4929
▁Farbe	-10.4929
rüber	-10.4931
let	-10.4935
sprechen	-10.4942
▁taten	-10.4955
board	-10.4957
▁praktisch	-10.4957
ping	-10.4961
▁Baum	-10.4962
▁Genom	-10.4963
durchschnittlich	-10.4964
▁greatest	-10.497
▁Fotos	-10.497
▁Maschinen	-10.4975
iss	-10.4977
▁base	-10.4978
typ	-10.498
elt	-10.4988
▁welcher	-10.4988
wert	-10.499
▁erinnert	-10.4995
▁beauty	-10.4995
▁coral	-10.4995
▁Jungen	-10.4996
▁saving	-10.4997
▁interaction	-10.5004
mann	-10.5008
▁Zeitpunkt	-10.501
▁perfekt	-10.5017
▁mess	-10.5019
win	-10.5025
▁teaching	-10.5028
can	-10.5028
▁Lu	-10.5031
▁erzeugt	-10.5034
▁brand	-10.5036
▁spot	-10.5037
▁walked	-10.5041
▁solutions	-10.5045
mie	-10.5054
▁Auge	-10.5058
ory	-10.5059
▁selben	-10.5061
▁machines	-10.5062
▁lo	-10.5064
50	-10.5065
▁trouble	-10.5072
▁fossil	-10.5072
▁points	-10.5079
▁seconds	-10.5095
buch	-10.51
▁forth	-10.5102
fisch	-10.511
▁Pakistan	-10.511
▁entweder	-10.511
▁Gewinn	-10.511
gelegt	-10.5115
▁cultural	-10.5121
▁Western	-10.5124
▁Stunde	-10.513
▁dec	-10.5142
▁nu	-10.5142
▁willing	-10.5146
▁sing	-10.5147
▁Gas	-10.5149
▁immediately	-10.5151
▁Beruf	-10.5151
▁schw	-10.5152
Nein	-10.5153
▁einzigen	-10.5153
light	-10.5156
▁herstellen	-10.5157
Es	-10.5158
▁Wege	-10.5165
▁Wald	-10.5165
▁connection	-10.5166
▁institutions	-10.517
ain	-10.5172
▁active	-10.5178
gh	-10.5179
▁quick	-10.518
enz	-10.5181
▁trans	-10.5183
▁California	-10.5188
▁driving	-10.5188
▁illegal	-10.5188
▁verursacht	-10.5188
▁Klimawandel	-10.5188
▁Hi	-10.5188
▁landscape	-10.5188
▁edge	-10.5193
och	-10.5198
▁ideal	-10.5202
kraft	-10.521
▁threat	-10.5215
▁ernst	-10.5221
▁Regen	-10.5221
▁Manchmal	-10.5227
▁produziert	-10.5227
▁effektiv	-10.5227
▁irgendeine	-10.5231
▁Klein	-10.5231
▁seat	-10.5236
▁Bienen	-10.5237
▁höher	-10.5241
ified	-10.5243
illa	-10.5243
▁costs	-10.5244
▁prove	-10.5252
▁getroffen	-10.5266
▁dasselbe	-10.5266
▁match	-10.5266
▁gain	-10.5266
▁Wunder	-10.527
▁invented	-10.5274
▁condition	-10.5282
▁Wieder	-10.5284
▁appear	-10.5287
▁Werk	-10.5288
▁remain	-10.5289
▁gesch	-10.5293
▁obvious	-10.5296
▁folgende	-10.5299
▁75	-10.5303
▁include	-10.5305
▁various	-10.5305
▁Nation	-10.5306
erie	-10.5307
▁hair	-10.5308
▁push	-10.5309
▁boat	-10.5312
▁Version	-10.5316
teilen	-10.5319
lic	-10.5322
elle	-10.5324
▁return	-10.5327
▁fo	-10.5328
▁Produkte	-10.5332
glich	-10.5333
▁Verantwortung	-10.5343
ständig	-10.5344
▁Kilometer	-10.5344
▁biological	-10.5344
▁Francisco	-10.5344
▁Ph	-10.5345
▁Anderson	-10.5346
▁99	-10.5346
▁erwarten	-10.5353
kor	-10.5355
▁Asia	-10.5356
▁bus	-10.5359
are	-10.5361
▁wert	-10.5362
▁erleben	-10.5366
▁fühlt	-10.5366
▁Chicago	-10.5384
▁bloß	-10.5384
▁Fluss	-10.5384
▁genome	-10.5384
▁Schlaf	-10.5384
▁Two	-10.5386
▁instrument	-10.5393
▁leg	-10.5397
▁Bett	-10.5406
▁Glas	-10.5409
▁Kar	-10.541
my	-10.5419
▁original	-10.5421
▁km	-10.5422
▁neighborhood	-10.5423
▁erwartet	-10.5424
▁beschäftigt	-10.5425
▁ahead	-10.5427
▁trip	-10.543
▁Einkommen	-10.5434
▁amerikanischen	-10.5435
▁Gold	-10.5442
▁humanity	-10.5444
ark	-10.5444
▁Unser	-10.5445
▁heutigen	-10.5447
▁Inhalt	-10.5447
setzt	-10.5451
▁Herzen	-10.5455
▁Schiff	-10.5459
änge	-10.5459
▁Höhe	-10.5462
▁erinnere	-10.5463
rand	-10.5466
▁levels	-10.5468
bal	-10.5469
▁Dis	-10.5491
▁mächtig	-10.5494
▁fällt	-10.5498
▁method	-10.5503
▁Nähe	-10.5504
strahl	-10.5506
vers	-10.551
▁apply	-10.5515
▁Medikamente	-10.5517
▁useful	-10.5519
▁extreme	-10.5542
▁although	-10.5543
▁babies	-10.5543
fallen	-10.5544
▁popular	-10.5544
ock	-10.555
▁Lösungen	-10.5562
▁Freude	-10.5567
▁decades	-10.5576
▁suggest	-10.5577
▁following	-10.5579
fähig	-10.5582
▁Erfahrungen	-10.5583
▁Sommer	-10.5583
▁terrible	-10.5584
▁kostet	-10.5584
▁Leidenschaft	-10.5585
▁forget	-10.5586
▁Ku	-10.5589
▁anyway	-10.5589
▁Westen	-10.5591
▁services	-10.5599
▁summer	-10.5599
▁Junge	-10.5616
▁Volk	-10.5624
▁remarkable	-10.5624
▁sequence	-10.5624
▁sample	-10.5624
▁Sta	-10.5627
▁Island	-10.563
▁sad	-10.5632
▁professional	-10.5636
▁Rück	-10.5638
▁spricht	-10.5638
▁profit	-10.5639
▁schicken	-10.5643
▁früh	-10.5653
trieb	-10.5655
▁Lernen	-10.5656
▁Veränderungen	-10.5657
▁values	-10.566
▁keiner	-10.5661
ender	-10.5661
▁Gefahr	-10.5662
▁beeinflusst	-10.5665
▁possibly	-10.5665
▁ebenfalls	-10.5665
▁verkaufen	-10.5665
▁Charles	-10.5665
▁Opfer	-10.5666
▁komme	-10.5668
Warum	-10.5668
▁wenige	-10.5669
▁Gang	-10.567
▁guter	-10.5686
▁blog	-10.5687
▁Atom	-10.5695
▁para	-10.5697
▁nation	-10.5699
▁honest	-10.5706
▁steckt	-10.5706
▁describe	-10.5726
▁Kreis	-10.5729
▁voraus	-10.5733
▁laws	-10.5738
▁Polizei	-10.5747
▁Position	-10.5747
▁Think	-10.5747
▁communicate	-10.5747
▁selten	-10.5747
▁behandeln	-10.5747
▁wählen	-10.5747
▁Gefängnis	-10.5747
▁failure	-10.5747
▁types	-10.575
▁rot	-10.5753
wal	-10.5764
▁nahmen	-10.5766
▁hi	-10.5776
▁fort	-10.5776
blick	-10.5777
▁NASA	-10.5788
▁gedacht	-10.5788
▁politics	-10.5788
▁television	-10.5788
▁Ahnung	-10.5789
▁öffentliche	-10.5789
▁atmosphere	-10.5795
▁engine	-10.5802
▁virus	-10.5802
▁Big	-10.5803
▁Gesetze	-10.5804
▁legen	-10.581
sitz	-10.5813
▁Wal	-10.5815
schl	-10.5816
▁Last	-10.5817
▁Fortschritt	-10.5819
▁flying	-10.5829
▁central	-10.5829
▁circle	-10.5829
▁infrastructure	-10.5829
▁aufregend	-10.5829
maschine	-10.5829
ana	-10.5836
▁vote	-10.5839
ix	-10.5841
▁net	-10.5846
▁station	-10.5855
▁Einer	-10.586
▁Haben	-10.5864
▁dar	-10.5867
▁genutzt	-10.5871
▁societies	-10.5871
▁erfunden	-10.5871
▁Gehirns	-10.5871
▁behandelt	-10.5871
▁vollständig	-10.5871
▁sexual	-10.5871
▁Jahrhunderts	-10.5875
sagen	-10.5875
▁unge	-10.5876
▁Sport	-10.5877
▁jemandem	-10.5882
cal	-10.5887
oh	-10.589
▁reduce	-10.5892
▁älter	-10.5893
▁artist	-10.5894
▁accept	-10.5896
▁warm	-10.5906
schätz	-10.5909
gegeben	-10.591
▁außergewöhnlich	-10.5912
▁Fenster	-10.5912
▁river	-10.5913
alen	-10.5914
▁2008	-10.5915
▁Erstens	-10.5915
▁aware	-10.5917
▁Werkzeuge	-10.5925
zugehen	-10.5933
▁apart	-10.5933
▁Eigenschaften	-10.5938
▁Ben	-10.594
▁alter	-10.5945
ably	-10.5949
schrift	-10.595
▁Geburt	-10.5954
▁Schönheit	-10.5954
▁double	-10.5955
mäßig	-10.5956
▁slightly	-10.5956
kreis	-10.5965
over	-10.5965
richten	-10.5967
▁hole	-10.597
▁engineering	-10.597
▁minds	-10.5987
▁Jedes	-10.5992
▁ten	-10.5995
▁straight	-10.5996
▁supply	-10.5996
▁tissue	-10.5996
▁understood	-10.5996
▁wesentlich	-10.5996
▁distance	-10.5996
▁passion	-10.6003
▁choices	-10.6004
gab	-10.6009
ability	-10.6022
▁Worten	-10.6023
▁pop	-10.6025
▁bedeuten	-10.6031
▁express	-10.6032
▁Many	-10.6032
▁lief	-10.6035
▁Uni	-10.6035
▁capacity	-10.6038
▁speech	-10.6038
▁sister	-10.6038
▁Forscher	-10.6039
▁worst	-10.6039
▁James	-10.6039
ace	-10.604
fach	-10.6042
▁layer	-10.6043
▁belief	-10.6056
▁card	-10.6058
▁1.	-10.6062
▁Geschäft	-10.6071
lied	-10.6071
▁ließ	-10.6073
▁depend	-10.6074
▁helped	-10.6075
Mail	-10.6077
grund	-10.608
▁Kontakt	-10.6081
▁konzentrieren	-10.6085
▁Operation	-10.6087
▁Great	-10.609
How	-10.6091
ney	-10.6101
wo	-10.6105
▁effects	-10.6115
▁beings	-10.6121
▁From	-10.6123
zeug	-10.6125
gar	-10.6125
▁Zustand	-10.6126
▁beobachtet	-10.6126
platz	-10.6128
▁directly	-10.613
▁Professor	-10.6135
▁Osten	-10.6136
▁verbringen	-10.6141
▁Region	-10.6142
▁below	-10.6145
▁event	-10.6145
▁lernte	-10.6149
▁Steve	-10.6151
▁switch	-10.6166
▁conference	-10.6166
weit	-10.6168
▁Teilen	-10.617
▁Suche	-10.6177
▁agree	-10.6182
▁überleben	-10.6188
▁Mir	-10.6205
▁Michael	-10.6209
▁öffnen	-10.6209
▁paid	-10.6209
▁Sozial	-10.6209
▁Biologie	-10.6209
▁wood	-10.621
▁governments	-10.6212
▁ju	-10.6218
▁halbe	-10.6231
geschichte	-10.6233
▁fan	-10.6234
Do	-10.6237
▁shared	-10.6241
▁Männern	-10.6241
▁Geschäfts	-10.6245
bot	-10.6246
▁colleagues	-10.6247
▁whose	-10.6251
uelle	-10.6251
▁iPhone	-10.6252
▁tremendous	-10.6252
▁Schutz	-10.6252
▁sentence	-10.6252
▁Street	-10.6252
▁Standard	-10.6253
▁2010	-10.6253
▁citizens	-10.6254
wende	-10.6256
brechen	-10.6259
▁gebe	-10.6267
▁lautet	-10.6269
▁aid	-10.6271
▁spreche	-10.6272
▁Städten	-10.6273
▁nett	-10.6278
handel	-10.6281
wachsen	-10.629
▁Insel	-10.6291
▁Your	-10.6291
zieren	-10.6295
▁Anwendung	-10.6295
▁YouTube	-10.6295
▁custom	-10.6295
▁kontrollieren	-10.6295
▁deutlich	-10.6295
▁chair	-10.6295
▁erlebt	-10.6295
▁unabhängig	-10.6296
▁fangen	-10.6297
▁detail	-10.6298
▁ihres	-10.6302
▁throw	-10.6305
▁spät	-10.6313
0,000	-10.6315
▁Keine	-10.6323
ette	-10.6325
▁Werkzeug	-10.6326
▁recent	-10.6335
▁afford	-10.6337
schlossen	-10.6337
▁Phänomen	-10.6339
▁Verfügung	-10.6339
It	-10.634
▁Para	-10.6341
skraft	-10.6344
cop	-10.6345
▁23	-10.6346
schaftliche	-10.6346
▁frühen	-10.6347
▁angefangen	-10.6347
Why	-10.6349
▁Sc	-10.6349
car	-10.6351
star	-10.6353
tat	-10.6353
▁challenges	-10.6358
▁hinzu	-10.6359
▁mostly	-10.636
gesetzt	-10.6367
▁Bur	-10.637
ht	-10.6372
▁fat	-10.6375
▁mountain	-10.6376
rich	-10.638
▁Führung	-10.6382
▁hört	-10.6382
▁trifft	-10.6383
▁Titel	-10.6383
▁chemical	-10.6383
▁überzeugt	-10.6383
▁bridge	-10.6383
▁gewisse	-10.6383
▁published	-10.6394
▁scan	-10.6395
▁quote	-10.6398
▁consumer	-10.6403
▁gegangen	-10.6403
▁Boot	-10.6409
arch	-10.6419
roll	-10.6426
▁birth	-10.6426
▁Geschwindigkeit	-10.6426
▁creativity	-10.6426
▁ursprünglich	-10.6426
▁Again	-10.6426
▁muscle	-10.6426
▁Karriere	-10.6426
▁argue	-10.6426
▁funny	-10.6427
▁Materialien	-10.6429
▁sick	-10.643
▁enter	-10.6431
▁wants	-10.6431
Le	-10.6436
▁inner	-10.6438
alter	-10.6438
▁Welche	-10.6439
▁meters	-10.644
▁Effekt	-10.644
ille	-10.6441
▁Drei	-10.6445
▁gutes	-10.6445
▁Waffen	-10.6446
▁rid	-10.6446
▁Center	-10.645
▁Tieren	-10.6452
An	-10.6456
▁wi	-10.6457
lig	-10.6458
stellt	-10.6459
▁starke	-10.6464
industrie	-10.6469
verständlich	-10.647
▁oxygen	-10.647
▁Begriff	-10.6472
▁ändert	-10.6479
Ein	-10.6479
▁Lieblings	-10.6481
▁deliver	-10.6488
▁mission	-10.6498
▁perform	-10.6498
▁Unterschiede	-10.6499
▁noticed	-10.6505
▁Bra	-10.6513
▁Finanz	-10.6514
▁Knochen	-10.6515
▁Sauerstoff	-10.6515
▁begonnen	-10.6515
▁dynamic	-10.6515
▁balance	-10.6515
▁absolute	-10.6515
lte	-10.6515
uit	-10.6516
▁collective	-10.6516
▁untersucht	-10.6517
▁entstehen	-10.6517
▁Motor	-10.6519
mar	-10.6524
▁halb	-10.6537
▁Freunden	-10.6539
weise	-10.6558
▁Infrastruktur	-10.6559
▁Letzt	-10.656
▁herzustellen	-10.6561
▁geschafft	-10.6565
▁Mess	-10.6578
▁Tu	-10.6579
▁wunderbare	-10.658
▁bestehen	-10.6591
▁beat	-10.6597
▁Hoch	-10.6599
technologie	-10.6602
▁cur	-10.6603
▁Gewicht	-10.6604
▁brilliant	-10.6604
▁campaign	-10.6604
▁folgt	-10.6604
▁sector	-10.6604
▁Nehmen	-10.6604
▁gu	-10.6608
▁harm	-10.6616
jährige	-10.6618
▁closer	-10.6621
uff	-10.6622
▁existieren	-10.6623
hol	-10.6623
▁amerikanische	-10.6626
schnitt	-10.6634
▁verb	-10.6635
▁Antworten	-10.664
▁diseases	-10.6641
▁reflect	-10.6643
▁surgery	-10.6649
▁twice	-10.6649
▁rational	-10.665
▁replace	-10.665
▁stopped	-10.6651
▁Dort	-10.6651
▁Wandel	-10.6652
▁Beste	-10.6652
▁Ansicht	-10.6652
▁speaking	-10.6667
▁boys	-10.6677
▁Air	-10.6678
ziel	-10.6681
cor	-10.6682
fass	-10.6682
▁riesigen	-10.6686
▁afraid	-10.6694
▁faszinierend	-10.6694
▁endlich	-10.6695
▁Ausdruck	-10.6695
test	-10.6703
nahme	-10.6703
rus	-10.6703
▁Over	-10.6704
▁causes	-10.6709
▁bear	-10.672
▁gene	-10.6721
ulation	-10.6721
▁interact	-10.6722
▁aufgenommen	-10.6726
▁Radio	-10.6729
▁Physik	-10.673
▁relationships	-10.6732
▁organizations	-10.6739
▁Großbritannien	-10.6739
▁Vertrauen	-10.6739
▁Iraq	-10.6739
▁Tochter	-10.6739
zogen	-10.6744
fahrt	-10.6746
▁evolved	-10.6749
barkeit	-10.6749
▁achieve	-10.6756
▁Zelle	-10.6757
▁His	-10.6764
▁Hund	-10.6778
▁farm	-10.6779
▁Zeichen	-10.6784
▁erwähnt	-10.6784
▁reagieren	-10.6784
▁relevant	-10.6784
▁Kreativität	-10.6784
▁überzeugen	-10.6785
▁sustainable	-10.6786
▁Farben	-10.6789
ump	-10.6791
▁Beine	-10.6792
▁workers	-10.6795
▁produced	-10.6795
▁played	-10.6797
▁programs	-10.6809
▁Gegen	-10.6814
▁brauchte	-10.6816
▁forces	-10.6816
cut	-10.6816
▁22	-10.6819
wirtschaft	-10.682
air	-10.6829
gy	-10.683
▁Vielfalt	-10.683
▁cycle	-10.683
▁kämpfen	-10.683
▁bought	-10.683
▁civilization	-10.683
▁Adam	-10.6832
▁Lebensmittel	-10.6833
▁Verbindungen	-10.6835
▁lack	-10.6838
band	-10.6844
üsse	-10.6845
▁ski	-10.6847
▁wichtigsten	-10.6848
▁fuhr	-10.685
▁natürliche	-10.685
ktion	-10.6861
▁Klasse	-10.6864
▁carry	-10.6865
▁weren	-10.6869
▁Gefühle	-10.6876
▁commercial	-10.6876
▁ermöglichen	-10.6876
▁Boston	-10.6876
▁basis	-10.6876
▁Durchschnitt	-10.6876
▁vast	-10.6876
▁Ausbildung	-10.6877
▁enable	-10.688
modell	-10.6882
▁highly	-10.6888
▁gotten	-10.689
▁größeren	-10.6892
head	-10.6894
▁eigenes	-10.6896
▁missing	-10.6903
bereich	-10.6913
▁easily	-10.6922
▁responsibility	-10.6922
▁sogenannte	-10.6922
▁Häuser	-10.6922
▁Instead	-10.6922
▁smell	-10.6922
▁knows	-10.6922
leistung	-10.6922
▁Angeles	-10.6925
▁weiterhin	-10.6927
schließen	-10.6933
▁politischen	-10.6934
▁fühle	-10.6936
▁Objekte	-10.6937
iving	-10.6945
▁driver	-10.6945
▁hielt	-10.6949
▁kenne	-10.6953
stück	-10.6954
▁einfacher	-10.6966
▁industrial	-10.6967
▁pen	-10.6968
▁College	-10.6968
▁beeinflussen	-10.6968
▁bottle	-10.6968
▁dying	-10.6969
▁Korea	-10.697
▁entlang	-10.6971
▁seemed	-10.6972
▁App	-10.6972
▁10,000	-10.6979
▁Groß	-10.6979
▁fund	-10.6979
▁loss	-10.6982
▁Rede	-10.6984
▁separate	-10.6993
▁nochmal	-10.6997
pel	-10.7001
▁Pu	-10.7003
aw	-10.7007
▁imagination	-10.7015
▁Müll	-10.7015
▁Steuer	-10.7015
▁classroom	-10.7015
▁dorthin	-10.702
▁Seit	-10.7028
▁schwarze	-10.7031
▁Zeiten	-10.7032
▁states	-10.7032
not	-10.7041
kan	-10.7044
▁ähnliche	-10.7044
▁0	-10.7059
▁Temperatur	-10.7062
▁nötig	-10.7062
▁Materie	-10.7062
▁tausende	-10.7062
▁Paris	-10.7062
▁Kohle	-10.7062
▁Holz	-10.7065
▁handeln	-10.7066
▁Ansatz	-10.7066
▁investment	-10.7067
▁Meeres	-10.7069
licht	-10.7073
tech	-10.7085
ahn	-10.7087
▁Funktion	-10.7089
▁Ecke	-10.7093
▁Wirtschafts	-10.7093
▁serve	-10.7095
▁einfachen	-10.7099
▁Lei	-10.7102
▁differences	-10.7105
ford	-10.7106
Du	-10.7106
▁Atmosphäre	-10.7108
▁Identität	-10.7108
▁gilt	-10.7109
▁Vision	-10.7109
▁lies	-10.711
low	-10.7112
▁kurze	-10.7112
pla	-10.7114
▁schaut	-10.7121
cker	-10.7122
Wenn	-10.7127
▁molecules	-10.7132
▁engage	-10.7133
▁Jahres	-10.7134
▁Gi	-10.7137
▁notion	-10.7144
▁significant	-10.7147
▁Wikipedia	-10.7156
▁article	-10.7156
sätze	-10.7158
▁2007	-10.7158
▁Trans	-10.7159
▁camp	-10.7161
▁definition	-10.7164
▁eating	-10.717
▁scientist	-10.7174
▁efficient	-10.7177
▁More	-10.7184
▁nehme	-10.7193
▁trotz	-10.7201
▁Charakter	-10.7203
▁metaphor	-10.7203
▁nützlich	-10.7203
▁diversity	-10.7203
▁graduate	-10.7203
▁Online	-10.7205
▁differently	-10.7209
▁Loch	-10.7211
▁networks	-10.7217
▁Norden	-10.722
▁Staat	-10.7223
folge	-10.7225
auer	-10.7226
▁streets	-10.7232
our	-10.7234
schein	-10.724
▁drawing	-10.724
▁degrees	-10.7243
▁Erd	-10.7248
▁erlauben	-10.7251
▁überrascht	-10.7251
ou	-10.7251
▁lustig	-10.7251
▁blieb	-10.7253
▁reward	-10.7257
▁tradition	-10.7261
griff	-10.7261
kle	-10.7263
put	-10.7263
▁Blog	-10.7263
▁Jobs	-10.7264
▁helping	-10.7272
▁master	-10.7273
▁normale	-10.7275
▁burn	-10.7278
▁signal	-10.728
gezogen	-10.728
uß	-10.7288
fan	-10.7289
▁Landschaft	-10.729
▁Gemeinde	-10.7291
▁satellite	-10.7298
▁crowd	-10.7298
▁traffic	-10.7299
▁Mehr	-10.73
▁Neuronen	-10.73
▁weird	-10.7301
▁dahin	-10.7307
▁wohin	-10.7308
▁Konferenz	-10.731
▁Take	-10.7311
source	-10.7313
▁birds	-10.7313
He	-10.7317
▁graph	-10.7328
▁hearing	-10.7328
Mo	-10.7331
▁reich	-10.7334
▁entscheidend	-10.7338
▁designers	-10.7338
stelle	-10.7343
▁Intelligenz	-10.7347
▁background	-10.7347
▁Tumor	-10.7347
▁Bildschirm	-10.7347
▁entsteht	-10.7347
▁blow	-10.7347
▁Überleben	-10.7348
▁lu	-10.7349
▁durchgeführt	-10.735
▁niedrig	-10.7351
▁complexity	-10.7351
▁died	-10.7353
▁Virus	-10.7356
▁nearly	-10.736
▁Soldaten	-10.7361
▁Ameisen	-10.7364
nimmt	-10.7365
▁Mark	-10.7366
▁Feld	-10.7372
▁erstellen	-10.7376
▁entschied	-10.7377
hop	-10.738
▁broken	-10.7386
▁Pri	-10.739
▁represent	-10.7394
struktur	-10.7395
▁Science	-10.7395
▁Plastik	-10.7395
▁Zusammenhang	-10.7395
▁Robert	-10.7395
▁flight	-10.7396
▁earth	-10.7397
▁gap	-10.7398
▁desire	-10.74
▁erhielt	-10.7403
▁European	-10.7403
▁erklärt	-10.7404
▁correct	-10.7405
▁las	-10.7405
▁Fische	-10.7406
▁Kunden	-10.7407
▁westliche	-10.7407
▁seien	-10.741
▁Produktion	-10.7412
alität	-10.7413
▁Good	-10.7414
lies	-10.7416
nah	-10.7417
mut	-10.7418
schrei	-10.7419
▁elektrische	-10.742
▁trial	-10.7421
▁Tausende	-10.7422
wesen	-10.7431
füll	-10.7439
▁Akt	-10.7442
▁plane	-10.7443
rot	-10.7443
▁chinesische	-10.7443
▁continent	-10.7443
▁airplane	-10.7443
▁giant	-10.7443
▁none	-10.7444
▁einzigartig	-10.7447
▁paint	-10.7448
▁collect	-10.7448
▁darf	-10.745
▁markets	-10.7452
▁Massen	-10.7452
▁dad	-10.7457
▁geh	-10.7458
▁Korallen	-10.7458
▁spending	-10.7459
schicht	-10.7472
▁heran	-10.7478
▁core	-10.7482
▁dritten	-10.7483
▁Australia	-10.7492
▁Komplexität	-10.7492
▁Wunsch	-10.7492
▁contact	-10.7492
▁erforschen	-10.7492
▁avoid	-10.7492
▁promise	-10.7492
▁consciousness	-10.7493
▁flag	-10.7494
"-	-10.7495
▁Satz	-10.7495
▁grand	-10.7496
ied	-10.7496
▁dagegen	-10.7496
▁tough	-10.7497
▁Ah	-10.7498
▁Einsatz	-10.7499
▁Nord	-10.7514
aktiv	-10.7523
▁Tom	-10.753
▁stellten	-10.7532
▁kn	-10.7533
▁experiments	-10.7537
▁1990	-10.7541
▁GPS	-10.7541
▁Niemand	-10.7541
▁Institute	-10.7542
▁1,000	-10.7544
▁tip	-10.7544
lly	-10.7547
▁erhält	-10.7552
▁answers	-10.7555
▁operation	-10.7556
hob	-10.7558
▁600	-10.7559
▁gift	-10.7561
▁stem	-10.7563
▁studying	-10.7572
▁Sin	-10.7573
▁saß	-10.7573
▁remind	-10.7574
▁equal	-10.7581
▁voran	-10.7584
ification	-10.7584
▁fill	-10.7586
▁Unterstützung	-10.759
▁betrifft	-10.759
▁breast	-10.759
▁opportunities	-10.759
▁Golf	-10.7591
▁Green	-10.7593
▁Ziele	-10.7595
dge	-10.7596
▁Bedingungen	-10.7603
▁Sterne	-10.7607
▁Insekten	-10.7608
▁Karten	-10.761
▁Tru	-10.761
▁pig	-10.761
▁fold	-10.7624
▁Sun	-10.7628
tischen	-10.7629
kosystem	-10.7629
wat	-10.763
▁manage	-10.7631
teile	-10.7632
uten	-10.7637
▁fu	-10.7637
fällig	-10.764
▁coffee	-10.764
▁Diskussion	-10.764
▁Middle	-10.764
▁struggle	-10.764
▁universal	-10.764
▁chain	-10.764
▁Tra	-10.7641
▁Gesellschaften	-10.7647
baren	-10.7648
▁link	-10.7654
▁erstellt	-10.7656
▁BG	-10.7661
tron	-10.7663
▁Typen	-10.7666
schlagen	-10.7668
person	-10.7674
▁Dienst	-10.7675
▁held	-10.7675
▁print	-10.7682
▁labor	-10.7684
▁focused	-10.7684
▁ecosystem	-10.769
▁encourage	-10.769
▁monkey	-10.769
▁outcome	-10.7691
▁strength	-10.7691
▁Human	-10.7692
▁langen	-10.7694
▁reaction	-10.7695
▁investieren	-10.7696
▁mid	-10.7697
▁Zentrum	-10.77
▁davor	-10.7701
▁noise	-10.7702
ook	-10.7717
▁Forschungs	-10.772
▁Mc	-10.7726
▁Geräte	-10.773
▁forever	-10.7738
bildung	-10.7738
▁architect	-10.7739
▁Actually	-10.774
▁Mütter	-10.774
▁husband	-10.774
▁verfügbar	-10.774
▁yellow	-10.774
▁Zusammenarbeit	-10.7741
Wo	-10.7743
führung	-10.7745
▁benötigen	-10.7746
▁Dan	-10.7748
▁leer	-10.7748
▁Band	-10.7749
▁fairly	-10.7752
ieg	-10.7754
hilfe	-10.776
▁Ganze	-10.7769
So	-10.7771
▁grade	-10.7777
raten	-10.7778
▁alleine	-10.7779
▁Sekunde	-10.7783
▁island	-10.7787
▁Patient	-10.7788
▁gewonnen	-10.779
▁Drittel	-10.7792
▁Maß	-10.7793
▁desert	-10.7799
▁dreht	-10.78
▁beschreiben	-10.7805
Okay	-10.7813
▁rap	-10.7815
▁Andere	-10.7819
▁fully	-10.782
▁nah	-10.782
▁tax	-10.7826
▁competition	-10.784
▁identity	-10.784
▁kommunizieren	-10.784
▁Gewebe	-10.784
▁ancient	-10.784
▁cartoon	-10.784
▁opposite	-10.7841
▁click	-10.7841
▁Brief	-10.7842
▁Irak	-10.7843
▁Konflikt	-10.7845
▁schien	-10.7847
Sie	-10.7849
based	-10.7858
lage	-10.7859
▁Aufgaben	-10.7865
▁expand	-10.7871
zo	-10.7874
tragen	-10.7874
▁passed	-10.7874
▁habt	-10.7875
▁Pre	-10.7877
▁sowie	-10.788
▁Fernsehen	-10.7881
▁wealth	-10.7882
▁Tradition	-10.7891
▁border	-10.7891
▁remote	-10.7891
▁joy	-10.7891
▁klingt	-10.7891
▁1960	-10.7892
▁technical	-10.7892
▁bread	-10.7892
▁Basis	-10.7893
▁2005	-10.7895
führt	-10.7895
▁trend	-10.7895
▁Einzel	-10.7896
▁persönliche	-10.7897
▁crash	-10.7899
▁museum	-10.7906
▁Such	-10.7907
aking	-10.7909
▁cap	-10.7914
right	-10.7915
▁Pol	-10.7916
▁weiss	-10.7916
▁verbracht	-10.7918
pre	-10.7933
▁begeistert	-10.7942
▁bubble	-10.7942
▁stolz	-10.7942
▁root	-10.7942
▁Zweitens	-10.7943
▁bezahlt	-10.7943
▁Frank	-10.7944
▁scene	-10.7944
▁Perspektive	-10.7948
markt	-10.7949
▁members	-10.7951
▁sold	-10.7953
krat	-10.7955
staat	-10.7956
▁leider	-10.7961
ationen	-10.7962
sinn	-10.7964
▁komplexe	-10.7968
▁devices	-10.797
▁Ball	-10.7975
▁27	-10.7978
▁Rot	-10.7978
ya	-10.7983
▁Spiele	-10.7987
denken	-10.7989
esten	-10.7989
▁Träume	-10.799
▁stabil	-10.7992
ony	-10.7992
▁occur	-10.7992
▁Untersuchung	-10.7994
▁phenomenon	-10.7994
▁lucky	-10.7994
▁unbedingt	-10.7994
gie	-10.7995
▁inspired	-10.8004
▁Code	-10.8005
▁bitten	-10.8012
▁Komm	-10.8019
▁cheap	-10.8019
tage	-10.8023
▁era	-10.8025
▁neuer	-10.8026
▁Schmerz	-10.803
▁Erinnerung	-10.803
▁bemerkt	-10.8032
▁adult	-10.8033
▁Zeitung	-10.8039
▁Mai	-10.8044
▁Em	-10.8045
▁Higgs	-10.8045
▁possibility	-10.8045
▁religious	-10.8045
▁vermutlich	-10.8045
▁magazine	-10.8045
▁despite	-10.8045
▁Geschlecht	-10.8046
▁score	-10.8046
▁gun	-10.8046
▁crime	-10.8047
▁Ehe	-10.805
▁Spielen	-10.805
isches	-10.8052
▁relativ	-10.8053
ären	-10.8054
▁electronic	-10.8063
▁Ed	-10.8065
▁knowing	-10.8065
▁gaben	-10.8069
pper	-10.8074
▁surprise	-10.8075
verse	-10.8079
zugeben	-10.8086
▁aspect	-10.8088
▁buchstäblich	-10.8097
▁mechanism	-10.8097
▁Depression	-10.8097
▁Kontext	-10.8097
▁suit	-10.8099
▁disc	-10.8104
▁party	-10.8108
tzt	-10.8112
▁Nichts	-10.8113
uer	-10.8115
▁creatures	-10.8118
▁tag	-10.8119
▁Fach	-10.812
▁Pen	-10.8122
▁umgehen	-10.8123
▁Red	-10.8127
▁farmers	-10.8136
gal	-10.8138
▁Fällen	-10.8139
grat	-10.8142
▁dieselbe	-10.8144
▁teil	-10.8147
▁Pla	-10.8147
schluss	-10.8148
▁Obama	-10.8149
▁advantage	-10.8149
▁easier	-10.8149
▁herausgefunden	-10.8149
▁mouth	-10.8149
▁Kenya	-10.8149
▁clever	-10.8149
▁coast	-10.8149
▁Hintergrund	-10.8149
▁damage	-10.8149
▁talent	-10.8149
▁2009	-10.8152
▁geführt	-10.8152
▁entwickelten	-10.8158
eur	-10.8159
▁spring	-10.8164
erei	-10.8165
träge	-10.8167
upp	-10.817
▁kalt	-10.8182
▁Fo	-10.8182
▁engineer	-10.8183
▁detect	-10.8187
mission	-10.8187
▁Babys	-10.819
▁krank	-10.819
spect	-10.8191
▁turning	-10.8192
▁benefit	-10.8192
▁Organisationen	-10.8195
ionen	-10.8196
▁verdienen	-10.8201
▁Kräfte	-10.8201
▁sharing	-10.8201
▁British	-10.8202
▁Großteil	-10.8202
▁vollkommen	-10.8203
▁Kurs	-10.8204
▁außerdem	-10.8204
▁notwendig	-10.8208
▁Modelle	-10.8209
▁Folge	-10.821
▁wahre	-10.8212
▁artists	-10.8216
länder	-10.8217
▁Einheit	-10.8217
▁passen	-10.8218
▁fiel	-10.8223
usch	-10.8223
▁wiederum	-10.8226
▁sorry	-10.8227
▁cra	-10.8228
▁ring	-10.8229
pit	-10.8232
quelle	-10.8239
▁spirit	-10.8242
▁fashion	-10.8245
mmel	-10.8251
▁Thomas	-10.8254
▁hängt	-10.8254
projekt	-10.8254
▁roof	-10.8254
▁General	-10.8254
▁planets	-10.8261
▁falsche	-10.8265
▁Laden	-10.8265
▁übertragen	-10.8266
▁suffering	-10.8266
▁erkannte	-10.8272
▁drin	-10.8273
▁65	-10.828
This	-10.8282
▁Fu	-10.8285
▁Joe	-10.8285
▁raised	-10.8287
▁Gespräch	-10.8293
reichen	-10.8293
▁figured	-10.8295
▁Have	-10.8297
▁Fünf	-10.8307
▁konzentriert	-10.8307
▁estimate	-10.8307
▁particles	-10.8307
▁besitzen	-10.8307
▁Masse	-10.8308
▁Landwirtschaft	-10.8309
▁Mil	-10.831
▁Politiker	-10.8311
20	-10.8315
▁sicherlich	-10.832
▁hero	-10.8321
▁gering	-10.8322
▁foreign	-10.8327
▁experiences	-10.8328
▁kl	-10.8332
artige	-10.8333
gegangen	-10.8336
sichtlich	-10.8336
▁entirely	-10.8339
▁drehen	-10.8342
▁besondere	-10.8355
▁importantly	-10.8357
▁Valley	-10.836
▁French	-10.836
▁stecken	-10.836
▁Interaktion	-10.836
▁gestalten	-10.8361
▁1980	-10.8361
▁sitzt	-10.8361
▁Link	-10.8361
▁sorgen	-10.8361
▁bright	-10.8362
▁selber	-10.8367
▁professor	-10.8368
▁basiert	-10.8368
▁Wa	-10.837
avi	-10.8374
komm	-10.8377
▁Jack	-10.8388
▁letztes	-10.839
▁rechten	-10.8392
ktiv	-10.8397
▁Handel	-10.8398
▁Gründen	-10.8405
gabe	-10.8407
▁civil	-10.8408
▁Fabrik	-10.8414
▁president	-10.8414
▁regular	-10.8414
▁zerstört	-10.8414
▁disorder	-10.8414
▁Zuerst	-10.8414
▁bezahlen	-10.8414
▁However	-10.8417
▁expression	-10.8423
▁zog	-10.8426
▁Sorgen	-10.8442
schule	-10.8446
▁climb	-10.8447
▁spa	-10.8448
▁mode	-10.8456
▁Denk	-10.8459
▁usw	-10.8462
▁passt	-10.8466
▁location	-10.8467
▁necessarily	-10.8467
▁versteckt	-10.8467
▁Küste	-10.8468
▁Erklärung	-10.8468
▁Haiti	-10.8469
▁poem	-10.8473
▁Sonnen	-10.8479
▁Eins	-10.8481
▁Affen	-10.8486
▁Kr	-10.8489
▁Nutzen	-10.849
▁weiteres	-10.8492
▁Lern	-10.8496
daten	-10.8501
▁events	-10.8503
▁bird	-10.8505
aving	-10.8507
▁Ghana	-10.8521
▁Mexico	-10.8521
▁sozusagen	-10.8521
▁gelangen	-10.8521
▁Stufe	-10.8521
▁tumor	-10.8522
▁letztendlich	-10.8522
▁Anti	-10.8522
▁flat	-10.8525
▁Filme	-10.8526
▁Apple	-10.8527
▁benefits	-10.8531
▁moon	-10.8533
▁fragten	-10.8534
mine	-10.8535
schalten	-10.8536
▁Sehr	-10.8538
▁laugh	-10.8552
station	-10.8555
▁Krise	-10.8555
▁virtual	-10.8567
rop	-10.8567
▁feels	-10.8569
La	-10.8571
▁attempt	-10.8576
▁dürfen	-10.8576
▁hauptsächlich	-10.8576
▁kümmern	-10.8576
▁responsible	-10.8576
▁restaurant	-10.8576
▁Kontinent	-10.8576
▁Zweck	-10.8576
▁election	-10.8576
▁Sometimes	-10.8576
▁verbessert	-10.8576
▁Schluss	-10.8576
▁creation	-10.8576
▁Unternehmer	-10.8576
▁stammt	-10.8576
▁stärker	-10.8577
▁hinweg	-10.8579
▁plus	-10.858
▁proud	-10.8581
▁Schl	-10.8585
▁bestimmen	-10.8589
iff	-10.8589
▁date	-10.8589
▁Universums	-10.8592
▁Bitte	-10.8597
rim	-10.8601
bahn	-10.8602
▁halte	-10.8607
▁stream	-10.8622
▁reicht	-10.8622
wasser	-10.8629
▁Symbol	-10.863
▁chemische	-10.863
▁getötet	-10.863
▁mindestens	-10.863
▁wuchs	-10.863
▁leadership	-10.8631
▁erstaunliche	-10.8632
▁Milliarde	-10.8635
▁solid	-10.8635
▁Kindheit	-10.8636
ehren	-10.8648
▁auto	-10.8648
gung	-10.8649
stall	-10.8652
lagen	-10.8656
▁elements	-10.8659
▁lay	-10.8667
zel	-10.8677
steigen	-10.8682
▁dran	-10.8683
▁Militär	-10.8685
▁Wüste	-10.8686
▁pounds	-10.8686
▁Brücke	-10.8688
▁werfen	-10.8694
ria	-10.8698
▁Mission	-10.8699
▁Kann	-10.8703
▁rede	-10.8703
0.000	-10.8706
▁creates	-10.8706
wagen	-10.8714
▁tausend	-10.8716
stern	-10.8717
▁dollar	-10.8726
▁dreams	-10.8729
tür	-10.873
▁hohen	-10.8734
▁Erfindung	-10.8741
▁Grafik	-10.8741
▁Kalifornien	-10.8741
▁Zivilisation	-10.8741
▁claim	-10.8741
▁innovative	-10.8741
▁necessary	-10.8741
▁studied	-10.8741
fläche	-10.8741
▁entwerfen	-10.8742
▁pair	-10.8742
▁Kurz	-10.8744
▁psycho	-10.8753
Me	-10.8761
spielen	-10.8771
ologen	-10.8779
▁leading	-10.8781
▁pu	-10.8785
▁opened	-10.879
▁Verb	-10.8792
▁sink	-10.8795
▁Kaffee	-10.8796
▁hurt	-10.8796
▁debate	-10.8796
▁wächst	-10.8796
▁battle	-10.8796
richtung	-10.8799
▁holding	-10.88
jährigen	-10.8812
▁Spieler	-10.8819
▁Institutionen	-10.8823
isierte	-10.8834
▁relative	-10.8834
ograph	-10.8838
▁weapons	-10.8841
▁Open	-10.8842
▁lieber	-10.8843
day	-10.8844
▁Very	-10.8846
▁Hy	-10.8849
▁glaubt	-10.885
▁irgendwann	-10.8852
▁inspiriert	-10.8852
▁interagieren	-10.8852
▁verwandeln	-10.8852
▁horse	-10.8852
▁mouse	-10.8853
▁Trick	-10.8857
▁Ur	-10.8857
▁ultimately	-10.8858
▁Roman	-10.8858
▁transformation	-10.8862
volle	-10.8863
▁daß	-10.8866
▁modernen	-10.8867
▁Ze	-10.887
▁hall	-10.8874
menge	-10.8878
▁Maus	-10.8882
ließ	-10.8882
▁Kal	-10.8883
▁structures	-10.8884
work	-10.8887
machen	-10.8889
▁wichtigste	-10.8889
▁related	-10.8899
ura	-10.8899
▁King	-10.8899
▁Mut	-10.89
▁Mill	-10.89
▁fragt	-10.89
▁tu	-10.8901
▁hunderte	-10.8904
einhalb	-10.8904
▁Paar	-10.8905
▁Themen	-10.8907
▁broad	-10.8908
▁Laptop	-10.8908
▁faith	-10.8908
▁stuck	-10.8908
▁Zimmer	-10.8909
▁versus	-10.891
zeichnet	-10.891
▁unfortunately	-10.891
▁verfolgen	-10.8912
▁wunderbar	-10.8912
lief	-10.8923
▁failed	-10.8924
scha	-10.8933
unter	-10.8934
▁Beweis	-10.8936
funktion	-10.8939
▁persönlich	-10.8941
▁tens	-10.8943
▁Betracht	-10.8948
▁Grundlage	-10.8948
▁soil	-10.8949
▁rief	-10.895
▁drink	-10.8952
▁sta	-10.8954
▁Dia	-10.8954
▁Bus	-10.8957
hafte	-10.8958
chan	-10.8961
▁dunkle	-10.8963
▁Sein	-10.8964
▁International	-10.8965
▁identify	-10.8965
▁monitor	-10.8965
▁collapse	-10.8965
▁gewöhnlich	-10.8965
▁succeed	-10.8965
▁truck	-10.8965
▁Stress	-10.8965
▁childhood	-10.8965
▁scheinen	-10.8966
▁Moleküle	-10.8966
▁Verlust	-10.8966
▁schrecklich	-10.8968
▁verantwortlich	-10.8971
▁UN	-10.8976
sein	-10.8986
▁Teilchen	-10.899
Pa	-10.8992
run	-10.8999
▁finish	-10.9005
but	-10.901
ali	-10.9012
istische	-10.9015
▁töten	-10.9021
▁Stärke	-10.9021
▁honor	-10.9022
▁Augenblick	-10.9023
▁1950	-10.9023
▁Verkehr	-10.9023
▁DH	-10.903
▁anderem	-10.9035
▁Gar	-10.9036
▁bees	-10.9038
▁degree	-10.9042
▁filter	-10.9045
▁einsetzen	-10.9046
▁lesson	-10.9048
▁believed	-10.9053
▁Süd	-10.9055
▁operate	-10.9062
ju	-10.9064
▁eingesetzt	-10.9068
▁Netzwerke	-10.9074
▁copy	-10.9079
▁Microsoft	-10.9079
▁platform	-10.9079
▁Fleisch	-10.9079
▁Außerdem	-10.9079
▁Gegenteil	-10.908
▁Gras	-10.9083
▁Once	-10.9086
▁protein	-10.9089
▁concerned	-10.9093
werte	-10.9098
Man	-10.9106
Fi	-10.9107
▁Strukturen	-10.9108
linie	-10.9109
▁Jungs	-10.9111
▁Star	-10.9117
▁pump	-10.9126
▁sudden	-10.9127
wissenschaftlich	-10.9131
▁pet	-10.9133
▁bill	-10.9134
anlage	-10.9134
▁übrig	-10.9135
bon	-10.9135
▁Kohlenstoff	-10.9136
▁university	-10.9136
▁exercise	-10.9136
▁leaving	-10.9136
▁Organ	-10.9136
▁Interview	-10.9136
▁Zitat	-10.9137
▁Kerl	-10.914
▁Stamm	-10.9141
▁Bauern	-10.9143
▁Erst	-10.9143
hören	-10.9146
▁adults	-10.915
▁discovery	-10.9151
grad	-10.9164
▁Th	-10.9168
▁insects	-10.9172
▁End	-10.9173
▁tue	-10.9175
▁Galaxien	-10.9179
tun	-10.9183
▁32	-10.9184
▁Aktivität	-10.9185
produkt	-10.9188
▁letter	-10.919
▁Wohn	-10.9191
▁newspaper	-10.9194
▁Rahmen	-10.9194
▁lunch	-10.9194
rew	-10.9195
steuer	-10.9196
▁möglicherweise	-10.9196
▁interessieren	-10.9205
hält	-10.9209
Der	-10.9211
▁slowly	-10.9214
▁fantastisch	-10.9216
nahmen	-10.9218
▁deeply	-10.9218
▁direct	-10.922
▁fail	-10.9221
▁Bildern	-10.9223
erin	-10.923
material	-10.9231
▁lights	-10.9233
▁Experimente	-10.9236
stoß	-10.9249
▁Bruder	-10.9252
▁Wahrnehmung	-10.9252
▁unsichtbar	-10.9252
▁Bas	-10.9252
▁novel	-10.9252
▁caught	-10.9252
▁interface	-10.9253
issen	-10.9256
▁Did	-10.9258
▁Ganz	-10.926
▁Sitz	-10.9261
▁testen	-10.9262
▁gegenseitig	-10.9266
▁curve	-10.9266
schaffen	-10.9276
oma	-10.9279
▁State	-10.9279
▁gest	-10.9286
dding	-10.9286
arbeiten	-10.9295
▁uses	-10.9299
▁typical	-10.9302
oid	-10.9305
Er	-10.9305
▁bag	-10.9306
far	-10.9306
▁Stanford	-10.9311
▁Hunger	-10.9311
▁vorhanden	-10.9311
▁Gleiche	-10.9311
Co	-10.9313
▁constantly	-10.9317
▁Jim	-10.9318
▁rat	-10.9318
▁Verstand	-10.932
▁names	-10.9321
▁weder	-10.9322
luck	-10.9325
▁reform	-10.9325
▁fern	-10.9326
▁parent	-10.9328
▁metal	-10.9337
▁compared	-10.9341
▁band	-10.9344
Da	-10.9345
▁generate	-10.9348
▁erzähle	-10.9349
▁frage	-10.9352
ji	-10.9353
ians	-10.9355
Nun	-10.9357
▁schließen	-10.9364
▁Bush	-10.9368
▁Dinosaurier	-10.9369
▁Vögel	-10.9369
▁depression	-10.9369
▁erhöht	-10.9369
▁verhindern	-10.9369
▁gehabt	-10.9369
▁gäbe	-10.9369
▁studiert	-10.9369
▁verwandelt	-10.9369
▁reveal	-10.9369
▁Post	-10.9371
▁starb	-10.9372
▁shop	-10.9374
▁Weiß	-10.9375
▁tail	-10.9381
tieren	-10.9383
▁conscious	-10.9384
▁morgen	-10.9387
▁perfekte	-10.9395
cep	-10.9395
▁trained	-10.9404
▁Bein	-10.9404
▁Arab	-10.9406
▁Sal	-10.9408
▁fighting	-10.9412
▁Folgen	-10.9418
▁Schuld	-10.942
▁leads	-10.9423
▁transport	-10.9423
ax	-10.9423
rry	-10.9424
ffentlichkeit	-10.9429
▁fascinating	-10.9429
▁fresh	-10.9429
▁patent	-10.9429
▁Spiegel	-10.9429
▁1970	-10.9429
▁Vogel	-10.9429
▁motion	-10.9432
▁majority	-10.9433
▁cave	-10.9434
▁discussion	-10.9435
▁insight	-10.9435
▁factory	-10.944
gent	-10.9442
▁Schrift	-10.9443
▁Meilen	-10.9445
▁finished	-10.9446
▁Experten	-10.9449
▁frame	-10.9451
▁schlimmer	-10.9452
schuldig	-10.9453
▁multiple	-10.9453
nderung	-10.9462
▁Zug	-10.9462
power	-10.947
zubringen	-10.9471
▁Lied	-10.9472
▁Problemen	-10.9475
▁brings	-10.9477
▁dauert	-10.9478
boot	-10.9484
harm	-10.9486
▁opinion	-10.9488
▁strategy	-10.9488
▁Verhältnis	-10.9488
▁empower	-10.9488
▁Website	-10.9488
▁Mitarbeiter	-10.9489
▁Dem	-10.9489
▁Minute	-10.949
▁capable	-10.949
▁Hör	-10.9492
▁überraschend	-10.9494
▁attract	-10.9497
▁Hinter	-10.9497
▁sichtbar	-10.9498
merk	-10.9502
▁garden	-10.9502
▁emotions	-10.9504
▁wear	-10.9505
▁dozen	-10.9509
▁lung	-10.9514
▁gemein	-10.9516
▁described	-10.952
▁weak	-10.952
▁independent	-10.9524
▁cow	-10.9525
▁closed	-10.9528
▁250	-10.9532
▁Au	-10.9535
wort	-10.9536
▁gek	-10.9542
▁Mag	-10.9542
▁Audience	-10.9548
▁mathematics	-10.9548
▁puzzle	-10.9548
▁quantum	-10.9548
▁budget	-10.9548
▁vertraut	-10.9548
▁teuer	-10.9548
▁quiet	-10.9548
▁bieten	-10.9548
▁Sprachen	-10.955
▁anfing	-10.955
▁wave	-10.955
▁otherwise	-10.9551
▁Peter	-10.9555
ogen	-10.9556
▁grundlegende	-10.956
pie	-10.9561
sprache	-10.9563
▁oceans	-10.957
▁organisiert	-10.9571
▁scar	-10.9573
▁managed	-10.9575
▁neuro	-10.9578
▁breath	-10.9582
▁stelle	-10.9588
▁disappear	-10.9591
▁Gal	-10.9593
▁Kein	-10.9597
▁26	-10.9602
▁irgendetwas	-10.9608
▁Haufen	-10.9608
bewegung	-10.9608
▁operating	-10.9609
▁verteilt	-10.9609
▁Pra	-10.9609
▁pan	-10.9609
▁lebendig	-10.961
▁error	-10.961
▁Start	-10.9617
bit	-10.9617
matic	-10.962
▁Erkenntnis	-10.9621
▁wide	-10.9621
▁wertvoll	-10.9622
▁kostenlos	-10.9623
▁colors	-10.963
▁verbrachte	-10.9639
char	-10.9655
▁Tro	-10.9655
▁visuelle	-10.9656
▁deinen	-10.9658
▁topic	-10.9659
▁profound	-10.9661
▁grab	-10.9661
schutz	-10.9667
qual	-10.9669
▁cognitive	-10.9669
▁entworfen	-10.9669
▁unterscheiden	-10.9669
▁smile	-10.9669
▁equivalent	-10.9669
▁display	-10.9669
▁Zucker	-10.967
▁comment	-10.9671
▁nannte	-10.9672
▁Lauf	-10.9674
▁ants	-10.9674
▁spezielle	-10.9676
selben	-10.9681
▁Student	-10.9681
mun	-10.9687
▁Schicht	-10.9687
▁poll	-10.9689
netz	-10.9689
▁genauer	-10.9691
▁perfectly	-10.9692
▁paying	-10.9693
▁justice	-10.9693
▁hack	-10.9695
▁meist	-10.9695
▁Falls	-10.9697
▁foundation	-10.9705
schneiden	-10.9706
▁Cent	-10.9709
▁seltsam	-10.9713
▁launch	-10.9713
▁coal	-10.9714
▁mix	-10.9714
atom	-10.9716
ball	-10.9718
sucht	-10.9719
▁Entdeckung	-10.9725
▁tape	-10.9728
▁Doktor	-10.973
▁Texas	-10.973
▁consumption	-10.973
▁disaster	-10.973
▁kennt	-10.973
▁Grün	-10.973
▁odd	-10.9731
▁Folgendes	-10.9731
▁versuchten	-10.9731
▁Laufe	-10.9733
▁Schwester	-10.9733
▁assume	-10.9736
▁Absicht	-10.9739
burg	-10.9741
▁billions	-10.9745
▁currently	-10.9746
▁Sicherheits	-10.9747
wunder	-10.9748
kind	-10.9752
▁schaute	-10.9754
▁vehicle	-10.9756
▁Geh	-10.9758
▁row	-10.9763
▁Kra	-10.9766
▁tech	-10.9771
▁followed	-10.9774
zukommen	-10.9775
▁mitten	-10.9775
systeme	-10.9777
▁Händen	-10.9778
▁spaces	-10.978
▁II	-10.9782
leuchten	-10.9791
pflanzen	-10.9791
▁Manhattan	-10.9791
▁Zuschauer	-10.9791
▁galaxies	-10.9791
▁volunteer	-10.9791
▁invisible	-10.9791
▁dinner	-10.9791
▁Three	-10.9791
▁contract	-10.9792
losen	-10.9792
▁Martin	-10.9793
▁meat	-10.9793
▁hyper	-10.9794
▁Gedanke	-10.9795
▁Wettbewerb	-10.9796
▁Einstellung	-10.9798
▁clip	-10.9798
▁electric	-10.9799
▁hergestellt	-10.98
▁Seele	-10.9802
▁organisms	-10.9804
▁prop	-10.9804
▁Mund	-10.9806
▁mentioned	-10.9806
▁Bob	-10.9806
▁moments	-10.9807
▁leader	-10.9813
▁Stand	-10.9818
▁element	-10.982
▁clinic	-10.982
▁könnt	-10.9823
Na	-10.9829
dor	-10.9836
▁dank	-10.9837
▁Uganda	-10.9853
▁artificial	-10.9853
▁beantworten	-10.9853
▁circuit	-10.9853
schläge	-10.9853
▁weather	-10.9853
▁Trend	-10.9853
▁feedback	-10.9853
▁Ausmaß	-10.9854
▁Annahme	-10.9855
geschlagen	-10.9855
▁spoke	-10.9857
▁Restaurant	-10.9862
▁Rad	-10.9864
▁counter	-10.9865
▁round	-10.9867
▁Hunde	-10.9871
▁ride	-10.9878
yo	-10.9879
▁surprised	-10.9879
ify	-10.988
▁genetische	-10.9881
water	-10.9885
▁müsste	-10.9887
▁holen	-10.9891
▁Top	-10.9891
▁höhere	-10.9892
▁normalen	-10.9898
läuft	-10.99
▁origin	-10.9905
wechsel	-10.991
▁Brazil	-10.9913
▁arbeiteten	-10.9915
▁employ	-10.9915
▁Rätsel	-10.9915
▁elephant	-10.9915
▁marriage	-10.9915
▁practical	-10.9915
▁worried	-10.9915
▁besagt	-10.9915
▁vergleichen	-10.9915
▁Phase	-10.9916
▁Feind	-10.9916
grade	-10.9917
▁enorme	-10.9921
duct	-10.9921
▁lebte	-10.9922
▁Schimpansen	-10.9925
karte	-10.9925
▁ernsthaft	-10.9927
▁engineers	-10.9928
▁PM	-10.9928
▁Informations	-10.9932
▁Aspekt	-10.9935
▁fell	-10.9938
▁Ei	-10.9938
▁organic	-10.9939
▁principles	-10.9939
back	-10.9941
▁geo	-10.9945
▁limited	-10.9946
▁molecule	-10.9946
▁clinical	-10.9948
wohn	-10.9951
▁treated	-10.9958
▁linken	-10.9965
▁setzt	-10.9968
▁bla	-10.9968
▁speziell	-10.997
▁medi	-10.9975
▁grandmother	-10.9977
▁traurig	-10.9977
▁hoffentlich	-10.9977
▁wisdom	-10.9977
▁exchange	-10.9978
▁gehalten	-10.9978
arian	-10.9978
▁entspricht	-10.9978
▁Tanz	-10.9978
▁mirror	-10.9978
▁irre	-10.9981
gruppe	-10.9982
ily	-10.9987
▁Stimmen	-10.999
▁wirst	-10.9992
▁Lang	-10.9996
▁walls	-10.9998
gan	-10.9999
▁angesehen	-10.9999
▁photos	-10.9999
▁wearing	-11.0001
geber	-11.0001
▁aufhören	-11.0004
▁unver	-11.0009
▁May	-11.0011
round	-11.0012
▁somit	-11.0014
▁pure	-11.0015
▁steigen	-11.0016
tial	-11.0016
kar	-11.0026
▁begins	-11.003
▁entstanden	-11.0032
▁Gib	-11.0033
▁Rechte	-11.004
▁Individuen	-11.004
▁Märkte	-11.004
▁Project	-11.004
▁distribution	-11.004
▁galaxy	-11.004
▁laptop	-11.004
▁unterstützt	-11.004
▁intellectual	-11.004
▁Unterhaltung	-11.0041
▁Pflege	-11.0041
▁refer	-11.0041
▁schönen	-11.0042
▁chip	-11.0042
▁2004	-11.0044
▁everyday	-11.0044
▁Null	-11.0045
▁release	-11.0045
▁weiteren	-11.0046
▁crack	-11.0047
▁Rock	-11.0052
▁Gericht	-11.0053
▁businesses	-11.0056
▁belong	-11.0057
▁nächstes	-11.0058
▁received	-11.0061
▁myth	-11.0064
▁erster	-11.0068
▁compare	-11.0074
ehrt	-11.0076
▁ließen	-11.0077
ierende	-11.0077
▁fantastische	-11.0079
kte	-11.0082
sorge	-11.0084
aktion	-11.0092
phy	-11.0095
omi	-11.01
▁south	-11.0103
kultur	-11.0104
▁epidemic	-11.0104
▁nervous	-11.0104
zentrum	-11.0104
▁allerdings	-11.0104
▁Jemand	-11.0104
▁Everybody	-11.0104
▁Gegensatz	-11.0104
▁hol	-11.0105
▁Lektion	-11.0105
▁Vorteil	-11.0106
If	-11.0108
▁matters	-11.0109
▁Nano	-11.0114
▁Elemente	-11.0115
▁invited	-11.0116
▁spielte	-11.0122
▁120	-11.0124
▁wing	-11.0129
▁Bedürfnisse	-11.013
▁besseren	-11.0132
▁Schau	-11.0134
▁harder	-11.014
▁auseinander	-11.0154
▁grown	-11.0162
▁relation	-11.0167
▁Diagramm	-11.0167
▁married	-11.0167
▁mathematical	-11.0167
▁zugänglich	-11.0167
▁Außen	-11.0167
▁planning	-11.0168
▁fellow	-11.0168
▁Theater	-11.0168
▁Medikament	-11.0168
▁gold	-11.0168
▁aufbauen	-11.0169
▁awful	-11.0169
▁kick	-11.017
lb	-11.0171
▁lift	-11.0171
sensor	-11.0172
▁dennoch	-11.0172
▁Eindruck	-11.0173
▁collection	-11.0174
uadrat	-11.0175
stände	-11.0177
neu	-11.0178
▁unless	-11.0184
oni	-11.0187
▁partner	-11.0193
11	-11.0199
▁fourth	-11.0201
▁billig	-11.0208
▁bekamen	-11.021
▁involve	-11.0212
ifi	-11.0218
ography	-11.0218
ridge	-11.022
▁watched	-11.0221
kehr	-11.0222
forschung	-11.0225
ological	-11.0226
▁Amazon	-11.023
▁kürzlich	-11.0231
▁William	-11.0231
▁Figur	-11.0231
▁zoom	-11.0231
▁peak	-11.0232
▁Obwohl	-11.0232
▁ill	-11.0232
▁chart	-11.0234
▁phones	-11.0236
▁Zeitalter	-11.0238
▁Klang	-11.0239
▁100,000	-11.0243
▁gelb	-11.0247
frei	-11.0247
▁launched	-11.0249
▁Atem	-11.0251
▁gemeinsame	-11.0259
▁hoffen	-11.0264
▁Zell	-11.0265
▁principle	-11.0271
▁Todes	-11.0272
▁advance	-11.0274
▁wenigen	-11.0275
▁robotic	-11.0276
▁publish	-11.0279
2-	-11.0288
schauen	-11.0293
ison	-11.0294
▁nor	-11.0295
auch	-11.0295
▁Kapital	-11.0295
▁Brust	-11.0296
▁Brasilien	-11.0296
▁agriculture	-11.0296
▁channel	-11.0296
▁equipment	-11.0296
▁fördern	-11.0296
▁survey	-11.0296
▁survival	-11.0296
▁chicken	-11.0296
▁dress	-11.0296
▁lernt	-11.0298
▁Planet	-11.0299
problem	-11.03
▁invention	-11.0302
▁Homo	-11.0302
▁gestern	-11.0303
▁hide	-11.0305
stab	-11.0306
▁highest	-11.0308
▁wheel	-11.031
▁Would	-11.0315
▁Grenze	-11.0318
tier	-11.0319
ica	-11.0319
▁taste	-11.0321
▁entdeckte	-11.0324
▁abhängig	-11.0335
öl	-11.0335
▁arms	-11.0336
▁capture	-11.0339
▁Nationen	-11.0341
▁load	-11.0343
zy	-11.0345
▁writer	-11.0351
▁Videos	-11.0358
setzung	-11.036
▁Metapher	-11.0361
▁Oxford	-11.0361
▁narrative	-11.0361
▁stupid	-11.0361
▁öffnet	-11.0361
▁Eigentlich	-11.0361
▁Titan	-11.0361
▁Räume	-11.0361
▁gelesen	-11.0361
▁Satelliten	-11.0361
getragen	-11.0361
▁erscheinen	-11.0361
▁Folie	-11.0362
▁tea	-11.0366
▁string	-11.0369
▁designer	-11.037
▁pill	-11.0371
▁theater	-11.0372
pers	-11.0372
züge	-11.0376
▁seriously	-11.0379
▁Hinsicht	-11.038
▁blaue	-11.0382
gegen	-11.0384
▁Does	-11.0385
stimmt	-11.0391
energie	-11.0392
haben	-11.0393
▁entwickelte	-11.0395
▁tap	-11.0397
▁Etwas	-11.0404
schi	-11.0405
▁define	-11.0406
▁Gl	-11.0408
▁resource	-11.0409
▁shock	-11.041
▁actor	-11.041
pack	-11.0412
eep	-11.0413
ua	-11.0416
▁electrical	-11.0416
▁Ober	-11.0426
▁Argument	-11.0426
▁reduzieren	-11.0426
▁Zuhause	-11.0426
▁curious	-11.0427
▁28	-11.0427
▁Pferd	-11.0427
▁hopefully	-11.0427
▁zahlen	-11.0428
▁schlau	-11.0429
▁drag	-11.0429
ough	-11.043
ties	-11.0432
▁dry	-11.0433
▁brauche	-11.0433
▁Germany	-11.0434
▁Vo	-11.0438
▁Ingenieur	-11.044
▁10.000	-11.044
▁Reich	-11.044
▁geschickt	-11.044
▁gesund	-11.0442
▁roten	-11.0454
▁Fakten	-11.0455
▁soldiers	-11.0458
▁Yorker	-11.0461
Y	-11.0463
reise	-11.0463
▁toward	-11.0465
▁normally	-11.0466
uell	-11.0469
▁killing	-11.0474
▁skill	-11.0477
äre	-11.0483
achtet	-11.0489
▁Definition	-11.0492
▁contribute	-11.0492
▁verbreiten	-11.0492
▁existence	-11.0492
▁observe	-11.0492
▁north	-11.0493
▁Other	-11.0495
▁Show	-11.0496
▁jung	-11.0496
box	-11.0496
▁erfinden	-11.0503
▁wartet	-11.0509
regel	-11.0513
dom	-11.0521
▁users	-11.0523
▁schlagen	-11.0532
▁mistake	-11.0538
arbeiter	-11.0539
drücke	-11.0541
▁Gedicht	-11.0542
Gesundheitswesen	-11.0554
gerät	-11.0555
▁Chirurg	-11.0558
▁beinhaltet	-11.0558
▁perception	-11.0558
▁verschwinden	-11.0558
▁Alternative	-11.0558
▁Malaria	-11.0558
▁joke	-11.0558
▁reef	-11.0559
▁Schatten	-11.0559
▁kilometers	-11.0559
▁grass	-11.056
▁Beweise	-11.0561
▁Milch	-11.0562
▁associated	-11.0564
kosten	-11.0565
▁wieso	-11.0565
▁increasingly	-11.0566
print	-11.0569
▁Geräusch	-11.0571
▁religiöse	-11.0573
▁brachten	-11.0575
holen	-11.0575
licher	-11.0576
▁organ	-11.0578
▁beschlossen	-11.0591
tiere	-11.0596
▁Hin	-11.0601
▁Bewegungen	-11.0602
▁Mach	-11.0602
▁terrorist	-11.0602
▁receive	-11.0603
▁concern	-11.061
wing	-11.0612
▁wunderschöne	-11.0615
▁stone	-11.0615
▁surprising	-11.0616
bereit	-11.0618
▁Gehirne	-11.0619
▁Australien	-11.0625
▁geändert	-11.0625
▁yesterday	-11.0625
▁hidden	-11.0625
▁Smith	-11.0625
▁berührt	-11.0625
▁property	-11.0625
▁teure	-11.0626
▁Fels	-11.0626
▁extract	-11.0626
▁2006	-11.0628
▁wake	-11.0628
▁Farm	-11.0628
▁tall	-11.0629
krise	-11.0629
▁2,000	-11.063
▁eindeutig	-11.0632
haltung	-11.0634
▁emotion	-11.0637
▁whom	-11.0639
▁credit	-11.0639
▁gender	-11.064
ologische	-11.0644
▁Fal	-11.0649
sistent	-11.0652
▁dealing	-11.0652
▁trägt	-11.0656
▁biologische	-11.0656
▁van	-11.066
▁testing	-11.0663
▁folks	-11.0672
Un	-11.0691
bio	-11.0692
▁Vier	-11.0692
▁Lebewesen	-11.0692
▁according	-11.0692
▁dolphin	-11.0692
▁equation	-11.0692
▁gestorben	-11.0692
▁ordinary	-11.0692
▁parallel	-11.0692
▁zerstören	-11.0692
▁studieren	-11.0692
▁gewählt	-11.0692
▁kontrolliert	-11.0692
▁Sub	-11.0692
▁doppelt	-11.0692
▁Straf	-11.0692
▁rural	-11.0693
▁weibliche	-11.0693
▁Webseite	-11.0693
▁Wirkung	-11.0693
stadt	-11.0694
▁Mikroben	-11.0694
▁statistics	-11.0694
lla	-11.0695
▁vermute	-11.0696
▁tube	-11.0701
▁solch	-11.0702
ini	-11.0705
▁zunächst	-11.0706
▁cure	-11.0707
▁opening	-11.0712
▁processes	-11.0716
▁reichen	-11.0718
ulate	-11.0723
▁Freundin	-11.0728
▁wichtigen	-11.0732
▁leiden	-11.0732
▁emerge	-11.0738
▁Fest	-11.074
▁echten	-11.0742
eit	-11.0743
ush	-11.0748
itz	-11.0754
preis	-11.0756
house	-11.0756
▁moves	-11.0756
▁saved	-11.0757
point	-11.0757
▁schlechter	-11.0758
▁Dokument	-11.076
▁Hollywood	-11.076
▁permanent	-11.076
▁Füße	-11.076
▁Organismen	-11.076
▁sugar	-11.076
▁illness	-11.0761
▁comfortable	-11.0761
▁Abschluss	-11.0762
▁construction	-11.0762
▁gehören	-11.0763
▁brauchten	-11.0765
30	-11.0769
face	-11.0771
▁sucht	-11.0772
iziert	-11.0773
▁Gemeinden	-11.0775
▁vo	-11.0779
▁Tor	-11.0781
▁filled	-11.0783
räume	-11.0784
halte	-11.0786
zieht	-11.0787
▁exists	-11.0787
how	-11.0788
▁Cor	-11.0793
▁pages	-11.0796
▁warming	-11.0798
▁meiste	-11.0798
▁tear	-11.0799
▁Linien	-11.0805
▁faces	-11.0805
▁dimensions	-11.0805
▁Mac	-11.0806
gibt	-11.0807
▁kompliziert	-11.081
▁Elektro	-11.0811
kin	-11.0811
▁Methoden	-11.0812
▁member	-11.0816
▁Ten	-11.0816
▁leid	-11.0817
That	-11.0818
▁exact	-11.0819
zelle	-11.082
▁behalten	-11.0823
ibility	-11.0828
▁Elektrizität	-11.0828
▁Existenz	-11.0828
▁Kombination	-11.0828
▁official	-11.0828
▁stood	-11.0828
▁Gesamt	-11.0828
orientiert	-11.0828
▁command	-11.0828
▁Dach	-11.0828
scale	-11.083
▁Hotel	-11.083
▁safety	-11.083
Yes	-11.083
▁flip	-11.0833
▁daily	-11.0833
▁Rob	-11.0834
▁lifetime	-11.0841
lac	-11.0842
üge	-11.0844
▁Spi	-11.0845
sort	-11.0845
ika	-11.085
▁95	-11.0855
▁spin	-11.0856
▁players	-11.0858
▁host	-11.0863
eign	-11.0865
▁Ber	-11.087
▁kurzem	-11.087
ham	-11.0871
tausend	-11.0872
keiten	-11.0873
▁caused	-11.0878
▁dumm	-11.0879
down	-11.0883
sicher	-11.0888
▁earn	-11.0893
▁tiefer	-11.0895
▁Florida	-11.0896
▁Foundation	-11.0896
▁Mexiko	-11.0896
▁combination	-11.0896
▁fängt	-11.0896
▁heavy	-11.0896
▁vessel	-11.0896
▁Everything	-11.0896
▁grundsätzlich	-11.0896
▁Japanese	-11.0896
▁automatisch	-11.0896
▁importance	-11.0897
▁Küche	-11.0897
▁trillion	-11.0897
▁Viertel	-11.0897
▁stock	-11.0897
▁heads	-11.0897
▁Umfeld	-11.0899
iness	-11.0902
▁setting	-11.0904
▁shoes	-11.0905
▁Garten	-11.0906
▁due	-11.0908
▁Ernährung	-11.0913
sländern	-11.0913
▁researchers	-11.0914
▁Erste	-11.0915
▁nieder	-11.0915
▁beliebt	-11.0915
▁Rio	-11.0917
gebiet	-11.0923
▁Sea	-11.0934
▁signals	-11.0936
▁Rücken	-11.0939
▁zählen	-11.0949
▁trug	-11.0953
lösen	-11.0957
▁vorne	-11.0964
versorgung	-11.0965
▁empty	-11.0965
▁transparent	-11.0965
▁evil	-11.0965
▁ignore	-11.0965
▁Wild	-11.0965
▁Chemie	-11.0966
nach	-11.0967
▁virtuelle	-11.0967
▁season	-11.097
▁journalist	-11.097
▁Nase	-11.0973
▁rocket	-11.0973
muster	-11.0975
▁zone	-11.0975
▁losing	-11.0981
▁Details	-11.0989
▁zunehmend	-11.099
▁pin	-11.0993
▁covered	-11.1002
▁Generationen	-11.1006
hai	-11.1011
▁determine	-11.1013
▁Anteil	-11.1021
möglich	-11.1022
▁fehlt	-11.1023
▁AB	-11.1031
würdig	-11.1034
krebs	-11.1034
▁drüben	-11.1035
▁definieren	-11.1035
▁Britain	-11.1035
▁transition	-11.1035
▁Wetter	-11.1036
▁toilet	-11.1037
▁Act	-11.1037
▁Viren	-11.1039
▁beschäftigen	-11.1045
lager	-11.1045
▁arrived	-11.1047
▁volume	-11.1047
▁Frei	-11.105
▁Nerven	-11.105
▁beschloss	-11.1051
▁poet	-11.1052
▁convinced	-11.1055
▁Armen	-11.1055
▁berühmte	-11.1057
▁Signal	-11.1059
▁Lager	-11.1064
▁experienced	-11.1065
sprozess	-11.1072
▁wondering	-11.1078
▁consequences	-11.1078
tail	-11.1081
▁destroy	-11.1088
▁nurse	-11.1093
werfen	-11.1097
▁wundervolle	-11.1103
körper	-11.1103
▁Global	-11.1104
▁Korruption	-11.1104
▁begrenzt	-11.1104
▁pocket	-11.1104
▁vaccine	-11.1104
schütte	-11.1105
▁bildet	-11.1105
▁Wohlstand	-11.1105
▁Seine	-11.1105
▁komisch	-11.1106
▁poetry	-11.1106
▁plate	-11.1108
▁Autor	-11.1109
▁soul	-11.111
▁Lachen	-11.1111
▁River	-11.1111
▁Molekül	-11.1113
▁internationale	-11.1115
▁Tele	-11.1115
▁designing	-11.1116
▁Vorfahren	-11.1117
▁broke	-11.1117
▁Talk	-11.1123
▁Gesichter	-11.1131
▁meinte	-11.1131
▁Staats	-11.1139
schaftlichen	-11.1147
▁considered	-11.115
▁künstliche	-11.1158
uellen	-11.116
▁lebten	-11.1163
▁erkennt	-11.1166
▁essential	-11.1167
▁mention	-11.1167
▁fähig	-11.117
▁Arbeiter	-11.1173
▁Privat	-11.1175
▁Alzheimer	-11.1175
▁Emotionen	-11.1175
▁President	-11.1175
▁Vietnam	-11.1175
▁analysis	-11.1175
▁maintain	-11.1175
▁prototype	-11.1175
▁radikal	-11.1175
▁incentive	-11.1175
▁Health	-11.1175
▁abstract	-11.1175
▁reagiert	-11.1175
▁microbes	-11.1175
▁Kirche	-11.1175
▁admit	-11.1176
▁darstellen	-11.1176
▁forced	-11.1181
▁button	-11.1184
▁Jahrzehnt	-11.1192
▁Witz	-11.1193
▁kurzen	-11.1201
▁steigt	-11.1206
kur	-11.1206
dienst	-11.121
▁shapes	-11.1212
▁consume	-11.1214
▁lokale	-11.1217
▁generations	-11.1222
feuer	-11.1222
▁Sprach	-11.1237
pfen	-11.1237
▁picked	-11.1238
▁flo	-11.124
▁author	-11.1243
▁Allgemein	-11.1246
▁ungewöhnlich	-11.1246
▁verbindet	-11.1246
▁erscheint	-11.1246
▁anwenden	-11.1246
▁bias	-11.1252
▁Gebiete	-11.1254
rennen	-11.1255
▁height	-11.1276
▁Their	-11.1277
▁Wein	-11.1282
▁musst	-11.1285
▁Ereignisse	-11.1287
▁traditionellen	-11.1291
▁Va	-11.1291
▁sites	-11.1292
▁Hat	-11.1299
zone	-11.13
▁grosse	-11.1305
▁dots	-11.1307
▁Ya	-11.1308
▁Spa	-11.1309
▁Pat	-11.1309
▁languages	-11.1313
sweise	-11.1313
▁kannte	-11.1315
▁rare	-11.1315
▁antwortete	-11.1315
prüf	-11.1316
▁explanation	-11.1317
▁pleasure	-11.1317
▁possibilities	-11.1317
▁battery	-11.1317
▁SMS	-11.1317
▁dauern	-11.1317
▁deswegen	-11.1317
▁tribe	-11.1317
▁Deutschland	-11.1318
▁Canada	-11.1318
▁iron	-11.132
▁Zufall	-11.132
▁pray	-11.132
▁cutting	-11.1322
▁Anruf	-11.1322
▁dramatisch	-11.1322
west	-11.1327
▁deeper	-11.1332
▁management	-11.1334
▁setzte	-11.1335
nisse	-11.1336
▁soviel	-11.1337
▁player	-11.1343
▁sprachen	-11.1346
▁Nachbarn	-11.1347
▁Architekten	-11.1347
▁Helden	-11.1348
▁steps	-11.1348
▁Weile	-11.1349
▁calling	-11.1366
kli	-11.1367
▁bestand	-11.1374
▁Juli	-11.1376
▁Tests	-11.1379
nderungen	-11.138
▁moderne	-11.1382
▁al	-11.1382
▁Euro	-11.1387
▁accurate	-11.1389
▁fasziniert	-11.1389
▁quasi	-11.1389
▁variety	-11.1389
▁encounter	-11.1389
▁verdient	-11.1389
▁aufzubauen	-11.1389
▁healthcare	-11.1389
▁prefer	-11.1389
▁Maßstab	-11.1389
▁convert	-11.1389
▁chemistry	-11.139
technik	-11.139
▁grain	-11.139
▁klug	-11.139
▁Spielzeug	-11.1391
▁flies	-11.1392
▁orange	-11.1393
▁Instrument	-11.1394
▁Day	-11.1397
▁arme	-11.1398
bruch	-11.1399
▁Pop	-11.1399
▁Spur	-11.1403
▁Aussage	-11.1404
▁Fälle	-11.1404
▁Schwierigkeiten	-11.1404
▁Union	-11.1413
▁Bereiche	-11.1413
riff	-11.1417
▁allgemein	-11.1419
fern	-11.1423
▁Arbeiten	-11.1424
uz	-11.1425
▁einiger	-11.1427
▁grüne	-11.1437
▁morgens	-11.144
▁continu	-11.144
▁expected	-11.1441
▁Bericht	-11.1444
Li	-11.1448
▁gelöst	-11.1451
▁mothers	-11.1453
▁rote	-11.1453
▁economics	-11.1453
▁Cr	-11.1454
theorie	-11.146
▁Darstellung	-11.1462
▁Training	-11.1462
▁Flagge	-11.1462
▁conclusion	-11.1462
bringt	-11.1462
▁Ausstellung	-11.1465
▁appropriate	-11.1475
▁aufgebaut	-11.1476
▁gang	-11.1483
▁Ruf	-11.1486
▁Kenia	-11.1489
▁Chi	-11.1494
▁moralische	-11.1494
▁Verhaltens	-11.151
▁hang	-11.1513
▁shoot	-11.1514
▁glo	-11.1524
dreht	-11.1532
zeichen	-11.1532
größe	-11.1534
▁tomorrow	-11.1535
▁underneath	-11.1535
▁vermitteln	-11.1535
▁surgeon	-11.1535
▁option	-11.1538
▁review	-11.1538
▁Angriff	-11.1538
▁crop	-11.1539
▁enorm	-11.1539
▁blu	-11.1541
q	-11.1545
▁Port	-11.1546
▁behaupte	-11.155
▁movies	-11.1552
lash	-11.1555
▁annehmen	-11.1555
▁signs	-11.1557
inder	-11.1557
▁Tour	-11.156
▁musician	-11.157
▁Neues	-11.1578
▁Mary	-11.1578
▁Boy	-11.1581
▁addition	-11.1582
▁Prozesse	-11.1583
▁connections	-11.1583
▁relate	-11.1587
▁Erwachsenen	-11.1592
▁letters	-11.1593
▁umgeben	-11.1594
▁ban	-11.1594
▁digitale	-11.1597
▁discuss	-11.1601
▁Fast	-11.1601
▁lock	-11.1602
▁absorb	-11.1608
▁participate	-11.1608
▁title	-11.1608
▁spider	-11.1608
▁Saturn	-11.1608
▁Riesen	-11.1608
aci	-11.1609
▁court	-11.1609
▁corruption	-11.1609
▁mittlere	-11.1609
▁Christian	-11.161
▁Partei	-11.161
▁Südafrika	-11.1613
▁2001	-11.1613
▁grid	-11.1615
▁Interessen	-11.162
▁Cal	-11.162
▁schlimm	-11.162
▁Camp	-11.1624
▁Aktion	-11.1633
▁advanced	-11.1633
▁heißen	-11.1634
▁habit	-11.1635
▁holes	-11.1639
▁König	-11.1644
▁gewissen	-11.1648
▁dinosaurs	-11.1649
▁ka	-11.1651
▁schm	-11.1655
▁33	-11.1656
maß	-11.1659
punkte	-11.1663
▁soft	-11.1672
▁increasing	-11.1673
Hi	-11.1679
▁mach	-11.168
▁chemicals	-11.1682
▁DNS	-11.1682
▁Zwischen	-11.1682
▁valuable	-11.1682
▁äußerst	-11.1682
Erkrankung	-11.1682
▁teeth	-11.1682
▁klassische	-11.1682
▁unendlich	-11.1682
▁Anyway	-11.1683
▁außen	-11.1683
▁Moral	-11.1685
▁Winter	-11.1687
urf	-11.1688
▁swim	-11.1689
▁experts	-11.1691
▁verhalten	-11.1692
▁gef	-11.1693
▁zieht	-11.1693
▁relatively	-11.1694
▁höre	-11.1695
▁ergibt	-11.1696
▁Hill	-11.1697
▁leaves	-11.1702
▁müssten	-11.1702
▁Erwachsene	-11.1702
▁Hai	-11.171
▁Mel	-11.1711
▁Shi	-11.1715
rock	-11.1717
▁trials	-11.172
▁Sogar	-11.1722
▁cook	-11.1727
▁waves	-11.1731
▁require	-11.1732
▁85	-11.1733
▁Besuch	-11.1734
▁introduce	-11.1735
▁convince	-11.1735
▁summ	-11.1737
klasse	-11.1738
▁bra	-11.1743
▁starten	-11.1743
▁celebrate	-11.1757
▁criminal	-11.1757
▁elegant	-11.1757
▁embrace	-11.1757
▁physicist	-11.1757
▁ruhig	-11.1757
▁sweet	-11.1757
▁Werbung	-11.1757
▁status	-11.1757
▁pal	-11.1757
▁körperlich	-11.1758
▁Auswahl	-11.1758
▁Anreiz	-11.1759
streben	-11.176
▁Betrieb	-11.1761
▁2003	-11.1762
▁roughly	-11.1762
▁rapidly	-11.1763
▁lä	-11.1764
▁carefully	-11.1764
▁Weltraum	-11.1771
leiten	-11.1772
cer	-11.1775
▁organized	-11.1776
▁seltsame	-11.1778
▁schätzen	-11.1779
▁statement	-11.1785
▁Hol	-11.1791
quot	-11.18
▁port	-11.1811
sprach	-11.1814
▁Fahr	-11.1821
▁opt	-11.1826
▁requires	-11.1827
▁tons	-11.1827
hnlich	-11.1829
▁Geheimnis	-11.1831
▁Klinik	-11.1832
▁Löcher	-11.1832
▁emerging	-11.1832
▁jährlich	-11.1832
▁gelebt	-11.1832
▁besorgt	-11.1832
▁facing	-11.1832
▁lawyer	-11.1832
▁Geschenk	-11.1832
▁Damals	-11.1832
▁Fahrrad	-11.1832
▁prime	-11.1832
▁Blase	-11.1833
▁loud	-11.1833
▁Pass	-11.1833
▁decline	-11.1834
ounce	-11.1834
▁Kabel	-11.1838
▁Grand	-11.1838
▁gebeten	-11.1841
▁Könnte	-11.1842
▁Magazin	-11.1843
▁Tim	-11.1844
zwei	-11.1844
▁natürlichen	-11.1846
▁pur	-11.1849
ellen	-11.1856
▁Strategie	-11.1859
▁KB	-11.1863
▁Bereichen	-11.1868
▁ersetzen	-11.1871
istisch	-11.1873
bücher	-11.1875
▁sharks	-11.1886
▁kreativ	-11.1897
schreiben	-11.19
▁react	-11.1904
▁assumption	-11.1908
▁length	-11.1908
▁producing	-11.1908
▁stattdessen	-11.1908
▁telescope	-11.1908
▁vermeiden	-11.1908
▁vulnerable	-11.1908
▁Batterie	-11.1908
▁Could	-11.1908
▁Ursache	-11.1908
▁beinahe	-11.1908
▁schlechten	-11.1908
▁sculpture	-11.1908
▁gebraucht	-11.1908
▁Transport	-11.1908
▁hydrogen	-11.1909
▁solcher	-11.1909
▁specifically	-11.191
▁Gates	-11.191
▁gay	-11.191
aries	-11.1911
▁protest	-11.1912
▁winter	-11.1915
▁kosten	-11.1915
▁peer	-11.1916
▁keeping	-11.1916
▁protection	-11.1919
▁fields	-11.1919
▁graphic	-11.1922
▁entstand	-11.1926
▁bike	-11.1927
▁spec	-11.1927
▁script	-11.1936
▁Za	-11.1937
▁sources	-11.1943
lop	-11.1948
finden	-11.1949
▁erkannt	-11.1958
swert	-11.1958
▁Blau	-11.1959
▁Kulturen	-11.1965
▁10-	-11.1965
wan	-11.1966
▁treten	-11.1967
wissenschaften	-11.1973
gruppen	-11.1974
▁Bay	-11.1976
▁wach	-11.1979
view	-11.1979
fügen	-11.1979
formen	-11.1982
zuhalten	-11.1984
▁Cambridge	-11.1984
▁Congress	-11.1984
▁Risiken	-11.1984
▁TEDTalk	-11.1984
▁chimpanzee	-11.1984
▁primary	-11.1984
▁privilege	-11.1984
▁refugee	-11.1984
▁Buchstaben	-11.1984
▁Entfernung	-11.1984
▁emissions	-11.1984
▁Großmutter	-11.1984
▁properties	-11.1984
▁Stuhl	-11.1984
spiegel	-11.1984
figur	-11.1984
▁password	-11.1984
▁GDP	-11.1985
hielt	-11.1988
nny	-11.1993
▁Seh	-11.1997
▁exception	-11.2003
▁effectively	-11.2003
▁studio	-11.2004
▁Aufnahme	-11.2006
▁Beach	-11.2006
▁Wichtig	-11.2013
▁gefangen	-11.2019
▁victims	-11.2022
schwer	-11.2023
▁Ozeane	-11.2025
will	-11.2036
▁leichter	-11.2036
▁Situationen	-11.2044
▁zusammenarbeite	-11.2045
▁hire	-11.2049
▁hinten	-11.2051
▁Hey	-11.2053
▁700	-11.2055
▁Ford	-11.206
foot	-11.2061
▁Potential	-11.2061
▁infinite	-11.2061
▁rescue	-11.2061
▁verfolgt	-11.2061
▁malaria	-11.2061
▁doubt	-11.2062
▁spannend	-11.2062
film	-11.2062
wissenschaftler	-11.2062
▁tank	-11.2063
▁France	-11.2063
gerufen	-11.2064
▁lady	-11.2064
▁Tonnen	-11.2065
▁Haushalt	-11.2066
▁menschlicher	-11.2069
▁Kurve	-11.2069
post	-11.207
▁flog	-11.2072
▁Kampagne	-11.2075
▁Hunderte	-11.2077
▁schwimmen	-11.208
▁Galaxie	-11.2081
motiv	-11.2081
▁Blumen	-11.2084
mbo	-11.2086
wissenschaft	-11.2088
▁Schwer	-11.2089
▁cri	-11.209
▁Berge	-11.211
▁orbit	-11.2112
▁fiber	-11.2113
minister	-11.2119
macht	-11.2125
▁factor	-11.2128
▁entgegen	-11.2131
▁CEO	-11.2139
▁Teenager	-11.2139
▁technological	-11.2139
▁Verbesserung	-11.2139
▁liberal	-11.2139
▁snow	-11.2139
▁feelings	-11.2139
▁Flasche	-11.2139
▁judge	-11.2139
▁messages	-11.214
▁firm	-11.2141
▁shall	-11.2142
▁Stoff	-11.2143
zimmer	-11.2144
▁Wesentlichen	-11.2152
▁Derek	-11.2152
▁teenager	-11.2154
▁versteht	-11.2155
▁Ausnahme	-11.2159
▁director	-11.2159
▁teilt	-11.2161
▁presentation	-11.2161
▁invent	-11.2161
▁besuchen	-11.2161
▁viruses	-11.2162
▁persönlichen	-11.2162
▁Hall	-11.2163
▁prediction	-11.2169
▁represents	-11.2179
▁par	-11.2184
▁Kri	-11.2189
pin	-11.2191
▁habitat	-11.2195
▁added	-11.2197
gelassen	-11.2202
▁Decke	-11.2207
folgen	-11.221
▁fewer	-11.2214
schütz	-11.2215
politik	-11.2217
▁calculate	-11.2217
▁fiction	-11.2217
▁illusion	-11.2217
▁Kredit	-11.2217
▁Zauber	-11.2217
▁Brown	-11.2217
▁darstellt	-11.2217
▁steel	-11.2217
▁kitchen	-11.2218
▁Teilnehmer	-11.2218
▁anschaut	-11.2218
▁Pfund	-11.2219
▁gründete	-11.2219
▁Neben	-11.222
▁Part	-11.2223
▁exam	-11.2223
▁Four	-11.2223
fusion	-11.2227
▁seitdem	-11.2231
ßt	-11.2235
▁Wow	-11.2236
▁Leider	-11.2237
▁limb	-11.2237
▁demonstrate	-11.2239
eller	-11.224
jahr	-11.2241
▁thin	-11.2246
gla	-11.2248
▁verstehe	-11.225
▁carrying	-11.2251
ui	-11.2252
▁Chef	-11.2255
▁schwach	-11.2255
▁historical	-11.226
▁adopt	-11.2279
▁nachhaltige	-11.2281
▁previous	-11.2287
▁radical	-11.2287
▁legt	-11.229
hängen	-11.229
effekt	-11.2295
▁client	-11.2295
▁molecular	-11.2295
▁mortality	-11.2295
▁perceive	-11.2295
▁Bedrohung	-11.2295
▁Persönlichkeit	-11.2295
▁drauf	-11.2295
▁reduziert	-11.2295
▁prize	-11.2296
▁marine	-11.2296
▁schlafen	-11.2296
lässt	-11.2297
▁split	-11.2297
gefühl	-11.2297
▁characters	-11.2298
▁panel	-11.2298
▁sight	-11.2301
▁nest	-11.2301
▁Women	-11.2302
Psycho	-11.2309
gesellschaftlich	-11.2316
▁Erinnerungen	-11.2318
▁Fehl	-11.232
▁generally	-11.2323
▁appreciate	-11.2329
▁Kor	-11.2333
▁veränderte	-11.2343
assembl	-11.2345
▁Come	-11.2349
wor	-11.235
position	-11.2351
▁nano	-11.2355
▁politicians	-11.2355
▁Willen	-11.2356
▁stehe	-11.2358
liste	-11.2359
▁Element	-11.2361
▁hierher	-11.2365
▁Herren	-11.2365
▁German	-11.2367
▁sending	-11.2367
▁Gutes	-11.2368
▁Schulter	-11.2369
▁Echtzeit	-11.2375
▁Präsentation	-11.2375
▁Respekt	-11.2375
▁Belohnung	-11.2375
▁Debatte	-11.2375
▁academic	-11.2375
▁Dutzend	-11.2375
▁robust	-11.2375
▁steuern	-11.2376
▁LED	-11.2376
▁implant	-11.2376
▁loop	-11.2377
vy	-11.2378
▁democratic	-11.2378
▁feststellen	-11.2378
Look	-11.2379
▁Weiter	-11.2379
▁quarter	-11.238
zier	-11.238
stock	-11.238
▁hotel	-11.2382
▁beach	-11.2382
▁cards	-11.2386
▁prepared	-11.2386
▁Wieso	-11.2388
▁Wall	-11.2389
▁Lego	-11.2393
▁langer	-11.2395
▁sexuelle	-11.2395
▁liebte	-11.2399
▁rates	-11.24
▁however	-11.24
▁beschrieben	-11.2401
▁Süden	-11.2402
▁seid	-11.2403
geführt	-11.2404
▁White	-11.2404
▁nations	-11.2405
▁released	-11.2406
▁bauten	-11.2407
half	-11.2408
▁Heim	-11.2408
▁engaged	-11.2412
▁sparen	-11.2418
▁schwarz	-11.2422
▁schwieriger	-11.2425
▁beweisen	-11.2426
▁Gegend	-11.2426
ffer	-11.2432
▁Tiefe	-11.2437
▁Richtig	-11.2437
▁singen	-11.2438
bte	-11.2441
▁schreckliche	-11.245
▁grad	-11.2452
▁details	-11.2452
▁Taliban	-11.2455
▁inspiration	-11.2455
▁lecture	-11.2455
▁lediglich	-11.2455
▁Blue	-11.2455
▁NGO	-11.2455
▁bietet	-11.2455
▁gegründet	-11.2455
▁transplant	-11.2455
▁Streit	-11.2455
▁definiert	-11.2455
▁gespielt	-11.2455
▁englische	-11.2455
▁Sechs	-11.2455
▁darunter	-11.2455
▁Stammzellen	-11.2455
▁staff	-11.2456
▁enthält	-11.2457
front	-11.2457
▁gefällt	-11.2458
▁Since	-11.2459
▁Brit	-11.2459
▁Musiker	-11.2461
▁vorzustellen	-11.2462
▁Yet	-11.2462
▁fake	-11.2462
▁Koran	-11.2462
▁handle	-11.2464
weil	-11.2464
▁depends	-11.2467
▁label	-11.2469
▁atoms	-11.247
▁dish	-11.247
▁Kriegs	-11.247
serving	-11.247
▁mile	-11.2476
▁Würde	-11.2477
▁shark	-11.2478
▁introduced	-11.2478
▁Sir	-11.2483
▁schwierige	-11.2484
▁Eier	-11.2485
▁epi	-11.2486
Tech	-11.2491
▁king	-11.2492
▁Lab	-11.2496
▁Flo	-11.2498
▁selling	-11.2505
▁SS	-11.2506
▁linear	-11.2507
fahrer	-11.2514
Wer	-11.2515
▁Norm	-11.2515
▁voices	-11.2517
▁Bildungs	-11.2518
▁herein	-11.2524
▁sheet	-11.2531
▁aufnehmen	-11.2532
rack	-11.2533
▁comfort	-11.2534
▁danger	-11.2535
freund	-11.2535
▁Chemikalien	-11.2535
▁Teufel	-11.2535
▁liquid	-11.2535
▁entfernen	-11.2535
▁scheinbar	-11.2535
▁Therapie	-11.2536
▁psychological	-11.2536
▁Kommentar	-11.2536
▁icon	-11.2537
▁Mehrheit	-11.2537
▁collaboration	-11.2537
▁reference	-11.2538
▁Long	-11.2538
▁Metall	-11.254
▁liefern	-11.2541
▁Nutzung	-11.2541
▁Darum	-11.2541
▁nerve	-11.2541
tiker	-11.2542
▁components	-11.2543
▁Magie	-11.2543
▁Ehre	-11.2545
Wow	-11.2546
▁terrorism	-11.2548
▁diver	-11.2549
▁Weltkrieg	-11.2549
▁wieviel	-11.2551
▁bemerkte	-11.2557
▁Gore	-11.256
▁situations	-11.256
▁Fliegen	-11.2561
▁suchte	-11.2564
▁Protein	-11.2565
De	-11.2567
suchen	-11.2568
fully	-11.2571
▁arch	-11.2574
dischen	-11.2579
▁interessanter	-11.2584
▁blauen	-11.2586
▁Koch	-11.2593
▁mono	-11.2593
room	-11.2595
gon	-11.2596
▁Damen	-11.2598
▁zentrale	-11.2601
▁cameras	-11.261
▁Führer	-11.2617
▁Pacific	-11.2617
▁beteiligt	-11.2617
▁August	-11.2617
▁langweilig	-11.2617
▁tötet	-11.2617
▁transfer	-11.2617
▁employees	-11.2617
▁Literatur	-11.2617
▁radiation	-11.2617
▁guide	-11.2618
▁boom	-11.2618
▁internal	-11.262
▁Danach	-11.2622
▁geb	-11.2623
▁Unfall	-11.2624
▁breite	-11.2626
▁urge	-11.2628
▁buying	-11.2632
▁techniques	-11.2637
▁Heimat	-11.2638
▁abuse	-11.264
don	-11.2645
▁internationalen	-11.2646
To	-11.2647
ola	-11.2647
▁Geistes	-11.2651
▁Kenn	-11.2652
▁übernehmen	-11.2654
gemacht	-11.2657
▁formen	-11.2659
▁Hallo	-11.2664
▁seek	-11.2665
▁Arch	-11.2678
▁whi	-11.2685
▁Versuche	-11.2692
▁Stern	-11.2696
fluss	-11.2697
▁Blatt	-11.2699
▁Stattdessen	-11.2699
▁beeindruckend	-11.2699
▁definitely	-11.2699
▁gravity	-11.2699
▁proportion	-11.2699
▁silence	-11.2699
▁implement	-11.2699
▁variation	-11.2699
stimmung	-11.2699
▁kreieren	-11.2699
▁überwinden	-11.2699
▁sphere	-11.2699
▁klinische	-11.2699
ordnung	-11.2699
▁Blind	-11.2699
▁kriegen	-11.27
▁east	-11.2701
▁medium	-11.2701
▁derzeit	-11.2701
▁passionate	-11.2701
▁plot	-11.2702
▁biologist	-11.2705
▁Ly	-11.2706
▁Gleich	-11.2707
▁lachen	-11.2707
▁standen	-11.271
fische	-11.2713
▁MT	-11.272
play	-11.2722
▁organs	-11.2723
▁meaningful	-11.2724
▁Wohnung	-11.2727
hü	-11.2731
▁bezeichnet	-11.2733
▁lokalen	-11.2736
▁Ski	-11.2739
▁dick	-11.2744
nna	-11.2746
liebt	-11.2748
▁Solar	-11.2749
▁diverse	-11.275
▁Fernseh	-11.2751
▁Signale	-11.2753
▁Nie	-11.2755
uk	-11.2757
▁redet	-11.2757
▁digitalen	-11.2772
kunft	-11.278
▁Deswegen	-11.2781
▁harvest	-11.2781
▁pollution	-11.2781
▁Überraschung	-11.2781
▁Extrem	-11.2781
▁spectrum	-11.2781
▁silk	-11.2781
▁Brennstoff	-11.2782
▁route	-11.2782
▁froh	-11.2782
▁Kol	-11.2783
▁Minister	-11.2783
▁Stock	-11.2784
▁evolutionary	-11.2784
▁junger	-11.2787
gewinn	-11.279
öpfe	-11.2791
▁mathematische	-11.2791
wind	-11.2791
▁Gehen	-11.2793
▁alien	-11.2794
bound	-11.2803
▁800	-11.2804
▁scared	-11.2805
▁Unterricht	-11.2805
▁schickte	-11.2808
▁melt	-11.2809
▁wine	-11.281
▁CD	-11.2815
read	-11.2815
ürzt	-11.2819
▁affected	-11.2826
kleid	-11.2826
anischen	-11.2838
gründe	-11.2842
▁interests	-11.2842
▁conduct	-11.2849
▁Große	-11.2857
▁Interessante	-11.2859
▁factors	-11.2861
kunde	-11.2864
▁öffentlich	-11.2864
bezüglich	-11.2865
▁Bibliothek	-11.2865
▁Gedächtnis	-11.2865
▁akzeptieren	-11.2865
▁observation	-11.2865
▁phrase	-11.2865
▁false	-11.2865
▁Spezial	-11.2865
straße	-11.2865
▁Mäuse	-11.2865
▁polar	-11.2865
▁heisst	-11.2865
▁severe	-11.2865
▁Pilz	-11.2865
▁Media	-11.2866
▁toxic	-11.2868
▁dahinter	-11.287
läufe	-11.2872
design	-11.2875
▁typically	-11.2877
verhalten	-11.2879
▁Fortschritte	-11.2884
fried	-11.2884
▁Mode	-11.2886
unternehmen	-11.2886
▁Russia	-11.2891
▁feature	-11.2898
▁sum	-11.2898
▁Vorteile	-11.2898
▁Szene	-11.2899
▁angle	-11.2901
prozess	-11.2903
karten	-11.291
▁glaubte	-11.291
▁Ger	-11.2912
▁Statistiken	-11.2914
▁reached	-11.292
▁mögliche	-11.2922
ografie	-11.2925
▁recorded	-11.2926
▁magnet	-11.2927
▁conc	-11.2939
▁Ray	-11.2942
▁sustain	-11.2947
oberfläche	-11.2949
▁Gerechtigkeit	-11.2949
▁Plattform	-11.2949
▁Schicksal	-11.2949
▁Wälder	-11.2949
▁afternoon	-11.2949
▁complain	-11.2949
▁cortex	-11.2949
▁demokratische	-11.2949
▁dünn	-11.2949
▁ingredient	-11.2949
▁license	-11.2949
▁sammelt	-11.2949
▁unusual	-11.2949
▁Übung	-11.2949
▁Scott	-11.2949
▁drill	-11.2949
▁erweitern	-11.2949
▁hieß	-11.2949
▁Central	-11.2949
▁drone	-11.2949
▁Zähne	-11.2949
▁Schlacht	-11.2949
▁industrielle	-11.2949
▁telephone	-11.2949
▁wiederholt	-11.2949
assen	-11.2949
leitung	-11.2952
▁Latin	-11.2952
▁5,000	-11.2953
fertig	-11.2953
▁worldwide	-11.2953
▁strip	-11.2954
▁former	-11.2954
▁reverse	-11.2955
▁Chip	-11.2964
▁cup	-11.2964
Pro	-11.2973
▁kulturelle	-11.2977
▁shoulder	-11.2977
leitet	-11.2988
▁investiert	-11.299
▁pulled	-11.2994
▁clock	-11.2995
▁allgemeine	-11.2998
▁kreative	-11.2999
statt	-11.2999
▁36	-11.3003
▁55	-11.3005
▁regions	-11.3006
▁Resultat	-11.3014
life	-11.3014
▁repeat	-11.3018
▁Gleichung	-11.3023
▁Schritte	-11.3027
▁effizient	-11.303
▁Alexander	-11.3033
▁Gegenwart	-11.3033
▁Gemälde	-11.3033
▁Perhaps	-11.3033
▁Rezept	-11.3033
▁Spektrum	-11.3033
▁kollektive	-11.3033
▁literature	-11.3033
▁privacy	-11.3033
▁sophisticated	-11.3033
▁wüsste	-11.3033
▁erhöhen	-11.3034
▁durfte	-11.3034
▁bemerken	-11.3034
▁mechanical	-11.3034
▁Klassenzimmer	-11.3034
▁britische	-11.3034
▁Jesus	-11.3034
▁psychology	-11.3034
▁Terrorismus	-11.3034
▁fruit	-11.3034
▁ought	-11.3034
▁fehl	-11.3034
ebene	-11.3035
▁dropped	-11.3035
ched	-11.3037
▁armen	-11.3038
▁shut	-11.3039
▁Patent	-11.3039
grab	-11.3043
möglichkeiten	-11.3044
▁Aktivitäten	-11.3046
▁apartment	-11.3046
▁intelligente	-11.3049
▁vierte	-11.3051
▁Hä	-11.3051
▁required	-11.3058
▁fishing	-11.3064
▁ni	-11.3065
▁Back	-11.3069
hang	-11.3078
▁momentan	-11.3078
▁singing	-11.3079
▁wirkt	-11.308
▁Jahrzehnten	-11.3082
▁Tee	-11.3082
istischen	-11.3083
▁grau	-11.3083
▁phase	-11.3085
making	-11.3086
▁Hacker	-11.3086
▁traveling	-11.309
▁rum	-11.3103
▁Mama	-11.3107
▁lessons	-11.3109
▁constant	-11.311
▁agent	-11.3111
▁baute	-11.3112
▁Any	-11.3114
▁angenommen	-11.3116
▁Kleidung	-11.3119
▁Studio	-11.3119
▁irgendjemand	-11.3119
▁jünger	-11.3119
▁paradigm	-11.3119
▁Kanada	-11.3119
▁gewann	-11.3119
▁Störung	-11.3119
▁Momente	-11.3119
▁Russland	-11.3119
▁Grippe	-11.312
▁applied	-11.312
▁hoping	-11.312
▁Anführer	-11.312
szeit	-11.3121
▁verletzt	-11.3124
ville	-11.3124
▁cord	-11.3125
▁3,000	-11.3126
▁verließ	-11.3126
▁schwere	-11.3128
▁breathe	-11.3128
see	-11.313
▁neighbors	-11.3131
▁Bord	-11.3131
▁pour	-11.3133
▁goals	-11.3138
▁driven	-11.3142
▁technische	-11.3147
pping	-11.3149
ziehung	-11.3154
▁kaufte	-11.3154
▁individuelle	-11.3157
fund	-11.3167
▁suffer	-11.3168
▁naturally	-11.3171
▁personally	-11.3172
gehend	-11.3174
fish	-11.3176
lution	-11.3176
reiche	-11.3178
▁dieselben	-11.3179
▁divide	-11.3183
fragen	-11.3183
▁weiterer	-11.3185
▁Programme	-11.3188
▁Schnitt	-11.3192
▁ultimate	-11.3196
geleitet	-11.3198
▁analyze	-11.3205
▁courage	-11.3205
▁destruction	-11.3205
▁unbekannt	-11.3205
▁suck	-11.3205
▁Geburtstag	-11.3205
▁shame	-11.3205
▁besitzt	-11.3205
▁intention	-11.3206
▁Billionen	-11.3206
▁confront	-11.3206
shirt	-11.3207
▁2011	-11.3209
▁manchen	-11.321
▁bare	-11.3214
bewusst	-11.3214
▁Tell	-11.3219
▁Out	-11.3221
▁großartigen	-11.3222
▁harte	-11.3223
▁combined	-11.3226
▁Fried	-11.3227
tze	-11.3228
▁section	-11.3228
▁pilot	-11.3229
▁percentage	-11.3232
reife	-11.3232
masse	-11.3233
▁Anders	-11.3235
▁institution	-11.3236
▁Innovationen	-11.3239
▁funktionierte	-11.3239
▁fundamentally	-11.3242
▁Eric	-11.3243
▁eggs	-11.3245
▁jener	-11.3263
▁berühmt	-11.3264
▁bemerkenswert	-11.3266
egel	-11.3266
suche	-11.3268
▁Gute	-11.3268
▁ancestors	-11.327
länge	-11.3272
▁Op	-11.3273
hau	-11.3275
▁offene	-11.3281
▁interpret	-11.3284
spruch	-11.329
mobil	-11.329
▁Terror	-11.3291
▁vertrauen	-11.3292
ppel	-11.3292
▁activities	-11.3292
▁church	-11.3292
▁efficiency	-11.3292
▁eröffnet	-11.3292
▁iPod	-11.3292
▁intervention	-11.3292
▁predator	-11.3292
▁Überzeugung	-11.3292
▁attitude	-11.3292
▁sinnvoll	-11.3292
▁Teleskop	-11.3292
▁Business	-11.3292
▁behave	-11.3292
▁Zunächst	-11.3292
▁birthday	-11.3292
schieben	-11.3293
schließt	-11.3293
▁Marketing	-11.3293
▁Stahl	-11.3293
▁Option	-11.3293
▁Albert	-11.3294
▁primitive	-11.3294
▁Nachbarschaft	-11.3295
▁Sterbe	-11.3295
▁Space	-11.3295
▁awareness	-11.3295
▁Mike	-11.3295
▁Wagen	-11.3295
▁humor	-11.3295
▁infection	-11.3296
▁Schlange	-11.3297
▁remove	-11.3297
▁geschlossen	-11.3299
▁ausgebildet	-11.33
▁pile	-11.3301
Dollar	-11.3302
▁ansieht	-11.3302
▁Kopie	-11.3304
▁rau	-11.3304
▁mountains	-11.3304
▁Howard	-11.3306
fache	-11.3309
state	-11.3309
▁Law	-11.3313
▁bezeichnen	-11.3313
▁blocks	-11.3313
▁Schlag	-11.3315
▁bekomme	-11.3322
gli	-11.3333
▁input	-11.3336
▁algorithm	-11.3336
gekommen	-11.3336
▁Mengen	-11.3338
▁cast	-11.3342
▁Arme	-11.3344
▁features	-11.3345
▁Früh	-11.3347
gebiete	-11.3348
▁fährt	-11.3349
▁überlegen	-11.3349
▁weiße	-11.3354
▁emotionale	-11.3357
lick	-11.3357
▁gefallen	-11.3359
▁Geräusche	-11.3363
▁Gottes	-11.3364
▁genetisch	-11.3364
▁increased	-11.3369
▁anger	-11.3373
▁sports	-11.3376
▁stronger	-11.3377
▁department	-11.338
▁furchtbar	-11.338
▁instruction	-11.338
▁manufacturing	-11.338
▁memories	-11.338
▁shadow	-11.338
▁getrennt	-11.338
▁löst	-11.338
▁framework	-11.338
▁spiritual	-11.3381
▁dargestellt	-11.3381
▁occurred	-11.3381
▁sunlight	-11.3381
▁underwater	-11.3382
▁House	-11.3382
▁transportation	-11.3384
▁29	-11.3386
▁productive	-11.3387
▁musical	-11.339
▁Elefanten	-11.3401
studie	-11.3401
▁zeit	-11.3405
▁physically	-11.3418
tete	-11.342
isierten	-11.3428
▁vehicles	-11.343
zustellen	-11.3435
ruhe	-11.3445
▁behaupten	-11.3449
▁Live	-11.3451
▁Armee	-11.3453
▁Best	-11.3453
probleme	-11.3458
gänge	-11.3463
▁solved	-11.3464
▁zeichnen	-11.3467
▁Zeichnung	-11.3468
▁beispielsweise	-11.3468
▁bicycle	-11.3468
▁dominant	-11.3468
▁empathy	-11.3468
▁physician	-11.3468
▁Kapitel	-11.3468
▁pitch	-11.3469
▁aufgewachsen	-11.3469
ware	-11.3469
▁Magnet	-11.3469
▁Dafür	-11.347
▁hinunter	-11.3471
▁wechseln	-11.3471
▁knee	-11.3472
▁leiten	-11.3473
einheit	-11.3473
▁bug	-11.3476
▁Kap	-11.3477
System	-11.3479
▁acting	-11.348
▁winzig	-11.3484
▁dauerte	-11.3484
▁nose	-11.3485
▁dicht	-11.3485
▁Immer	-11.3486
▁durchführen	-11.3487
hood	-11.3489
krankheit	-11.3489
▁Mangel	-11.349
cade	-11.3492
▁cooking	-11.3492
▁Five	-11.3495
weiß	-11.3496
▁Cu	-11.3497
All	-11.3502
Cola	-11.3512
▁algorithms	-11.3513
▁geteilt	-11.3518
▁neuron	-11.3519
▁Pl	-11.3521
▁Philip	-11.3521
pä	-11.3522
long	-11.3523
▁translate	-11.3536
▁suppose	-11.3536
▁startete	-11.3536
▁Rasse	-11.3541
▁formed	-11.3542
▁Mitglieder	-11.3548
▁concentrat	-11.355
▁heiß	-11.355
▁select	-11.3554
▁advice	-11.3558
▁computing	-11.3558
▁somewhat	-11.3558
▁erforscht	-11.3558
▁kümmert	-11.3558
▁piano	-11.3558
▁vorbereitet	-11.3558
▁Fokus	-11.3558
▁smoke	-11.3558
▁witness	-11.3558
▁berichtet	-11.3558
▁erschien	-11.3558
▁zufrieden	-11.3558
▁drücken	-11.3558
▁Schnee	-11.3558
▁conservation	-11.3558
▁reisen	-11.3559
letzt	-11.356
▁Knie	-11.3561
▁wofür	-11.3562
▁sowas	-11.3562
▁settle	-11.3562
▁senden	-11.3563
▁forests	-11.3566
▁functional	-11.3567
▁Party	-11.3568
▁mochte	-11.357
▁Moore	-11.3572
▁equally	-11.3574
▁Mio	-11.3575
▁weigh	-11.3577
▁processing	-11.3579
▁1000	-11.358
stitution	-11.3581
lange	-11.3585
▁Innen	-11.3586
▁zählt	-11.3587
cha	-11.3588
▁burning	-11.3595
▁Schwarze	-11.3604
▁x	-11.3612
10	-11.3612
▁Proteine	-11.3615
▁largely	-11.3622
spieler	-11.3623
▁combine	-11.3626
▁organize	-11.3627
▁falling	-11.3629
verkehr	-11.3633
lai	-11.3633
▁Up	-11.3638
▁zeigten	-11.3645
▁dramatic	-11.3647
▁computation	-11.3648
▁Verwendung	-11.3648
▁presence	-11.3648
▁regelmäßig	-11.3648
▁revenue	-11.3648
▁ritual	-11.3648
▁verschwunden	-11.3648
▁Saudi	-11.3648
▁accomplish	-11.3648
▁concrete	-11.3648
▁swimming	-11.3648
geschäft	-11.3648
▁Ursprung	-11.3648
▁compete	-11.3648
▁Kolonie	-11.3648
▁animation	-11.3648
▁Nobody	-11.3648
▁merken	-11.3649
▁Studierende	-11.3649
▁hunger	-11.3649
▁steal	-11.3649
▁Wände	-11.365
▁2012	-11.365
▁Prinzipien	-11.3651
▁teilweise	-11.3651
▁Verbrechen	-11.3652
▁golden	-11.3652
▁Tauch	-11.3655
▁grundlegend	-11.3657
fällt	-11.3657
▁unglaublichen	-11.3658
▁langsamer	-11.3658
Spiel	-11.366
gelöst	-11.3661
kurs	-11.3663
▁Newton	-11.3664
code	-11.3666
▁club	-11.3669
▁PC	-11.3671
▁komplizierte	-11.3671
▁blau	-11.3672
▁beibringen	-11.3673
▁compar	-11.3674
▁erwachsen	-11.3674
▁mistakes	-11.3675
▁collected	-11.3679
▁intuitive	-11.3679
▁Ereignis	-11.3686
uri	-11.3686
▁kit	-11.3687
▁storm	-11.3687
▁Get	-11.369
▁Viel	-11.3691
▁Wohl	-11.3695
▁Char	-11.3695
▁berichten	-11.3698
Institut	-11.37
▁creature	-11.3702
▁Ohren	-11.3706
For	-11.3708
▁falschen	-11.371
▁Chancen	-11.3713
fressen	-11.3715
ural	-11.3717
▁upper	-11.3719
▁Ingenieure	-11.372
gehalten	-11.3722
▁fingen	-11.3726
maker	-11.3727
▁üblich	-11.3738
▁Matt	-11.3738
▁Flügel	-11.3739
▁Inspiration	-11.3739
▁Number	-11.3739
▁While	-11.3739
▁flexible	-11.3739
▁sensitive	-11.3739
▁balloon	-11.3739
▁visible	-11.3739
▁finance	-11.3739
▁Something	-11.3739
▁repair	-11.3739
▁erneut	-11.374
▁Zahn	-11.3741
▁deserve	-11.3741
▁cents	-11.3744
▁Angestellte	-11.3744
▁escape	-11.3746
▁June	-11.3747
▁besuchte	-11.3748
▁gesunde	-11.3749
aufnahme	-11.3751
osi	-11.3752
▁Sternen	-11.3752
▁Ohne	-11.3756
▁Jahrzehnte	-11.3757
▁Miss	-11.3757
▁Men	-11.3764
span	-11.3766
▁potentially	-11.3768
▁pink	-11.3768
▁zweimal	-11.377
▁chose	-11.3772
▁gewaltige	-11.3774
ürf	-11.3777
▁ok	-11.3782
▁afrikanischen	-11.3785
▁meme	-11.3786
▁style	-11.379
▁hum	-11.379
▁Erlebnis	-11.379
▁Haar	-11.3795
zusehen	-11.3796
▁hey	-11.3796
▁verstand	-11.3796
▁Aspekte	-11.38
▁Vorstellungen	-11.3802
▁protected	-11.3807
rechnen	-11.3808
▁baut	-11.3811
geschwindigkeit	-11.383
▁Männchen	-11.383
▁Nächste	-11.383
▁Skulptur	-11.383
▁Unfortunately	-11.383
▁spezifische	-11.383
▁Kongress	-11.383
▁contrast	-11.383
▁schlug	-11.383
▁überlebt	-11.3831
▁gelangt	-11.3831
wähl	-11.3831
▁böse	-11.3831
▁transmit	-11.3832
▁Kugel	-11.3832
▁Talent	-11.3833
▁download	-11.3833
▁2050	-11.3837
▁ear	-11.3837
▁Rauch	-11.3838
losigkeit	-11.3839
▁aging	-11.3839
bank	-11.384
▁astro	-11.3846
▁starben	-11.3846
▁improvement	-11.385
▁trinken	-11.3851
▁besucht	-11.3856
spitze	-11.3858
▁defined	-11.3861
kette	-11.3865
▁Reform	-11.3865
grenzen	-11.3878
law	-11.3881
▁umher	-11.3884
▁mad	-11.3887
ueen	-11.3893
insel	-11.3894
▁traditionelle	-11.3895
▁manager	-11.3901
ologe	-11.3902
▁springen	-11.3904
▁Acht	-11.3906
schaften	-11.391
▁recording	-11.3912
basierte	-11.3912
uo	-11.3918
▁edit	-11.392
▁Beobachtung	-11.3923
▁FBI	-11.3923
▁Nachhaltigkeit	-11.3923
▁Schließlich	-11.3923
▁Skelett	-11.3923
▁Symmetrie	-11.3923
▁chapter	-11.3923
▁exploration	-11.3923
▁geholfen	-11.3923
▁genügend	-11.3923
▁Zweifel	-11.3923
▁milk	-11.3923
▁Analyse	-11.3923
▁gekauft	-11.3923
▁Animation	-11.3923
▁organisieren	-11.3924
▁thick	-11.3925
▁trafen	-11.3925
▁Anstatt	-11.3925
▁tonight	-11.3925
▁Congo	-11.3926
▁Chaos	-11.3927
▁Alltag	-11.3928
▁lebe	-11.3928
tract	-11.393
My	-11.3932
▁hinauf	-11.3932
▁Bevor	-11.3933
sfähigkeit	-11.3933
▁Abfall	-11.3934
▁confidence	-11.3936
käme	-11.3936
▁wunderschön	-11.3937
▁cheat	-11.3937
stream	-11.3938
▁Gemeinschaften	-11.3939
▁grün	-11.3939
▁42	-11.3939
▁overall	-11.3941
▁positiv	-11.3945
▁willst	-11.395
▁ausgesetzt	-11.3952
▁Play	-11.3954
▁solange	-11.3956
automat	-11.3959
▁basierend	-11.3961
▁endet	-11.3962
▁ältere	-11.3966
▁Only	-11.3968
leiter	-11.3976
▁zusätzliche	-11.398
▁Stimm	-11.398
▁tracking	-11.3984
▁Detail	-11.3986
▁poster	-11.3988
▁Time	-11.399
▁bekannten	-11.3995
▁proteins	-11.3999
▁extend	-11.4
trick	-11.4005
▁recover	-11.4007
treffen	-11.4009
Ab	-11.4009
▁Instrumente	-11.401
train	-11.4013
▁Zehn	-11.4016
▁Christmas	-11.4016
▁circumstances	-11.4016
▁deploy	-11.4016
▁elektronische	-11.4016
▁providing	-11.4016
▁violent	-11.4016
▁wütend	-11.4016
▁Budget	-11.4016
▁betroffen	-11.4016
▁Rettung	-11.4016
▁motivation	-11.4016
▁Status	-11.4016
▁dunkel	-11.4016
▁brutal	-11.4016
▁infiziert	-11.4016
▁entsprechend	-11.4017
▁sustainability	-11.4017
▁Schweden	-11.4017
▁intense	-11.4017
▁Presse	-11.4017
▁hook	-11.4018
▁acid	-11.4019
▁Strand	-11.402
▁exhibition	-11.402
▁clothes	-11.4021
▁führten	-11.4022
▁infected	-11.4022
▁schwarzen	-11.4023
▁Verstehen	-11.4024
▁surrounded	-11.4025
▁Zur	-11.4027
▁Sichtweise	-11.4028
▁Asien	-11.4032
Wissen	-11.4034
▁Sequenz	-11.4038
▁Physiker	-11.4041
▁deck	-11.4049
▁gemeinsamen	-11.405
▁marketing	-11.4054
▁Fern	-11.4055
▁hielten	-11.4058
▁typisch	-11.406
▁Taschen	-11.4063
▁existing	-11.4081
▁flower	-11.4083
▁Werbe	-11.4084
▁komplexen	-11.4088
▁stayed	-11.4092
▁Samen	-11.4093
▁explained	-11.4098
▁irgendein	-11.4102
▁Konflikte	-11.4103
▁aktuelle	-11.4107
▁manufacture	-11.4111
▁Gandhi	-11.4111
▁Shanghai	-11.4111
▁reject	-11.4111
▁städtische	-11.4111
▁Black	-11.4111
▁Wolken	-11.4111
▁ruin	-11.4111
▁Vorhersage	-11.4111
▁flew	-11.4111
▁freue	-11.4111
▁Ruhe	-11.4111
▁Schaden	-11.4111
▁betreiben	-11.4111
▁Lücke	-11.4111
▁wisst	-11.4111
▁treiben	-11.4111
▁Sonnenlicht	-11.4111
▁nowhere	-11.4111
▁knapp	-11.4112
▁commitment	-11.4113
▁authority	-11.4113
gefasst	-11.4114
▁stoppen	-11.4115
▁Mauer	-11.4116
▁enthalten	-11.4116
▁Bel	-11.4117
▁Schuhe	-11.4117
▁Gel	-11.4117
▁quad	-11.4118
gestalt	-11.4119
▁lens	-11.4122
▁Aufbau	-11.4124
Yeah	-11.4128
▁nachhaltig	-11.413
▁fließen	-11.4137
▁günstig	-11.414
▁Bell	-11.4143
▁anstelle	-11.4146
▁Julia	-11.4146
▁Fett	-11.4148
▁hip	-11.4149
gut	-11.4151
chu	-11.4155
▁gebrochen	-11.4157
▁grünen	-11.4159
▁desk	-11.416
▁Regionen	-11.4163
stimmen	-11.4166
▁closely	-11.4175
▁coin	-11.4179
wick	-11.4179
gesellschaft	-11.4183
▁Dick	-11.4186
Mein	-11.4187
▁nannten	-11.4201
gypten	-11.4202
▁Gesch	-11.4202
▁Einfach	-11.4204
▁hängen	-11.4205
▁Nick	-11.4206
▁Blätter	-11.4206
▁Potenzial	-11.4206
▁Verletzung	-11.4206
▁cluster	-11.4206
▁dynamisch	-11.4206
▁horrible	-11.4206
▁nachgedacht	-11.4206
▁trigger	-11.4206
▁unknown	-11.4206
▁stretch	-11.4206
▁Mandela	-11.4206
▁Meister	-11.4206
▁verglichen	-11.4206
▁Frankreich	-11.4207
▁wireless	-11.4208
▁Verkauf	-11.4208
▁exakt	-11.4208
▁sensors	-11.4209
▁lifestyle	-11.4209
▁Johnson	-11.421
▁flach	-11.4211
▁measured	-11.4212
▁unterrichten	-11.4212
▁innere	-11.4213
▁hörten	-11.4218
▁Schwimm	-11.4224
computer	-11.4224
being	-11.4225
gesetz	-11.4231
▁cable	-11.4231
▁landen	-11.4231
▁tested	-11.4235
strom	-11.4238
▁Einzelne	-11.4243
rechte	-11.4245
▁apple	-11.4248
▁partners	-11.4248
▁joined	-11.4257
kamera	-11.4259
▁Konsum	-11.4267
▁cry	-11.4268
ava	-11.4272
uanten	-11.4285
▁offenen	-11.4289
▁nachts	-11.429
für	-11.4299
gras	-11.4299
gebung	-11.4301
zeichnung	-11.4302
▁Bronx	-11.4302
▁Gemüse	-11.4302
▁Nelson	-11.4302
▁begegnen	-11.4302
▁challenging	-11.4302
▁discipline	-11.4302
▁heaven	-11.4302
▁Freiwillige	-11.4302
▁Zerstörung	-11.4302
▁disrupt	-11.4302
▁gerettet	-11.4302
▁hormone	-11.4302
▁kaputt	-11.4302
▁nervös	-11.4302
▁schreibt	-11.4302
▁depth	-11.4302
▁housing	-11.4302
▁Futter	-11.4302
▁vorsichtig	-11.4302
▁Stücke	-11.4302
▁therapy	-11.4302
▁Population	-11.4302
▁Henry	-11.4303
▁Basically	-11.4303
▁neural	-11.4303
▁flash	-11.4303
▁minister	-11.4304
▁Sonnensystem	-11.4305
▁heilen	-11.4306
▁controlled	-11.4307
▁wiederholen	-11.4307
▁Box	-11.431
▁tick	-11.431
geschnitten	-11.431
produktion	-11.4311
▁2002	-11.4313
bricht	-11.4314
▁regime	-11.4315
▁Six	-11.4316
still	-11.4318
▁Bang	-11.4318
▁sau	-11.4319
▁hill	-11.4319
▁Marke	-11.4319
level	-11.4321
▁busy	-11.4325
ähnliche	-11.4325
äst	-11.433
▁Serie	-11.4331
zeiten	-11.4334
▁wachsende	-11.4338
▁wound	-11.4338
▁heutige	-11.4342
▁rhythm	-11.4342
▁jail	-11.4352
▁symptoms	-11.4373
▁technique	-11.4375
Reg	-11.4384
▁Make	-11.4393
schild	-11.4395
räumen	-11.4397
▁Wirklich	-11.4399
▁1998	-11.4399
▁Diagnose	-11.4399
▁Research	-11.4399
▁Verbreitung	-11.4399
▁centuries	-11.4399
▁europäische	-11.4399
▁laboratory	-11.4399
▁thumb	-11.4399
▁weshalb	-11.4399
▁aufgeregt	-11.4399
▁Bestandteil	-11.4399
▁Square	-11.4399
▁Brian	-11.4399
▁gentlemen	-11.44
aube	-11.44
▁greenhouse	-11.44
▁favor	-11.44
▁liefert	-11.4401
▁wünschte	-11.4402
▁boring	-11.4403
▁psychische	-11.4403
▁globe	-11.4403
umme	-11.4404
▁verliebt	-11.4405
▁mill	-11.4408
▁politisch	-11.4409
▁lying	-11.4412
▁economists	-11.4412
▁Afrikaner	-11.4412
▁voneinander	-11.4412
schreiten	-11.4413
▁attend	-11.4413
▁Ana	-11.4414
▁vertical	-11.4415
AIDS	-11.4419
▁männliche	-11.4419
▁Epidemie	-11.442
▁bewirken	-11.4421
▁logic	-11.4421
▁applications	-11.4422
fiel	-11.4423
born	-11.4425
▁behavioral	-11.4428
▁Kindes	-11.4431
▁achten	-11.4437
aft	-11.4443
▁pool	-11.4446
▁Lungen	-11.4447
▁verrückte	-11.4447
▁Van	-11.4449
ierbar	-11.4452
▁finanzielle	-11.4453
occ	-11.4453
▁typische	-11.4454
▁gross	-11.4458
▁Kreuz	-11.4462
lusion	-11.4467
▁regional	-11.4469
▁application	-11.4475
▁whale	-11.4475
▁provided	-11.4488
zeichnen	-11.4494
amerikanische	-11.4494
Aus	-11.4494
▁govern	-11.4495
▁seal	-11.4495
▁options	-11.4497
▁Egypt	-11.4497
▁Silicon	-11.4497
▁Tätigkeit	-11.4497
▁genießen	-11.4497
▁insbesondere	-11.4497
▁neugierig	-11.4497
▁physikalische	-11.4497
▁regret	-11.4497
▁secure	-11.4497
▁veröffentlichen	-11.4497
▁Gulf	-11.4497
▁unmittelbar	-11.4497
▁Enkel	-11.4497
▁autism	-11.4497
▁ewig	-11.4498
▁wenigstens	-11.4498
▁betrieben	-11.4498
▁Herstellung	-11.4499
▁Nadel	-11.45
100	-11.4505
▁passive	-11.4505
▁Noten	-11.4506
stone	-11.4508
▁Dreh	-11.4511
▁wirken	-11.4511
▁100.000	-11.4513
▁Machen	-11.4513
meister	-11.4516
▁derselben	-11.4518
▁whales	-11.452
▁sin	-11.4521
lot	-11.4522
▁Fang	-11.4522
▁vergangenen	-11.4525
atter	-11.4531
▁worauf	-11.4531
▁Jugend	-11.4532
▁stieg	-11.4536
▁remains	-11.4537
▁Fläche	-11.4538
▁Naja	-11.454
▁Renn	-11.454
bekommen	-11.4544
▁winzige	-11.4547
▁transformed	-11.4548
hoo	-11.4551
▁Schweine	-11.4554
▁Leiden	-11.4559
▁Hyper	-11.456
▁physische	-11.4562
▁sozial	-11.4565
book	-11.4566
bär	-11.4567
▁gewisser	-11.4575
▁prä	-11.4591
schränkung	-11.4596
▁Kategorie	-11.4596
▁Lincoln	-11.4596
▁erweitert	-11.4596
▁gesammelt	-11.4596
▁identical	-11.4596
▁navigat	-11.4596
▁suspect	-11.4596
lösung	-11.4596
▁Brooklyn	-11.4596
▁Kreatur	-11.4596
▁gestaltet	-11.4596
▁extent	-11.4596
▁angry	-11.4597
▁Voice	-11.4597
▁besessen	-11.4598
▁capitalism	-11.4599
▁Schi	-11.4599
▁gründen	-11.46
▁höchsten	-11.4601
▁logisch	-11.4602
▁Denkweise	-11.4605
▁Block	-11.4605
lehnen	-11.4606
▁Klar	-11.4606
▁file	-11.4608
ada	-11.4608
▁Zeitraum	-11.461
▁wherever	-11.461
▁database	-11.461
▁LG	-11.4613
▁Hans	-11.4617
▁Pf	-11.4624
▁Kritik	-11.4624
▁organism	-11.4629
▁ears	-11.463
gle	-11.4639
bilder	-11.4647
hour	-11.4653
▁feeding	-11.4657
wege	-11.4658
lish	-11.466
stücke	-11.466
▁ergeben	-11.4663
graph	-11.4665
▁Tony	-11.4666
glücklicherweise	-11.4667
▁evolve	-11.4675
immer	-11.4679
bogen	-11.4685
▁glaubten	-11.4686
▁citizen	-11.4693
schießen	-11.4696
▁Wärme	-11.4696
▁correspond	-11.4696
▁mosquito	-11.4696
▁policies	-11.4696
▁reserve	-11.4696
▁spüren	-11.4696
▁Krankenhäuser	-11.4696
▁versorgen	-11.4696
▁Schauspieler	-11.4696
▁footprint	-11.4697
▁rechte	-11.4698
▁unlike	-11.4698
▁consistent	-11.4698
▁Pollen	-11.4698
▁motivate	-11.4698
▁psychologist	-11.4698
▁entrepreneurs	-11.4699
▁electron	-11.4703
link	-11.4706
▁dankbar	-11.4706
▁Wann	-11.4708
version	-11.471
▁Seide	-11.4711
region	-11.4721
hesi	-11.4725
▁37	-11.4732
▁Faktor	-11.4733
▁Fund	-11.4734
wah	-11.4734
▁pot	-11.4738
▁Nu	-11.4738
▁flowers	-11.474
▁verschieden	-11.4747
▁fixed	-11.4748
▁linked	-11.4748
▁Geschäfte	-11.4753
geld	-11.4757
träger	-11.476
rick	-11.4766
öse	-11.4767
graphie	-11.4768
▁Krieges	-11.4769
▁Aufnahmen	-11.4775
▁lion	-11.4782
▁Gui	-11.4783
medizin	-11.4797
▁Asteroid	-11.4797
▁Feynman	-11.4797
▁Gebrauch	-11.4797
▁Lebenserwartung	-11.4797
▁conclude	-11.4797
▁corporate	-11.4797
▁dancing	-11.4797
▁merkwürdig	-11.4797
▁narrow	-11.4797
▁verdammt	-11.4797
▁Sektor	-11.4797
▁session	-11.4797
▁Before	-11.4797
▁verliert	-11.4797
▁schuf	-11.4797
▁unterwegs	-11.4797
▁sail	-11.4798
▁taucht	-11.4798
volv	-11.4798
▁hinzufügen	-11.4798
gebunden	-11.4798
▁breed	-11.4798
▁produktiv	-11.4798
▁rush	-11.4799
▁Juni	-11.4799
zählen	-11.48
▁1.000	-11.4802
▁Chile	-11.4804
▁erstmal	-11.4805
▁pollen	-11.4806
▁Kongo	-11.4807
▁saubere	-11.4809
▁Kilo	-11.4809
▁Leiter	-11.4811
▁Ideal	-11.4814
▁weltweiten	-11.4821
wood	-11.4822
▁Konsequenzen	-11.4823
Don	-11.4825
▁legte	-11.4826
▁Kuh	-11.4828
phone	-11.4829
▁Oper	-11.4831
▁educational	-11.4832
▁painful	-11.4832
▁eingeladen	-11.4832
▁Eigen	-11.4835
▁heiße	-11.4835
▁dive	-11.4839
▁comic	-11.4842
▁army	-11.4845
▁funding	-11.4845
▁Wäre	-11.4847
pound	-11.485
▁frisch	-11.4852
bble	-11.4854
gesehen	-11.4855
▁bizarre	-11.4856
▁folgenden	-11.4859
▁trat	-11.4866
▁lebende	-11.4881
▁Leg	-11.4882
▁neighbor	-11.4885
▁analog	-11.4891
pped	-11.4891
▁faced	-11.4896
▁Child	-11.4898
▁Flüchtling	-11.4899
▁Impfstoff	-11.4899
▁Zentral	-11.4899
▁domestic	-11.4899
▁earthquake	-11.4899
▁measuring	-11.4899
▁verursachen	-11.4899
kapital	-11.4899
▁grateful	-11.4899
▁frog	-11.4899
▁Greek	-11.4899
▁causing	-11.4899
▁barrier	-11.4899
▁Carolina	-11.49
▁Dün	-11.49
▁verlangt	-11.49
▁hinterlassen	-11.4902
▁selection	-11.4902
▁Staub	-11.4906
▁poorest	-11.4907
▁spinal	-11.4909
▁journal	-11.4911
▁floating	-11.4912
▁bedeutende	-11.4917
▁neutral	-11.4922
▁Erwartungen	-11.4923
American	-11.4924
▁Gespräche	-11.4927
probe	-11.4932
schritt	-11.4934
▁schauten	-11.4935
▁Dimensionen	-11.4938
▁letzter	-11.4939
liegende	-11.494
▁Walk	-11.4948
solve	-11.495
ago	-11.495
▁boxes	-11.495
▁implications	-11.4951
▁pushing	-11.4952
▁wondered	-11.4952
But	-11.4957
▁beenden	-11.4961
▁Videospiele	-11.4966
take	-11.497
▁erklärte	-11.4983
▁expert	-11.499
shed	-11.4993
▁photographer	-11.4996
▁lokal	-11.4998
▁Abraham	-11.5002
▁Algorithmen	-11.5002
▁Detroit	-11.5002
▁Erdbeben	-11.5002
▁Infektion	-11.5002
▁chocolate	-11.5002
▁exponential	-11.5002
▁frankly	-11.5002
▁judgment	-11.5002
▁unexpected	-11.5002
▁Dörfer	-11.5002
▁activist	-11.5002
▁murder	-11.5002
▁preserve	-11.5002
▁Weisheit	-11.5002
▁inject	-11.5002
▁wovon	-11.5003
▁Brustkrebs	-11.5003
▁Multi	-11.5003
▁immense	-11.5003
▁erfüllt	-11.5003
▁Geruch	-11.5003
▁minimal	-11.5003
▁trace	-11.5005
▁surf	-11.5005
▁Böse	-11.5006
▁Hong	-11.5007
▁interactive	-11.5007
▁angeht	-11.5007
rief	-11.5009
▁erfuhr	-11.501
kap	-11.501
hirn	-11.501
▁Verfahren	-11.501
zieh	-11.5017
▁mail	-11.5018
▁continued	-11.5018
liebe	-11.502
Erinnern	-11.5024
▁Laut	-11.5025
▁Scham	-11.5025
▁Meere	-11.5026
▁offenbar	-11.5028
▁via	-11.5033
▁SW	-11.5033
▁Please	-11.5038
▁pad	-11.5039
▁umzugehen	-11.5041
▁eingeführt	-11.5049
ulu	-11.5052
▁classes	-11.5054
ologists	-11.5055
▁agreed	-11.5055
asse	-11.5061
▁gerecht	-11.5065
rap	-11.507
▁Fahrzeug	-11.5082
▁physi	-11.5084
ddy	-11.5087
▁component	-11.5097
▁Nobel	-11.5103
▁DVD	-11.5107
▁Psychologie	-11.5107
▁automatically	-11.5107
▁irgendwelche	-11.5107
▁library	-11.5107
▁obsessed	-11.5107
▁romantic	-11.5107
▁silent	-11.5107
▁struck	-11.5107
▁Beijing	-11.5107
▁Sweden	-11.5107
▁Finally	-11.5107
▁Illusion	-11.5107
▁carried	-11.5107
▁lehrt	-11.5107
▁geschützt	-11.5107
faktor	-11.5107
▁Gipfel	-11.5107
▁erfassen	-11.5107
▁slum	-11.5107
▁compound	-11.5107
▁mechanisch	-11.5107
▁Pilot	-11.5107
▁knock	-11.5107
▁glu	-11.5107
▁Trotzdem	-11.5108
▁staatliche	-11.5108
▁continuous	-11.5108
▁befand	-11.5108
▁Everyone	-11.5108
▁worm	-11.5109
▁mice	-11.5112
▁Entdeckungen	-11.5116
▁mittels	-11.5118
▁mammals	-11.5123
▁komplex	-11.5123
▁Song	-11.5131
▁Comic	-11.5132
▁Bauch	-11.5136
▁brach	-11.5137
rage	-11.5139
▁intensive	-11.514
▁breathing	-11.5142
▁drinking	-11.5145
▁Mathe	-11.5146
geladen	-11.5147
▁zusätzlich	-11.5148
kauf	-11.5148
▁31	-11.5153
▁offered	-11.5155
▁Toten	-11.5157
▁Saal	-11.5157
▁kleinere	-11.5163
gewicht	-11.5165
▁existed	-11.5166
▁angenehm	-11.5166
▁parking	-11.517
▁younger	-11.5175
▁Nutzer	-11.5179
begriff	-11.5185
leute	-11.5187
Kreislauf	-11.5187
▁Reaktionen	-11.519
▁Ang	-11.5192
▁fur	-11.5194
▁frühe	-11.5195
tausch	-11.5196
liege	-11.5196
▁Rose	-11.5197
stunde	-11.5199
▁distinct	-11.5207
pur	-11.5209
▁careful	-11.5211
nnerhalb	-11.5212
▁Anstieg	-11.5212
▁November	-11.5212
▁Stämme	-11.5212
▁Treffen	-11.5212
▁Vagina	-11.5212
▁diagram	-11.5212
▁distributed	-11.5212
▁economies	-11.5212
▁konfrontiert	-11.5212
▁recognition	-11.5212
▁Plötzlich	-11.5212
▁bedroht	-11.5212
▁instinct	-11.5212
▁mathematician	-11.5212
▁vegetable	-11.5212
▁Mobiltelefon	-11.5212
▁manifest	-11.5212
▁polio	-11.5212
▁asteroid	-11.5212
▁zurückkehren	-11.5212
▁Rwanda	-11.5212
▁vital	-11.5212
12	-11.5212
▁mystery	-11.5212
▁Redwood	-11.5212
▁Mountain	-11.5212
▁pretend	-11.5212
▁Erzählung	-11.5212
▁Hitze	-11.5212
▁resistance	-11.5212
▁dramatically	-11.5213
▁flood	-11.5213
▁Berlin	-11.5213
▁Turn	-11.5213
▁anpassen	-11.5213
▁seht	-11.5213
▁shake	-11.5214
▁plug	-11.5215
▁2030	-11.5216
▁gray	-11.5216
▁geringer	-11.5216
▁fluid	-11.5217
▁laser	-11.5217
▁wählt	-11.5218
▁Darüber	-11.5218
ermaßen	-11.5218
▁Verlauf	-11.5218
wirken	-11.522
▁sang	-11.522
reißen	-11.522
anti	-11.5222
▁mate	-11.5227
▁Yo	-11.523
▁conventional	-11.5232
▁rapid	-11.5234
class	-11.5246
ima	-11.5247
▁represented	-11.5248
▁Steven	-11.5249
amme	-11.5252
▁Eigenschaft	-11.5252
▁bun	-11.5257
kinder	-11.5261
labor	-11.5261
behörde	-11.5262
tanz	-11.5269
▁entrepreneur	-11.5269
▁dense	-11.527
trug	-11.527
▁pie	-11.527
▁Give	-11.5276
reiben	-11.5276
▁Faktoren	-11.5282
▁performing	-11.5285
▁shell	-11.5296
▁begreifen	-11.5299
▁tödlich	-11.5303
▁Gegenden	-11.5307
▁rely	-11.5309
▁trauma	-11.531
▁Richtungen	-11.5316
Philosoph	-11.5318
leuchtet	-11.5318
▁Antibiotika	-11.5318
▁Clinton	-11.5318
▁Heutzutage	-11.5318
▁Klavier	-11.5318
▁Motivation	-11.5318
▁Remember	-11.5318
▁Ungleichheit	-11.5318
▁medication	-11.5318
▁clue	-11.5318
▁BIP	-11.5318
▁overcome	-11.5318
▁sweat	-11.5318
▁Normalerweise	-11.5319
▁Astronom	-11.5319
▁Dunkelheit	-11.5319
▁Terroristen	-11.5319
▁Polio	-11.5319
▁naja	-11.5321
▁Schild	-11.5321
▁Bibel	-11.5321
▁Haie	-11.5323
▁2020	-11.5324
▁raw	-11.5324
▁properly	-11.5325
▁impos	-11.5336
▁cash	-11.5342
▁brave	-11.5342
ifying	-11.5342
▁landete	-11.5343
groß	-11.5347
team	-11.5347
▁shooting	-11.5348
▁mainly	-11.535
▁vorhin	-11.5352
▁Win	-11.5352
▁dient	-11.5352
▁kognitive	-11.5353
▁Symptome	-11.536
unterricht	-11.536
▁Lasst	-11.5362
▁zurecht	-11.5368
▁Still	-11.537
▁Chinesen	-11.537
viel	-11.5371
getrieben	-11.5379
▁classic	-11.538
digit	-11.5387
▁grundlegenden	-11.5393
▁Israeli	-11.5393
▁Russian	-11.5394
▁gezogen	-11.5395
▁ausgeben	-11.5396
▁Umfrage	-11.5398
▁Theorien	-11.5398
▁Mich	-11.5399
▁spreading	-11.54
grafische	-11.5404
artig	-11.5404
▁invite	-11.5406
▁Mathematiker	-11.5411
▁Leber	-11.5412
cap	-11.5424
kräfte	-11.5425
▁Versorgung	-11.5425
▁Geschmack	-11.5426
▁Angelegenheit	-11.5426
▁Benjamin	-11.5426
▁Entwurf	-11.5426
▁Fantasie	-11.5426
▁Niveau	-11.5426
▁ceiling	-11.5426
▁ernähren	-11.5426
▁household	-11.5426
▁reduction	-11.5426
▁Watson	-11.5426
▁Weibchen	-11.5426
▁miracle	-11.5426
▁neither	-11.5426
▁enemy	-11.5426
▁Kevin	-11.5426
▁indicate	-11.5426
▁Level	-11.5426
▁bekämpfen	-11.5426
▁lehren	-11.5426
▁fotografiert	-11.5426
▁Nothing	-11.5426
▁leap	-11.5426
▁agenda	-11.5426
▁defend	-11.5426
▁Stephen	-11.5426
▁engaging	-11.5427
▁alarm	-11.5427
▁rufen	-11.5427
aktivität	-11.5428
▁wundervoll	-11.5428
▁mini	-11.5428
itis	-11.5429
▁Funk	-11.5429
▁Vorträge	-11.543
▁Halt	-11.543
▁Grab	-11.5431
▁Report	-11.5432
Source	-11.5432
▁dreidimensional	-11.5434
▁January	-11.5435
▁machst	-11.5436
▁Wach	-11.5442
▁needle	-11.5447
▁solving	-11.5448
opfer	-11.5449
▁Richtige	-11.545
lips	-11.5453
called	-11.5456
▁magnetic	-11.5458
▁Klassen	-11.5462
chef	-11.5468
▁zukünftige	-11.5476
▁wunderbaren	-11.5477
▁Love	-11.5481
ught	-11.5489
▁Wichtigste	-11.5493
▁Jugendliche	-11.5496
▁Comp	-11.5503
auto	-11.5508
▁promote	-11.5517
Aber	-11.5519
▁Bier	-11.5519
▁ausgehen	-11.5522
▁Januar	-11.5525
wache	-11.5525
▁penguins	-11.5529
▁particle	-11.5534
▁Real	-11.5534
▁Angebot	-11.5534
▁Bruno	-11.5534
▁Leonardo	-11.5534
▁Shakespeare	-11.5534
▁column	-11.5534
▁genius	-11.5534
▁grandfather	-11.5534
▁obstacle	-11.5534
▁recommend	-11.5534
▁Neugier	-11.5534
▁fragment	-11.5534
▁Humor	-11.5534
▁obesity	-11.5535
▁herrscht	-11.5535
▁neigen	-11.5535
▁Italien	-11.5535
▁shelter	-11.5535
▁kreiert	-11.5535
▁Delhi	-11.5535
▁erfüllen	-11.5535
▁honey	-11.5535
▁Jones	-11.5535
anthrop	-11.5536
▁jegliche	-11.5536
▁hardware	-11.5536
▁tight	-11.5537
▁Amy	-11.5537
▁tanzen	-11.5537
▁wahrnehmen	-11.5538
▁indische	-11.5539
▁lebenden	-11.554
lia	-11.554
▁1900	-11.5543
▁ego	-11.5544
▁Wasserstoff	-11.5544
geräte	-11.5546
▁controlling	-11.5546
▁Woman	-11.5547
▁oberen	-11.555
▁Rick	-11.5551
▁pose	-11.5551
▁Summe	-11.5552
▁scary	-11.5554
▁Nest	-11.5557
ED	-11.5562
rauch	-11.5565
▁Ganzen	-11.5566
▁anzusehen	-11.5574
Ex	-11.5584
field	-11.5591
▁Stiftung	-11.5595
▁wirtschaftlich	-11.5597
▁Stift	-11.5602
▁Abou	-11.5602
stick	-11.5604
vision	-11.5605
▁Widerstand	-11.5611
▁Sagen	-11.5617
▁Haare	-11.5619
▁atmen	-11.5622
▁Dame	-11.563
city	-11.563
▁technologische	-11.5632
▁350	-11.5634
▁extinct	-11.5637
sterblichkeit	-11.564
▁dig	-11.5641
entwicklung	-11.5644
▁County	-11.5644
▁antibiotics	-11.5644
▁defense	-11.5644
▁inequality	-11.5644
▁raising	-11.5644
▁MRI	-11.5644
▁Spannung	-11.5644
▁strike	-11.5644
methode	-11.5644
▁ausgewählt	-11.5644
▁plenty	-11.5644
männer	-11.5644
▁philosophy	-11.5644
▁welcome	-11.5644
▁Louis	-11.5644
▁Einwohner	-11.5644
▁Privatsphäre	-11.5644
▁philosopher	-11.5645
▁till	-11.5645
▁Fertig	-11.5645
▁cooperation	-11.5645
▁Medium	-11.5645
▁chest	-11.5645
rlei	-11.5645
▁befreien	-11.5645
▁1999	-11.5645
▁salt	-11.5646
▁Weltbevölkerung	-11.5647
▁elite	-11.5647
▁precisely	-11.5651
▁Nachfrage	-11.5652
▁tries	-11.5653
▁Marken	-11.5654
▁Islamic	-11.5654
▁stack	-11.5654
▁loan	-11.5656
▁ländlichen	-11.5657
kilometer	-11.5658
▁Ring	-11.5658
▁Hab	-11.5659
▁beendet	-11.566
▁Platte	-11.5663
▁beigebracht	-11.5666
▁rip	-11.5666
flug	-11.567
▁destroyed	-11.5671
▁golf	-11.5672
dollar	-11.5677
▁Inneren	-11.5677
▁anhalten	-11.568
▁Achse	-11.5683
▁entered	-11.5688
▁printing	-11.5689
▁Fremd	-11.569
▁benutze	-11.5695
▁blame	-11.5697
▁grossen	-11.5698
▁Schwarz	-11.5698
▁Schreiben	-11.5699
▁Katze	-11.5699
fliegen	-11.57
▁Preise	-11.57
OK	-11.5704
teressanterweise	-11.5707
bett	-11.5707
▁dump	-11.5712
▁dial	-11.5717
▁zurückgehen	-11.5728
actic	-11.5731
▁presented	-11.5732
▁inspire	-11.5734
▁construct	-11.5735
▁immune	-11.5741
▁Laufen	-11.5747
▁Kur	-11.575
▁Diabetes	-11.5755
▁Diplomat	-11.5755
▁Initiative	-11.5755
▁beschreibt	-11.5755
▁exploit	-11.5755
▁gestartet	-11.5755
▁incident	-11.5755
▁microscope	-11.5755
▁optimistisch	-11.5755
▁scenario	-11.5755
▁McDonald	-11.5755
▁Ritual	-11.5755
konomen	-11.5755
▁grave	-11.5756
▁Girl	-11.5756
▁rising	-11.5756
▁Gleichgewicht	-11.5756
▁Schlechte	-11.5756
▁IBM	-11.5756
▁widme	-11.5756
▁bedeckt	-11.5757
▁Sprung	-11.5757
▁expectations	-11.5758
Emissionen	-11.5759
▁Spring	-11.576
▁Jeff	-11.5762
▁engagement	-11.5762
▁demographic	-11.5767
▁sport	-11.5769
▁Pole	-11.5776
unclear	-11.5778
▁usual	-11.578
▁Cro	-11.578
▁ausmachen	-11.5781
▁Schmerzen	-11.5788
block	-11.5788
Projekt	-11.5789
▁interne	-11.5792
▁Medica	-11.5795
▁poly	-11.5798
▁Statistik	-11.5801
▁critic	-11.5802
▁appeared	-11.5803
▁Umständen	-11.5807
▁Anlage	-11.5811
▁traveled	-11.5817
▁liver	-11.5827
▁norm	-11.5829
▁Put	-11.583
▁gather	-11.5831
▁technischen	-11.5831
▁soweit	-11.5832
▁Andrew	-11.5834
▁Fahrer	-11.5834
▁psych	-11.5836
▁connecting	-11.5839
▁aggressive	-11.584
sprech	-11.5851
▁drehte	-11.5853
ppy	-11.5854
▁Atlantic	-11.5868
▁Monterey	-11.5868
schlägt	-11.5868
▁Autismus	-11.5868
▁Hawaii	-11.5868
▁berühren	-11.5868
▁colony	-11.5868
▁emergency	-11.5868
▁exponentiell	-11.5868
▁fascinated	-11.5868
▁finanziert	-11.5868
▁furniture	-11.5868
▁integriert	-11.5868
▁mushroom	-11.5868
▁optimistic	-11.5868
▁procedure	-11.5868
▁recycle	-11.5868
▁surveillance	-11.5868
▁süß	-11.5868
▁älteste	-11.5868
städte	-11.5868
▁external	-11.5868
▁gemessen	-11.5868
stütze	-11.5868
nseits	-11.5868
▁Front	-11.5868
▁entertainment	-11.5869
▁Invest	-11.5869
▁Geographic	-11.5869
▁geistige	-11.5869
erseits	-11.587
äf	-11.587
▁aussah	-11.587
▁export	-11.5871
▁Indus	-11.5871
▁pace	-11.5872
▁bond	-11.5873
▁Wale	-11.5875
▁Sorge	-11.5878
▁density	-11.5879
▁personality	-11.588
▁attached	-11.5883
▁Ballon	-11.5883
▁höchste	-11.5883
physik	-11.5887
kern	-11.5892
▁Jean	-11.5894
▁berechnen	-11.5897
hundert	-11.5901
▁latest	-11.5902
▁Age	-11.5903
load	-11.5907
▁laughing	-11.591
dose	-11.5911
▁tuna	-11.5912
▁Funktionen	-11.5914
frage	-11.5916
▁Photo	-11.5919
durch	-11.592
▁Ted	-11.5922
▁könne	-11.5924
hydr	-11.5924
▁Guten	-11.5924
▁cm	-11.5929
▁gesunden	-11.5941
▁Pan	-11.5945
▁SP	-11.5948
▁Leid	-11.5956
▁verschiedener	-11.5958
Let	-11.5958
▁surely	-11.5958
▁brechen	-11.596
▁änderte	-11.596
▁aufrecht	-11.596
▁Journal	-11.5963
ference	-11.5966
park	-11.5968
illion	-11.5973
▁brief	-11.5973
▁48	-11.598
▁Organe	-11.5981
▁Church	-11.5981
▁Olympic	-11.5981
▁Vergnügen	-11.5981
▁awesome	-11.5981
▁description	-11.5981
▁exploring	-11.5981
▁lächerlich	-11.5981
▁portrait	-11.5981
▁verblüffend	-11.5981
▁yield	-11.5981
▁vielmehr	-11.5981
▁Neuigkeiten	-11.5981
▁bulb	-11.5981
▁request	-11.5981
▁psychologische	-11.5982
▁pyramid	-11.5982
▁spill	-11.5982
▁committed	-11.5982
▁concert	-11.5982
▁gezwungen	-11.5983
▁gesture	-11.5983
▁Mass	-11.5983
▁guard	-11.5984
▁drum	-11.5985
▁Höhepunkt	-11.5986
▁Ali	-11.5987
▁Ernst	-11.5989
▁bend	-11.5989
▁objective	-11.599
▁Pause	-11.5991
▁Oft	-11.5994
▁reiste	-11.5994
▁activate	-11.5995
▁representation	-11.5998
tti	-11.6002
▁Beton	-11.6005
▁Euch	-11.6006
▁divided	-11.601
▁weltweite	-11.6013
▁Zo	-11.6013
▁Salz	-11.6014
▁eingebaut	-11.6015
▁bemerkenswerte	-11.6016
tschaftswachstum	-11.6018
normal	-11.6019
▁thrown	-11.602
▁Einrichtungen	-11.6029
ih	-11.6032
▁interacting	-11.6033
▁axis	-11.6034
▁glücklicher	-11.6035
▁fabric	-11.6037
▁Investitionen	-11.6039
▁mutig	-11.6047
▁schaue	-11.6052
▁kritische	-11.6053
▁Farb	-11.6055
modul	-11.6056
▁Stil	-11.6057
▁Sprech	-11.606
tüm	-11.606
▁Golden	-11.6061
▁inspirieren	-11.6065
▁Spar	-11.6067
▁afrikanische	-11.607
▁reaching	-11.6072
▁planen	-11.6083
▁jenen	-11.6085
▁imagined	-11.6092
▁mitnehmen	-11.6094
▁Besondere	-11.6096
▁Ethiopia	-11.6096
▁Flüssigkeit	-11.6096
▁Röntgen	-11.6096
▁adjust	-11.6096
▁alltäglich	-11.6096
▁curiosity	-11.6096
▁dazwischen	-11.6096
▁diabetes	-11.6096
▁dioxide	-11.6096
▁gefährdet	-11.6096
▁guarantee	-11.6096
▁identifizieren	-11.6096
▁korrekt	-11.6096
▁repräsentiert	-11.6096
▁vernünftig	-11.6096
▁Überwachung	-11.6096
▁öfter	-11.6096
▁scream	-11.6096
▁stroke	-11.6096
▁Verteilung	-11.6096
▁Speicher	-11.6096
▁drove	-11.6096
▁angepasst	-11.6096
▁Next	-11.6096
▁mimic	-11.6096
▁Delfin	-11.6096
▁erfand	-11.6097
▁ugly	-11.6097
▁Schnell	-11.6097
▁sorgt	-11.6097
▁Dialog	-11.6098
▁ticket	-11.6099
gging	-11.6101
▁package	-11.6102
▁Alex	-11.6104
▁stake	-11.6106
▁recovery	-11.6108
▁colleague	-11.6109
▁JF	-11.611
▁explosion	-11.611
metric	-11.6114
▁ausmacht	-11.6116
▁JA	-11.6121
▁Sensoren	-11.6122
wandel	-11.6122
▁biologischen	-11.6133
▁Stop	-11.6138
held	-11.6139
▁Lama	-11.6145
text	-11.6147
▁Muskel	-11.6155
▁kreativen	-11.616
▁komplexer	-11.6164
▁Flächen	-11.6165
▁lovely	-11.6165
▁kauft	-11.6168
zero	-11.6174
▁recognized	-11.6179
▁ethical	-11.6182
eute	-11.6194
▁130	-11.6201
▁spoken	-11.6205
▁Home	-11.6206
gefallen	-11.6207
acre	-11.6208
▁irgend	-11.6209
▁breaking	-11.6209
wickelt	-11.6212
▁regard	-11.6212
häuser	-11.6213
▁SETI	-11.6213
▁crucial	-11.6213
empfindlich	-11.6213
▁Brüder	-11.6213
▁Digital	-11.6213
▁Gletscher	-11.6213
▁Hypothese	-11.6213
▁Impuls	-11.6213
▁dignity	-11.6213
▁erwähnen	-11.6213
▁gewöhnt	-11.6213
▁sandwich	-11.6213
▁scratch	-11.6213
▁stirbt	-11.6213
▁unerwartet	-11.6213
▁Erfinder	-11.6213
▁Ocean	-11.6213
greift	-11.6213
▁Philosophie	-11.6213
▁cyber	-11.6213
▁distant	-11.6213
▁utter	-11.6213
▁productivity	-11.6213
▁horizontal	-11.6213
▁Kapitalismus	-11.6214
80	-11.6214
▁brown	-11.6214
▁hindurch	-11.6215
▁dunklen	-11.6215
▁hassen	-11.6216
▁Zurück	-11.6216
▁opposed	-11.6218
place	-11.6219
▁Vorgang	-11.622
gri	-11.622
▁halt	-11.622
▁bull	-11.6222
▁besonderen	-11.6223
gehört	-11.6224
▁editor	-11.6226
▁Laser	-11.6226
▁gelassen	-11.6227
▁Fotograf	-11.6229
▁virtually	-11.6232
▁72	-11.6233
▁Tief	-11.6239
▁Bin	-11.6243
▁ersetzt	-11.625
friend	-11.6251
▁winzigen	-11.6251
▁breit	-11.6262
▁Besitz	-11.6267
▁Handlung	-11.6268
▁achieved	-11.6269
▁signed	-11.6269
▁Sag	-11.6271
▁Muskeln	-11.6271
▁angehen	-11.6273
▁wise	-11.6275
▁gebildet	-11.6276
▁Intel	-11.6277
verbrauch	-11.6277
dichte	-11.6284
▁opera	-11.6291
▁corn	-11.6291
therapie	-11.6303
▁Oberflächen	-11.6304
▁stimmen	-11.631
unwahrscheinlich	-11.6313
▁gesetzt	-11.6314
▁formal	-11.6325
gesundheit	-11.633
▁anonym	-11.633
▁Parkinson	-11.633
▁routine	-11.633
▁Knopf	-11.633
▁Narrator	-11.633
▁Tragödie	-11.633
▁angemessen	-11.633
▁calculation	-11.633
▁embedded	-11.633
▁ignorieren	-11.633
▁illustrate	-11.633
▁orchestra	-11.633
▁rebuild	-11.633
▁renewable	-11.633
▁umgekehrt	-11.633
▁April	-11.633
▁Polizist	-11.633
▁Schweiz	-11.633
▁Nahrungsmittel	-11.633
▁Verlangen	-11.633
▁schief	-11.633
▁trait	-11.6331
▁kämpft	-11.6331
▁Ausrüstung	-11.6331
▁Palm	-11.6332
▁sheep	-11.6332
▁Dadurch	-11.6333
▁Übergang	-11.6333
▁überlegt	-11.6334
▁Umgang	-11.6334
▁Vorschlag	-11.6338
▁mold	-11.6339
▁tired	-11.6341
▁gear	-11.6341
▁donor	-11.6342
▁50,000	-11.6347
▁Wut	-11.6347
▁semi	-11.6347
▁Carl	-11.6349
▁Tal	-11.6349
▁resolution	-11.635
▁Komponenten	-11.6356
ira	-11.6356
▁20,000	-11.6357
▁Nordamerika	-11.6358
▁quer	-11.6362
▁disappeared	-11.6363
▁übersetzt	-11.6365
▁Vorbild	-11.6366
▁fed	-11.637
▁saßen	-11.6371
▁lernten	-11.6375
drehen	-11.6375
▁cheaper	-11.6389
▁Katastrophe	-11.6391
▁replicate	-11.6395
▁reported	-11.6398
atar	-11.6399
▁Pinguine	-11.6402
rieben	-11.6406
▁jenem	-11.6411
steht	-11.6418
▁tie	-11.6418
▁bot	-11.6423
wichtig	-11.6425
▁wenden	-11.6425
rumpf	-11.6432
▁Beide	-11.6441
▁initial	-11.6441
▁Hölle	-11.6449
▁Tränen	-11.6449
▁Täuschung	-11.6449
▁authentic	-11.6449
▁compose	-11.6449
▁disgust	-11.6449
▁frozen	-11.6449
▁geeignet	-11.6449
▁insgesamt	-11.6449
▁ridiculous	-11.6449
▁skeleton	-11.6449
▁suicide	-11.6449
▁Cartoon	-11.6449
▁anscheinend	-11.6449
▁insurance	-11.6449
▁Cyber	-11.6449
▁heiraten	-11.6449
▁sensation	-11.6449
▁Bewohner	-11.6449
▁Slum	-11.6449
glück	-11.6449
▁Meeting	-11.6449
▁abandon	-11.6449
▁ladies	-11.6449
▁appeal	-11.6449
▁adventure	-11.645
▁Strasse	-11.645
▁Gegenstände	-11.645
▁backwards	-11.645
▁Reichtum	-11.645
▁Prä	-11.645
▁Einfachheit	-11.6451
▁Children	-11.6451
▁blend	-11.6451
▁Gift	-11.6452
öge	-11.6452
brecher	-11.6455
gestoßen	-11.6455
▁Schätzung	-11.6458
▁slip	-11.646
▁lake	-11.6462
▁Großen	-11.6463
▁Papa	-11.6463
gebaut	-11.6473
litz	-11.6475
▁heroes	-11.6478
stufe	-11.6481
▁removed	-11.6485
word	-11.6491
fährt	-11.6491
century	-11.6492
▁generated	-11.6494
▁Probe	-11.6495
▁sexy	-11.6496
▁accepted	-11.6498
scribe	-11.6501
▁Prototypen	-11.6501
▁Darauf	-11.6503
▁Proben	-11.6519
▁Bahn	-11.6531
ask	-11.6531
haut	-11.6534
ibly	-11.6537
boden	-11.654
▁Gelände	-11.6541
geist	-11.6552
▁rough	-11.6563
▁Schwestern	-11.6563
▁Reisen	-11.6567
zusetzen	-11.6569
nutzung	-11.657
▁Abenteuer	-11.657
▁Effizienz	-11.657
▁Hügel	-11.657
▁Logik	-11.657
▁Schokolade	-11.657
▁Schädel	-11.657
▁Transparenz	-11.657
▁acquire	-11.657
▁candidate	-11.657
▁drift	-11.657
▁hilfreich	-11.657
▁intellektuelle	-11.657
▁legacy	-11.657
▁molekulare	-11.657
▁rainforest	-11.657
▁Charlie	-11.657
▁margin	-11.657
▁hässlich	-11.657
▁zwingen	-11.657
▁Sätze	-11.657
▁Jedenfalls	-11.657
▁blank	-11.657
▁mittlerweile	-11.657
▁Daumen	-11.657
▁fliegt	-11.657
▁football	-11.657
▁poison	-11.6571
▁Modern	-11.6571
▁Organismus	-11.6571
▁strategies	-11.6571
▁Indeed	-11.6571
stätte	-11.6571
▁Strecke	-11.6571
▁demonstration	-11.6573
▁resolve	-11.6574
▁restore	-11.6574
▁northern	-11.6574
▁dedicated	-11.6574
▁unternehmen	-11.6575
▁Seil	-11.6575
▁darkness	-11.6578
▁abschließen	-11.6579
▁lamp	-11.6584
▁38	-11.659
▁Extra	-11.6593
▁weapon	-11.6594
▁moralischen	-11.6596
▁womit	-11.66
▁officer	-11.66
▁RM	-11.6602
ivity	-11.6603
▁Fliege	-11.6608
▁captured	-11.661
öcke	-11.6611
Auf	-11.6614
ggle	-11.6614
Lo	-11.6617
▁kg	-11.6623
lust	-11.6629
▁EM	-11.6631
▁Katzen	-11.6634
ngste	-11.664
▁Bedürfnis	-11.664
▁gewaltig	-11.6645
▁Medikamenten	-11.665
▁quit	-11.665
▁Kommen	-11.6659
cellular	-11.6661
▁Strategien	-11.6663
verb	-11.667
gemeinschaft	-11.667
generation	-11.6671
▁190	-11.6673
itude	-11.6674
nvention	-11.6691
▁Hilfs	-11.6691
▁Wechsel	-11.6692
▁Alkohol	-11.6692
▁Berkeley	-11.6692
▁Größenordnung	-11.6692
▁Lächeln	-11.6692
▁Neanderthal	-11.6692
▁Sammlung	-11.6692
▁Weihnachts	-11.6692
▁advertising	-11.6692
▁analysieren	-11.6692
▁autonomous	-11.6692
▁corporation	-11.6692
▁neuroscience	-11.6692
▁universities	-11.6692
▁reparieren	-11.6692
ifikation	-11.6692
▁Anpassung	-11.6692
▁charity	-11.6692
▁hungry	-11.6692
▁sharp	-11.6692
▁Soviet	-11.6692
▁wirksam	-11.6692
▁herausfand	-11.6692
▁getestet	-11.6692
▁conservative	-11.6692
▁exposed	-11.6692
▁Eigentum	-11.6692
▁Social	-11.6692
▁mutation	-11.6692
▁stammen	-11.6692
kreuz	-11.6692
▁shore	-11.6692
▁partnership	-11.6692
▁Virginia	-11.6693
▁governance	-11.6693
▁verbraucht	-11.6694
▁1930	-11.6694
▁accessible	-11.6694
▁Datenbank	-11.6694
▁nebenbei	-11.6694
▁Aufstieg	-11.6694
▁march	-11.6695
▁theories	-11.6695
▁klick	-11.6695
▁equality	-11.6696
▁Personal	-11.6697
▁umso	-11.6697
▁Harry	-11.6698
▁leak	-11.6698
▁abgesehen	-11.6698
▁laughter	-11.6699
▁Mitglied	-11.6706
▁Bible	-11.6707
▁crying	-11.6718
▁Resultate	-11.672
▁Line	-11.6724
Technologie	-11.6737
active	-11.6737
azi	-11.6739
▁Kiste	-11.6739
▁trage	-11.6742
virus	-11.6743
▁collecting	-11.6743
▁Dur	-11.6747
▁Höhlen	-11.6748
▁Nahe	-11.6749
motor	-11.6751
▁missed	-11.6752
▁fein	-11.6769
▁chosen	-11.677
▁tele	-11.678
▁Nachde	-11.678
▁Fischer	-11.6785
▁Ram	-11.6785
▁Lake	-11.6786
▁linke	-11.6786
wahl	-11.6789
made	-11.679
▁höchst	-11.6792
▁Hinweise	-11.6793
▁arrive	-11.6794
▁Brad	-11.6797
▁establish	-11.6798
▁Ohr	-11.6808
▁addict	-11.6811
sammlung	-11.6813
unterschied	-11.6815
▁globally	-11.6815
elect	-11.6815
▁Bedarf	-11.6815
▁Befehl	-11.6815
▁Oxytocin	-11.6815
▁Service	-11.6815
▁Verteidigung	-11.6815
▁französische	-11.6815
▁geöffnet	-11.6815
▁inzwischen	-11.6815
▁mechanics	-11.6815
▁musikalische	-11.6815
▁probability	-11.6815
▁reputation	-11.6815
▁senior	-11.6815
▁simulation	-11.6815
▁smooth	-11.6815
▁Anstrengung	-11.6815
▁skull	-11.6815
▁dauerhaft	-11.6815
▁feiern	-11.6815
▁Käfer	-11.6815
▁pursue	-11.6815
▁viral	-11.6815
▁Richter	-11.6815
▁unterrichtet	-11.6815
▁Konsumenten	-11.6815
▁domain	-11.6816
▁Globalisierung	-11.6816
▁Disney	-11.6816
▁Biologen	-11.6816
▁pipe	-11.6818
▁mega	-11.6818
▁Standpunkt	-11.682
▁Zero	-11.6822
▁Physi	-11.6823
▁essence	-11.6824
▁Santa	-11.6827
▁Never	-11.683
▁oldest	-11.6838
▁Brand	-11.6838
▁46	-11.6843
▁historische	-11.6843
NG	-11.6844
▁span	-11.6846
▁gate	-11.6847
▁amongst	-11.6847
▁professionelle	-11.685
schmerz	-11.685
15	-11.6852
schloss	-11.6855
▁TEDster	-11.6857
▁44	-11.6859
moral	-11.6869
▁Umstände	-11.6884
▁Normal	-11.6886
▁touched	-11.689
▁searching	-11.6898
ello	-11.69
▁nahezu	-11.6905
RB	-11.6914
turm	-11.6915
MA	-11.6917
▁prior	-11.6938
brachte	-11.6938
synchron	-11.694
drängt	-11.694
▁Jerusalem	-11.694
▁Jewish	-11.694
▁Mozart	-11.694
▁Mumbai	-11.694
▁Seattle	-11.694
▁Vermögen	-11.694
▁abstrakte	-11.694
▁borrow	-11.694
▁boundaries	-11.694
▁decrease	-11.694
▁elsewhere	-11.694
▁facial	-11.694
▁simplicity	-11.694
▁sketch	-11.694
▁Beschreibung	-11.694
▁Schriftsteller	-11.694
▁herself	-11.694
▁hervorragend	-11.694
▁nachdenkt	-11.694
▁identisch	-11.694
▁minus	-11.694
▁jeweils	-11.694
▁whistle	-11.694
▁Arthur	-11.694
▁Daniel	-11.694
anstalt	-11.694
▁Übrigens	-11.694
osphere	-11.6941
▁Sendung	-11.6941
bedarf	-11.6941
▁freak	-11.6941
fähigkeit	-11.6941
▁Bürgerkrieg	-11.6941
▁stepp	-11.6942
▁verschwand	-11.6942
▁Schöne	-11.6943
▁apparently	-11.6944
▁festgestellt	-11.6944
▁reicher	-11.6948
▁Phil	-11.6949
▁debt	-11.6954
▁hingehen	-11.6955
▁beitragen	-11.6956
▁Mini	-11.6961
▁Really	-11.6964
würfe	-11.6965
▁locked	-11.6969
▁Fahrzeuge	-11.697
▁vorgestellt	-11.6973
▁sozialer	-11.6984
40	-11.6984
▁empfinden	-11.6984
▁craft	-11.6993
▁seeds	-11.6994
▁Toiletten	-11.6996
▁verlor	-11.7001
worth	-11.7005
▁Pflanze	-11.7009
▁Tasche	-11.7013
firma	-11.7017
▁ökonomische	-11.7018
aufgabe	-11.7018
dio	-11.7021
mitten	-11.7024
▁bow	-11.7043
▁starr	-11.705
▁setzten	-11.7051
▁Joseph	-11.7067
▁Löwen	-11.7067
▁Schlagzeile	-11.7067
▁Simulation	-11.7067
▁inklusive	-11.7067
▁jüngste	-11.7067
▁pregnant	-11.7067
▁symmetry	-11.7067
▁underground	-11.7067
▁Karikatur	-11.7067
▁fifth	-11.7067
▁fließt	-11.7067
▁potentiell	-11.7067
▁scholar	-11.7067
▁intuition	-11.7067
▁auftaucht	-11.7067
▁letztlich	-11.7067
▁refuse	-11.7067
▁Anzeige	-11.7067
Dienstleistungen	-11.7067
▁Bürgermeister	-11.7067
▁aircraft	-11.7067
▁tragedy	-11.7067
▁freundlich	-11.7067
▁profile	-11.7068
▁wrap	-11.7068
▁glad	-11.7068
▁Onkel	-11.7069
genoss	-11.7069
▁passenger	-11.7069
▁tunnel	-11.707
▁Prize	-11.707
▁isoliert	-11.707
▁spell	-11.7072
▁queen	-11.7073
▁delight	-11.7073
▁Tinte	-11.7074
▁geraten	-11.7076
▁Watt	-11.708
▁boss	-11.7093
▁Weltall	-11.7099
▁Gedichte	-11.71
▁..."	-11.7102
▁antworten	-11.7102
Und	-11.7105
tories	-11.7105
wirkung	-11.7107
sammeln	-11.7117
▁interconnect	-11.7118
▁rating	-11.7122
▁pause	-11.7122
holz	-11.7122
fold	-11.7127
▁Ross	-11.713
▁Med	-11.7132
▁Handlungen	-11.7139
▁Mannes	-11.7139
▁Handeln	-11.7143
▁gro	-11.7146
▁RS	-11.7148
▁killer	-11.7158
cast	-11.7161
Can	-11.7162
▁Bad	-11.7172
▁einsam	-11.7173
▁enormen	-11.7174
▁attach	-11.718
ckel	-11.7182
heiratet	-11.7191
▁Kranken	-11.7195
plätze	-11.7195
vermögen	-11.7195
Origami	-11.7195
gebäude	-11.7195
kontakt	-11.7195
schränke	-11.7195
▁Atlanta	-11.7195
▁Blickwinkel	-11.7195
▁Explosion	-11.7195
▁Möbel	-11.7195
▁acknowledge	-11.7195
▁enhance	-11.7195
▁psychiatri	-11.7195
▁shrimp	-11.7195
▁transparency	-11.7195
▁ungeheuer	-11.7195
▁vagina	-11.7195
▁Disziplin	-11.7195
▁Tempo	-11.7195
▁translation	-11.7195
▁trocken	-11.7195
▁anbieten	-11.7195
▁afterwards	-11.7195
▁beschleunigt	-11.7195
▁Maßnahmen	-11.7195
▁vermittelt	-11.7196
▁systematisch	-11.7196
▁distract	-11.7196
▁stets	-11.7196
▁ausreichend	-11.7196
▁Unterwasser	-11.7197
▁Akteur	-11.7197
▁neck	-11.7197
▁bump	-11.7197
▁Work	-11.7198
▁airport	-11.7199
▁Kontroll	-11.7199
▁Gestaltung	-11.7199
▁Länge	-11.7199
▁Mount	-11.72
▁Kunstwerk	-11.72
▁Lebensraum	-11.72
▁Antrieb	-11.7202
▁dirty	-11.7203
▁Eastern	-11.7206
▁verarbeiten	-11.7206
atten	-11.7208
▁mentor	-11.7209
▁verteilen	-11.7212
▁achievement	-11.7212
▁magische	-11.7216
scheide	-11.7217
▁Ratten	-11.7218
▁formula	-11.722
zulegen	-11.722
uad	-11.722
▁Hinweis	-11.7228
gericht	-11.7237
▁Schon	-11.7238
wissen	-11.7242
▁Planung	-11.7242
jähriger	-11.7247
changing	-11.7248
Bahn	-11.7252
▁geworfen	-11.7254
▁visited	-11.7254
phase	-11.7255
▁manipulat	-11.7256
free	-11.7256
▁unglücklich	-11.7262
stamm	-11.7264
▁tauchen	-11.7265
▁Waffe	-11.7267
▁Fremden	-11.7272
getreten	-11.7278
▁Würden	-11.7288
▁Kant	-11.7294
▁AM	-11.7296
▁Dichter	-11.7301
schiff	-11.7304
▁Felder	-11.7305
▁zuhören	-11.7306
▁farmer	-11.7309
▁Schalt	-11.7315
▁capita	-11.7317
▁hydro	-11.7322
temperatur	-11.7324
▁occasion	-11.7324
speicher	-11.7324
▁Original	-11.7325
▁vorwärts	-11.7325
▁Dynamik	-11.7325
▁Entstehung	-11.7325
▁Intuition	-11.7325
▁Schwanz	-11.7325
▁anfängt	-11.7325
▁beschränkt	-11.7325
▁diskutieren	-11.7325
▁erfordert	-11.7325
▁evaluat	-11.7325
▁sorgfältig	-11.7325
▁substance	-11.7325
▁variable	-11.7325
▁Variation	-11.7325
▁verstecken	-11.7325
▁gelehrt	-11.7325
▁granted	-11.7325
▁örtliche	-11.7325
▁Passwörter	-11.7325
▁dringend	-11.7325
stadium	-11.7325
▁Kooperation	-11.7325
▁befassen	-11.7325
▁Rückenmark	-11.7325
▁leverage	-11.7326
▁erfasst	-11.7326
▁initiative	-11.7326
▁slice	-11.7326
▁Gerade	-11.7326
▁rettet	-11.7327
▁Italy	-11.7328
▁Ziege	-11.7329
gerissen	-11.7331
▁Egyptian	-11.7331
▁Coca	-11.7332
▁Auftrag	-11.7333
platte	-11.7336
artikel	-11.7339
▁Zeitschrift	-11.7339
▁Ausland	-11.7341
▁Lesen	-11.7346
▁Force	-11.7352
streu	-11.7354
▁litt	-11.7354
▁stable	-11.7357
rika	-11.7357
▁dimension	-11.7361
mond	-11.7363
▁Rover	-11.7366
▁Etwa	-11.7369
▁upset	-11.7372
designer	-11.7374
abhängig	-11.7375
technology	-11.7379
▁übersetzen	-11.7386
▁Investition	-11.739
▁gefahren	-11.7393
wise	-11.7393
▁organische	-11.7395
▁experimental	-11.7397
▁schreibe	-11.7397
▁Toilette	-11.7398
▁wette	-11.7404
▁wage	-11.7409
▁lasse	-11.7412
▁Säugetiere	-11.7421
Zu	-11.7424
farben	-11.744
blasen	-11.7442
▁Kit	-11.7454
▁komplizierter	-11.7456
▁spectacular	-11.7456
▁Anweisung	-11.7456
▁Department	-11.7456
▁FDA	-11.7456
▁Frequenz	-11.7456
▁Großvater	-11.7456
▁Jordan	-11.7456
▁Ruanda	-11.7456
▁announced	-11.7456
▁ausschließlich	-11.7456
▁definitiv	-11.7456
▁irrational	-11.7456
▁muslimische	-11.7456
▁origami	-11.7456
▁recruit	-11.7456
▁smoking	-11.7456
▁suspend	-11.7456
▁synthetic	-11.7456
▁südlich	-11.7456
▁twist	-11.7456
▁verdoppelt	-11.7456
▁verzweifelt	-11.7456
▁depressed	-11.7456
▁freiwillig	-11.7456
▁Treppe	-11.7457
▁relax	-11.7457
▁Sarah	-11.7457
▁japanische	-11.7457
▁isolated	-11.7457
▁ensure	-11.7457
▁federal	-11.7457
▁comparison	-11.7457
▁Behinderung	-11.7457
▁textbook	-11.7457
▁capability	-11.7457
▁Ehemann	-11.7457
▁array	-11.7457
▁fortune	-11.7457
▁plain	-11.7458
▁füllen	-11.7458
▁Doppel	-11.7458
▁Stille	-11.7459
▁Seife	-11.7459
▁Wright	-11.7459
▁magical	-11.7459
▁Fischerei	-11.7459
hether	-11.7462
▁affordable	-11.7462
▁consist	-11.7462
▁Egal	-11.7464
▁Stone	-11.7465
Who	-11.7466
▁Feder	-11.7467
▁Beck	-11.7469
▁surrounding	-11.7471
▁beträgt	-11.7475
▁Meta	-11.7478
▁zivil	-11.7485
▁Kong	-11.7486
▁Kette	-11.7486
▁output	-11.7487
▁Polar	-11.7494
kabel	-11.7496
▁fremde	-11.7498
human	-11.7498
▁2,5	-11.75
▁terror	-11.7501
▁ausgegeben	-11.7502
▁delivered	-11.7507
▁Berechnungen	-11.7511
Where	-11.7512
▁expo	-11.7512
▁selbe	-11.7514
Energieverbrauch	-11.7515
▁dear	-11.7515
Ah	-11.7517
organisationen	-11.7517
▁import	-11.7519
haufen	-11.752
führer	-11.7521
Welt	-11.7521
▁Katastrophen	-11.7521
▁suggesting	-11.7523
▁proper	-11.7523
▁Fan	-11.7524
▁Sahara	-11.7527
▁fehlende	-11.7528
ographic	-11.7531
förmige	-11.7532
▁evolutionäre	-11.7538
▁pulling	-11.7542
▁Gri	-11.7543
▁resist	-11.7547
▁Leser	-11.7547
yna	-11.7554
rotten	-11.7559
▁Dichte	-11.7562
▁passing	-11.7563
▁AT	-11.7563
▁coat	-11.7564
▁Kauf	-11.7568
▁einzig	-11.7573
▁rent	-11.7576
▁aufeinander	-11.7577
▁printer	-11.758
And	-11.7583
lohn	-11.7586
▁schlimmsten	-11.7587
▁paradox	-11.759
Jährige	-11.759
chirurg	-11.759
▁Baseball	-11.759
▁Columbia	-11.759
▁Feedback	-11.759
▁Studium	-11.759
▁agricultural	-11.759
▁auszudrücken	-11.759
▁breakthrough	-11.759
▁category	-11.759
▁chief	-11.759
▁district	-11.759
▁disturb	-11.759
▁happier	-11.759
▁uncomfortable	-11.759
▁verschwindet	-11.759
▁Verhandlung	-11.759
▁regulation	-11.759
▁verringern	-11.759
▁entwarf	-11.759
▁drückt	-11.759
▁ausdrücken	-11.759
▁MA	-11.759
▁geplant	-11.759
▁neat	-11.759
▁mild	-11.759
▁Verwandte	-11.7591
▁subtle	-11.7591
▁Frühling	-11.7592
▁keyboard	-11.7592
gefertigt	-11.7595
▁spark	-11.7595
▁herausstellt	-11.7595
▁mask	-11.7598
▁Notiz	-11.7598
▁kochen	-11.7601
▁integrated	-11.7602
▁Einblick	-11.7603
▁laid	-11.7609
▁coach	-11.7611
▁Hindernisse	-11.7612
▁Marine	-11.7615
▁Angesicht	-11.762
▁render	-11.7623
plikat	-11.7624
▁Ausgaben	-11.7627
▁Wurzeln	-11.763
▁consequence	-11.764
▁insect	-11.7641
waffe	-11.7642
▁eigen	-11.7645
▁herab	-11.7658
Ent	-11.7663
wachstum	-11.7682
▁rebel	-11.7694
▁sacrifice	-11.77
▁Erkenntnisse	-11.77
▁collaborat	-11.7705
▁aktuellen	-11.7707
jack	-11.7709
▁kulturellen	-11.7711
▁niedriger	-11.7712
▁virtue	-11.772
▁43	-11.772
gemäß	-11.772
Mach	-11.7723
▁physischen	-11.7723
▁spontan	-11.7725
bedingungen	-11.7725
▁Alaska	-11.7725
▁Benutzer	-11.7725
▁Buddha	-11.7725
▁Mechanismus	-11.7725
▁Strahlung	-11.7725
▁Third	-11.7725
▁circa	-11.7725
▁consult	-11.7725
▁fraction	-11.7725
▁fügt	-11.7725
▁gemeinnützige	-11.7725
▁helicopter	-11.7725
▁pandemic	-11.7725
▁reconstruct	-11.7725
▁trivial	-11.7725
▁vacuum	-11.7725
süchtig	-11.7725
▁Everest	-11.7725
▁erledigen	-11.7725
▁absurd	-11.7725
▁Knoten	-11.7725
▁Benzin	-11.7725
brüche	-11.7725
▁Lärm	-11.7725
▁Treibstoff	-11.7725
▁Winkel	-11.7725
lässig	-11.7726
▁Merk	-11.7728
▁richer	-11.7729
▁Kuchen	-11.7729
▁heilige	-11.7729
▁Überall	-11.7729
▁extinction	-11.7734
▁Erziehung	-11.7734
▁portion	-11.7737
▁schade	-11.7741
zustand	-11.7741
▁umzusetzen	-11.7743
▁reactor	-11.7743
▁parties	-11.7749
▁lasst	-11.7749
▁Darm	-11.7763
▁Warte	-11.7771
▁photography	-11.7772
Up	-11.7776
▁Jane	-11.7778
▁dependent	-11.778
▁Journalisten	-11.7784
schlecht	-11.7785
minute	-11.7786
▁separated	-11.7789
partner	-11.7789
▁reduced	-11.7796
▁Hass	-11.7806
▁negativ	-11.7809
shot	-11.7817
zuziehen	-11.7818
▁protecting	-11.7826
wirtschaftliche	-11.7832
▁Archiv	-11.7839
▁branch	-11.7851
▁anxiety	-11.7862
▁Engagement	-11.7862
▁Jupiter	-11.7862
▁Kandidat	-11.7862
▁Parlament	-11.7862
▁Priorität	-11.7862
▁Urknall	-11.7862
▁Wohlbefinden	-11.7862
▁Zufriedenheit	-11.7862
▁accelerate	-11.7862
▁aesthetic	-11.7862
▁agencies	-11.7862
▁bedeutsam	-11.7862
▁dictionary	-11.7862
▁hübsch	-11.7862
▁identified	-11.7862
▁ignorance	-11.7862
▁unterhalb	-11.7862
▁Craig	-11.7862
▁tackle	-11.7862
▁Kennedy	-11.7862
▁Canyon	-11.7862
▁Beitrag	-11.7862
▁Mittlere	-11.7862
▁deutsche	-11.7862
▁Pfeil	-11.7862
▁'60	-11.7863
▁Bereit	-11.7863
▁Edward	-11.7863
▁teilnehmen	-11.7863
▁assess	-11.7864
▁twin	-11.7864
▁Elektronen	-11.7865
▁kühl	-11.7865
▁assignment	-11.7866
schuss	-11.7866
▁southern	-11.7867
▁Griff	-11.7867
▁Mother	-11.7868
▁Lord	-11.7869
küste	-11.787
▁Eingriff	-11.7871
▁highway	-11.7871
▁briefly	-11.7873
▁Clar	-11.7873
▁unlikely	-11.7874
▁merkte	-11.7875
▁Mist	-11.7876
▁Zoo	-11.7877
▁unterhalten	-11.7877
▁sauce	-11.7882
▁Werden	-11.7883
strecken	-11.7883
▁Voll	-11.7883
▁profession	-11.7887
▁visuell	-11.7891
▁Mega	-11.7891
▁Poster	-11.7893
▁betreffen	-11.7896
▁determined	-11.7905
horn	-11.7908
▁immun	-11.7911
▁Raketen	-11.7912
Hmm	-11.7914
▁painted	-11.7914
▁Wide	-11.7918
▁inventor	-11.7921
▁returned	-11.7921
third	-11.7923
flat	-11.7924
Schau	-11.7926
Mensch	-11.7933
▁Königin	-11.7933
▁Auswirkung	-11.7936
▁zukünftigen	-11.7936
▁Astro	-11.7939
▁billiger	-11.794
▁Milo	-11.794
▁Sollte	-11.7942
▁Map	-11.7944
▁Institution	-11.7948
▁AG	-11.795
Test	-11.7954
▁Fahrt	-11.797
▁Reis	-11.7978
geschaltet	-11.7981
▁uncle	-11.7985
zumachen	-11.7996
▁Gestalt	-11.7997
prinzip	-11.8001
blätter	-11.8001
fahrzeug	-11.8001
schaffung	-11.8001
▁1994	-11.8001
▁1995	-11.8001
▁Abhängigkeit	-11.8001
▁Alpha	-11.8001
▁Chinesisch	-11.8001
▁Entschuldigung	-11.8001
▁Kapazität	-11.8001
▁Kohlendioxid	-11.8001
▁Konzentration	-11.8001
▁Nährstoffe	-11.8001
▁Obviously	-11.8001
▁Oktober	-11.8001
▁Privileg	-11.8001
▁Substanz	-11.8001
▁Sylvia	-11.8001
▁Thunfisch	-11.8001
▁bewahren	-11.8001
▁cliff	-11.8001
▁erneuerbare	-11.8001
▁fabulous	-11.8001
▁militärische	-11.8001
▁oxytocin	-11.8001
▁smallpox	-11.8001
▁verurteilt	-11.8001
▁wheelchair	-11.8001
▁Anthrop	-11.8001
▁Management	-11.8001
▁Rechner	-11.8001
▁diskutiert	-11.8001
▁gegessen	-11.8001
gewebe	-11.8001
▁Praxis	-11.8001
▁Graph	-11.8001
▁impression	-11.8001
▁Variante	-11.8001
▁Scheibe	-11.8001
▁bathroom	-11.8001
▁convey	-11.8001
▁Bundesstaat	-11.8001
▁verlangen	-11.8001
▁Montana	-11.8001
▁Mikroskop	-11.8001
▁Nervenzellen	-11.8001
▁tragic	-11.8002
▁Branche	-11.8002
▁Luther	-11.8002
▁klingen	-11.8002
▁vorhersagen	-11.8003
▁pathway	-11.8003
▁Gegenstand	-11.8003
▁Sierra	-11.8003
▁leise	-11.8004
▁islamische	-11.8004
üssig	-11.8005
▁attractive	-11.8005
▁kiss	-11.8005
▁Dennoch	-11.8005
▁Linse	-11.8007
▁winner	-11.8007
▁globalization	-11.8009
▁Riff	-11.801
▁Jung	-11.8011
▁herstellt	-11.8014
▁Yu	-11.8016
▁Lieder	-11.8017
▁constructed	-11.8022
▁tension	-11.8023
▁tied	-11.8028
schaltet	-11.8028
▁repeated	-11.8029
▁institutional	-11.8029
▁promot	-11.803
▁zurückkommen	-11.8032
▁originally	-11.8034
▁langfristige	-11.8037
▁wünschen	-11.8039
▁hanging	-11.804
▁einzusetzen	-11.8044
▁reminded	-11.805
▁Data	-11.8055
▁None	-11.8056
▁dinosaur	-11.8063
style	-11.8069
versuch	-11.8074
▁crossing	-11.808
▁Fernseher	-11.8081
zulassen	-11.8082
▁electro	-11.8083
▁crystal	-11.8092
geteilt	-11.8093
▁Nachbar	-11.8094
▁Democrat	-11.8102
weichen	-11.8109
▁Schreib	-11.8115
▁AK	-11.8116
▁Meme	-11.812
▁34	-11.8123
▁Senat	-11.8127
viertel	-11.8135
▁Afghan	-11.8142
▁Phoenix	-11.8142
▁Joshua	-11.8142
▁October	-11.8142
▁Völker	-11.8142
▁akzeptiert	-11.8142
▁alcohol	-11.8142
▁außerordentlich	-11.8142
▁contribution	-11.8142
▁explode	-11.8142
▁facility	-11.8142
▁fragile	-11.8142
▁kombiniert	-11.8142
▁primarily	-11.8142
▁schlussendlich	-11.8142
▁verhindert	-11.8142
▁vielfältig	-11.8142
▁ärmsten	-11.8142
▁präzise	-11.8142
▁besaß	-11.8142
▁chaos	-11.8142
▁schmerzhaft	-11.8142
missbrauch	-11.8142
▁Syria	-11.8142
▁optimal	-11.8142
▁bewirkt	-11.8142
▁injury	-11.8142
▁audio	-11.8142
▁naked	-11.8142
▁dominate	-11.8142
▁Filter	-11.8142
▁erkunden	-11.8142
▁sensory	-11.8142
▁agency	-11.8142
▁Pläne	-11.8142
▁motiviert	-11.8142
▁copyright	-11.8142
▁zahlreiche	-11.8142
▁vernetzt	-11.8142
▁Fußball	-11.8142
▁Autorität	-11.8143
▁braun	-11.8144
▁discoveries	-11.8144
▁bullet	-11.8145
▁permission	-11.8145
▁Schock	-11.8147
▁Bedenken	-11.8148
▁Alice	-11.8149
▁Arabic	-11.8149
▁4,000	-11.8149
▁Ehrlich	-11.815
▁interpretation	-11.8151
▁rope	-11.8152
stärke	-11.8153
▁boil	-11.8156
▁Master	-11.8157
▁rarely	-11.8159
▁audit	-11.816
resistant	-11.8164
▁PR	-11.8166
▁DR	-11.8167
▁Oel	-11.8173
▁inches	-11.8176
▁Tun	-11.8185
▁Liter	-11.8201
▁pushed	-11.8203
wide	-11.8203
related	-11.8205
engineer	-11.8206
Programm	-11.8206
Kopf	-11.8206
▁lud	-11.8206
▁predicted	-11.8208
▁ausführen	-11.8209
▁Höhle	-11.8219
▁Genie	-11.8219
Komm	-11.8221
99	-11.8223
erkennung	-11.8223
▁holte	-11.8229
kampf	-11.8233
▁Mont	-11.8238
fremd	-11.8241
▁pole	-11.8245
menschen	-11.8245
rude	-11.8257
▁Pur	-11.8261
▁Zone	-11.8268
gesichts	-11.8271
▁helpful	-11.8273
▁bath	-11.8278
▁Produktivität	-11.8285
fabrik	-11.8285
pflanzt	-11.8285
▁Individuum	-11.8285
▁Prüfung	-11.8285
▁Richtlinie	-11.8285
▁anticipate	-11.8285
▁attribute	-11.8285
▁aufmerksam	-11.8285
▁automobile	-11.8285
▁dialogue	-11.8285
▁disagree	-11.8285
▁ehemalige	-11.8285
▁ethnic	-11.8285
▁excuse	-11.8285
▁expansion	-11.8285
▁genocide	-11.8285
▁glacier	-11.8285
▁grandchildren	-11.8285
▁ignoriert	-11.8285
▁inevitable	-11.8285
▁offiziell	-11.8285
▁threshold	-11.8285
▁recipe	-11.8285
▁unterscheidet	-11.8285
▁rabbi	-11.8285
▁Turk	-11.8285
▁versagt	-11.8285
▁Babies	-11.8285
▁confirm	-11.8285
▁überprüfen	-11.8285
▁scharf	-11.8285
▁ultra	-11.8285
▁figuring	-11.8285
▁punch	-11.8285
röhre	-11.8285
▁Gemeinsam	-11.8285
▁fought	-11.8285
▁Verbraucher	-11.8285
▁Manager	-11.8285
▁verbrauchen	-11.8285
▁erlangen	-11.8285
▁shopping	-11.8285
gewalt	-11.8285
▁gewinnt	-11.8285
▁arrow	-11.8285
▁zugrunde	-11.8285
▁Lebensqualität	-11.8286
▁anonymous	-11.8286
▁Arbeitsplatz	-11.8286
▁begun	-11.8286
▁ooh	-11.8286
▁Larry	-11.8286
▁Halb	-11.8287
▁Fleck	-11.8287
▁Menschlichkeit	-11.8288
▁Schreibtisch	-11.8289
▁scanner	-11.8289
▁Spenden	-11.8289
▁infant	-11.829
▁fool	-11.8291
▁profitieren	-11.8293
▁shine	-11.8293
▁beachten	-11.8294
▁Stau	-11.8294
▁garage	-11.8298
▁snap	-11.8298
▁Juden	-11.83
▁artistic	-11.83
pfel	-11.8302
▁Del	-11.8302
duce	-11.8305
▁geblieben	-11.8306
▁Gehör	-11.8308
▁extended	-11.831
▁gathering	-11.831
volt	-11.8312
▁fordert	-11.8316
▁translated	-11.832
▁Haltung	-11.8327
▁angetrieben	-11.8328
frau	-11.8329
▁assemble	-11.8339
▁Köpfen	-11.834
gebildet	-11.8341
▁expanding	-11.8342
▁angekommen	-11.8344
▁farming	-11.835
Boot	-11.8352
organisation	-11.8363
▁Bomben	-11.8364
▁Route	-11.8372
▁hä	-11.838
skop	-11.8383
▁duck	-11.8397
tauchen	-11.8402
ER	-11.841
▁Fotografie	-11.8424
▁fulfill	-11.8424
katastrophe	-11.8429
thiopien	-11.8429
▁Allerdings	-11.8429
▁Anhänger	-11.8429
▁Bangladesh	-11.8429
▁Empathie	-11.8429
▁Stewart	-11.8429
▁Thailand	-11.8429
▁frequency	-11.8429
▁sacred	-11.8429
▁treibt	-11.8429
▁zwölf	-11.8429
risiko	-11.8429
▁Fossil	-11.8429
▁Konzert	-11.8429
▁Liefer	-11.8429
▁Regenwald	-11.8429
▁chromosome	-11.8429
▁elderly	-11.8429
▁Versicherung	-11.8429
▁burst	-11.8429
▁Erscheinung	-11.843
▁theoretisch	-11.843
▁programmieren	-11.843
▁weiterentwickel	-11.843
▁Venus	-11.843
▁involviert	-11.843
▁installation	-11.843
▁Merkmale	-11.843
▁wandert	-11.843
▁Bescheid	-11.843
▁beschützen	-11.843
▁üben	-11.843
▁genial	-11.843
▁reinvent	-11.843
frucht	-11.843
▁Kanal	-11.843
▁blink	-11.843
▁Austausch	-11.8431
▁Kluft	-11.8431
▁Protest	-11.8434
▁programmer	-11.8435
▁rice	-11.8435
▁Pocken	-11.8436
▁Hochzeit	-11.8439
▁emit	-11.844
▁mindset	-11.8444
▁Güter	-11.8448
▁arabische	-11.8449
▁EU	-11.8449
▁Tiger	-11.845
▁biologisch	-11.8462
▁suggestion	-11.8465
▁ethic	-11.8468
▁emerged	-11.8477
▁additional	-11.8484
▁Solarzelle	-11.8489
▁gases	-11.8493
▁educate	-11.8495
▁bereitet	-11.8496
fest	-11.8497
▁throwing	-11.8498
Sahara	-11.8498
witz	-11.8499
control	-11.85
▁victim	-11.8504
▁soldier	-11.8507
Star	-11.851
▁Besitzer	-11.8516
▁beginne	-11.8521
fehler	-11.8523
▁bang	-11.8524
nehmer	-11.8537
mutig	-11.8553
kontrolle	-11.8554
▁Pack	-11.8554
▁intensiv	-11.856
▁sauber	-11.8562
▁precise	-11.8568
Chromosom	-11.8577
▁confident	-11.8577
▁ecological	-11.8577
▁'90	-11.8577
▁1997	-11.8577
▁Analogie	-11.8577
▁Erwärmung	-11.8577
▁Glühbirne	-11.8577
▁Himalaya	-11.8577
▁Horizont	-11.8577
▁Through	-11.8577
▁abilities	-11.8577
▁disappoint	-11.8577
▁gesünder	-11.8577
▁mysterious	-11.8577
▁participation	-11.8577
▁purchase	-11.8577
▁resilience	-11.8577
▁skeptic	-11.8577
▁verknüpft	-11.8577
▁attraktiv	-11.8577
▁nördlich	-11.8577
Glücklicherweise	-11.8577
▁Offensichtlich	-11.8577
▁diagnosed	-11.8577
▁barrel	-11.8577
▁erzielen	-11.8577
▁Arbeitsplätze	-11.8577
▁'70	-11.8577
▁Seven	-11.8577
▁trennen	-11.8578
▁verwandt	-11.8578
▁Things	-11.8578
▁abgeschlossen	-11.8578
▁beetle	-11.8578
84	-11.8578
▁umfasst	-11.8578
▁Gleichheit	-11.8578
▁collaborative	-11.8579
▁Anerkennung	-11.8579
▁blicken	-11.858
▁Konstruktion	-11.858
▁spray	-11.858
▁Amazonas	-11.858
▁Simon	-11.858
▁forgotten	-11.8581
▁highlight	-11.8582
▁Ladung	-11.8582
▁weitermachen	-11.8583
▁stunt	-11.8583
▁nuts	-11.8583
▁sicherstellen	-11.8586
▁imagery	-11.8588
▁Dauer	-11.8588
▁concentration	-11.8589
▁grob	-11.8591
▁proposed	-11.8595
kasten	-11.8599
breite	-11.8602
▁Beute	-11.8603
▁diesmal	-11.8604
▁Partnerschaft	-11.8606
▁Trag	-11.8616
▁Einmal	-11.8618
▁errichten	-11.8621
space	-11.8628
▁failing	-11.8628
▁Früher	-11.8629
▁sendet	-11.8631
▁Sorry	-11.8632
▁effizienter	-11.8635
▁suggested	-11.8638
schlaf	-11.8638
▁rotate	-11.864
▁finanziell	-11.8643
▁bedenken	-11.8644
▁served	-11.8645
body	-11.8646
▁ratio	-11.8647
interest	-11.8647
sprung	-11.8648
organism	-11.8649
When	-11.8652
keep	-11.8654
▁difficulty	-11.8668
zog	-11.8678
▁peaceful	-11.8682
▁umfassende	-11.8695
▁Güte	-11.8707
▁immediate	-11.8717
flow	-11.8719
kämpfe	-11.8725
höhe	-11.8726
▁Arctic	-11.8726
▁Council	-11.8726
▁Direktor	-11.8726
▁Dopamin	-11.8726
▁Flughafen	-11.8726
▁Pazifik	-11.8726
▁Philadelphia	-11.8726
▁Plätze	-11.8726
▁Tibet	-11.8726
▁astonishing	-11.8726
▁biodiversity	-11.8726
▁buried	-11.8726
▁colonies	-11.8726
▁eliminate	-11.8726
▁expedition	-11.8726
▁pioneer	-11.8726
▁simulate	-11.8726
▁struggling	-11.8726
▁tweet	-11.8726
▁unangenehm	-11.8726
▁cheese	-11.8726
▁unfair	-11.8726
▁whatsoever	-11.8726
▁Apollo	-11.8726
▁Balance	-11.8726
▁devil	-11.8726
▁Mühe	-11.8726
sektor	-11.8726
▁ermutigen	-11.8726
▁differ	-11.8726
▁Schwerkraft	-11.8726
▁ethische	-11.8726
▁Somebody	-11.8726
▁baseball	-11.8726
▁1984	-11.8727
▁programming	-11.8727
▁Peace	-11.8727
▁lean	-11.8727
▁merely	-11.8729
▁2015	-11.8729
klatsch	-11.8729
▁dumb	-11.873
▁schlicht	-11.873
▁Hätte	-11.873
▁Anzeichen	-11.873
▁Statt	-11.8731
gehoben	-11.8733
▁hitting	-11.8734
▁sank	-11.8737
▁Erforschung	-11.874
▁Abstand	-11.8742
▁radically	-11.8743
▁berechnet	-11.8745
▁Pille	-11.8748
▁openness	-11.875
▁chat	-11.8752
▁20.000	-11.8755
▁hackers	-11.8758
▁spirituelle	-11.8759
ändern	-11.8759
▁Christen	-11.878
away	-11.8784
türme	-11.8795
betrieb	-11.8807
istan	-11.8812
▁MS	-11.8818
▁photographed	-11.8819
▁Köpfe	-11.8823
four	-11.8824
million	-11.8828
clock	-11.8836
▁weinen	-11.8841
matik	-11.8846
lethal	-11.8846
▁sew	-11.8849
▁wipe	-11.8868
▁exhibit	-11.8872
70	-11.8873
rechnung	-11.8875
strategie	-11.8876
▁Norwegen	-11.8877
▁Orchester	-11.8877
▁Portugal	-11.8877
▁analysiert	-11.8877
▁bewältigen	-11.8877
▁erledigt	-11.8877
▁erstaunt	-11.8877
▁expectancy	-11.8877
▁fertilize	-11.8877
▁primate	-11.8877
▁stieß	-11.8877
▁structural	-11.8877
▁supermarket	-11.8877
▁Auffassung	-11.8877
▁Blüte	-11.8877
▁aufwuchs	-11.8877
▁champion	-11.8877
▁Mahlzeit	-11.8877
▁Später	-11.8877
▁Veranstaltung	-11.8877
▁engagiert	-11.8877
▁irgendwas	-11.8877
▁valley	-11.8877
▁signature	-11.8877
▁Mischung	-11.8877
▁vergleichbar	-11.8877
▁Gerüst	-11.8877
▁Tendenz	-11.8877
▁lenken	-11.8877
▁silly	-11.8877
▁valid	-11.8877
▁Methan	-11.8878
▁trash	-11.8878
analyse	-11.8878
▁Termin	-11.8878
▁Stoffwechsel	-11.8878
▁architectural	-11.8878
▁Säule	-11.8878
▁Sunday	-11.8878
▁grausam	-11.8878
▁stattfinden	-11.8878
▁Herkunft	-11.8878
▁crush	-11.8878
▁Bindung	-11.8878
▁anzuschauen	-11.8878
▁Abendessen	-11.8878
▁slavery	-11.8879
zweck	-11.8879
▁Kamel	-11.8879
▁Übersetzung	-11.8879
▁appearance	-11.888
▁mood	-11.8882
▁Apfel	-11.8882
▁Nike	-11.8883
▁industries	-11.8883
▁selfish	-11.8884
▁unsicher	-11.8885
▁February	-11.8886
▁zweieinhalb	-11.8888
arzt	-11.8892
▁Lampe	-11.8894
▁cake	-11.8897
▁Fakt	-11.89
▁Model	-11.8909
▁dreimal	-11.8911
60	-11.8912
▁shocked	-11.8917
▁successfully	-11.8919
▁1,5	-11.8924
▁Mutation	-11.8931
▁climbing	-11.8935
▁palm	-11.8939
gedruckt	-11.8943
deutet	-11.8947
namen	-11.8952
ellig	-11.8953
▁egg	-11.896
educated	-11.8962
▁47	-11.8963
▁Prototyp	-11.8964
▁disk	-11.8968
▁Journalist	-11.8989
▁98	-11.8996
▁prepare	-11.901
▁kilo	-11.9011
▁Mögliche	-11.9028
diagnose	-11.9031
Nullsummen	-11.9031
▁Bonobo	-11.9031
▁Dezember	-11.9031
▁Kansas	-11.9031
▁Kompromiss	-11.9031
▁Pyramide	-11.9031
▁capabilities	-11.9031
▁compromise	-11.9031
▁finanzieren	-11.9031
▁hypothesis	-11.9031
▁multinational	-11.9031
▁unbelievable	-11.9031
▁durchzuführen	-11.9031
▁geredet	-11.9031
▁Norway	-11.9031
▁methane	-11.9031
▁gewissermaßen	-11.9031
▁wohlhabend	-11.9031
▁Heilung	-11.9031
▁bedienen	-11.9031
▁Väter	-11.9031
▁detailliert	-11.9031
▁civic	-11.9031
▁Apparat	-11.9031
▁generell	-11.9031
▁Mittagessen	-11.9031
▁combat	-11.9031
▁Tesla	-11.9031
▁spürt	-11.9031
▁Distanz	-11.9032
▁trail	-11.9032
märkte	-11.9032
▁nonprofit	-11.9032
▁künstlerische	-11.9032
▁Vielzahl	-11.9032
▁träumen	-11.9032
▁annual	-11.9032
▁Liberia	-11.9033
▁Panik	-11.9033
▁Mentor	-11.9033
▁instant	-11.9033
▁kidney	-11.9033
▁informed	-11.9033
▁condom	-11.9033
▁Republican	-11.9034
▁Auflösung	-11.9034
▁5.000	-11.9037
▁Kurzem	-11.9037
▁confused	-11.9038
19	-11.9039
▁Kühl	-11.904
geholt	-11.904
▁Schall	-11.904
▁damn	-11.904
▁Weltbank	-11.9042
▁längst	-11.9043
▁beliebige	-11.9046
▁Elite	-11.9049
▁woke	-11.9051
▁surprisingly	-11.9052
▁Menschenrechte	-11.9052
▁angeschaut	-11.9055
▁auftauchen	-11.9057
▁warning	-11.9061
▁suffered	-11.9061
gne	-11.9064
▁160	-11.9067
▁inspirierend	-11.9073
▁Schwelle	-11.9077
pflege	-11.9082
▁strongly	-11.9083
▁Deine	-11.9086
▁funded	-11.9088
shaped	-11.9096
▁invested	-11.9101
kopf	-11.9104
▁guck	-11.9108
Modell	-11.9109
food	-11.911
▁Run	-11.9121
▁Hunt	-11.9124
▁Held	-11.9124
▁vorkommen	-11.9126
istori	-11.9127
Mart	-11.9131
kolon	-11.9131
▁trainiert	-11.9148
▁Nutz	-11.9173
▁Februar	-11.9178
▁fortunate	-11.9179
klettert	-11.9186
▁slave	-11.9186
charakter	-11.9187
verbindung	-11.9187
▁December	-11.9187
▁Jefferson	-11.9187
▁Kleider	-11.9187
▁Namibia	-11.9187
▁Should	-11.9187
▁Society	-11.9187
▁Technology	-11.9187
▁Töchter	-11.9187
▁Voraussetzung	-11.9187
▁Währung	-11.9187
▁bestätigt	-11.9187
▁choosing	-11.9187
▁extension	-11.9187
▁hemisphere	-11.9187
▁kombinieren	-11.9187
▁konstruiert	-11.9187
▁nutrition	-11.9187
▁züchten	-11.9187
▁microbial	-11.9187
bürger	-11.9187
▁Elektronik	-11.9187
▁Programmierer	-11.9187
▁snake	-11.9187
▁parasite	-11.9187
▁vertikal	-11.9187
▁Brut	-11.9188
▁Tafel	-11.9188
▁elected	-11.9188
▁senken	-11.9188
▁leaf	-11.9188
▁pride	-11.9188
▁Bandbreite	-11.9188
▁broadcast	-11.9188
▁Italian	-11.9188
▁uncertainty	-11.9188
▁grasp	-11.9188
▁bribe	-11.9188
▁Wollen	-11.9188
▁Offenheit	-11.9188
flasche	-11.9188
▁marketplace	-11.9188
▁bewerten	-11.9188
▁Supermarkt	-11.9189
▁Wörterbuch	-11.9189
▁stoßen	-11.9189
seitige	-11.9189
▁vereint	-11.919
▁Autobahn	-11.919
▁Vereinte	-11.919
▁homework	-11.9192
▁Sturm	-11.9193
▁geliebt	-11.9194
▁Zeile	-11.9194
▁tanzt	-11.9194
▁vielerlei	-11.9194
▁weekend	-11.9195
▁Versagen	-11.9196
▁Wohin	-11.9197
▁trainieren	-11.92
▁52	-11.9201
25	-11.9201
▁50.000	-11.9206
▁grossartig	-11.9208
▁stole	-11.9212
inblick	-11.9213
▁adopted	-11.9221
▁Lust	-11.9223
▁Geo	-11.9224
▁Ego	-11.9224
▁universelle	-11.9229
▁mixed	-11.9231
luft	-11.9232
nerv	-11.9248
other	-11.9254
Maschine	-11.9268
▁manipulate	-11.9283
▁Max	-11.9285
stiegen	-11.9285
▁Einrichtung	-11.9289
▁ökologische	-11.9309
grün	-11.9322
▁herumzu	-11.9333
quarters	-11.9337
▁Trotz	-11.9346
▁Förder	-11.9346
Krankenschwester	-11.9346
sufficient	-11.9346
▁Kosovo	-11.9346
▁Nachmittag	-11.9346
▁Oklahoma	-11.9346
▁Optimismus	-11.9346
▁PowerPoint	-11.9346
▁Rollstuhl	-11.9346
▁Treibhausgase	-11.9346
▁Verzweiflung	-11.9346
▁beantwortet	-11.9346
▁compelling	-11.9346
▁distinguish	-11.9346
▁erheblich	-11.9346
▁experiencing	-11.9346
▁gradually	-11.9346
▁grösser	-11.9346
▁paralyzed	-11.9346
▁strategic	-11.9346
▁survivor	-11.9346
▁äußere	-11.9346
verständnis	-11.9346
▁RNA	-11.9346
▁begegnet	-11.9346
▁magnitude	-11.9346
▁begleitet	-11.9346
▁Tanzania	-11.9346
▁closing	-11.9346
▁Turkey	-11.9346
▁Bruch	-11.9346
▁unheimlich	-11.9346
▁orphan	-11.9346
▁hypo	-11.9346
gefroren	-11.9346
▁crawl	-11.9346
▁Evan	-11.9346
▁motivieren	-11.9347
▁Court	-11.9347
▁speichern	-11.9347
▁Geschäftsmodell	-11.9347
▁friedlich	-11.9347
▁authorities	-11.9347
▁Gewässer	-11.9347
▁Automobil	-11.9348
wächs	-11.9348
▁shout	-11.9349
pflicht	-11.935
▁genetically	-11.935
▁Unfälle	-11.9351
▁Power	-11.9351
▁verheiratet	-11.9352
bewusstsein	-11.9353
▁compassionate	-11.9354
titel	-11.9355
▁Trade	-11.9358
▁realizing	-11.936
ergebnisse	-11.936
▁Hack	-11.9361
▁Eingang	-11.9361
▁neulich	-11.9365
▁Tja	-11.9366
schwäche	-11.9366
▁Einsicht	-11.9367
▁zahlt	-11.9368
16	-11.9375
▁zentral	-11.9377
wash	-11.9377
▁fastest	-11.9378
▁richtet	-11.9384
bericht	-11.9384
▁disconnect	-11.9406
onnen	-11.9407
holder	-11.941
▁180	-11.9417
augen	-11.9418
organizing	-11.9421
gebrochen	-11.9429
aeda	-11.9435
▁Architekt	-11.9438
mütig	-11.9439
stimme	-11.944
▁Berechnung	-11.9443
▁Ameise	-11.9449
▁185	-11.9452
▁Zivil	-11.9475
▁logical	-11.9478
▁Wunde	-11.9498
▁commit	-11.9506
wässer	-11.9506
▁horizon	-11.9507
schirm	-11.9507
▁Gewohnheit	-11.9507
▁Gravitation	-11.9507
▁Hardware	-11.9507
▁Hersteller	-11.9507
▁Hühner	-11.9507
▁Immunsystem	-11.9507
▁Phosphor	-11.9507
▁Türkei	-11.9507
▁Wünsche	-11.9507
▁Zentimeter	-11.9507
▁beneath	-11.9507
▁chamber	-11.9507
▁einschließlich	-11.9507
▁embryo	-11.9507
▁fortgeschritten	-11.9507
▁interrupt	-11.9507
▁leather	-11.9507
▁stattfindet	-11.9507
▁trajectory	-11.9507
▁verwirrt	-11.9507
▁überwältigend	-11.9507
▁burden	-11.9507
▁uniform	-11.9507
▁probieren	-11.9507
▁Pharma	-11.9507
▁cousin	-11.9507
▁cruel	-11.9507
▁creator	-11.9507
▁innocent	-11.9507
▁Gehalt	-11.9508
▁gewohnt	-11.9508
regierung	-11.9508
▁Engel	-11.9508
▁statistisch	-11.9508
▁membrane	-11.9508
▁winning	-11.9508
▁Einzige	-11.9508
▁Unsicherheit	-11.9508
▁mining	-11.9508
▁prüfen	-11.9509
netzwerk	-11.9509
▁Flüsse	-11.9509
▁Food	-11.9509
▁Snowden	-11.9509
▁compress	-11.951
▁Geheimnisse	-11.951
▁Kids	-11.9511
case	-11.9512
▁Garage	-11.9512
▁Ausschnitt	-11.9512
▁informiert	-11.9513
▁besides	-11.9513
▁Klick	-11.9514
▁verhält	-11.9514
▁steril	-11.9515
▁verfügen	-11.9518
▁campus	-11.9518
▁initially	-11.9519
▁Roger	-11.952
▁projection	-11.9527
▁Iranian	-11.9527
▁tar	-11.953
▁homeless	-11.953
▁profoundly	-11.9531
▁widely	-11.9531
behindert	-11.9533
▁TEDx	-11.9534
200	-11.9537
▁endless	-11.954
▁defi	-11.9541
▁Way	-11.9542
▁künstlich	-11.9545
hnung	-11.9562
▁1,2	-11.957
▁Angel	-11.9573
▁Rente	-11.9584
▁Genetik	-11.9587
patient	-11.9593
♫	-11.9593
bomb	-11.96
▁thermo	-11.9602
▁giftige	-11.9605
Plan	-11.9607
sparen	-11.9613
▁450	-11.9614
▁schickt	-11.9619
▁Grundstück	-11.9632
▁statistical	-11.9642
blog	-11.9662
▁Hundert	-11.9669
▁legitim	-11.967
▁Phantom	-11.9671
▁Arduino	-11.9671
▁Bangalore	-11.9671
▁Berührung	-11.9671
▁Fettleibigkeit	-11.9671
▁Getreide	-11.9671
▁Ignoranz	-11.9671
▁Industrial	-11.9671
▁Reichweite	-11.9671
▁Sklaven	-11.9671
▁Trinkwasser	-11.9671
▁Vernunft	-11.9671
▁Verwaltung	-11.9671
▁Widerspruch	-11.9671
▁accus	-11.9671
▁akademische	-11.9671
▁beeindruckt	-11.9671
▁circulat	-11.9671
▁curriculum	-11.9671
▁enterprise	-11.9671
▁facilities	-11.9671
▁scheitern	-11.9671
▁stimulate	-11.9671
▁vergewaltigt	-11.9671
▁vulnerability	-11.9671
eanwhile	-11.9671
konomie	-11.9671
▁Arabisch	-11.9671
▁Käse	-11.9671
▁Office	-11.9671
▁qualities	-11.9671
▁Aufzeichnungen	-11.9671
▁ambition	-11.9671
▁überqueren	-11.9671
ströme	-11.9671
▁Poesie	-11.9671
▁interior	-11.9671
▁shrink	-11.9671
▁tendency	-11.9671
▁verarbeitet	-11.9671
▁Bewertung	-11.9671
bewohner	-11.9671
▁Sudan	-11.9671
▁Yemen	-11.9671
▁tongue	-11.9671
▁browse	-11.9672
▁verboten	-11.9672
▁Tiefsee	-11.9672
▁beschleunigen	-11.9672
▁Arzneimittel	-11.9672
▁Nepal	-11.9672
forscher	-11.9672
sperrt	-11.9672
▁programmiert	-11.9672
▁rail	-11.9672
▁Solche	-11.9672
▁'80	-11.9673
▁distort	-11.9673
▁marry	-11.9673
▁präsentieren	-11.9673
▁Mittelpunkt	-11.9674
▁Without	-11.9674
▁fence	-11.9674
▁Blitz	-11.9676
▁native	-11.9676
▁subway	-11.9676
▁footage	-11.9676
▁Abschnitt	-11.9677
▁Ausgang	-11.9678
▁bored	-11.9678
▁Down	-11.9678
▁Orange	-11.9678
▁Chr	-11.9681
▁Northern	-11.9688
▁Rohr	-11.969
▁stamp	-11.969
Lass	-11.9691
▁Maria	-11.9694
▁präsentiert	-11.9696
▁geek	-11.97
▁Music	-11.9701
▁Schach	-11.9705
▁Ersatz	-11.9714
▁Urteil	-11.9716
ombin	-11.9717
maßnahme	-11.9729
lampe	-11.9731
check	-11.9732
▁classical	-11.9733
▁kritisch	-11.9734
▁rob	-11.9739
▁Sprecher	-11.974
▁Allein	-11.9747
▁naive	-11.9751
geschrieben	-11.976
▁Ufer	-11.9762
▁derzeitige	-11.9764
▁Alan	-11.9767
treue	-11.978
▁Lunge	-11.978
▁140	-11.9795
plex	-11.9797
▁riesig	-11.9809
ländische	-11.9825
▁Nazi	-11.9825
abend	-11.983
firmen	-11.9832
ffnung	-11.9836
erkrankung	-11.9837
▁overwhelming	-11.9838
Syndrom	-11.9838
symmetrisch	-11.9838
▁Anwälte	-11.9838
▁Cloud	-11.9838
▁Glamour	-11.9838
▁Interpretation	-11.9838
▁LHC	-11.9838
▁LKW	-11.9838
▁Michigan	-11.9838
▁coordinate	-11.9838
▁dilemma	-11.9838
▁ethnische	-11.9838
▁frustrated	-11.9838
▁gelähmt	-11.9838
▁glamorous	-11.9838
▁jahrelang	-11.9838
▁optimism	-11.9838
▁reproduce	-11.9838
▁rubber	-11.9838
▁simultaneously	-11.9838
▁sponsor	-11.9838
▁tsunami	-11.9838
▁unprecedented	-11.9838
▁vergrößert	-11.9838
▁verstärkt	-11.9838
▁zutiefst	-11.9838
▁Behauptung	-11.9838
▁Führungskräfte	-11.9838
▁Reihenfolge	-11.9838
▁chaotisch	-11.9838
▁generous	-11.9838
▁miserable	-11.9838
▁Tunnel	-11.9838
▁Jill	-11.9838
▁Lügen	-11.9838
▁pulse	-11.9838
klettern	-11.9838
▁überwachen	-11.9838
▁Cousin	-11.9838
▁Lewis	-11.9838
▁Vorlesung	-11.9838
▁Dutch	-11.9838
▁intersection	-11.9838
▁Töne	-11.9838
▁nutrients	-11.9839
lehrer	-11.9839
▁banana	-11.9839
▁defeat	-11.9839
▁Hilfsmittel	-11.9839
▁Mücke	-11.9839
▁Königreich	-11.9839
▁eingeschlossen	-11.9839
▁vielmals	-11.9839
generating	-11.984
▁factories	-11.984
▁betonen	-11.9841
▁Pink	-11.9841
▁Genauso	-11.9842
▁rose	-11.9844
▁wodurch	-11.9845
▁flee	-11.9845
▁allererste	-11.9847
▁gesucht	-11.9847
▁instantly	-11.9848
▁uralte	-11.9848
▁detection	-11.9849
▁clothing	-11.985
legung	-11.9851
▁hierfür	-11.9853
▁Mord	-11.9855
spalte	-11.9856
riss	-11.9857
▁nerd	-11.9862
freiheit	-11.9863
▁gathered	-11.9863
uous	-11.9865
▁significantly	-11.987
▁Feier	-11.987
▁Fundament	-11.987
▁conducted	-11.9872
▁detector	-11.9872
beispiel	-11.9876
▁transportiert	-11.9881
▁shit	-11.9881
▁March	-11.9885
▁hunter	-11.9899
▁fatal	-11.9902
▁physisch	-11.9905
trägt	-11.9906
nutzen	-11.9907
▁basieren	-11.9938
brot	-11.9958
planet	-11.996
▁historisch	-11.9969
Sti	-11.9976
Ihr	-11.9978
mitglieder	-11.9982
▁propose	-11.9987
DP	-11.9992
▁lese	-11.9995
zutreten	-12.0002
gespräch	-12.0007
▁1991	-12.0007
▁Babbage	-12.0007
▁Carnegie	-12.0007
▁Edinburgh	-12.0007
▁Friday	-12.0007
▁Hospital	-12.0007
▁Kalorien	-12.0007
▁Unabhängigkeit	-12.0007
▁Zuhörer	-12.0007
▁acoustic	-12.0007
▁contemporary	-12.0007
▁eröffnen	-12.0007
▁improving	-12.0007
▁steigern	-12.0007
▁ultimative	-12.0007
▁vergrößern	-12.0007
▁Demonstration	-12.0007
▁Jäger	-12.0007
▁Luxus	-12.0007
▁Rhythmus	-12.0007
▁Selektion	-12.0007
▁befragt	-12.0007
▁eBay	-12.0007
▁garbage	-12.0007
▁ähnelt	-12.0007
▁NSA	-12.0008
▁schwanger	-12.0008
▁spontaneous	-12.0008
▁versorgt	-12.0008
▁Club	-12.0008
▁Jazz	-12.0008
▁bräuchte	-12.0008
▁garantiert	-12.0008
▁ownership	-12.0008
▁Installation	-12.0008
▁despair	-12.0008
▁gigantische	-12.0008
▁cotton	-12.0008
zentren	-12.0008
▁Kühe	-12.0008
▁Motto	-12.0008
▁Dreieck	-12.0008
kunst	-12.0008
▁verbrennen	-12.0008
▁expertise	-12.0008
▁wildlife	-12.0008
▁gentleman	-12.0008
▁Zehen	-12.0009
▁lever	-12.0009
▁sicherzustellen	-12.001
▁Point	-12.0011
▁Vieh	-12.0012
▁Kunststoff	-12.0014
blatt	-12.0015
▁Water	-12.0018
▁morality	-12.0018
▁Bären	-12.0019
▁Susan	-12.0021
▁healthier	-12.0022
▁civilian	-12.0023
▁analogy	-12.0023
▁Fair	-12.0025
▁Coke	-12.0025
▁reflection	-12.0027
▁agreement	-12.0028
▁30,000	-12.0035
kanal	-12.0035
▁Leder	-12.0037
▁wealthy	-12.0039
▁Rang	-12.0042
▁delivery	-12.0044
▁Treib	-12.0045
▁Gab	-12.0047
▁Dritte	-12.0068
gefangen	-12.0069
▁bush	-12.0077
LT	-12.0079
▁74	-12.008
▁schlimmste	-12.0087
▁quo	-12.0099
positiv	-12.0101
geworfen	-12.0101
efficient	-12.0102
▁individuell	-12.0103
Bild	-12.0105
▁restliche	-12.0112
▁update	-12.0117
▁persist	-12.012
▁Affe	-12.0122
schicken	-12.0122
▁markiert	-12.0124
▁Formel	-12.013
Vor	-12.0134
▁Chor	-12.0135
▁langfristig	-12.0135
kologie	-12.0143
führ	-12.0149
▁Kämpfe	-12.0152
▁zeichnete	-12.0153
▁glaub	-12.0163
▁Laur	-12.0164
▁Russ	-12.0176
▁streng	-12.0177
▁1993	-12.018
▁Amsterdam	-12.018
▁Bakterium	-12.018
▁Bedauern	-12.018
▁Expedition	-12.018
▁Feuerwehr	-12.018
▁Kiribati	-12.018
▁Stabilität	-12.018
▁Tokyo	-12.018
▁Ungefähr	-12.018
▁categories	-12.018
▁cosmic	-12.018
▁cricket	-12.018
▁fröhlich	-12.018
▁located	-12.018
▁nukleare	-12.018
▁reducing	-12.018
▁Primaten	-12.018
▁Princeton	-12.018
▁dopamine	-12.018
▁sanft	-12.018
▁triangle	-12.018
▁theoretical	-12.018
▁tätig	-12.018
▁zwang	-12.018
▁stattfand	-12.018
▁Watch	-12.018
▁amateur	-12.018
▁inhabit	-12.018
▁Royal	-12.018
▁Gramm	-12.018
▁auswählen	-12.018
▁tragisch	-12.018
▁refine	-12.018
▁Nathan	-12.018
▁Solarenergie	-12.018
▁hofft	-12.018
▁Einkaufs	-12.018
▁descend	-12.018
▁Tropfen	-12.018
▁threatened	-12.018
▁darzustellen	-12.018
▁ongoing	-12.0181
▁Emily	-12.0181
papier	-12.0181
▁Drittens	-12.0181
▁commission	-12.0181
▁shipping	-12.0181
▁brennen	-12.0182
▁representative	-12.0182
▁externe	-12.0182
▁Karo	-12.0183
▁125	-12.0183
▁Besser	-12.0184
▁drüber	-12.0184
▁quest	-12.0184
▁addiction	-12.0186
kugel	-12.0186
▁workplace	-12.0187
▁Kino	-12.0187
▁Hafen	-12.0187
▁redesign	-12.0187
▁Leone	-12.0188
Diese	-12.0189
▁Gelb	-12.019
▁rannte	-12.0191
▁bench	-12.0191
▁Cape	-12.0192
▁Wochenende	-12.0193
kenntnis	-12.0196
▁hunting	-12.0198
verlust	-12.0198
▁Spain	-12.0198
▁beizubringen	-12.0198
▁someday	-12.0202
▁established	-12.0204
▁Carol	-12.0205
▁Peru	-12.0209
▁aktiviert	-12.0215
▁Both	-12.0218
new	-12.0223
▁germ	-12.0226
▁Moon	-12.0229
▁Anfänge	-12.0238
▁neo	-12.0241
stapel	-12.0242
▁float	-12.0246
Robo	-12.026
▁specialist	-12.0262
▁Bombe	-12.027
wollen	-12.0276
▁Dimension	-12.0289
▁humbl	-12.0289
▁vent	-12.0295
▁Ernte	-12.03
richtig	-12.0315
name	-12.0323
▁lobe	-12.0338
halle	-12.0348
▁sculpt	-12.0355
▁Deutsch	-12.0355
Herangehensweise	-12.0355
▁Although	-12.0355
▁Entropie	-12.0355
▁Erlaubnis	-12.0355
▁Fußgänger	-12.0355
▁Götter	-12.0355
▁Michelangelo	-12.0355
▁Notwendigkeit	-12.0355
▁OECD	-12.0355
▁Psychologen	-12.0355
▁Rhyth	-12.0355
▁Urlaub	-12.0355
▁Wohltätigkeit	-12.0355
▁Zigarette	-12.0355
▁Zimbabwe	-12.0355
▁benannt	-12.0355
▁entropy	-12.0355
▁excellent	-12.0355
▁geprägt	-12.0355
▁matrix	-12.0355
▁spezialisiert	-12.0355
▁substantial	-12.0355
▁Jedoch	-12.0355
▁Selbstmord	-12.0355
▁Spanish	-12.0355
[...]
