<pad>	0
<unk>	0
<s>	0
</s>	0
,	-2.80985
.	-3.06813
▁the	-4.00952
s	-4.10143
▁in	-4.40109
'	-4.46425
▁to	-4.47725
▁of	-4.54819
▁die	-4.60493
▁a	-4.60642
▁and	-4.64834
▁und	-4.7318
▁that	-4.81316
▁I	-4.87566
▁	-5.02336
▁der	-5.04453
▁ist	-5.1273
▁is	-5.13321
▁you	-5.14773
▁it	-5.19961
▁das	-5.23251
▁zu	-5.25639
▁we	-5.29074
▁ich	-5.39475
▁wir	-5.4107
▁was	-5.47363
en	-5.47851
-	-5.48212
▁es	-5.48384
n	-5.48565
▁And	-5.51186
t	-5.52167
▁this	-5.57923
▁Sie	-5.61197
▁ein	-5.63459
?	-5.64874
▁sie	-5.65504
:	-5.68064
▁nicht	-5.72683
▁"	-5.73624
▁von	-5.74184
▁--	-5.74934
e	-5.76053
▁an	-5.76206
▁eine	-5.76989
▁dass	-5.77411
▁so	-5.8027
▁Und	-5.85033
▁den	-5.8953
▁for	-5.94349
▁mit	-5.95614
▁are	-5.98498
▁have	-5.99644
▁auf	-6.01254
▁they	-6.03901
▁on	-6.05988
▁So	-6.07416
▁with	-6.11101
▁Ich	-6.13369
▁wie	-6.14474
▁sich	-6.14525
▁can	-6.15374
▁be	-6.15804
re	-6.16378
▁sind	-6.18376
▁what	-6.22029
▁haben	-6.23723
▁für	-6.24932
▁about	-6.25315
▁all	-6.26114
▁man	-6.28876
m	-6.3184
▁war	-6.32321
▁at	-6.40177
▁not	-6.40652
er	-6.40704
▁do	-6.4142
▁als	-6.42855
▁Das	-6.42943
▁um	-6.44637
▁as	-6.48734
▁Es	-6.48962
▁there	-6.49407
▁diese	-6.51506
▁one	-6.51814
."	-6.52733
▁people	-6.53749
▁like	-6.5418
▁It	-6.54337
▁my	-6.55231
▁im	-6.55581
▁dem	-6.56791
▁Wir	-6.57519
▁from	-6.57931
d	-6.58699
ing	-6.62069
▁also	-6.62556
▁wenn	-6.6403
▁uns	-6.6595
▁but	-6.66421
▁aus	-6.66812
▁einen	-6.67915
▁just	-6.71283
▁or	-6.71515
▁We	-6.7204
▁our	-6.72565
▁können	-6.72964
▁werden	-6.7469
▁oder	-6.75321
▁er	-6.7689
▁But	-6.77556
▁very	-6.78179
▁these	-6.78213
▁hat	-6.78726
▁out	-6.78787
▁if	-6.78971
▁me	-6.79233
▁über	-6.79441
▁des	-6.8131
▁The	-6.82051
r	-6.82807
▁know	-6.83021
▁aber	-6.85217
▁going	-6.86116
▁auch	-6.86858
▁by	-6.86922
▁up	-6.87265
▁them	-6.88101
▁einer	-6.8969
▁kann	-6.90352
▁Aber	-6.906
▁when	-6.90868
▁Die	-6.91092
▁einem	-6.9118
ve	-6.92392
▁he	-6.92549
▁because	-6.92739
▁more	-6.93983
▁had	-6.95013
▁think	-6.95226
▁nur	-6.95719
▁see	-6.96277
▁sehr	-6.96445
▁wird	-6.96602
▁which	-6.99452
ed	-7.00045
▁Menschen	-7.0101
▁who	-7.01112
▁your	-7.01888
▁their	-7.02399
▁hier	-7.02518
▁were	-7.02582
▁really	-7.03066
▁will	-7.03412
▁get	-7.03501
▁mich	-7.03713
▁would	-7.03908
▁how	-7.05161
▁♫	-7.05808
▁gibt	-7.06098
▁In	-7.0709
▁–	-7.08274
"	-7.08336
▁dann	-7.09419
▁sein	-7.10914
▁time	-7.1339
▁here	-7.14067
▁us	-7.14786
▁world	-7.1681
▁has	-7.17102
▁etwas	-7.17338
▁This	-7.18003
▁nach	-7.18086
▁noch	-7.18737
▁You	-7.19961
▁habe	-7.21615
▁sehen	-7.21802
▁into	-7.22118
▁some	-7.22445
▁actually	-7.23354
▁way	-7.23522
▁mir	-7.2419
▁don	-7.24664
▁dieser	-7.24854
es	-7.24872
▁vor	-7.25307
▁then	-7.27548
▁things	-7.29092
▁years	-7.29126
▁where	-7.29539
▁go	-7.30731
▁now	-7.30879
▁other	-7.31232
▁Welt	-7.315
▁want	-7.31677
▁mehr	-7.31684
▁Now	-7.32084
▁Wenn	-7.34269
▁bei	-7.35633
▁could	-7.35966
▁They	-7.36414
▁make	-7.37074
;	-7.37142
▁alle	-7.37623
▁been	-7.39226
▁wurde	-7.43605
▁said	-7.44231
▁durch	-7.46135
▁am	-7.46252
▁Ihnen	-7.47009
▁something	-7.48331
ll	-7.49258
▁Er	-7.49499
▁machen	-7.50114
▁right	-7.5032
▁wirklich	-7.51379
▁two	-7.51519
▁no	-7.51795
▁meine	-7.52265
▁zum	-7.52382
▁much	-7.52831
▁than	-7.53099
▁immer	-7.54259
▁those	-7.54567
▁first	-7.55796
▁weil	-7.56479
▁thing	-7.56831
▁tun	-7.57361
▁little	-7.57566
▁got	-7.57805
▁over	-7.57955
▁Also	-7.58786
▁back	-7.5903
▁look	-7.60246
?"	-7.61507
▁say	-7.61967
▁da	-7.6239
▁unsere	-7.62962
▁hatte	-7.63544
▁viel	-7.63756
ly	-7.64489
▁That	-7.64592
▁Zeit	-7.65158
▁keine	-7.66718
▁work	-7.66746
y	-7.67142
▁only	-7.68712
▁ihre	-7.68909
▁need	-7.69491
▁Leute	-7.70339
▁life	-7.70387
▁dieses	-7.71227
▁kind	-7.7206
▁most	-7.72259
▁his	-7.72566
▁viele	-7.72637
▁Leben	-7.7288
▁müssen	-7.73036
▁wo	-7.73456
▁she	-7.73628
▁wissen	-7.7376
▁take	-7.74566
▁diesem	-7.75668
▁lot	-7.75731
▁even	-7.76249
▁her	-7.76276
▁Dinge	-7.76684
▁sagte	-7.76771
▁Was	-7.77153
▁sagen	-7.77219
▁einfach	-7.77413
▁many	-7.77755
▁waren	-7.78044
▁zwei	-7.78283
▁bin	-7.78701
▁Jahren	-7.79517
▁diesen	-7.79968
▁good	-7.80077
▁new	-7.80114
▁andere	-7.80541
▁-	-7.80835
▁Art	-7.8098
▁did	-7.81511
▁around	-7.82097
▁There	-7.82959
▁different	-7.84086
▁jetzt	-7.84563
▁What	-7.84831
▁He	-7.85027
▁ihr	-7.85226
▁A	-7.85409
▁anderen	-7.86069
▁down	-7.86131
▁würde	-7.89556
▁through	-7.90912
▁same	-7.92536
▁du	-7.92609
▁zur	-7.9336
▁damit	-7.93499
in	-7.93608
▁come	-7.93869
▁alles	-7.94028
▁selbst	-7.94783
▁every	-7.94989
▁use	-7.95264
▁Man	-7.95572
▁Der	-7.95599
l	-7.96272
▁eines	-7.96525
▁Jahre	-7.97074
▁bis	-7.973
▁geht	-7.97706
▁being	-7.98006
▁put	-7.98821
▁doing	-7.99087
▁three	-8.01309
▁gut	-8.0147
!	-8.01508
▁Wie	-8.02217
▁muss	-8.0232
▁If	-8.04078
▁day	-8.04506
▁10	-8.04801
▁wieder	-8.05633
▁well	-8.06836
▁mein	-8.06956
▁schon	-8.07735
▁called	-8.08205
te	-8.0903
▁percent	-8.09879
▁any	-8.10349
▁seine	-8.11439
▁Well	-8.11596
▁möchte	-8.11611
al	-8.12023
▁find	-8.12336
▁human	-8.12346
▁denn	-8.12606
▁ihnen	-8.12726
▁vielleicht	-8.12891
▁made	-8.12924
S	-8.12972
▁Kinder	-8.13779
▁Diese	-8.14166
▁Ein	-8.14214
st	-8.14425
▁tell	-8.14805
▁fact	-8.15962
▁davon	-8.17694
▁20	-8.17803
▁why	-8.17857
▁year	-8.18318
▁ob	-8.19473
▁ganz	-8.19752
▁change	-8.19876
▁Nun	-8.19888
▁Geschichte	-8.20666
▁idea	-8.21124
▁talk	-8.21417
▁heute	-8.21535
▁should	-8.21603
▁great	-8.21736
▁today	-8.22764
▁hatten	-8.22787
▁ab	-8.2305
a	-8.23252
▁didn	-8.23704
▁Hier	-8.24112
▁own	-8.24298
▁zurück	-8.2437
▁last	-8.24588
▁drei	-8.24969
▁ihn	-8.25632
▁started	-8.26176
▁let	-8.2634
▁einige	-8.26538
▁könnte	-8.27226
▁thought	-8.27308
▁dort	-8.27395
▁Jahr	-8.27476
▁after	-8.28182
▁course	-8.28404
▁wollen	-8.29125
▁give	-8.29634
▁went	-8.3027
▁paar	-8.30382
▁before	-8.30772
▁still	-8.31019
▁big	-8.31052
▁genau	-8.31084
▁meiner	-8.31128
▁might	-8.31226
▁important	-8.31272
▁gehen	-8.31528
▁nun	-8.31976
▁better	-8.32138
▁darüber	-8.32187
▁wurden	-8.32504
▁problem	-8.32674
▁tatsächlich	-8.32804
▁werde	-8.32834
▁start	-8.33022
▁another	-8.33252
▁Thank	-8.33621
▁part	-8.33947
▁off	-8.34723
▁never	-8.35305
▁sondern	-8.3545
▁able	-8.36009
▁brain	-8.36076
▁Problem	-8.36121
▁system	-8.36449
▁bit	-8.36593
▁unter	-8.37017
▁Beispiel	-8.37024
▁weiter	-8.37328
▁show	-8.37526
k	-8.3793
c	-8.37961
▁Ihre	-8.3827
▁gab	-8.38731
▁Teil	-8.38773
▁ago	-8.38865
▁water	-8.39478
de	-8.39487
▁unserer	-8.39538
▁story	-8.40167
▁Dies	-8.40856
▁together	-8.41
▁next	-8.4105
▁wäre	-8.41345
▁place	-8.41404
▁neue	-8.41599
▁him	-8.41644
▁Als	-8.41746
▁came	-8.42076
▁long	-8.42542
▁does	-8.43586
▁vom	-8.43799
▁few	-8.4394
▁denke	-8.44077
▁again	-8.44378
▁dazu	-8.44434
ung	-8.4465
I	-8.45151
▁kein	-8.45274
▁mean	-8.45787
▁ver	-8.45979
▁kommen	-8.46059
▁S	-8.46211
f	-8.46537
▁end	-8.46838
▁finden	-8.47077
▁denken	-8.47268
▁sogar	-8.47323
▁used	-8.47774
▁weiß	-8.47925
▁each	-8.48002
▁Tag	-8.48095
▁between	-8.48162
▁macht	-8.48216
▁technology	-8.48386
▁question	-8.48631
▁zusammen	-8.48809
g	-8.49143
▁zwischen	-8.4919
▁When	-8.49214
▁gemacht	-8.49226
▁found	-8.49426
▁einmal	-8.49742
▁gerade	-8.5
o	-8.50332
▁glaube	-8.50696
▁Da	-8.50772
▁love	-8.51223
▁example	-8.51303
▁Frage	-8.51852
▁Wasser	-8.51964
▁geben	-8.52025
▁Internet	-8.52076
▁kommt	-8.5213
▁real	-8.52144
ten	-8.52531
▁Frauen	-8.52944
▁point	-8.53093
▁denen	-8.53168
▁looking	-8.53257
▁New	-8.53385
▁un	-8.53431
▁sort	-8.53752
▁ohne	-8.54042
▁too	-8.54169
▁Arbeit	-8.54398
▁Because	-8.54849
▁understand	-8.55051
▁data	-8.55304
▁done	-8.55335
▁live	-8.55667
th	-8.55936
▁women	-8.56356
▁doesn	-8.5641
▁zeigen	-8.56444
▁passiert	-8.56657
▁dafür	-8.57048
▁konnte	-8.57279
▁B	-8.57369
▁würden	-8.57452
▁Land	-8.57602
▁unser	-8.57693
▁ganze	-8.58077
▁nie	-8.58175
▁sieht	-8.58269
▁ihren	-8.58376
▁ersten	-8.58865
▁wanted	-8.58972
▁call	-8.59082
▁Eine	-8.59805
an	-8.60008
▁whole	-8.60045
▁million	-8.60175
▁believe	-8.60566
▁verstehen	-8.6123
▁Prozent	-8.61371
▁jeder	-8.61558
▁mal	-8.61712
▁etwa	-8.61824
▁school	-8.61977
▁four	-8.62121
▁daran	-8.62252
▁trying	-8.62304
▁Millionen	-8.62505
▁E	-8.62599
▁ever	-8.62618
▁während	-8.62982
▁person	-8.63122
▁erste	-8.63203
h	-8.63431
den	-8.63493
▁working	-8.63519
▁ja	-8.63642
▁30	-8.6384
▁sollte	-8.64134
▁away	-8.64459
▁always	-8.64555
▁warum	-8.65025
▁lassen	-8.65298
▁try	-8.6532
▁children	-8.65642
▁50	-8.65692
▁dies	-8.65739
▁feel	-8.65795
▁Mal	-8.65883
▁große	-8.66082
▁welche	-8.66109
,"	-8.66664
▁letzten	-8.67148
▁Idee	-8.67305
▁sollten	-8.67367
▁Geld	-8.6773
▁may	-8.67871
▁leben	-8.6812
▁Gehirn	-8.68621
▁help	-8.68767
be	-8.69191
▁meisten	-8.69415
▁its	-8.69419
▁besser	-8.69488
▁design	-8.69542
▁meinem	-8.70104
▁fast	-8.70135
▁wollte	-8.70166
▁könnten	-8.70308
p	-8.70325
▁country	-8.70633
▁meinen	-8.70685
▁Daten	-8.70804
▁Bild	-8.70887
▁100	-8.7126
▁ziemlich	-8.71307
▁All	-8.71839
▁ging	-8.7187
dem	-8.72381
▁natürlich	-8.72501
▁pro	-8.72505
ic	-8.72715
▁sprechen	-8.72914
i	-8.72975
▁How	-8.72982
▁using	-8.73072
▁Weg	-8.73253
▁create	-8.73532
▁space	-8.73757
▁power	-8.74004
▁five	-8.74018
▁bekommen	-8.74244
▁U	-8.74411
▁sagt	-8.74629
▁best	-8.74665
▁number	-8.74732
▁ihrer	-8.74886
▁arbeiten	-8.74893
▁took	-8.7499
▁dabei	-8.75052
▁high	-8.75108
▁information	-8.75143
▁thinking	-8.75214
▁kids	-8.755
▁means	-8.75554
▁maybe	-8.75621
▁kam	-8.75754
▁wichtig	-8.75793
▁China	-8.75827
▁become	-8.76022
b	-8.76023
▁Ende	-8.76504
▁light	-8.76551
▁heraus	-8.76595
▁money	-8.76671
▁everything	-8.76742
ern	-8.77051
▁TED	-8.7722
▁One	-8.77525
A	-8.77645
▁nehmen	-8.77965
▁small	-8.7816
▁hin	-8.78236
le	-8.78263
to	-8.78302
ste	-8.78311
u	-8.78348
▁second	-8.7875
▁darauf	-8.78766
▁home	-8.78848
▁left	-8.79134
▁Grund	-8.79498
▁old	-8.79777
▁food	-8.80247
z	-8.80537
▁enough	-8.80611
▁These	-8.80751
▁weniger	-8.80927
▁quite	-8.81003
▁sense	-8.81154
▁getting	-8.81248
▁My	-8.81306
▁doch	-8.81487
ers	-8.81509
▁15	-8.82139
▁hard	-8.8218
▁kleinen	-8.82388
▁Dollar	-8.82395
▁hand	-8.8261
▁bedeutet	-8.8329
▁future	-8.83327
ü	-8.83333
▁Dank	-8.83366
sten	-8.83679
▁...	-8.8385
▁Raum	-8.84206
▁Technologie	-8.84416
▁probably	-8.84481
▁social	-8.84526
▁energy	-8.84869
ge	-8.85138
▁happened	-8.85185
▁She	-8.85338
▁eigentlich	-8.85367
▁kleine	-8.86035
▁ask	-8.86152
▁Dann	-8.86212
▁vier	-8.86324
▁comes	-8.86325
▁Sache	-8.86424
▁interesting	-8.86972
▁less	-8.86998
▁dachte	-8.87055
B	-8.87138
▁building	-8.87151
▁unseren	-8.87179
▁half	-8.87327
▁re	-8.87366
▁making	-8.87847
▁talking	-8.87883
ra	-8.87913
▁stuff	-8.88025
▁Im	-8.88244
▁play	-8.88453
▁nichts	-8.88614
▁Okay	-8.88693
▁Mann	-8.88987
▁ihm	-8.88992
▁bringen	-8.89199
▁body	-8.89424
▁brauchen	-8.89456
▁jemand	-8.89866
▁gesehen	-8.89921
▁build	-8.9008
▁Vor	-8.90146
▁Here	-8.90264
▁moment	-8.90795
▁Computer	-8.90946
▁without	-8.91181
▁told	-8.91206
▁such	-8.9139
em	-8.91561
▁Ihr	-8.91642
on	-8.91685
▁pretty	-8.92032
▁Seite	-8.92354
▁countries	-8.9245
▁Denn	-8.92724
▁dollars	-8.92867
▁For	-8.92892
▁coming	-8.92989
▁großen	-8.93208
▁anything	-8.93545
▁Weise	-8.93825
▁happen	-8.94227
▁science	-8.9475
▁An	-8.94855
▁bring	-8.95067
▁lives	-8.95197
▁Auf	-8.95362
▁Frau	-8.95461
▁York	-8.95578
▁across	-8.9579
▁side	-8.95908
▁richtig	-8.95962
▁simple	-8.9598
▁car	-8.95998
▁times	-8.96154
▁Let	-8.96186
▁hätte	-8.96226
▁As	-8.96575
▁T	-8.97085
Ich	-8.97411
▁open	-8.97482
▁Africa	-8.97557
▁Stadt	-8.97577
▁ganzen	-8.97626
▁room	-8.97786
D	-8.98075
▁Menge	-8.98078
K	-8.98079
▁OK	-8.98198
or	-8.98219
▁Energie	-8.98487
▁Zukunft	-8.98494
▁Person	-8.98548
▁später	-8.98709
▁experience	-8.98952
▁gesagt	-8.98961
▁else	-8.9912
▁jeden	-8.99208
▁versuchen	-8.99233
▁saw	-8.99479
▁keinen	-8.99509
▁living	-8.9967
▁later	-8.99785
▁learn	-8.99897
▁bad	-8.99987
▁Ort	-9.00375
▁care	-9.00694
▁far	-9.00713
▁move	-9.00717
▁asked	-9.0076
▁glauben	-9.01071
▁goes	-9.0116
▁gegen	-9.01264
▁seit	-9.0154
▁reason	-9.01709
▁picture	-9.0195
▁Mit	-9.02116
▁Kind	-9.02143
▁having	-9.02675
▁computer	-9.02737
▁seen	-9.02754
▁Vielen	-9.02919
▁No	-9.03218
▁funktioniert	-9.03275
▁mind	-9.03394
▁Danke	-9.03395
▁beim	-9.03484
▁happens	-9.03546
▁Moment	-9.03632
▁sicher	-9.03652
ch	-9.03675
▁per	-9.03713
ro	-9.03787
▁Körper	-9.03946
▁stellen	-9.03991
▁möglich	-9.04476
▁40	-9.04504
▁says	-9.04659
▁konnten	-9.04838
▁heißt	-9.04964
▁family	-9.05212
▁schnell	-9.05252
▁vielen	-9.05333
▁lernen	-9.05428
▁eigenen	-9.05468
▁global	-9.0566
▁wenig	-9.0566
▁men	-9.05779
▁case	-9.0599
ig	-9.06435
▁single	-9.0675
▁process	-9.07078
▁wahrscheinlich	-9.07257
▁schaffen	-9.07368
▁health	-9.07473
▁Earth	-9.07531
▁business	-9.07838
▁set	-9.07971
▁Fall	-9.08
▁Du	-9.08095
▁makes	-9.08156
▁city	-9.08246
▁Ja	-9.08295
▁book	-9.08385
▁System	-9.08386
▁gute	-9.08468
▁Be	-9.0863
▁project	-9.08686
▁fünf	-9.08711
▁top	-9.08717
▁inside	-9.08746
▁Erde	-9.08759
it	-9.08839
ieren	-9.09066
▁Jetzt	-9.09216
▁Warum	-9.09259
▁problems	-9.09358
C	-9.09516
▁basically	-9.09592
▁lange	-9.09622
▁planet	-9.09635
ä	-9.09712
▁Probleme	-9.09823
▁nutzen	-9.09832
▁six	-9.10171
▁guy	-9.10353
ation	-9.10416
▁almost	-9.1049
▁possible	-9.1059
▁saying	-9.11079
▁yet	-9.11196
▁days	-9.11424
▁Mutter	-9.11504
▁young	-9.11619
▁Licht	-9.11666
▁G	-9.11785
ter	-9.11981
▁jedes	-9.12019
▁once	-9.12039
▁while	-9.12217
▁whether	-9.1262
▁USA	-9.12625
ion	-9.12772
".	-9.12794
▁sah	-9.12928
▁3	-9.13212
▁C	-9.13268
▁hope	-9.13276
▁helfen	-9.13468
▁matter	-9.13561
▁seiner	-9.13652
▁remember	-9.13662
▁nothing	-9.13876
▁already	-9.13961
▁answer	-9.13964
ne	-9.14202
▁both	-9.1429
▁billion	-9.14311
▁wrong	-9.14691
▁hoch	-9.14723
▁Natur	-9.14775
▁ways	-9.14847
▁zeigt	-9.14988
▁genug	-9.15111
ie	-9.15215
▁someone	-9.15344
▁looked	-9.15435
▁keep	-9.1568
ur	-9.15745
▁read	-9.16246
▁ge	-9.16316
▁erzählen	-9.1637
▁DNA	-9.164
▁within	-9.16499
▁community	-9.167
▁couple	-9.16702
▁form	-9.16716
▁unserem	-9.16819
▁Why	-9.17076
▁neuen	-9.17305
▁history	-9.17342
▁nächsten	-9.17506
▁myself	-9.17665
▁true	-9.17669
sch	-9.17822
▁begann	-9.17852
ist	-9.17933
▁jede	-9.18264
▁order	-9.18341
▁Ver	-9.18395
▁public	-9.18462
▁lang	-9.18606
▁cancer	-9.18993
▁heard	-9.19339
▁ideas	-9.19409
▁child	-9.19425
▁cells	-9.19567
▁Lebens	-9.20006
▁ungefähr	-9.20066
able	-9.20264
▁Um	-9.20327
▁sure	-9.20353
▁imagine	-9.2037
▁sei	-9.20535
▁Hand	-9.20646
▁United	-9.20731
ness	-9.20814
▁often	-9.20956
▁bauen	-9.2097
T	-9.21165
il	-9.21215
▁face	-9.21331
▁Buch	-9.21338
el	-9.21513
▁under	-9.21652
▁gehört	-9.21659
▁weit	-9.21997
▁turn	-9.22017
▁je	-9.22098
▁head	-9.22188
▁words	-9.22216
▁self	-9.22297
▁built	-9.2244
2	-9.22559
▁CA	-9.22656
▁Wissen	-9.22913
▁age	-9.23052
▁liegt	-9.23128
▁anders	-9.23229
▁Planeten	-9.2328
▁bisschen	-9.23334
▁universe	-9.23412
▁verändern	-9.23462
▁beautiful	-9.23501
▁group	-9.23522
▁months	-9.23695
der	-9.23715
▁Schule	-9.2381
▁allen	-9.23969
▁government	-9.23977
▁control	-9.24094
▁language	-9.24324
▁run	-9.24347
▁music	-9.24371
▁Ideen	-9.24405
▁amazing	-9.2442
▁line	-9.24775
▁video	-9.24815
▁herum	-9.24943
▁piece	-9.25053
▁looks	-9.25089
▁Informationen	-9.25695
▁überall	-9.25895
▁Leuten	-9.25959
▁M	-9.26115
▁12	-9.26136
▁Meine	-9.26156
▁Punkt	-9.26283
▁klar	-9.2632
▁gleich	-9.26411
▁job	-9.2648
▁Projekt	-9.26546
P	-9.26727
▁Design	-9.26823
▁18	-9.26846
▁Entwicklung	-9.27121
▁night	-9.27515
▁stehen	-9.27559
▁species	-9.27648
▁K	-9.27732
▁Bei	-9.28458
▁until	-9.28471
▁everybody	-9.28473
▁research	-9.28532
▁Augen	-9.28592
ar	-9.28742
▁Antwort	-9.28994
▁kennen	-9.29068
▁model	-9.29117
▁seinen	-9.29245
ul	-9.29289
▁darum	-9.29333
▁erst	-9.29344
▁sagten	-9.29397
▁Für	-9.29576
▁Männer	-9.29636
▁nennen	-9.29708
▁decided	-9.29728
▁Form	-9.29769
▁musste	-9.29894
▁past	-9.29898
▁education	-9.29916
▁Milliarden	-9.30016
▁completely	-9.30059
▁stop	-9.30233
▁Wissenschaft	-9.30695
▁dich	-9.30698
▁large	-9.30735
▁stand	-9.30767
▁Fragen	-9.3086
ity	-9.30904
▁de	-9.30914
▁Mädchen	-9.30914
▁word	-9.30988
▁reden	-9.31073
▁Auto	-9.31306
et	-9.31378
▁heart	-9.31463
▁ihrem	-9.31508
w	-9.31641
▁weg	-9.31656
▁friends	-9.31663
▁60	-9.31851
▁places	-9.31852
R	-9.31852
▁Afrika	-9.3188
▁share	-9.31898
▁study	-9.32008
▁must	-9.32027
▁nature	-9.32028
▁America	-9.32056
▁States	-9.32243
▁exactly	-9.32275
▁hear	-9.32313
▁though	-9.32366
▁stories	-9.32391
▁became	-9.32516
▁gar	-9.3259
▁D	-9.32616
The	-9.32733
▁euch	-9.32893
▁entwickelt	-9.32938
▁80	-9.33052
▁bereits	-9.33057
ver	-9.33146
▁taking	-9.3327
▁happening	-9.3334
up	-9.3335
▁Or	-9.33375
▁since	-9.33396
▁25	-9.33578
▁India	-9.33818
▁Musik	-9.34029
um	-9.34128
▁knew	-9.34283
▁students	-9.34295
▁game	-9.34295
▁itself	-9.3441
▁name	-9.3444
us	-9.34455
▁Do	-9.34473
▁fragen	-9.34476
ö	-9.34563
▁animals	-9.34666
▁level	-9.3477
iert	-9.3487
▁Familie	-9.34898
▁erkennen	-9.34932
F	-9.34967
▁Kopf	-9.34981
▁erreichen	-9.35065
▁bevor	-9.35205
is	-9.35242
▁Minuten	-9.35278
▁somebody	-9.35311
▁ourselves	-9.35693
▁woman	-9.35747
▁besonders	-9.35822
▁steht	-9.35893
▁learned	-9.35953
▁Arten	-9.36092
zu	-9.36165
▁Gesellschaft	-9.36198
▁sechs	-9.36211
▁verschiedene	-9.36234
▁spielen	-9.36332
▁society	-9.36342
▁namens	-9.36348
E	-9.36371
▁halten	-9.36397
▁works	-9.36434
▁Google	-9.36743
▁benutzen	-9.36922
▁Dieses	-9.37459
▁minutes	-9.37551
▁gerne	-9.37658
▁hätten	-9.37751
▁Gefühl	-9.37759
▁company	-9.37912
▁Spiel	-9.38039
▁sound	-9.38165
▁themselves	-9.38177
▁Mein	-9.38222
▁land	-9.38596
▁environment	-9.38761
▁along	-9.38794
▁huge	-9.38814
▁Oder	-9.38982
▁darin	-9.39026
▁Unternehmen	-9.39041
▁against	-9.39064
▁state	-9.39201
▁God	-9.39224
▁art	-9.39228
▁front	-9.39262
▁Indien	-9.39263
▁machte	-9.39276
▁hören	-9.39288
▁anderes	-9.39381
▁rather	-9.3951
▁Vater	-9.39779
▁schwer	-9.3988
▁oben	-9.40073
▁hours	-9.40292
▁created	-9.40315
▁turns	-9.40419
▁Gruppe	-9.40487
▁Geschichten	-9.40507
▁Ab	-9.41143
▁Haus	-9.41163
▁Macht	-9.4123
▁least	-9.41405
▁won	-9.41785
▁braucht	-9.42065
▁R	-9.42086
▁mother	-9.42104
▁questions	-9.42144
▁third	-9.42208
▁Video	-9.42237
▁Doch	-9.42247
▁wer	-9.42259
▁Film	-9.42313
▁disease	-9.42519
▁figure	-9.42803
▁jedem	-9.42894
▁worked	-9.42896
▁kinds	-9.42947
▁Kunst	-9.43002
▁particular	-9.43012
▁American	-9.43119
▁sometimes	-9.43285
▁Vielleicht	-9.43503
ta	-9.43734
▁Bilder	-9.43839
▁close	-9.43848
▁Patienten	-9.43993
▁To	-9.44029
▁Weil	-9.4404
▁entwickeln	-9.44177
▁Angst	-9.4418
▁air	-9.44193
▁Sprache	-9.44522
▁Selbst	-9.44597
▁guys	-9.44657
▁vorstellen	-9.44903
▁bewegen	-9.44961
▁gesamte	-9.45024
as	-9.45189
▁couldn	-9.45266
▁Re	-9.45293
▁gave	-9.45308
▁early	-9.45315
▁2	-9.45407
▁thousands	-9.45552
▁happy	-9.45593
▁Hause	-9.45869
▁Aus	-9.4615
▁cell	-9.46229
▁Möglichkeit	-9.46324
▁menschliche	-9.46373
▁deal	-9.46497
",	-9.46782
▁Nicht	-9.46788
!"	-9.46859
▁market	-9.46867
▁instead	-9.46884
▁Nach	-9.46891
▁Then	-9.46896
▁Glück	-9.46897
▁everyone	-9.46899
▁outside	-9.46917
▁house	-9.46939
▁soll	-9.47064
▁erhalten	-9.47369
▁irgendwie	-9.47464
▁Stunden	-9.47501
▁At	-9.47716
▁oil	-9.47922
me	-9.47937
▁entire	-9.48144
▁H	-9.48145
▁difference	-9.48454
▁natural	-9.4846
M	-9.4869
▁cool	-9.48702
man	-9.48781
▁verschiedenen	-9.48868
▁manchmal	-9.48926
▁Am	-9.4896
▁einigen	-9.48994
▁beiden	-9.49201
ut	-9.49217
▁machine	-9.49217
▁wasn	-9.49252
▁einzige	-9.49303
▁Wort	-9.49317
ische	-9.49323
▁ändern	-9.494
ach	-9.49823
▁unglaublich	-9.50224
▁seven	-9.50556
ant	-9.50557
la	-9.50578
▁black	-9.50712
▁free	-9.50725
▁full	-9.5082
▁Gott	-9.50828
▁wollten	-9.50918
Oh	-9.50974
▁learning	-9.51083
▁Oh	-9.51117
▁Regierung	-9.51261
▁Luft	-9.51312
▁systems	-9.51365
▁nämlich	-9.51464
▁area	-9.51479
N	-9.51564
▁changed	-9.51826
▁Roboter	-9.51846
▁taken	-9.51936
▁verändert	-9.52262
ha	-9.52646
▁Eltern	-9.52653
▁leave	-9.52876
▁century	-9.52917
▁90	-9.53045
▁online	-9.531
▁sage	-9.53216
▁aller	-9.53247
▁middle	-9.53294
▁Gebäude	-9.53405
▁news	-9.53465
▁Sachen	-9.53493
▁Ziel	-9.53626
isch	-9.53701
▁beginning	-9.53758
▁verwenden	-9.53785
▁200	-9.5408
▁eher	-9.54088
▁besten	-9.54384
▁rest	-9.54394
▁common	-9.54486
▁HIV	-9.54534
▁unterschiedlich	-9.5469
▁dir	-9.54789
▁alt	-9.54838
▁moving	-9.54846
▁perhaps	-9.54846
▁cost	-9.54847
▁oft	-9.54867
▁fand	-9.54934
ri	-9.54941
▁easy	-9.55002
▁innerhalb	-9.55003
▁wohl	-9.55206
▁walk	-9.55221
▁normal	-9.55241
▁yourself	-9.55331
ia	-9.55369
▁beginnen	-9.55381
▁population	-9.55446
▁gets	-9.55598
▁Krebs	-9.55793
▁culture	-9.55903
▁eyes	-9.55938
▁menschlichen	-9.55963
▁lots	-9.55964
at	-9.55983
▁Chris	-9.56092
▁turned	-9.56233
▁spend	-9.56308
▁fish	-9.56387
▁behind	-9.56515
▁given	-9.56524
▁difficult	-9.56689
▁getan	-9.5674
▁überhaupt	-9.5674
▁local	-9.56852
▁F	-9.57072
▁size	-9.5727
▁Kindern	-9.57392
▁terms	-9.5743
▁media	-9.57437
▁cities	-9.57542
▁wegen	-9.57612
gen	-9.57643
ive	-9.57874
▁solche	-9.58052
▁isn	-9.58057
▁began	-9.58093
▁Länder	-9.58103
▁test	-9.58212
▁groß	-9.58501
▁image	-9.58502
▁Sinn	-9.58553
▁wonderful	-9.58624
▁finally	-9.58693
▁versucht	-9.58971
▁paper	-9.58982
▁Lage	-9.59021
▁schauen	-9.59058
▁view	-9.59073
▁others	-9.5912
▁Anfang	-9.59487
▁ocean	-9.59494
▁gleichen	-9.5979
▁führen	-9.59814
▁zwar	-9.59817
▁Universum	-9.59989
▁Not	-9.60086
▁certain	-9.60092
▁powerful	-9.60095
▁nächste	-9.60231
▁team	-9.60295
▁Freunde	-9.60302
▁cannot	-9.6034
▁seeing	-9.60523
old	-9.60649
▁Dr	-9.60697
ment	-9.60741
▁father	-9.60807
year	-9.60811
▁Stück	-9.61173
▁eight	-9.61289
▁Tiere	-9.61382
▁Erfahrung	-9.61403
▁economic	-9.6151
▁Stellen	-9.61531
H	-9.61682
▁treffen	-9.6179
▁mag	-9.61815
Well	-9.62037
▁amount	-9.62105
▁Herausforderung	-9.62143
▁pay	-9.62149
▁simply	-9.62311
▁wahr	-9.62439
▁companies	-9.6248
▁hands	-9.6252
ck	-9.62553
▁longer	-9.62687
▁behavior	-9.62733
▁Wo	-9.62741
▁grow	-9.62808
▁realized	-9.62954
▁allem	-9.6307
▁week	-9.63096
▁5	-9.63286
▁fest	-9.63417
▁value	-9.63515
lich	-9.63564
▁weitere	-9.63615
▁L	-9.63678
▁buy	-9.63705
▁wusste	-9.64109
▁neu	-9.64124
▁whatever	-9.64279
▁needed	-9.64305
▁Some	-9.64519
during	-9.64523
▁direkt	-9.64796
▁mussten	-9.64809
▁z	-9.65181
▁eigene	-9.65181
▁schön	-9.65233
▁tried	-9.65576
ol	-9.65606
▁70	-9.65683
ce	-9.65696
▁O	-9.65822
▁letzte	-9.65877
▁red	-9.65916
▁People	-9.65938
▁1	-9.65956
ton	-9.66067
ko	-9.6616
▁Wissenschaftler	-9.66286
▁parents	-9.66293
▁parts	-9.66294
▁kamen	-9.66474
▁interested	-9.66488
O	-9.66529
▁Publikum	-9.66631
▁Unterschied	-9.66713
ma	-9.66775
▁fühlen	-9.66843
▁scale	-9.66918
▁völlig	-9.66967
▁tut	-9.67009
▁Liebe	-9.67011
▁reality	-9.67173
▁felt	-9.67182
▁Verhalten	-9.67202
▁poor	-9.67274
▁Gesundheit	-9.67463
G	-9.67519
▁Grunde	-9.67677
▁okay	-9.67854
▁Wirtschaft	-9.67877
▁Dingen	-9.68077
▁gleiche	-9.68088
▁takes	-9.68124
li	-9.68154
You	-9.68155
▁quickly	-9.68232
▁Denken	-9.6844
▁low	-9.68501
▁unten	-9.68637
▁Vorstellung	-9.68695
▁Zum	-9.68702
▁blue	-9.68786
▁gone	-9.6888
▁friend	-9.68915
▁Hilfe	-9.68928
1	-9.69037
▁needs	-9.6907
▁field	-9.69212
▁kurz	-9.69217
▁Al	-9.6932
▁16	-9.69428
▁death	-9.69651
▁World	-9.69679
▁green	-9.6968
▁complex	-9.69823
▁Bewegung	-9.69832
▁phone	-9.69852
▁growth	-9.69878
▁W	-9.69879
▁speak	-9.69882
ting	-9.69924
▁Kultur	-9.69938
▁write	-9.70124
x	-9.70333
ir	-9.7037
▁animal	-9.70377
▁spent	-9.70379
ischen	-9.70381
▁ground	-9.70418
▁eat	-9.70448
▁allow	-9.70557
▁ability	-9.70608
▁17	-9.70619
▁worden	-9.70627
▁Lehrer	-9.70806
▁lässt	-9.70817
mal	-9.71151
▁feet	-9.71152
▁14	-9.71194
▁Möglichkeiten	-9.71274
▁jedoch	-9.71296
▁damals	-9.71297
▁hinter	-9.7134
▁short	-9.7144
▁falsch	-9.71443
▁Zu	-9.71617
▁Thema	-9.71655
▁Wochen	-9.71735
▁obwohl	-9.71868
▁surface	-9.71887
▁program	-9.71894
▁Gedanken	-9.71976
▁sitting	-9.72041
▁Boden	-9.72043
▁opportunity	-9.72222
▁bringt	-9.72236
▁Viele	-9.72285
▁J	-9.72403
▁result	-9.72461
▁political	-9.72547
▁P	-9.72618
▁schreiben	-9.72742
▁los	-9.72862
▁Essen	-9.72864
▁wären	-9.72871
▁weeks	-9.731
▁niemand	-9.73103
▁either	-9.73157
What	-9.7325
ism	-9.733
▁Tage	-9.73312
ab	-9.73363
▁Nacht	-9.73372
▁fragte	-9.73598
▁recht	-9.73695
▁economy	-9.73721
▁Nein	-9.73868
▁Just	-9.74193
▁Staaten	-9.74243
▁structure	-9.74254
▁lost	-9.7431
▁realize	-9.74358
▁bleiben	-9.74405
▁cut	-9.74424
ling	-9.74428
▁Markt	-9.74514
▁Woche	-9.74638
▁größte	-9.74662
▁4	-9.74857
▁11	-9.74894
lo	-9.74933
5	-9.75027
▁Namen	-9.75082
▁key	-9.75097
▁lösen	-9.75131
▁dessen	-9.75217
▁Lösung	-9.7543
▁morning	-9.75436
▁Right	-9.75438
▁Tages	-9.75461
▁step	-9.75608
▁incredible	-9.75628
▁besteht	-9.75663
im	-9.75822
▁bottom	-9.75834
▁individual	-9.75863
▁Monate	-9.75892
▁bitte	-9.75907
Was	-9.7594
▁genauso	-9.76028
▁average	-9.76207
▁Z	-9.76289
▁challenge	-9.76362
▁attention	-9.76401
▁sollen	-9.76425
▁betrachten	-9.76637
▁audience	-9.7679
bar	-9.76844
▁South	-9.76985
ry	-9.7704
▁Modell	-9.77083
▁suchen	-9.77335
▁based	-9.77485
▁Can	-9.77514
▁areas	-9.77529
▁On	-9.77576
▁shows	-9.77749
▁teilen	-9.77783
chen	-9.77817
▁bereit	-9.77942
▁frei	-9.77977
▁patients	-9.77991
keit	-9.78052
▁zweite	-9.78055
▁interessant	-9.78104
▁bewusst	-9.78412
▁zuvor	-9.78432
▁Prozess	-9.78544
▁sea	-9.78618
▁Umwelt	-9.78674
▁Über	-9.78729
▁stellt	-9.78825
▁Mo	-9.78954
▁London	-9.78955
di	-9.79014
▁meines	-9.79016
▁Ländern	-9.7907
ate	-9.79124
ungen	-9.79233
▁humans	-9.7927
less	-9.79352
▁feeling	-9.79517
▁dark	-9.79586
▁führt	-9.79621
▁Zellen	-9.79634
7	-9.79636
▁nice	-9.7971
▁watch	-9.7973
▁ones	-9.79913
▁brought	-9.79955
▁Mensch	-9.79978
▁forward	-9.8004
▁clear	-9.80108
▁material	-9.80117
he	-9.80117
▁experiment	-9.80225
▁San	-9.80235
▁known	-9.80265
▁gefunden	-9.80384
▁physical	-9.80512
▁access	-9.80558
▁sch	-9.80568
▁Labor	-9.80595
▁fly	-9.80723
ien	-9.80871
▁Fähigkeit	-9.81161
▁deine	-9.81179
▁born	-9.81249
br	-9.81314
▁p	-9.81332
▁verbunden	-9.81372
▁modern	-9.81485
▁developed	-9.81671
▁Reihe	-9.81781
▁ent	-9.81789
▁personal	-9.81795
▁white	-9.82023
▁sterben	-9.82047
▁sieben	-9.82051
W	-9.82108
▁genannt	-9.82138
▁Krieg	-9.82153
▁Unsere	-9.82163
▁kaufen	-9.82204
▁Our	-9.82231
▁positive	-9.82357
id	-9.8236
▁met	-9.82467
the	-9.82589
▁force	-9.82592
Das	-9.82776
▁growing	-9.82799
▁Heute	-9.8281
▁English	-9.8282
▁issue	-9.82828
vi	-9.82839
▁map	-9.82869
▁blood	-9.82997
▁scheint	-9.83017
▁knowledge	-9.83034
▁fun	-9.83172
▁Wahrheit	-9.83224
▁numbers	-9.83309
▁wrote	-9.83432
▁Autos	-9.83479
▁Sch	-9.83535
▁Ihren	-9.83538
▁running	-9.83641
▁climate	-9.83655
▁Zahl	-9.83719
est	-9.83759
▁Yeah	-9.83785
▁lesen	-9.83792
▁support	-9.83825
▁giving	-9.83849
▁literally	-9.83852
▁gebaut	-9.83938
▁wouldn	-9.83982
▁Schritt	-9.8404
▁draußen	-9.84058
▁technologies	-9.84061
▁John	-9.84098
▁Gemeinschaft	-9.84101
ine	-9.8434
▁center	-9.84343
▁anderer	-9.84523
▁theory	-9.84579
▁schwierig	-9.84631
▁Alle	-9.84635
▁CO	-9.84723
▁understanding	-9.84754
▁soziale	-9.84766
▁non	-9.84784
▁seems	-9.84794
▁Revolution	-9.84935
▁deep	-9.85105
▁erinnern	-9.85323
▁gelernt	-9.85323
▁13	-9.8539
▁nahm	-9.85398
▁books	-9.85476
▁Sehen	-9.85671
▁risk	-9.85677
▁leicht	-9.85775
▁Verbindung	-9.85783
▁changes	-9.85841
▁Jahrhundert	-9.86022
▁See	-9.86111
▁Natürlich	-9.86194
▁film	-9.86199
▁schließlich	-9.86389
▁Jeder	-9.86442
▁girl	-9.86481
▁scientists	-9.86487
▁funktionieren	-9.86532
▁anyone	-9.86623
▁miles	-9.86801
▁gewesen	-9.86821
▁Mars	-9.86932
▁starting	-9.87011
▁erschaffen	-9.8706
▁Herz	-9.87359
▁hundreds	-9.87441
▁sehe	-9.87481
▁hold	-9.87493
▁De	-9.87573
un	-9.87647
▁ca	-9.87745
land	-9.87777
▁Ist	-9.8781
▁plötzlich	-9.87901
▁passieren	-9.87907
▁bekannt	-9.87926
▁fanden	-9.88048
▁alone	-9.88121
▁kid	-9.88208
▁stage	-9.88236
▁erklären	-9.88381
▁City	-9.88405
igen	-9.88532
▁Familien	-9.88555
▁focus	-9.88575
▁National	-9.88594
▁Un	-9.88605
▁fear	-9.88647
▁guess	-9.88775
▁telling	-9.88875
▁hast	-9.88887
▁fire	-9.88968
we	-9.89004
▁Tatsache	-9.89015
▁schlecht	-9.89126
▁War	-9.8915
▁West	-9.89204
▁Bedeutung	-9.89215
▁tools	-9.89269
▁Einige	-9.89336
▁Technik	-9.89415
▁explain	-9.89431
pe	-9.8946
▁Muster	-9.89483
▁thank	-9.89561
▁jemals	-9.89657
and	-9.89704
▁welches	-9.89773
▁Afghanistan	-9.89879
▁daraus	-9.89881
▁images	-9.89913
▁500	-9.89977
▁special	-9.89998
▁total	-9.90004
▁Kraft	-9.90031
her	-9.9004
▁Europe	-9.90084
▁geworden	-9.90115
▁Richtung	-9.90131
▁mache	-9.90184
3	-9.90205
▁stark	-9.9023
▁relationship	-9.90237
amp	-9.90253
▁liebe	-9.90364
▁movement	-9.9048
▁nimmt	-9.90523
▁send	-9.90523
▁gezeigt	-9.90547
▁Medien	-9.90723
▁essen	-9.90801
▁voice	-9.90918
▁deshalb	-9.91005
▁law	-9.91024
os	-9.91101
▁meet	-9.91209
▁glücklich	-9.91235
▁Platz	-9.91243
▁miteinander	-9.91257
ad	-9.91381
▁Studenten	-9.9139
▁Ge	-9.91404
▁creating	-9.91445
▁aussehen	-9.91486
▁discovered	-9.9149
▁Wahl	-9.91564
▁Bildung	-9.91565
▁Anzahl	-9.91675
▁begin	-9.91679
▁nachdem	-9.91697
▁development	-9.91721
▁Tier	-9.91759
▁bist	-9.91763
▁color	-9.91778
▁acht	-9.9178
▁digital	-9.91801
▁playing	-9.91818
zen	-9.91924
▁pick	-9.92
mp	-9.92067
▁present	-9.92122
▁Technologien	-9.9221
▁save	-9.92216
▁seem	-9.92235
▁showed	-9.92324
▁Tatsächlich	-9.92351
▁beginnt	-9.92353
▁lab	-9.92374
▁verloren	-9.92425
▁type	-9.92446
ige	-9.92496
▁richtige	-9.92578
▁anfangen	-9.92592
▁zehn	-9.92806
▁absolutely	-9.92832
▁größten	-9.92849
v	-9.92866
▁rate	-9.92936
▁solve	-9.92985
▁chance	-9.92989
▁Umgebung	-9.93078
ous	-9.93114
▁Haupt	-9.93241
▁impact	-9.93252
▁Alles	-9.93292
▁schrieb	-9.93311
▁shape	-9.93318
L	-9.93487
tra	-9.93512
▁recently	-9.9352
▁Größe	-9.93533
▁table	-9.93606
▁Rest	-9.93606
gt	-9.93702
▁Foto	-9.93721
▁Stimme	-9.93794
▁patient	-9.93809
▁Wert	-9.93846
▁komplett	-9.93861
▁robot	-9.93864
▁millions	-9.93972
▁add	-9.93983
▁möchten	-9.93987
▁act	-9.94022
▁beste	-9.94094
▁industry	-9.94188
▁Städte	-9.94242
▁network	-9.94263
▁beide	-9.94325
▁developing	-9.94331
am	-9.94398
▁cars	-9.94404
▁develop	-9.94417
▁Realität	-9.94421
▁danach	-9.94436
▁Aufgabe	-9.94472
▁Rolle	-9.94497
▁Bevölkerung	-9.94676
4	-9.94696
▁Chinese	-9.94701
▁Freund	-9.94781
▁findet	-9.94797
▁produce	-9.94854
We	-9.94863
▁hinein	-9.94934
▁stellte	-9.95068
▁Reise	-9.95159
▁Team	-9.95184
▁Meinung	-9.95208
lt	-9.95272
▁By	-9.95305
▁V	-9.95327
▁product	-9.95333
▁major	-9.95344
▁innovation	-9.95346
▁incredibly	-9.95353
▁truth	-9.95353
▁Deshalb	-9.95353
▁talked	-9.95404
▁Studie	-9.95471
▁Erfolg	-9.95487
▁entfernt	-9.95562
ci	-9.95645
▁falls	-9.95701
▁resources	-9.95705
▁gives	-9.95747
▁Hälfte	-9.95823
▁Veränderung	-9.9588
▁ähnlich	-9.9588
▁situation	-9.95884
ik	-9.95905
▁gegenüber	-9.95933
▁solution	-9.96082
▁Wer	-9.96083
▁kleiner	-9.96123
ber	-9.96165
▁asking	-9.96294
▁evidence	-9.96296
ize	-9.96343
▁tat	-9.96418
aus	-9.96578
▁solar	-9.96776
▁Eis	-9.96828
▁unseres	-9.96881
▁eye	-9.97042
▁Ihrer	-9.97058
▁bekommt	-9.97095
▁verwendet	-9.97204
▁Web	-9.97214
▁available	-9.97247
▁Material	-9.97261
▁choice	-9.97274
▁hundred	-9.97274
▁Situation	-9.97347
▁mass	-9.97377
▁Gewalt	-9.97399
▁mine	-9.97429
▁ice	-9.97465
▁issues	-9.97472
▁kleines	-9.97522
▁provide	-9.97588
▁arm	-9.97589
▁Teile	-9.97668
▁raus	-9.97668
▁stay	-9.97751
iv	-9.97972
▁involved	-9.97982
▁absolut	-9.98009
pa	-9.9809
ies	-9.98128
▁Europa	-9.98208
▁Japan	-9.9823
ier	-9.98273
ren	-9.98275
▁soon	-9.98445
▁egal	-9.98449
▁baby	-9.9845
ated	-9.98485
▁designed	-9.98538
▁Krankheit	-9.98545
ke	-9.98586
▁Of	-9.9869
▁Facebook	-9.98691
▁fundamental	-9.98782
▁sofort	-9.98879
▁follow	-9.98934
▁tiny	-9.98934
▁benutzt	-9.98936
▁message	-9.9899
▁sun	-9.99065
▁weltweit	-9.99195
▁c	-9.99248
▁street	-9.99355
▁co	-9.99412
▁David	-9.99446
▁300	-9.99565
▁nachdenken	-9.9971
▁Sicherheit	-9.99757
ian	-9.99757
▁Fehler	-9.99779
▁guten	-9.99784
▁perfect	-9.99851
▁Na	-9.99902
▁writing	-9.99949
▁hoffe	-9.99962
▁changing	-9.99981
heit	-10.001
▁länger	-10.0011
▁especially	-10.0016
▁niemals	-10.0016
ein	-10.0037
▁reasons	-10.0037
8	-10.0039
▁größer	-10.0057
▁Preis	-10.0067
▁box	-10.0074
▁Mitte	-10.0079
▁tend	-10.0082
▁bigger	-10.0092
▁allein	-10.0103
men	-10.0109
bei	-10.011
▁erreicht	-10.0116
▁national	-10.0121
▁yes	-10.0142
▁drive	-10.0146
▁effect	-10.0149
▁Tat	-10.0152
▁bekam	-10.0153
▁schneller	-10.0156
ft	-10.0164
▁medical	-10.0165
▁interessiert	-10.0188
▁Forschung	-10.0193
▁putting	-10.0194
▁revolution	-10.0196
▁teach	-10.0214
▁object	-10.0225
▁Amerika	-10.0227
ran	-10.0237
▁hit	-10.0253
▁hinaus	-10.0264
▁mögen	-10.0266
▁6	-10.0271
▁Entscheidungen	-10.0276
▁Bereich	-10.0277
▁ständig	-10.0281
hand	-10.029
▁Papier	-10.029
▁jemanden	-10.0292
▁zeige	-10.03
▁24	-10.0304
ler	-10.0306
▁dead	-10.0311
▁wall	-10.0311
ized	-10.0312
▁period	-10.0313
▁Vereinigte	-10.0315
▁nine	-10.0316
▁generation	-10.0316
co	-10.0347
▁lived	-10.0354
los	-10.0361
▁similar	-10.0362
▁fahren	-10.0377
▁pictures	-10.0387
▁alten	-10.039
▁Während	-10.0392
▁sonst	-10.0395
▁reach	-10.0397
▁Unter	-10.0405
ted	-10.0417
fe	-10.0418
▁break	-10.0421
▁statt	-10.0425
▁Straße	-10.0427
▁Generation	-10.043
▁ziehen	-10.0435
▁laufen	-10.044
▁beyond	-10.0443
▁Nur	-10.0446
▁software	-10.0447
▁daher	-10.0448
▁19	-10.0455
▁device	-10.0458
▁genommen	-10.0459
▁sit	-10.0461
na	-10.0462
▁links	-10.0463
▁gegeben	-10.0467
▁role	-10.0469
▁First	-10.047
▁Sonne	-10.0473
▁fall	-10.0477
▁pre	-10.0477
▁treat	-10.048
▁gingen	-10.0481
age	-10.0496
com	-10.0496
▁langsam	-10.0501
▁lose	-10.0502
ze	-10.0506
tion	-10.0509
▁likely	-10.0525
▁vision	-10.053
▁rein	-10.0532
▁list	-10.054
und	-10.0551
▁girls	-10.0563
▁21	-10.0564
▁computers	-10.0564
▁basic	-10.0572
▁Kosten	-10.0573
▁becomes	-10.0575
▁blind	-10.0578
▁stimmt	-10.0583
▁towards	-10.0587
▁Hoffnung	-10.061
▁drug	-10.0616
6	-10.0619
▁vorher	-10.0622
▁several	-10.0624
▁Von	-10.0638
▁extrem	-10.0648
▁Oberfläche	-10.0649
▁Zahlen	-10.065
▁month	-10.0651
▁favorite	-10.0651
▁rules	-10.0656
Wir	-10.0664
▁Beziehung	-10.068
go	-10.0686
▁groups	-10.0687
▁carbon	-10.069
▁setzen	-10.0692
▁approach	-10.0699
▁brachte	-10.0701
op	-10.0708
▁Struktur	-10.0718
▁private	-10.0721
▁geschieht	-10.0729
▁Mitgefühl	-10.073
▁sex	-10.0746
▁junge	-10.0754
▁journey	-10.0756
▁Zwei	-10.0756
▁Information	-10.0759
▁speed	-10.0763
▁einfache	-10.0763
▁drugs	-10.0764
▁particularly	-10.0765
ster	-10.0771
▁N	-10.0773
▁Meter	-10.0774
▁Demokratie	-10.0782
▁herauszufinden	-10.0782
▁Maschine	-10.0804
▁action	-10.0805
▁anybody	-10.0809
rs	-10.0813
▁Nachrichten	-10.0819
▁wichtiger	-10.082
▁geboren	-10.0821
▁onto	-10.0835
▁Firma	-10.0839
▁office	-10.0839
▁Bau	-10.0842
▁Schauen	-10.0846
▁Straßen	-10.0852
▁Tod	-10.0866
▁liegen	-10.0872
▁Mittel	-10.0877
▁lieben	-10.0877
▁success	-10.0881
▁Ergebnis	-10.0888
system	-10.0889
▁nennt	-10.0889
▁With	-10.0892
▁worth	-10.0894
▁quality	-10.0896
▁oh	-10.0915
ba	-10.0916
▁Blick	-10.0916
▁Fähigkeiten	-10.0918
▁la	-10.0934
▁machten	-10.0938
▁evolution	-10.0938
▁post	-10.094
ho	-10.0946
▁student	-10.095
▁moved	-10.0957
▁La	-10.0966
▁super	-10.097
▁000	-10.097
▁einzelne	-10.0976
▁gemeinsam	-10.0983
▁wind	-10.0988
bald	-10.0989
by	-10.0989
▁Experiment	-10.1001
mo	-10.1003
▁Wind	-10.102
▁Go	-10.1023
▁Gesicht	-10.1023
▁potential	-10.1023
▁Evolution	-10.1024
ph	-10.1034
▁Karte	-10.1045
▁Every	-10.1082
▁spread	-10.1093
do	-10.1098
▁North	-10.1105
▁nein	-10.1107
▁listen	-10.1108
.000	-10.1114
ben	-10.1115
▁m	-10.112
▁Produkt	-10.1128
▁Maybe	-10.1137
▁obviously	-10.1137
▁sounds	-10.1148
▁St	-10.1149
▁bestimmt	-10.1153
▁walking	-10.1157
▁University	-10.1161
▁Yes	-10.1167
hr	-10.1182
▁Ka	-10.1183
art	-10.1183
▁among	-10.1185
▁further	-10.1189
kt	-10.1191
▁certainly	-10.1197
▁meaning	-10.1197
▁offensichtlich	-10.1201
▁Alter	-10.1204
▁showing	-10.121
▁After	-10.1217
▁Los	-10.1224
▁camera	-10.1226
▁geschrieben	-10.1228
▁Typ	-10.1236
nen	-10.1242
▁lead	-10.1243
▁scientific	-10.1244
▁gleichzeitig	-10.1244
▁medicine	-10.1246
▁general	-10.125
▁sozialen	-10.1255
▁screen	-10.1264
▁begannen	-10.1269
ring	-10.1273
▁TV	-10.1278
▁finding	-10.1287
▁tragen	-10.1303
▁pattern	-10.1306
▁Medizin	-10.1306
▁totally	-10.1307
▁dachten	-10.1308
▁Vortrag	-10.131
▁sprach	-10.132
sp	-10.1329
▁zuerst	-10.133
▁gesprochen	-10.133
▁Auch	-10.1331
▁anstatt	-10.1332
▁Bücher	-10.1344
▁Innovation	-10.1346
▁notice	-10.1349
▁Ding	-10.135
▁Aufmerksamkeit	-10.1356
▁Orte	-10.1365
▁fliegen	-10.1371
▁measure	-10.1374
▁bewegt	-10.1377
▁biggest	-10.1384
▁exciting	-10.1384
▁nobody	-10.1385
▁Gruppen	-10.1386
ner	-10.1387
▁largest	-10.1392
▁Even	-10.1393
äu	-10.1403
▁games	-10.141
▁extremely	-10.1416
Die	-10.1421
,000	-10.1425
▁wichtige	-10.1426
▁hour	-10.1437
▁context	-10.1441
▁materials	-10.1446
▁strong	-10.1449
▁Pflanzen	-10.1451
wohl	-10.1455
▁bestimmte	-10.1457
ally	-10.1464
ken	-10.1468
▁everywhere	-10.1469
▁massive	-10.1486
▁voll	-10.1513
▁Entscheidung	-10.1515
No	-10.1521
▁mehrere	-10.1524
▁memory	-10.1526
▁plan	-10.1533
▁Konzept	-10.1539
▁gas	-10.1543
▁großer	-10.1547
no	-10.1556
ger	-10.1556
▁passierte	-10.1575
▁Co	-10.1577
▁continue	-10.1579
▁Job	-10.1582
▁vorbei	-10.1592
▁Zeug	-10.1593
▁higher	-10.1593
▁teachers	-10.1594
▁thousand	-10.1594
▁boy	-10.1595
▁skin	-10.1599
▁7	-10.1603
ismus	-10.161
au	-10.1636
▁door	-10.1649
▁response	-10.165
▁bald	-10.1654
fi	-10.1655
▁Schulen	-10.1665
▁East	-10.1669
▁gern	-10.167
▁sahen	-10.1671
▁plant	-10.1672
▁beobachten	-10.1674
▁verlassen	-10.1675
▁security	-10.1676
▁class	-10.1679
▁Most	-10.1685
▁Seiten	-10.1701
ip	-10.1707
▁wish	-10.1712
▁sitzen	-10.172
bau	-10.1725
▁compassion	-10.1728
▁creative	-10.1729
▁Zugang	-10.1729
▁happiness	-10.1732
▁gearbeitet	-10.1734
▁Kontrolle	-10.1734
kommen	-10.1744
▁neues	-10.1744
▁results	-10.1752
out	-10.1754
▁bessere	-10.1755
▁Gene	-10.1758
sa	-10.1761
▁Uhr	-10.1764
▁bed	-10.1767
▁schools	-10.1775
▁wachsen	-10.1786
▁bestimmten	-10.1786
▁violence	-10.179
▁supposed	-10.1792
▁versuchte	-10.1794
▁US	-10.1802
▁led	-10.1808
▁expect	-10.1823
▁source	-10.1831
▁9	-10.1835
ty	-10.1836
▁dream	-10.1836
▁projects	-10.1836
▁etc	-10.184
▁ansehen	-10.1863
är	-10.1864
▁Pa	-10.1879
▁Who	-10.1885
▁international	-10.1896
▁con	-10.1899
▁finde	-10.1912
▁8	-10.1917
▁Pro	-10.1926
▁late	-10.1935
▁democracy	-10.1935
▁eventually	-10.1935
▁poverty	-10.1935
▁Einfluss	-10.1936
▁named	-10.1938
▁ready	-10.1948
▁code	-10.1952
▁Regeln	-10.1962
▁Software	-10.1963
▁außer	-10.1964
▁Strom	-10.1965
▁Morgen	-10.1965
▁sent	-10.1966
▁road	-10.1971
▁cause	-10.1974
▁connected	-10.1976
▁village	-10.1979
▁fine	-10.1979
▁Monaten	-10.1981
▁examples	-10.1981
▁erlaubt	-10.1982
▁fight	-10.1986
▁Universität	-10.1989
▁choose	-10.1995
▁Monat	-10.1998
▁protect	-10.2
▁leaders	-10.2017
▁klein	-10.2025
▁bunch	-10.2025
▁2000	-10.2027
▁Genau	-10.2028
▁safe	-10.2039
▁trust	-10.2046
▁England	-10.2055
▁worse	-10.2055
▁Versuch	-10.2064
▁Amerikaner	-10.2064
▁smart	-10.2068
▁crazy	-10.2085
▁trees	-10.2086
▁sleep	-10.2102
▁movie	-10.2102
▁watching	-10.2106
▁Lass	-10.2109
▁rich	-10.211
▁record	-10.211
▁Fisch	-10.2111
▁Menschheit	-10.2116
time	-10.2116
▁position	-10.2117
▁Iran	-10.2118
▁essentially	-10.2118
▁activity	-10.2121
zi	-10.2136
son	-10.2142
▁travel	-10.2154
▁Studien	-10.2169
▁sub	-10.2176
▁verbessern	-10.2177
▁urban	-10.2179
▁Gebiet	-10.218
▁faster	-10.219
▁hospital	-10.2195
hi	-10.2198
V	-10.2201
▁content	-10.2207
▁Richard	-10.2207
▁goal	-10.2219
▁individuals	-10.2223
▁recognize	-10.2224
▁Künstler	-10.2233
▁dis	-10.2233
▁haven	-10.2235
▁perspective	-10.2238
▁grew	-10.2238
▁bleibt	-10.2241
▁Stelle	-10.2258
stand	-10.2262
▁jobs	-10.2268
▁communities	-10.2269
▁suddenly	-10.2271
▁Daher	-10.2271
▁hohe	-10.2272
▁wait	-10.2277
▁song	-10.2286
▁near	-10.2294
▁Blut	-10.2297
▁vergessen	-10.2303
▁Sicht	-10.2304
▁board	-10.2305
▁35	-10.2307
▁fertig	-10.2311
ator	-10.2313
▁Park	-10.2329
▁bilden	-10.2331
▁nuclear	-10.2333
▁Krankheiten	-10.2353
▁site	-10.2355
ga	-10.2359
▁Twitter	-10.2361
▁manche	-10.2365
▁African	-10.2372
▁wussten	-10.2375
ful	-10.2381
▁plants	-10.2383
▁conditions	-10.2384
▁Look	-10.2387
▁indeed	-10.2393
▁starts	-10.2404
▁teacher	-10.2409
▁doctor	-10.2416
▁Programm	-10.2423
▁mental	-10.2423
▁Beispiele	-10.2425
▁Wand	-10.2427
▁minute	-10.2431
▁Politik	-10.2438
▁deren	-10.2447
▁Washington	-10.2455
▁exist	-10.2466
▁visual	-10.2476
line	-10.2476
▁Schüler	-10.2479
▁extra	-10.248
schen	-10.2481
▁somewhere	-10.2487
▁Museum	-10.2489
▁pull	-10.2501
▁models	-10.2506
▁arbeitete	-10.2509
▁Sinne	-10.2516
▁Ma	-10.2517
▁impossible	-10.2518
▁Spaß	-10.2518
▁extraordinary	-10.2519
▁zumindest	-10.2519
▁Können	-10.2524
▁Sex	-10.2525
▁price	-10.2543
▁Büro	-10.255
▁Armut	-10.2551
▁Firmen	-10.2552
▁Gut	-10.2555
▁anschauen	-10.2564
▁objects	-10.2567
▁shown	-10.2568
▁larger	-10.2578
▁unmöglich	-10.2582
ff	-10.2585
▁meant	-10.2592
Ja	-10.2598
▁moral	-10.2601
▁Nachricht	-10.2604
▁Grenzen	-10.2608
▁möglichen	-10.261
▁lower	-10.2613
▁neben	-10.2613
▁above	-10.2614
ating	-10.2614
▁verlieren	-10.2615
▁draw	-10.2622
▁Where	-10.2628
▁erzeugen	-10.2629
Wie	-10.2645
▁Vergangenheit	-10.2645
▁taught	-10.2645
▁win	-10.2648
▁killed	-10.2654
▁erzählt	-10.2672
ging	-10.2672
▁main	-10.2675
▁college	-10.2677
▁Wirklichkeit	-10.2678
▁tool	-10.2678
▁kannst	-10.2682
9	-10.2688
per	-10.2691
▁increase	-10.2692
▁allowed	-10.2694
▁Arm	-10.2695
▁Worte	-10.2698
▁voller	-10.2699
▁Don	-10.2706
▁denkt	-10.271
▁aussieht	-10.2711
▁Kamera	-10.2712
▁Orten	-10.2716
▁dritte	-10.2732
▁sell	-10.2738
▁Bill	-10.2741
▁including	-10.2742
liche	-10.2742
▁complicated	-10.2743
▁k	-10.2745
ance	-10.2747
▁rise	-10.2749
▁pain	-10.2755
ca	-10.2759
▁entscheiden	-10.2766
ag	-10.2767
ende	-10.2767
▁conversation	-10.2771
▁nachzudenken	-10.2774
▁wife	-10.2774
▁Those	-10.2774
▁hot	-10.2786
▁Y	-10.2799
▁serious	-10.2802
▁wonder	-10.2822
ard	-10.2822
▁Ko	-10.2825
▁Sohn	-10.2832
▁usually	-10.2841
▁näher	-10.2847
form	-10.2852
▁kill	-10.2857
▁interest	-10.2863
▁ended	-10.2863
ah	-10.2866
▁gebracht	-10.2866
▁Gerät	-10.2867
▁traditional	-10.2868
▁arbeitet	-10.2868
▁decision	-10.2871
▁alive	-10.2873
▁Landes	-10.2885
▁Personen	-10.2893
▁Tagen	-10.2902
▁progress	-10.2902
▁tree	-10.2905
▁truly	-10.2905
▁studies	-10.2905
▁Today	-10.2905
▁produzieren	-10.2909
▁reading	-10.2913
▁Spezies	-10.2925
▁training	-10.2925
▁traf	-10.2929
▁Ergebnisse	-10.293
▁Ebene	-10.2931
▁na	-10.2934
▁products	-10.2938
▁Bakterien	-10.2939
▁400	-10.2948
▁region	-10.2958
▁Flugzeug	-10.2964
▁Sekunden	-10.2965
▁sodass	-10.2971
▁families	-10.2971
▁excited	-10.2972
▁führte	-10.298
▁Gen	-10.2981
cy	-10.2987
▁versuche	-10.2995
▁Baby	-10.3008
ja	-10.301
▁buildings	-10.3027
▁feed	-10.3032
▁successful	-10.3033
▁wild	-10.3033
▁Theorie	-10.3036
▁trotzdem	-10.3038
▁kaum	-10.3039
▁specific	-10.3045
▁aren	-10.3054
▁Druck	-10.3058
▁son	-10.3059
▁Behandlung	-10.3064
▁critical	-10.3068
▁gewinnen	-10.307
▁dein	-10.3071
end	-10.3072
▁standing	-10.3073
▁Ozean	-10.3077
▁150	-10.3084
▁square	-10.3094
▁riesige	-10.3095
▁range	-10.3098
▁older	-10.3111
▁clean	-10.3114
▁search	-10.3116
▁path	-10.3127
▁Dorf	-10.3132
▁bacteria	-10.3134
▁heutzutage	-10.3137
▁retten	-10.3137
▁Eines	-10.3141
▁befinden	-10.3142
▁solchen	-10.3144
▁Ressourcen	-10.3145
▁consider	-10.3146
ug	-10.3152
▁Mathematik	-10.3152
▁page	-10.3155
ex	-10.3155
▁Chance	-10.3163
ure	-10.3168
▁allows	-10.3171
▁yeah	-10.3171
▁electricity	-10.3171
▁floor	-10.3173
▁forms	-10.3181
che	-10.3185
sche	-10.3186
▁nahe	-10.3187
▁slow	-10.3195
zeit	-10.3197
▁nenne	-10.3197
▁current	-10.32
▁Englisch	-10.3205
▁series	-10.3205
▁Freiheit	-10.3205
▁Einstein	-10.3206
▁crisis	-10.3206
▁upon	-10.3214
▁Bank	-10.3214
ierung	-10.3221
▁AIDS	-10.3223
▁legal	-10.3239
▁Wahrscheinlich	-10.3239
▁cold	-10.324
▁geschehen	-10.3241
▁somehow	-10.3241
ierte	-10.3244
▁hell	-10.3249
▁gekommen	-10.3264
▁großes	-10.3271
▁rund	-10.3272
▁verbinden	-10.3274
▁runter	-10.3276
▁alte	-10.3279
▁erfahren	-10.328
▁sky	-10.3285
rin	-10.3293
▁police	-10.3306
▁zeigte	-10.331
▁eben	-10.3313
▁treatment	-10.3314
▁organization	-10.3314
▁healthy	-10.3323
▁st	-10.3343
▁Nummer	-10.3343
▁Kampf	-10.3343
▁untersuchen	-10.3346
▁train	-10.3346
▁Objekt	-10.3356
▁Regierungen	-10.3367
▁Hände	-10.3368
▁version	-10.3369
▁sorts	-10.337
▁Her	-10.337
▁interessante	-10.3375
▁gefragt	-10.3375
▁kept	-10.3375
▁physics	-10.3375
▁irgendwo	-10.3377
▁Mr	-10.3388
▁service	-10.339
▁Risiko	-10.341
cht	-10.3412
▁written	-10.3413
▁früher	-10.3418
▁smaller	-10.3419
▁Wachstum	-10.3419
▁ermöglicht	-10.3421
▁gestellt	-10.343
▁einzelnen	-10.3432
▁großartige	-10.3432
▁biology	-10.3445
▁architecture	-10.3445
▁anywhere	-10.3447
▁cases	-10.3449
▁subject	-10.3452
▁aufgrund	-10.3453
one	-10.3456
▁neun	-10.3458
▁please	-10.3465
▁Linie	-10.3472
▁patterns	-10.3475
▁d	-10.3476
▁brains	-10.3478
▁Ordnung	-10.3479
▁Kern	-10.3479
▁Like	-10.348
▁wann	-10.3483
▁Recht	-10.3484
▁town	-10.3491
▁neurons	-10.3493
▁sat	-10.3493
▁globalen	-10.3495
▁Meer	-10.3497
▁decide	-10.35
▁hab	-10.3506
▁sign	-10.3513
▁himself	-10.3514
▁freedom	-10.3514
▁Bezug	-10.3515
rzte	-10.3516
▁tells	-10.3529
▁lebt	-10.3531
▁actual	-10.3545
▁peace	-10.3546
▁ehrlich	-10.3549
▁entdecken	-10.3549
▁military	-10.3549
▁folgen	-10.3553
▁Le	-10.3557
uch	-10.3562
ak	-10.358
▁anymore	-10.3585
▁hilft	-10.3587
▁performance	-10.3588
teil	-10.3589
▁waste	-10.3589
▁Kollegen	-10.3595
▁stars	-10.3599
▁raise	-10.3606
▁Million	-10.3614
▁Durch	-10.3618
▁career	-10.3619
▁MIT	-10.3619
▁Prinzip	-10.3622
gehen	-10.3624
▁weight	-10.3626
▁danke	-10.3628
▁45	-10.3636
▁Bio	-10.3637
▁Himmel	-10.3637
▁address	-10.3645
▁Ent	-10.3646
▁race	-10.3655
▁großartig	-10.3663
▁concept	-10.3664
▁Schul	-10.3665
▁zero	-10.3673
▁Bis	-10.3685
▁Organisation	-10.3688
▁herausfinden	-10.3691
va	-10.3691
▁School	-10.3692
▁Which	-10.3693
▁Arzt	-10.3694
▁lines	-10.3698
▁Bewusstsein	-10.3703
▁verstanden	-10.3706
▁Plan	-10.3713
▁emotional	-10.3721
▁bodies	-10.3726
▁sand	-10.3728
▁pieces	-10.3732
▁handelt	-10.3735
▁Auswirkungen	-10.3736
▁Telefon	-10.3751
▁hörte	-10.3754
▁jungen	-10.3761
▁instance	-10.3761
▁Damit	-10.3763
▁robots	-10.3765
▁doctors	-10.3771
▁Netzwerk	-10.3781
▁entschieden	-10.3792
▁erzählte	-10.3792
▁leisten	-10.3797
ever	-10.3798
▁zweiten	-10.3807
▁läuft	-10.381
lichen	-10.3817
▁touch	-10.3817
▁arbeite	-10.3818
▁bar	-10.3819
eln	-10.3821
▁connect	-10.3823
▁Times	-10.3829
▁earlier	-10.3833
▁dangerous	-10.3833
▁trade	-10.3834
▁Artikel	-10.3835
▁legs	-10.384
▁Israel	-10.3845
▁mobile	-10.3846
des	-10.3851
▁fing	-10.3856
▁shot	-10.3858
▁flow	-10.3866
▁expensive	-10.3869
▁dadurch	-10.387
▁becoming	-10.3872
mi	-10.3879
leben	-10.388
▁mom	-10.3882
▁einander	-10.3885
▁Tisch	-10.3887
▁hält	-10.3896
▁Bürger	-10.39
▁forest	-10.3901
▁policy	-10.3906
▁fantastic	-10.3906
▁normalerweise	-10.3906
▁erstaunlich	-10.3912
plan	-10.3913
ary	-10.3915
▁sammeln	-10.3918
▁Beginn	-10.3918
▁medizinische	-10.3934
▁final	-10.3938
auf	-10.3942
▁Feuer	-10.3942
▁clearly	-10.3951
▁dog	-10.396
▁listening	-10.396
like	-10.3961
▁skills	-10.3978
▁Another	-10.3979
▁übrigens	-10.3979
▁lag	-10.3982
▁throughout	-10.3983
▁store	-10.3985
▁income	-10.399
▁Formen	-10.3996
▁loved	-10.3996
▁Are	-10.3996
▁öffentlichen	-10.3997
▁Tür	-10.4004
▁genes	-10.4005
▁Name	-10.4013
▁greater	-10.4014
▁Harvard	-10.4015
▁familiar	-10.4015
▁points	-10.4015
▁geschaffen	-10.4015
▁pressure	-10.4015
▁Nahrung	-10.4018
▁Krankenhaus	-10.4018
▁George	-10.4019
▁fallen	-10.4031
▁website	-10.4033
▁famous	-10.4047
▁Americans	-10.4048
▁außerhalb	-10.4052
▁production	-10.4054
▁Methode	-10.4054
▁practice	-10.4057
▁diejenigen	-10.4064
▁genetic	-10.4071
▁Wesen	-10.4079
▁therefore	-10.4089
▁September	-10.409
▁decisions	-10.409
▁befindet	-10.4091
▁died	-10.4104
▁math	-10.4105
▁strange	-10.4109
▁Geist	-10.4111
▁warten	-10.4119
▁Reaktion	-10.4122
▁except	-10.4124
▁fit	-10.4126
▁entdeckt	-10.4128
▁Gründe	-10.4132
▁Abend	-10.4135
ich	-10.4137
▁globale	-10.415
▁foot	-10.415
▁rechts	-10.4152
hu	-10.4169
▁seconds	-10.4179
▁Beziehungen	-10.4184
log	-10.4185
bi	-10.4188
▁star	-10.4188
dimensional	-10.4189
▁direction	-10.4191
▁ran	-10.4206
▁Interesse	-10.4222
▁b	-10.4237
▁Imagine	-10.4238
▁intelligence	-10.4238
▁unterstützen	-10.4238
▁schützen	-10.4238
▁ebenso	-10.4238
▁tief	-10.4243
Hey	-10.425
▁waiting	-10.4254
U	-10.4255
▁Lasse	-10.4269
▁spielt	-10.4269
▁Liste	-10.4274
▁Architektur	-10.4279
▁machines	-10.428
▁Fotos	-10.4281
ative	-10.4288
▁erfolgreich	-10.4292
▁toll	-10.4298
▁fuel	-10.4299
▁decade	-10.43
fall	-10.4313
▁geschah	-10.4313
▁Vergleich	-10.4314
▁taten	-10.4314
▁Systeme	-10.4314
▁Partner	-10.4315
▁messen	-10.4317
In	-10.4323
▁betrachtet	-10.4323
▁Farbe	-10.433
▁willing	-10.4332
▁Ra	-10.4337
▁welcher	-10.4341
▁Punkte	-10.4343
▁solutions	-10.435
durchschnittlich	-10.4354
▁Schlüssel	-10.4355
▁greatest	-10.4356
▁photograph	-10.4361
▁Jungen	-10.4364
▁knows	-10.4368
so	-10.4371
▁forth	-10.4372
vor	-10.4375
▁r	-10.4377
▁beauty	-10.4389
▁Grad	-10.4395
▁ex	-10.4398
▁Netz	-10.44
▁Zeitpunkt	-10.4401
▁offen	-10.4403
▁teaching	-10.4409
▁walked	-10.4411
▁Nigeria	-10.4422
▁Haut	-10.4425
▁erzeugt	-10.4427
gi	-10.443
▁selben	-10.4431
▁environmental	-10.4431
▁meeting	-10.4438
▁negative	-10.4443
▁Test	-10.445
cken	-10.4452
▁Auge	-10.4464
▁ideal	-10.4465
▁fossil	-10.4465
▁trouble	-10.4465
▁einzigen	-10.4469
▁term	-10.4472
▁costs	-10.4485
▁Gesundheits	-10.4486
▁fühlte	-10.4488
▁Projekte	-10.4489
da	-10.45
▁Darwin	-10.4503
▁entweder	-10.4504
▁web	-10.4509
od	-10.4521
▁wants	-10.4522
ists	-10.4526
▁plastic	-10.4532
▁institutions	-10.4539
▁Stunde	-10.454
▁Bühne	-10.4541
erweise	-10.4543
▁immediately	-10.4544
▁herstellen	-10.4546
bo	-10.4546
▁effective	-10.4548
Nein	-10.4555
▁quick	-10.4577
▁California	-10.4581
▁driving	-10.4586
ub	-10.4591
▁press	-10.4592
▁connection	-10.4613
▁conflict	-10.4618
▁Manchmal	-10.462
▁produziert	-10.462
▁Designer	-10.4625
▁rule	-10.4629
ium	-10.463
▁check	-10.4644
▁anti	-10.4644
ku	-10.465
▁text	-10.4656
▁function	-10.4658
▁getroffen	-10.4659
▁dasselbe	-10.4659
▁Fuß	-10.4659
▁invented	-10.4664
ör	-10.4687
▁Paul	-10.469
▁levels	-10.4693
nde	-10.4694
▁obvious	-10.4694
▁various	-10.4698
▁jene	-10.4702
▁hair	-10.4713
▁push	-10.4716
▁survive	-10.4724
▁Verantwortung	-10.4736
▁Francisco	-10.4738
ib	-10.4738
▁Anderson	-10.4739
▁erwarten	-10.4744
▁erleben	-10.4752
▁Wege	-10.4759
▁ihres	-10.4759
▁km	-10.476
▁sp	-10.4772
▁Herzen	-10.4775
▁Chicago	-10.4777
▁Two	-10.4778
▁ahead	-10.4792
▁tolle	-10.4797
rum	-10.4801
▁improve	-10.4802
▁explore	-10.4802
▁photo	-10.4811
▁original	-10.4815
bild	-10.4815
▁Werte	-10.482
▁humanity	-10.4827
▁amerikanischen	-10.4827
▁heat	-10.4832
▁heutigen	-10.4834
▁beings	-10.4839
▁höher	-10.484
▁Ton	-10.4841
▁unglaubliche	-10.4848
▁extreme	-10.4855
▁Maschinen	-10.4856
▁Verständnis	-10.4857
▁erinnere	-10.4857
▁rock	-10.4869
▁verrückt	-10.4875
▁Unser	-10.4875
izing	-10.4876
▁Westen	-10.4878
les	-10.4879
▁fällt	-10.4882
▁join	-10.4888
▁dance	-10.489
raum	-10.4891
▁hundert	-10.4894
▁Nähe	-10.4897
tri	-10.4899
tel	-10.49
▁apply	-10.4901
▁wirtschaftliche	-10.4902
▁Lösungen	-10.4903
▁schlechte	-10.4904
▁decades	-10.4911
▁Erfahrungen	-10.4916
▁Medikamente	-10.4918
▁values	-10.4923
▁shift	-10.4923
▁enjoy	-10.4927
▁services	-10.4928
▁Gesetz	-10.4929
▁Ok	-10.4933
▁Freude	-10.4933
▁guter	-10.4936
▁although	-10.4937
▁babies	-10.4937
▁popular	-10.4937
▁Traum	-10.494
innen	-10.4948
▁Sommer	-10.4949
▁existiert	-10.4959
▁following	-10.4959
▁wenige	-10.4975
▁useful	-10.4975
▁terrible	-10.4977
▁Leidenschaft	-10.4978
▁anyway	-10.498
▁summer	-10.4981
ud	-10.4991
▁slide	-10.5
▁Wörter	-10.5002
▁Veränderungen	-10.5008
▁types	-10.501
▁Lernen	-10.5014
▁remarkable	-10.5018
▁spricht	-10.5021
▁Junge	-10.5021
▁Industrie	-10.5022
▁capital	-10.5024
▁schicken	-10.503
wa	-10.5033
▁attack	-10.5034
Be	-10.504
all	-10.5041
▁stick	-10.5053
▁unique	-10.5054
▁enormous	-10.5054
▁Gehirns	-10.5056
▁possibly	-10.5058
▁ebenfalls	-10.5058
▁beeinflusst	-10.5059
▁Charles	-10.5059
▁verkaufen	-10.5059
▁Opfer	-10.5059
que	-10.5062
▁Einer	-10.5062
▁keiner	-10.5063
▁zer	-10.5063
Warum	-10.5074
▁nahmen	-10.5075
▁Sa	-10.5078
▁dar	-10.5085
tic	-10.5095
▁Mond	-10.5111
▁park	-10.5112
ow	-10.5116
ng	-10.5124
pf	-10.5127
▁Jahrhunderts	-10.5128
▁communicate	-10.514
▁behandeln	-10.514
▁Polizei	-10.5142
▁Think	-10.5143
▁wählen	-10.5145
▁fix	-10.5147
▁nation	-10.5147
bel	-10.5147
▁Neu	-10.5157
▁75	-10.5171
ide	-10.5176
ität	-10.5178
▁f	-10.5179
▁NASA	-10.5181
▁gedacht	-10.5181
▁television	-10.5181
▁Ahnung	-10.5182
▁Geschäft	-10.5185
▁High	-10.5185
▁hervor	-10.5185
▁atmosphere	-10.5186
▁politics	-10.5187
▁virus	-10.5191
▁größere	-10.5194
▁minds	-10.5202
▁halbe	-10.5203
▁öffentliche	-10.5206
▁flying	-10.5209
▁politische	-10.5212
▁infrastructure	-10.5223
▁Leistung	-10.5225
▁purpose	-10.5226
▁standard	-10.5226
▁Manche	-10.5234
▁Haben	-10.525
▁count	-10.5256
▁Fortschritt	-10.5256
▁eure	-10.5257
▁financial	-10.5259
▁aid	-10.5261
▁genutzt	-10.5264
▁erfunden	-10.5264
▁societies	-10.5264
▁behandelt	-10.5264
▁Religion	-10.5266
▁jemandem	-10.5271
▁brand	-10.5273
▁Jedes	-10.5283
▁complete	-10.5287
ka	-10.5288
▁apart	-10.5289
▁reduce	-10.5292
▁aware	-10.5301
▁choices	-10.5301
▁Second	-10.5303
Es	-10.5303
▁außergewöhnlich	-10.5306
▁Fenster	-10.5306
▁2008	-10.5307
▁event	-10.5308
▁Worten	-10.531
▁Teilen	-10.5313
▁Life	-10.5314
▁o	-10.5314
io	-10.5319
▁Eigenschaften	-10.5322
▁predict	-10.5323
▁pass	-10.5325
▁veröffentlicht	-10.5328
▁Erstens	-10.5331
▁Finger	-10.5333
▁Gefängnis	-10.5335
▁magic	-10.5337
▁artist	-10.534
▁Schönheit	-10.5348
▁slightly	-10.5348
▁Western	-10.5354
▁komme	-10.5357
▁bisher	-10.5358
▁gehe	-10.5364
▁engineering	-10.5367
if	-10.5374
▁male	-10.5385
▁straight	-10.539
▁supply	-10.539
▁understood	-10.539
▁rain	-10.539
▁radio	-10.5391
▁passion	-10.5392
▁female	-10.5393
▁Bienen	-10.5397
▁governments	-10.5403
▁Mir	-10.5405
▁helped	-10.5406
▁Many	-10.5408
▁hole	-10.5414
▁effects	-10.5415
▁track	-10.5426
▁capacity	-10.5432
▁speech	-10.5432
▁worst	-10.5432
▁temperature	-10.5436
▁James	-10.5436
▁Big	-10.5444
▁respect	-10.5452
led	-10.5455
▁ließ	-10.5459
▁Produkte	-10.5464
ue	-10.5468
▁Kontakt	-10.5474
▁Spitze	-10.5475
▁konzentrieren	-10.5477
▁Great	-10.5482
ization	-10.5494
How	-10.5494
▁weren	-10.5503
igkeit	-10.5507
It	-10.5508
arbeit	-10.5511
▁From	-10.5517
▁secret	-10.5517
än	-10.5518
▁directly	-10.552
▁Zustand	-10.5521
▁religion	-10.5522
▁verbringen	-10.5525
▁below	-10.5525
▁Osten	-10.5532
ziehen	-10.5537
▁echte	-10.5541
▁lernte	-10.5542
▁gutes	-10.5547
tz	-10.5549
äh	-10.5552
▁conference	-10.556
▁Steve	-10.5561
▁Region	-10.5561
▁hart	-10.5562
▁überleben	-10.5573
▁Männern	-10.5578
gel	-10.558
▁challenges	-10.558
▁prison	-10.5584
▁agree	-10.5587
nd	-10.559
▁fair	-10.5592
▁Biologie	-10.5603
▁cultural	-10.5603
▁Michael	-10.5604
▁öffnen	-10.5606
schaftliche	-10.5607
▁shared	-10.5607
▁paid	-10.5609
▁citizens	-10.561
▁whose	-10.562
▁colleagues	-10.562
▁Wald	-10.5625
ualität	-10.5634
▁Städten	-10.5637
▁affect	-10.5642
▁Ho	-10.5643
▁Street	-10.5646
▁iPhone	-10.5646
nder	-10.5646
▁2010	-10.5647
▁Botschaft	-10.5647
▁Se	-10.5651
▁Li	-10.5654
▁bat	-10.5669
▁spreche	-10.5684
▁ball	-10.5684
▁mostly	-10.5685
qui	-10.5685
▁YouTube	-10.5689
▁deutlich	-10.5689
ding	-10.569
▁kontrollieren	-10.569
eh	-10.5691
▁email	-10.5697
▁forget	-10.5697
spiel	-10.5697
▁zufällig	-10.5699
▁character	-10.57
▁frühen	-10.57
▁fangen	-10.5702
▁ha	-10.5703
▁Tieren	-10.5709
▁spät	-10.5715
▁e	-10.5716
▁Your	-10.5722
▁recent	-10.5729
▁Verfügung	-10.5732
▁angefangen	-10.5737
▁task	-10.5742
▁afford	-10.5742
Why	-10.5754
ap	-10.5758
▁trifft	-10.5776
▁überzeugt	-10.5776
pro	-10.5776
▁published	-10.5779
▁gegangen	-10.5782
▁gewisse	-10.5791
▁Unterschiede	-10.5795
bu	-10.5798
▁quote	-10.5799
▁23	-10.5802
▁absolute	-10.5807
▁birth	-10.582
▁Again	-10.582
▁creativity	-10.582
▁Karriere	-10.582
▁funny	-10.582
▁Geschwindigkeit	-10.5821
▁Materialien	-10.5821
▁Je	-10.5822
▁hört	-10.5831
▁chemical	-10.5831
▁Freunden	-10.5833
▁mission	-10.584
▁Center	-10.5841
▁mountain	-10.5841
▁Kommunikation	-10.5849
▁früh	-10.5854
pt	-10.5855
▁diseases	-10.5859
▁Fluss	-10.586
▁condition	-10.5862
▁oxygen	-10.5864
▁Gelegenheit	-10.5866
▁Noch	-10.5869
▁echt	-10.587
▁noticed	-10.5886
▁meters	-10.5887
▁Pakistan	-10.5893
▁begonnen	-10.5908
▁Drogen	-10.5908
ale	-10.5909
▁micro	-10.5909
▁Bäume	-10.5911
▁Berg	-10.5911
▁entstehen	-10.592
▁Islam	-10.592
▁stress	-10.5924
ind	-10.5928
▁ändert	-10.593
▁Zeiten	-10.5933
▁Indian	-10.5933
▁Wunder	-10.5938
ek	-10.594
▁Antworten	-10.5941
press	-10.5943
ssystem	-10.5954
▁herzustellen	-10.5955
▁Mikro	-10.5955
▁Infrastruktur	-10.5956
▁geschafft	-10.5958
▁laws	-10.5968
▁boys	-10.5984
▁bio	-10.5986
▁closer	-10.5987
▁rid	-10.5992
▁Sand	-10.5996
▁Nehmen	-10.5997
▁brilliant	-10.5997
▁campaign	-10.5997
▁einfachen	-10.6002
▁tr	-10.6006
▁bestehen	-10.6011
▁Bett	-10.6011
▁relationships	-10.6015
▁gebe	-10.6015
isten	-10.6015
▁riesigen	-10.6018
▁causes	-10.602
▁Me	-10.6027
▁organizations	-10.6034
▁speaking	-10.6035
▁corner	-10.6035
▁programs	-10.6037
▁biological	-10.6037
▁twice	-10.6042
▁surgery	-10.6042
▁rational	-10.6043
▁täglich	-10.6043
▁stopped	-10.6043
▁Wandel	-10.6044
▁Dort	-10.605
▁v	-10.6055
▁Glauben	-10.6061
▁Gesetze	-10.6062
▁endlich	-10.6069
▁interact	-10.607
pp	-10.6081
▁Sauerstoff	-10.6082
▁afraid	-10.6087
▁forces	-10.6088
▁Ausdruck	-10.6088
lin	-10.6089
▁Over	-10.609
▁aufgenommen	-10.6098
▁drop	-10.6102
▁respond	-10.611
▁amerikanische	-10.611
▁return	-10.611
▁verursacht	-10.6111
▁eigenes	-10.6112
▁worry	-10.6121
▁Physik	-10.6132
▁Großbritannien	-10.6132
▁Tochter	-10.6132
▁Vertrauen	-10.6133
▁played	-10.6139
▁evolved	-10.6139
▁Gefühle	-10.6142
die	-10.6142
▁brauchte	-10.6148
▁irgendeine	-10.6149
▁Farben	-10.6151
▁produced	-10.6159
▁99	-10.6162
▁achieve	-10.6162
▁Klima	-10.6172
▁Verbindungen	-10.6176
▁Flug	-10.6177
▁central	-10.6177
▁reagieren	-10.6178
▁Kreativität	-10.6178
▁Zeichen	-10.6178
▁sustainable	-10.6178
sh	-10.618
▁relevant	-10.6182
Re	-10.6184
▁fühlt	-10.6197
term	-10.62
▁discover	-10.6201
▁einfacher	-10.6201
▁Zelle	-10.6202
▁active	-10.6206
▁El	-10.6207
▁größeren	-10.6209
00	-10.6214
▁glass	-10.6216
▁Suche	-10.6217
du	-10.6217
▁catch	-10.6219
▁bank	-10.6219
▁auszu	-10.622
▁wichtigsten	-10.6221
▁gotten	-10.6223
▁Regel	-10.6224
▁Vielfalt	-10.6224
▁kämpfen	-10.6224
▁bought	-10.6224
▁Lebensmittel	-10.6226
▁Adam	-10.6229
▁workers	-10.6231
▁states	-10.6238
▁lack	-10.6239
▁alternative	-10.6242
▁highly	-10.6255
▁sequence	-10.6255
▁Baum	-10.6256
▁carry	-10.6259
ial	-10.6261
▁commercial	-10.6269
▁Boston	-10.6269
▁ermöglichen	-10.6269
▁vast	-10.627
▁Ausbildung	-10.627
▁Klasse	-10.6276
▁basis	-10.6278
▁missing	-10.628
▁Bar	-10.6283
▁natürliche	-10.6285
▁politischen	-10.6286
Du	-10.629
for	-10.6293
▁laut	-10.6298
▁tausende	-10.6298
▁Werkzeuge	-10.6303
▁throw	-10.6307
▁Instead	-10.6316
▁easily	-10.6316
▁responsibility	-10.6316
▁smell	-10.6316
▁sogenannte	-10.6317
▁Angeles	-10.6318
▁weiterhin	-10.6319
cher	-10.632
▁differences	-10.6325
▁Bo	-10.6334
▁seemed	-10.6341
▁hielt	-10.6343
▁Hi	-10.6343
▁fühle	-10.6348
▁Den	-10.6348
ni	-10.6352
ari	-10.6355
▁intelligent	-10.6357
rate	-10.636
▁notion	-10.6361
▁beeinflussen	-10.6362
▁dying	-10.6362
▁entlang	-10.6362
▁kenne	-10.6364
▁College	-10.6364
ite	-10.6366
▁10,000	-10.6367
▁Lieblings	-10.6372
▁Arbeits	-10.6378
▁ko	-10.6386
▁separate	-10.6395
▁His	-10.6398
way	-10.6398
▁transform	-10.6401
▁imagination	-10.6408
▁dorthin	-10.641
▁Last	-10.6416
▁window	-10.6424
setzen	-10.6446
▁sick	-10.6449
▁Materie	-10.6455
▁Paris	-10.6455
▁investment	-10.6457
▁handeln	-10.6457
▁networks	-10.646
▁Kilometer	-10.646
▁Ansatz	-10.6462
ray	-10.6463
▁depend	-10.6463
▁Seit	-10.6464
▁Version	-10.6471
▁daughter	-10.6477
▁molecules	-10.6484
industrie	-10.6498
▁Atmosphäre	-10.6502
▁gilt	-10.6502
▁Drei	-10.6502
▁More	-10.6504
▁illegal	-10.6506
▁kostet	-10.6511
▁streets	-10.6515
▁argument	-10.6516
▁communication	-10.6525
bare	-10.653
▁22	-10.6531
Wenn	-10.6531
▁differently	-10.6534
▁engage	-10.6535
▁eating	-10.6537
▁significant	-10.6544
▁Wikipedia	-10.6549
▁2007	-10.6551
▁verbreitet	-10.6555
▁definition	-10.6556
▁cover	-10.6558
▁Jobs	-10.6566
isieren	-10.657
▁Norden	-10.6577
schaft	-10.6578
▁answers	-10.6587
▁degrees	-10.6591
▁bloß	-10.6592
▁Schutz	-10.6593
▁schaut	-10.6595
▁trotz	-10.6595
▁Gewicht	-10.6597
▁diversity	-10.6597
▁helping	-10.6597
▁Online	-10.6597
▁Loch	-10.6598
▁Schlaf	-10.6599
▁nehme	-10.6603
bt	-10.6613
ical	-10.6617
ble	-10.662
▁genome	-10.6621
▁jump	-10.6622
▁scientist	-10.6622
ish	-10.663
▁warm	-10.6633
▁flu	-10.6634
▁erlauben	-10.6644
▁überrascht	-10.6644
▁rights	-10.6649
▁graph	-10.6661
▁markets	-10.6663
▁erwartet	-10.6667
enden	-10.6672
▁wunderbare	-10.6675
ile	-10.6678
stellen	-10.6678
▁seien	-10.668
▁designers	-10.6683
▁elektrische	-10.6692
▁weird	-10.6693
▁hearing	-10.6695
▁experiments	-10.6698
▁Neuronen	-10.6699
▁Take	-10.67
▁Konferenz	-10.6702
▁Jede	-10.6703
▁Gemeinde	-10.6703
▁Waffen	-10.6707
J	-10.6712
▁dahin	-10.6721
▁boat	-10.673
▁signal	-10.6731
▁Mehr	-10.6738
▁Intelligenz	-10.674
▁entsteht	-10.674
▁Bildschirm	-10.674
▁background	-10.6741
▁complexity	-10.6743
▁durchgeführt	-10.6743
of	-10.6744
▁Position	-10.6746
▁nearly	-10.6748
▁Virus	-10.6748
▁Soldaten	-10.6749
lichkeit	-10.675
▁erstellen	-10.6752
▁praktisch	-10.6761
▁broken	-10.6769
▁dad	-10.677
▁none	-10.6772
▁Feld	-10.6776
▁wider	-10.6777
con	-10.6779
off	-10.6782
ki	-10.6786
ose	-10.6787
gu	-10.6788
▁Zusammenhang	-10.6789
▁Robert	-10.6789
▁flight	-10.6789
▁earth	-10.6789
▁desire	-10.679
▁Sun	-10.6792
▁Science	-10.6793
▁entschied	-10.6795
▁European	-10.6796
▁Kunden	-10.6797
▁Präsident	-10.6797
▁core	-10.6799
▁Good	-10.6804
▁Ca	-10.6807
▁westliche	-10.6808
punkt	-10.681
▁landscape	-10.6817
▁multi	-10.682
▁verkauft	-10.682
▁spending	-10.6829
▁inter	-10.683
▁stellten	-10.6831
▁Identität	-10.6837
▁giant	-10.6837
▁darf	-10.684
▁Ziele	-10.6843
welt	-10.6849
▁represent	-10.6854
▁mo	-10.6859
▁erklärt	-10.686
▁trial	-10.6869
▁Sin	-10.6872
ob	-10.6881
▁langen	-10.6885
▁Komplexität	-10.6886
▁Satz	-10.6886
▁consciousness	-10.6886
▁inner	-10.6887
▁birds	-10.6887
▁Einsatz	-10.6888
▁dagegen	-10.6888
▁Wunsch	-10.6889
▁erforschen	-10.6892
▁avoid	-10.6906
▁Werkzeug	-10.6915
▁Klimawandel	-10.6916
▁GPS	-10.6935
▁1990	-10.6935
▁1,000	-10.6936
▁Niemand	-10.6937
▁studying	-10.6938
nden	-10.6941
▁stem	-10.6941
▁Gesellschaften	-10.6944
hm	-10.6945
▁block	-10.6945
tor	-10.6945
▁Wieder	-10.695
▁Professor	-10.6953
▁influence	-10.6956
▁visit	-10.6961
▁Institute	-10.6962
tag	-10.6964
▁wert	-10.6969
▁equal	-10.6978
▁tremendous	-10.6979
▁Titel	-10.6984
▁betrifft	-10.6984
▁opportunities	-10.6984
▁Unterstützung	-10.6984
bringen	-10.6984
▁g	-10.6987
▁Ta	-10.699
▁saß	-10.6992
▁Bedingungen	-10.6992
▁Insekten	-10.6993
▁Typen	-10.7008
▁cross	-10.701
▁Sterne	-10.701
▁legen	-10.7021
"-	-10.7024
▁coffee	-10.7034
▁universal	-10.7035
▁Middle	-10.7037
▁BG	-10.7039
▁Ben	-10.7043
▁beschäftigt	-10.7044
▁focused	-10.7054
0	-10.7055
▁labor	-10.7056
Do	-10.706
▁manage	-10.7071
uelle	-10.7075
▁Holz	-10.7084
▁Sport	-10.7085
▁investieren	-10.7086
▁noise	-10.7089
▁davor	-10.709
▁Zentrum	-10.7092
▁aufzu	-10.7099
▁forever	-10.7121
nce	-10.7126
▁knowing	-10.7127
▁steckt	-10.7127
▁husband	-10.7133
▁verfügbar	-10.7133
▁yellow	-10.7133
▁Zusammenarbeit	-10.7134
▁Keine	-10.7136
▁Actually	-10.7136
▁benötigen	-10.7138
▁fairly	-10.7139
ped	-10.7142
halten	-10.7148
ierten	-10.715
▁alleine	-10.7167
▁fully	-10.717
ities	-10.7171
▁Knochen	-10.7183
▁gewonnen	-10.7184
▁Drittel	-10.7185
▁app	-10.7188
berg	-10.7191
▁Neuro	-10.7192
▁Sekunde	-10.7192
▁beschreiben	-10.7193
▁heran	-10.7195
▁Asia	-10.7196
▁gaben	-10.7206
▁dreht	-10.7209
Sie	-10.7212
ged	-10.7216
Okay	-10.7219
▁chinesische	-10.7229
del	-10.7232
▁ancient	-10.7234
▁competition	-10.7234
▁identity	-10.7234
▁kommunizieren	-10.7234
▁Gewebe	-10.7234
▁opposite	-10.7234
▁click	-10.7234
▁Irak	-10.7235
▁Ex	-10.7235
▁habt	-10.7242
▁Handy	-10.7243
▁passed	-10.7245
▁Po	-10.7245
▁devices	-10.7255
▁Fernsehen	-10.7257
based	-10.7259
▁sowie	-10.7263
▁schafft	-10.7263
▁weiss	-10.7263
isierung	-10.7271
schlag	-10.7274
▁600	-10.7278
▁wealth	-10.728
▁herunter	-10.7284
▁contact	-10.7285
▁klingt	-10.7285
▁1960	-10.7285
▁Basis	-10.7286
▁2005	-10.7287
▁museum	-10.7293
▁Ga	-10.7294
▁Spielen	-10.7302
▁members	-10.7305
Sch	-10.7309
▁planets	-10.7312
▁Objekte	-10.7313
▁bitten	-10.7318
▁failure	-10.7324
▁effort	-10.7324
▁balance	-10.7326
▁lautet	-10.733
▁random	-10.733
side	-10.7335
▁begeistert	-10.7336
▁stolz	-10.7336
▁Stein	-10.7338
▁sold	-10.734
▁bezahlt	-10.7342
▁leider	-10.7348
▁roll	-10.7359
▁describe	-10.7362
▁Hirn	-10.7382
▁Gang	-10.7384
▁Plastik	-10.7385
▁Zweitens	-10.7386
▁breast	-10.7387
▁phenomenon	-10.7387
▁unbedingt	-10.7388
▁lucky	-10.7389
▁Ob	-10.739
▁inspired	-10.7393
▁Höhe	-10.7395
▁Gold	-10.7398
▁Fische	-10.7401
▁experiences	-10.7405
▁27	-10.7421
▁Aufgaben	-10.7428
▁entwickelten	-10.7436
▁Nichts	-10.7437
▁Code	-10.7437
▁Higgs	-10.7439
▁possibility	-10.7439
▁vermutlich	-10.7439
▁magazine	-10.7439
▁despite	-10.7439
▁religious	-10.7441
ei	-10.7445
▁Forscher	-10.7449
▁Erinnerung	-10.745
▁party	-10.7453
▁Mu	-10.7474
▁surprise	-10.7477
▁perfekt	-10.7479
▁creatures	-10.748
▁umgehen	-10.7483
▁lief	-10.7484
▁buchstäblich	-10.749
▁Kontext	-10.7491
Z	-10.7492
▁Modelle	-10.7492
▁painting	-10.7493
▁Glas	-10.7501
▁Ameisen	-10.7504
▁Phänomen	-10.7504
▁farmers	-10.7506
▁Frieden	-10.7509
▁Genom	-10.7516
▁gr	-10.7516
▁prevent	-10.7518
▁feels	-10.7518
▁geführt	-10.7522
▁Fällen	-10.7522
▁Spiele	-10.7528
Ma	-10.7533
▁artists	-10.754
▁advantage	-10.7543
▁clever	-10.7543
▁coast	-10.7543
▁easier	-10.7543
▁Obama	-10.7543
▁Hintergrund	-10.7543
▁herausgefunden	-10.7543
▁Brot	-10.7543
▁2009	-10.7544
▁Ba	-10.7548
▁mouth	-10.7549
▁Organisationen	-10.7551
▁turning	-10.7552
▁dieselbe	-10.7553
▁Super	-10.7559
▁report	-10.7562
▁uses	-10.7571
▁krank	-10.7576
isiert	-10.7577
▁Have	-10.7581
▁Per	-10.7586
ons	-10.7586
▁schöne	-10.7587
hilfe	-10.7595
▁British	-10.7595
▁Großteil	-10.7595
▁erinnert	-10.7595
▁vollkommen	-10.7596
▁Hund	-10.7596
▁außerdem	-10.7598
▁benötigt	-10.7599
▁Masse	-10.7599
ability	-10.76
▁verdienen	-10.7601
▁fiel	-10.7601
Ver	-10.7603
▁falsche	-10.7603
▁notwendig	-10.7603
▁sharing	-10.7605
▁wiederum	-10.7608
▁sorry	-10.7611
▁held	-10.7613
▁letztes	-10.7617
▁vollständig	-10.762
▁charge	-10.7626
skraft	-10.7628
▁ernst	-10.7629
▁Boot	-10.7635
len	-10.7636
▁benefit	-10.7644
tin	-10.7646
▁figured	-10.7647
▁hängt	-10.7648
▁chain	-10.7648
▁Thomas	-10.7648
▁hinzu	-10.7649
▁Laden	-10.7651
▁Text	-10.7653
▁übertragen	-10.7654
▁suffering	-10.7656
▁weiteres	-10.7658
▁pop	-10.7662
▁Tom	-10.7666
▁li	-10.7666
▁raised	-10.7668
▁fashion	-10.7669
war	-10.767
▁particles	-10.7674
▁rechten	-10.7679
ina	-10.7681
▁creates	-10.7681
This	-10.7688
sam	-10.769
wie	-10.7692
test	-10.7694
▁gene	-10.7695
▁bird	-10.7699
▁importantly	-10.7703
▁sicherlich	-10.7705
ot	-10.771
▁besitzen	-10.7711
▁foreign	-10.7712
org	-10.7717
▁entirely	-10.7718
haus	-10.7718
▁metaphor	-10.7722
▁drehen	-10.7724
▁deliver	-10.7726
▁double	-10.774
▁gefährlich	-10.7745
▁bridge	-10.7748
▁ausge	-10.7754
▁French	-10.7754
▁Valley	-10.7754
▁gestalten	-10.7754
▁sitzt	-10.7754
▁1980	-10.7754
▁sorgen	-10.7754
▁Landwirtschaft	-10.7754
▁date	-10.7756
▁General	-10.7757
▁stecken	-10.7758
▁selber	-10.7758
▁Gründen	-10.7761
ps	-10.7762
eren	-10.7765
arten	-10.7765
▁besondere	-10.7765
▁bees	-10.7766
hl	-10.7766
▁Eins	-10.7767
▁professional	-10.7769
▁Geräte	-10.7772
▁usw	-10.7787
▁argue	-10.7793
▁civil	-10.7803
▁Folge	-10.7803
▁erstaunliche	-10.7805
So	-10.7806
ete	-10.7806
▁distance	-10.7807
▁Universums	-10.7807
▁Zuerst	-10.7807
▁Golf	-10.7807
▁However	-10.781
▁basiert	-10.7813
▁Welche	-10.7814
▁bezahlen	-10.7816
▁events	-10.7818
▁era	-10.7821
▁wesentlich	-10.7822
▁Sorgen	-10.7827
fen	-10.7827
rat	-10.7832
▁industrial	-10.7839
▁Karten	-10.784
▁Iraq	-10.7844
▁base	-10.7846
▁Beine	-10.785
▁Einkommen	-10.7853
buch	-10.7857
▁brother	-10.7857
▁fragten	-10.7858
▁edge	-10.7858
▁necessarily	-10.7861
▁Haiti	-10.7862
▁tough	-10.7863
▁benefits	-10.7868
▁bo	-10.7872
▁Nutzen	-10.7875
▁Affen	-10.7875
▁voraus	-10.7877
fahren	-10.7886
mon	-10.7889
▁neuer	-10.7894
▁engine	-10.7894
▁Begriff	-10.7906
▁tissue	-10.7912
▁loss	-10.7913
▁card	-10.7914
▁Ghana	-10.7915
▁Mexico	-10.7915
▁sozusagen	-10.7915
▁letztendlich	-10.7915
▁Apple	-10.7917
▁moon	-10.7918
▁Sehr	-10.792
▁gelangen	-10.7926
ise	-10.7927
weg	-10.7942
▁dreams	-10.7946
▁leg	-10.7947
ight	-10.7951
▁account	-10.7951
▁gift	-10.7954
▁virtual	-10.7964
▁dürfen	-10.7969
▁hauptsächlich	-10.7969
▁Sometimes	-10.7969
▁responsible	-10.7969
▁Schluss	-10.7969
▁stammt	-10.797
▁hinweg	-10.7971
▁proud	-10.7972
▁kümmern	-10.7973
▁creation	-10.7973
▁bestimmen	-10.7974
▁plus	-10.7978
▁elements	-10.7978
▁halte	-10.7982
▁Jahres	-10.7982
▁Bitte	-10.7986
▁Will	-10.7986
▁Mark	-10.7988
▁Andere	-10.8003
oc	-10.8007
iger	-10.8015
▁bomb	-10.8018
▁sector	-10.8023
ckt	-10.8023
▁Finanz	-10.8023
▁getötet	-10.8024
▁leadership	-10.8024
▁mindestens	-10.8025
▁wohin	-10.8027
▁Herr	-10.8032
arm	-10.8037
▁Milliarde	-10.8043
port	-10.8047
▁abge	-10.8052
▁werfen	-10.8055
iz	-10.806
▁Staat	-10.8069
▁lights	-10.8073
ping	-10.8076
▁soil	-10.8078
▁bread	-10.8079
▁Militär	-10.8083
▁Mission	-10.8088
tu	-10.8091
▁Kann	-10.8092
▁Vision	-10.8092
▁Di	-10.8095
▁hohen	-10.8098
▁Jo	-10.8102
▁Rat	-10.8102
▁Rede	-10.8108
▁structures	-10.8116
pen	-10.8122
▁wood	-10.8128
▁tens	-10.8128
▁wahre	-10.813
▁pounds	-10.8133
▁Kalifornien	-10.8134
▁necessary	-10.8134
▁studied	-10.8134
ell	-10.8136
▁opened	-10.8136
▁entwerfen	-10.8137
▁Geburt	-10.8139
zug	-10.8139
▁King	-10.8142
ology	-10.8148
▁efficient	-10.815
▁Very	-10.8158
▁leading	-10.8161
▁modernen	-10.8167
▁holding	-10.8168
▁river	-10.8168
▁dollar	-10.8169
board	-10.8179
lei	-10.818
▁65	-10.8186
zellen	-10.8186
▁hurt	-10.819
▁debate	-10.819
▁wächst	-10.819
geben	-10.8192
▁ship	-10.8195
▁überzeugen	-10.8195
▁Island	-10.8195
▁Institutionen	-10.8206
▁weapons	-10.8209
▁collect	-10.8213
▁demand	-10.8215
▁Gas	-10.822
▁lieber	-10.8221
weise	-10.8225
leg	-10.8233
▁Band	-10.8238
▁Filme	-10.8239
▁anzu	-10.8243
▁Babys	-10.8244
▁interagieren	-10.8246
▁irgendwann	-10.8246
▁verwandeln	-10.8246
▁mouse	-10.8246
▁ultimately	-10.8249
▁daß	-10.825
▁Schmerz	-10.826
▁fort	-10.8273
▁Themen	-10.8275
▁glaubt	-10.8277
▁aktiv	-10.8279
▁related	-10.8282
▁cheap	-10.8285
▁wichtigste	-10.8286
▁tausend	-10.8293
lose	-10.8294
▁faith	-10.8302
▁stuck	-10.8302
▁versus	-10.8302
▁Zimmer	-10.8302
▁verfolgen	-10.8303
▁Frank	-10.8303
▁unfortunately	-10.8303
▁Kindheit	-10.8305
▁nötig	-10.8306
▁failed	-10.8311
▁Dan	-10.8312
▁remind	-10.8322
ick	-10.8325
▁Ecke	-10.8332
▁pack	-10.8336
▁anderem	-10.8338
▁drink	-10.8349
▁fragt	-10.8349
▁scheinen	-10.8358
▁childhood	-10.8359
▁desert	-10.8363
▁cloud	-10.8363
▁verantwortlich	-10.8363
▁Standard	-10.8365
▁brings	-10.8366
▁Sein	-10.8366
▁erlebt	-10.8367
▁believed	-10.8373
▁Beweis	-10.838
▁Ar	-10.8382
▁einzu	-10.8386
▁Zusammen	-10.839
▁einsetzen	-10.8402
▁erhält	-10.8403
▁finish	-10.8406
▁names	-10.8409
sicht	-10.8409
▁invest	-10.8414
▁töten	-10.8415
▁1950	-10.8415
▁Augenblick	-10.8416
▁DH	-10.8418
▁Kreis	-10.8421
ions	-10.8422
ord	-10.8424
▁sing	-10.843
▁Temperatur	-10.843
▁Gefahr	-10.843
▁eingesetzt	-10.8431
tes	-10.8437
▁lustig	-10.8441
▁seines	-10.8443
ual	-10.8447
▁Strukturen	-10.8448
jährigen	-10.845
▁Problemen	-10.8461
Der	-10.8462
▁adults	-10.8463
▁Microsoft	-10.8472
▁platform	-10.8472
▁Gegenteil	-10.8472
▁Außerdem	-10.8473
▁Once	-10.8475
▁Fleisch	-10.8475
▁Jungs	-10.8475
▁concerned	-10.8477
▁verbracht	-10.8478
▁tue	-10.8481
▁trick	-10.8487
▁degree	-10.8488
▁lesson	-10.8489
▁Gespräch	-10.8496
ors	-10.8502
▁testen	-10.8505
▁häufig	-10.8509
sel	-10.8517
▁spirit	-10.8517
▁persönliche	-10.8518
▁sudden	-10.8525
▁übrig	-10.8529
▁university	-10.853
▁exercise	-10.853
▁leaving	-10.853
▁Zitat	-10.853
▁vote	-10.853
▁pump	-10.853
▁insects	-10.8533
fach	-10.8534
▁discovery	-10.8536
▁offer	-10.8542
ley	-10.8542
▁Bildern	-10.8542
▁protein	-10.8544
▁Open	-10.8551
ay	-10.8556
▁weder	-10.856
▁Rand	-10.8569
▁Wirtschafts	-10.8575
▁wirst	-10.8576
gegangen	-10.858
▁Tumor	-10.858
ok	-10.8582
▁ange	-10.8584
kommt	-10.8586
▁Rahmen	-10.8587
▁lunch	-10.8587
iss	-10.8588
▁möglicherweise	-10.8589
schw	-10.8592
▁interessieren	-10.8596
▁slowly	-10.8596
▁civilization	-10.8596
king	-10.8596
▁adult	-10.8597
▁saving	-10.8597
▁deeply	-10.8601
▁Bas	-10.8601
▁Aktivität	-10.8604
▁Did	-10.8606
za	-10.8613
▁letter	-10.8621
▁fail	-10.8623
An	-10.8624
▁express	-10.8635
▁spezielle	-10.8641
▁collective	-10.8642
legen	-10.8642
tisch	-10.8644
▁Bruder	-10.8646
▁Wahrnehmung	-10.8646
▁interface	-10.8646
▁caught	-10.8646
▁sister	-10.8655
▁Gleiche	-10.8658
▁bright	-10.866
▁band	-10.8669
rad	-10.867
▁bone	-10.8672
▁32	-10.8675
▁spaces	-10.868
▁State	-10.868
▁halb	-10.8681
Ge	-10.8685
▁innovative	-10.8694
▁schließen	-10.8696
▁typical	-10.8699
▁leads	-10.8699
▁traffic	-10.8704
▁metal	-10.8704
▁Kaffee	-10.8704
▁Stanford	-10.8704
▁vorhanden	-10.8704
▁Verstand	-10.8706
▁constantly	-10.8707
▁neighborhood	-10.8715
▁interaction	-10.8717
ana	-10.8718
▁compared	-10.8719
▁abzu	-10.8729
wi	-10.8741
▁generate	-10.8749
▁Falls	-10.875
▁spot	-10.875
werk	-10.8752
▁Kon	-10.8753
▁erzähle	-10.8753
▁moments	-10.8755
▁reform	-10.8758
▁frage	-10.8758
Nun	-10.8758
gang	-10.8759
▁Dinosaurier	-10.8763
▁depression	-10.8763
▁gehabt	-10.8763
▁gäbe	-10.8763
▁verhindern	-10.8763
▁target	-10.8765
▁oceans	-10.8765
▁Bush	-10.8766
▁reward	-10.8776
▁colors	-10.8779
▁starb	-10.8783
▁trained	-10.8788
▁fighting	-10.8789
▁circle	-10.8794
▁transformation	-10.8796
lan	-10.8799
▁Ganz	-10.8802
▁billions	-10.8808
▁mid	-10.882
ffentlichkeit	-10.8822
▁fascinating	-10.8822
▁1970	-10.8822
▁solid	-10.8824
▁majority	-10.8827
▁factory	-10.8828
▁finished	-10.8832
▁motion	-10.8832
▁coral	-10.8835
▁Lied	-10.8839
▁strength	-10.884
▁multiple	-10.884
▁cycle	-10.8847
▁Experten	-10.8847
▁emotions	-10.8847
▁beat	-10.8847
cker	-10.885
▁Sprachen	-10.8851
▁Star	-10.8857
▁switch	-10.8865
▁bemerkt	-10.8868
▁Funktion	-10.8869
▁farm	-10.8876
▁closed	-10.8881
▁strategy	-10.8882
▁Wal	-10.8884
▁schlimmer	-10.8886
▁detail	-10.8887
▁sichtbar	-10.8888
▁Website	-10.8888
▁capable	-10.8888
▁Mitarbeiter	-10.8888
▁garden	-10.8891
lassen	-10.8891
▁link	-10.8893
▁described	-10.8898
▁dauert	-10.8899
▁Minute	-10.89
jährige	-10.8903
wand	-10.8909
▁genetische	-10.8915
▁Radio	-10.8923
▁struggle	-10.8928
▁grundlegende	-10.8928
▁enable	-10.8929
▁nah	-10.8935
▁ants	-10.8939
▁wide	-10.894
▁stelle	-10.894
▁Audience	-10.8941
▁mathematics	-10.8941
▁quantum	-10.8941
▁vertraut	-10.8941
▁bieten	-10.8942
▁Vogel	-10.8942
▁otherwise	-10.8943
▁budget	-10.8949
▁Konflikt	-10.8954
▁deinen	-10.8959
▁managed	-10.8964
▁Start	-10.8965
▁höhere	-10.8966
führen	-10.8969
light	-10.8977
▁II	-10.898
▁hunderte	-10.898
▁wave	-10.8983
source	-10.8994
nehmen	-10.8996
▁sexual	-10.8996
▁schwarze	-10.8998
▁versuchten	-10.8999
▁roof	-10.9002
▁irgendetwas	-10.9002
▁Haufen	-10.9002
▁weiteren	-10.9002
▁Stress	-10.9002
▁verteilt	-10.9002
▁operating	-10.9002
▁seat	-10.9006
red	-10.9011
▁bear	-10.9011
▁unge	-10.9016
▁Patient	-10.902
▁miss	-10.902
ya	-10.9024
band	-10.9025
▁einge	-10.9027
▁Ehe	-10.9028
▁Erkenntnis	-10.9031
lau	-10.9037
▁Bob	-10.9038
▁genauer	-10.9046
▁lie	-10.9048
▁App	-10.9049
▁kurze	-10.9049
▁paying	-10.905
▁Fa	-10.9056
▁profound	-10.9058
▁Ne	-10.9059
▁row	-10.9061
▁Müll	-10.9062
▁cognitive	-10.9062
▁entworfen	-10.9062
▁equivalent	-10.9062
▁display	-10.9063
▁smile	-10.9063
▁unterscheiden	-10.9063
▁26	-10.9064
▁älter	-10.9067
▁Inhalt	-10.9069
▁direct	-10.907
▁Vi	-10.9071
▁justice	-10.9072
▁perfectly	-10.9074
ship	-10.9075
▁di	-10.9078
dy	-10.9079
▁chair	-10.9081
▁nannte	-10.9081
ball	-10.909
mit	-10.9093
▁Nation	-10.9097
▁Regen	-10.9099
▁Maus	-10.9105
▁po	-10.9105
par	-10.9106
rung	-10.9106
▁meat	-10.9107
▁Charakter	-10.911
▁Laufe	-10.9114
▁launch	-10.9114
▁pure	-10.9116
▁Hunde	-10.9116
verständlich	-10.9118
recht	-10.9118
▁trip	-10.9122
▁Texas	-10.9123
▁kennt	-10.9123
▁grand	-10.9125
zahl	-10.9126
▁consumption	-10.9127
▁Unternehmer	-10.9127
▁currently	-10.9132
▁schaute	-10.9135
▁Händen	-10.9136
▁wear	-10.9139
▁beobachtet	-10.914
▁normalen	-10.9142
▁sentence	-10.9142
▁Schwester	-10.9143
▁schien	-10.9145
▁followed	-10.9146
▁Folgendes	-10.9148
rüber	-10.9151
▁serve	-10.9152
seite	-10.9158
▁Top	-10.9159
▁organisms	-10.9163
▁holen	-10.9166
▁Überleben	-10.9168
▁station	-10.9175
hy	-10.9175
▁matters	-10.9177
▁Manhattan	-10.9185
▁Zuschauer	-10.9185
▁dinner	-10.9185
▁invisible	-10.9185
▁Three	-10.9185
▁galaxies	-10.9185
▁Martin	-10.9185
▁hergestellt	-10.9187
▁Mund	-10.919
▁Stand	-10.9192
▁mentioned	-10.9193
▁clip	-10.9193
▁electric	-10.9201
mittel	-10.9202
▁Kenya	-10.9204
▁vehicle	-10.9205
▁Gedanke	-10.9205
▁paint	-10.9207
▁engineers	-10.9209
▁walls	-10.9216
▁layer	-10.922
▁ride	-10.9222
▁besseren	-10.9223
▁arbeiteten	-10.9225
▁nochmal	-10.923
▁passt	-10.9236
▁leader	-10.9241
▁nächstes	-10.9244
▁Hoch	-10.9245
▁Human	-10.9246
▁Kohlenstoff	-10.9246
▁Uganda	-10.9246
▁weather	-10.9246
▁feedback	-10.9247
▁Ausmaß	-10.9247
over	-10.9247
▁beantworten	-10.9248
▁artificial	-10.925
▁enter	-10.9257
▁schönen	-10.9258
▁surprised	-10.9263
▁begins	-10.9264
▁Sozial	-10.9266
▁Australia	-10.9266
▁spoke	-10.9271
▁existieren	-10.9279
▁principles	-10.928
▁belief	-10.9282
ible	-10.9284
▁lebte	-10.9288
▁müsste	-10.9288
▁dritten	-10.9289
▁nützlich	-10.929
▁Experimente	-10.9296
▁könnt	-10.9297
▁honest	-10.9299
▁crowd	-10.9303
▁Stimmen	-10.9305
▁organic	-10.9306
▁ba	-10.9307
▁Brazil	-10.9307
▁Rätsel	-10.9309
▁marriage	-10.9309
▁vergleichen	-10.9309
▁Kohle	-10.9309
▁worried	-10.9309
▁linken	-10.9311
▁clinical	-10.9313
▁Lern	-10.9315
▁Schimpansen	-10.9315
▁limited	-10.9316
▁fell	-10.9316
▁enorme	-10.9316
▁wunderbar	-10.9318
▁unabhängig	-10.9319
rag	-10.9323
▁erster	-10.9324
▁gehalten	-10.9328
▁Mütter	-10.9329
▁treated	-10.9331
▁Landschaft	-10.9332
ix	-10.9333
▁somit	-10.934
▁setzt	-10.9341
▁morgen	-10.9341
▁Schiff	-10.9342
▁Ha	-10.9353
▁Moleküle	-10.9353
▁steigen	-10.9358
▁Netzwerke	-10.9358
▁mess	-10.9364
▁hoffentlich	-10.9371
▁wisdom	-10.9371
▁entspricht	-10.9371
▁Tanz	-10.9371
▁mirror	-10.9371
▁grandmother	-10.9373
▁starke	-10.9375
chte	-10.9375
▁Ah	-10.9378
▁erkannte	-10.9383
▁angesehen	-10.9384
▁Ganze	-10.9384
▁wearing	-10.9385
▁aufhören	-10.9385
▁th	-10.9387
satz	-10.9387
▁classroom	-10.9394
▁molecule	-10.9395
▁Che	-10.9395
▁Perspektive	-10.9397
▁Aspekt	-10.9405
▁entstanden	-10.9405
▁net	-10.9411
laden	-10.9413
▁fill	-10.9416
ß	-10.9418
▁climb	-10.9419
▁businesses	-10.942
▁Tausende	-10.9422
▁erstes	-10.9423
▁exchange	-10.9426
tung	-10.9427
▁grade	-10.9428
▁sad	-10.9431
▁ließen	-10.9433
▁Individuen	-10.9434
▁galaxy	-10.9434
▁unterstützt	-10.9434
▁intellectual	-10.9434
▁distribution	-10.9434
▁compare	-10.9435
▁Elemente	-10.9435
▁Unterhaltung	-10.9436
▁2004	-10.9436
▁everyday	-10.9437
▁phones	-10.9438
▁Project	-10.9438
▁dran	-10.944
▁release	-10.944
▁received	-10.9444
▁bedeuten	-10.9445
▁harder	-10.9445
▁calls	-10.9451
▁Hu	-10.9452
▁bus	-10.9452
If	-10.9457
▁wenigen	-10.9457
▁leiden	-10.9457
▁gesund	-10.9461
▁grown	-10.9463
▁interview	-10.9468
▁120	-10.9469
▁arms	-10.9479
▁promise	-10.9483
daten	-10.949
▁Produktion	-10.9494
▁nervous	-10.9497
▁allerdings	-10.9497
▁Jemand	-10.9497
▁Everybody	-10.9497
▁Gegensatz	-10.9497
▁epidemic	-10.9497
ries	-10.9498
▁normale	-10.9498
▁plane	-10.9499
▁Sp	-10.95
fisch	-10.9502
▁invited	-10.9505
▁Entdeckung	-10.9519
kal	-10.952
▁ähnliche	-10.9525
▁motor	-10.9527
▁heads	-10.9528
▁Vorteil	-10.9531
▁Galaxien	-10.9531
▁joy	-10.9541
▁threat	-10.9545
▁helps	-10.9546
▁cure	-10.9547
▁bekamen	-10.9547
▁zog	-10.9547
▁attempt	-10.9552
ür	-10.9553
▁Videos	-10.9555
▁Politiker	-10.9556
▁zugänglich	-10.9561
▁Spiegel	-10.9561
▁planning	-10.9561
▁fellow	-10.9561
▁aufbauen	-10.9561
▁awful	-10.9561
▁married	-10.9562
▁dennoch	-10.9563
▁Eindruck	-10.9564
▁collection	-10.9564
▁Fünf	-10.9566
▁relativ	-10.9566
▁correct	-10.9567
▁unless	-10.9567
▁photos	-10.957
▁fourth	-10.9581
▁Kräfte	-10.9583
▁gemeinsame	-10.9583
▁gold	-10.9584
▁250	-10.9588
▁Operation	-10.9589
▁watched	-10.959
▁Ball	-10.9591
▁Insel	-10.9594
feld	-10.9595
▁match	-10.9596
▁rot	-10.96
▁flat	-10.9601
▁zerstört	-10.9601
▁detect	-10.9608
▁fe	-10.9608
▁partner	-10.9611
▁hoffen	-10.9612
▁Medikament	-10.9615
▁tap	-10.9615
▁nutzt	-10.9616
▁erwähnt	-10.9617
ker	-10.9617
▁remote	-10.962
lang	-10.9622
▁kürzlich	-10.9625
ious	-10.9625
▁Obwohl	-10.9625
▁Kurz	-10.9626
▁peak	-10.9626
▁Klang	-10.9626
▁Amazon	-10.9626
▁Zeitalter	-10.9628
▁Wettbewerb	-10.9629
▁100,000	-10.9631
▁launched	-10.9635
app	-10.9637
▁Bauern	-10.9639
▁effektiv	-10.9641
▁round	-10.9646
▁Massen	-10.9652
wir	-10.9662
▁Nationen	-10.9669
▁entwickelte	-10.9679
▁graduate	-10.9679
▁drawing	-10.968
ere	-10.9684
▁Zug	-10.9688
platz	-10.9688
▁president	-10.9689
▁Brasilien	-10.969
▁agriculture	-10.969
▁survey	-10.969
▁survival	-10.969
▁equipment	-10.969
▁chicken	-10.969
▁fördern	-10.969
▁gestern	-10.9691
▁hide	-10.9692
▁invention	-10.9692
▁highest	-10.9695
▁Kapital	-10.9695
▁designer	-10.97
▁due	-10.97
▁master	-10.9702
▁Would	-10.9705
win	-10.9708
use	-10.9708
ort	-10.9709
druck	-10.971
▁taste	-10.9712
▁Träume	-10.9713
▁Planet	-10.9715
▁ma	-10.9719
▁principle	-10.9719
▁dynamic	-10.972
▁0	-10.9721
▁toward	-10.9723
▁prove	-10.9726
▁Grenze	-10.9728
▁Does	-10.9728
▁reicht	-10.9736
11	-10.974
▁lernt	-10.9741
reich	-10.9741
tru	-10.975
part	-10.9751
▁capture	-10.9752
▁Oxford	-10.9754
▁stupid	-10.9754
▁erscheinen	-10.9754
▁gelesen	-10.9755
▁moves	-10.9756
▁Eigentlich	-10.9757
▁Thanks	-10.976
▁Muslim	-10.9762
▁seriously	-10.9764
work	-10.9765
▁theater	-10.9766
▁komplexe	-10.9768
▁Meilen	-10.9768
▁roten	-10.977
▁blaue	-10.9771
▁Etwas	-10.9771
▁abhängig	-10.9771
▁Gehirne	-10.9771
▁Hinsicht	-10.9772
▁Yorker	-10.9775
▁flag	-10.9785
▁mitten	-10.9787
▁expand	-10.9797
▁whom	-10.98
ations	-10.9802
▁Beste	-10.9805
▁electrical	-10.9805
▁aufregend	-10.9805
▁define	-10.9807
ock	-10.9812
▁fresh	-10.982
▁Zuhause	-10.982
▁reduzieren	-10.982
▁curious	-10.982
▁dry	-10.9821
▁hopefully	-10.9822
▁Germany	-10.9824
▁speziell	-10.9824
▁Ri	-10.9826
▁soldiers	-10.9827
▁10.000	-10.9828
▁geschickt	-10.9832
▁Fi	-10.9835
▁lies	-10.9838
▁Fakten	-10.9838
▁wichtigen	-10.9839
▁normally	-10.984
systeme	-10.9846
▁killing	-10.9847
▁Anwendung	-10.9847
▁brauche	-10.9847
▁blieb	-10.9849
▁continent	-10.9851
▁zoom	-10.9852
▁article	-10.9852
▁zahlen	-10.9853
▁resource	-10.9854
▁stärker	-10.9858
▁faces	-10.9865
La	-10.9866
▁breath	-10.9871
▁damage	-10.9872
▁identify	-10.9872
▁Beweise	-10.9874
▁fr	-10.9876
ang	-10.9878
▁Con	-10.9881
▁Definition	-10.9886
▁existence	-10.9886
▁verbreiten	-10.9886
▁schlagen	-10.9887
▁erfinden	-10.9889
▁suit	-10.9893
stellt	-10.99
▁battle	-10.9901
▁Show	-10.9904
▁Bewegungen	-10.9905
▁accident	-10.9915
kosystem	-10.9919
Gesundheitswesen	-10.9924
▁brachten	-10.9926
schaftlichen	-10.9926
▁wieso	-10.9928
▁tail	-10.9928
▁beschlossen	-10.9931
▁Cent	-10.9932
▁lay	-10.9933
eb	-10.9943
material	-10.9952
▁beinhaltet	-10.9952
▁joke	-10.9952
▁perception	-10.9952
▁verschwinden	-10.9952
▁Schatten	-10.9952
▁associated	-10.9956
▁increasingly	-10.9956
▁visuelle	-10.9959
▁faszinierend	-10.9961
▁hall	-10.9962
ischer	-10.9968
▁Teilchen	-10.997
▁drin	-10.9975
▁Häuser	-10.9976
▁las	-10.9979
▁Gedicht	-10.9981
▁users	-10.9986
▁airplane	-10.9986
▁mistake	-10.9987
erung	-10.9989
▁verbrachte	-10.9989
▁kilometers	-10.9995
val	-10.9999
▁testing	-11.0007
▁reichen	-11.0011
▁echten	-11.0013
▁surprising	-11.0014
▁dealing	-11.0014
▁brauchten	-11.0014
▁selten	-11.0015
▁driver	-11.0016
▁Australien	-11.0018
▁geändert	-11.0018
▁hidden	-11.0018
▁yesterday	-11.0018
▁berührt	-11.0018
▁property	-11.0019
▁wake	-11.0019
▁2006	-11.002
▁2,000	-11.002
▁gender	-11.0021
▁trägt	-11.0024
▁eindeutig	-11.0025
▁suggest	-11.0026
▁credit	-11.0028
▁exists	-11.0035
▁Krise	-11.0043
▁Motor	-11.0044
▁spring	-11.0046
▁statistics	-11.0048
▁verbessert	-11.0049
geht	-11.0051
▁opening	-11.0053
▁folks	-11.0054
▁Folgen	-11.007
▁processes	-11.0071
akt	-11.0075
▁pages	-11.0079
▁technical	-11.0081
▁Spieler	-11.0082
▁counter	-11.0086
▁Lebewesen	-11.0086
▁gestorben	-11.0086
▁gewählt	-11.0086
▁ordinary	-11.0086
▁zerstören	-11.0086
markt	-11.0086
▁rural	-11.0086
▁Wirkung	-11.0086
▁w	-11.0086
▁according	-11.0087
zukommen	-11.0089
▁studieren	-11.0091
▁zunächst	-11.0098
▁finger	-11.01
▁schlechter	-11.0106
▁scene	-11.0123
▁Werk	-11.0123
▁gap	-11.0124
▁saved	-11.0127
▁teuer	-11.0134
▁burn	-11.0138
▁solch	-11.0139
▁perfekte	-11.014
▁tape	-11.014
▁se	-11.0141
▁parallel	-11.0144
▁Gemeinden	-11.0145
▁persönlich	-11.0152
▁Hollywood	-11.0153
▁Malaria	-11.0153
▁Organismen	-11.0153
▁sugar	-11.0153
▁Sea	-11.0153
▁hate	-11.0154
▁gehören	-11.0154
▁comfortable	-11.0154
▁tip	-11.0154
▁construction	-11.0155
▁PM	-11.0156
▁Abschluss	-11.0159
▁Korea	-11.016
▁filled	-11.0163
führt	-11.0164
▁Linien	-11.0167
▁Methoden	-11.0167
▁dimensions	-11.0171
▁warming	-11.0174
▁1.	-11.0177
▁Erst	-11.0177
last	-11.0177
▁Ansicht	-11.0181
▁Dach	-11.0181
▁behalten	-11.0182
Er	-11.0185
▁Anti	-11.0187
▁emotion	-11.0189
▁players	-11.0189
▁crime	-11.0192
▁fuhr	-11.0197
mäßig	-11.0204
▁Post	-11.0206
▁rede	-11.0207
▁exact	-11.0216
▁Elektrizität	-11.0221
▁Existenz	-11.0221
▁Kombination	-11.0221
▁stood	-11.0221
wert	-11.0221
▁Car	-11.0222
▁safety	-11.0222
That	-11.0224
▁daily	-11.0225
nderung	-11.0226
Yes	-11.023
▁lifetime	-11.0231
▁island	-11.0237
top	-11.024
▁95	-11.0246
über	-11.0246
▁kurzem	-11.0247
▁Erklärung	-11.0249
▁signals	-11.025
▁leid	-11.0252
▁caused	-11.0253
▁auseinander	-11.0253
▁cat	-11.0254
row	-11.0254
▁soul	-11.0255
▁Kerl	-11.0255
▁sample	-11.0262
▁Rücken	-11.0262
He	-11.0263
▁member	-11.0268
▁professor	-11.027
▁operate	-11.0279
▁shoes	-11.0279
fallen	-11.0286
▁inspiriert	-11.0288
▁Florida	-11.029
▁Foundation	-11.029
▁Mexiko	-11.029
▁heavy	-11.029
▁trillion	-11.029
▁automatisch	-11.029
▁importance	-11.029
▁Viertel	-11.029
▁Japanese	-11.029
▁novel	-11.029
▁combination	-11.029
kultur	-11.0291
▁fängt	-11.0293
▁Umfeld	-11.0293
▁Rio	-11.0294
▁setting	-11.0294
▁Everything	-11.0294
▁coal	-11.0299
kar	-11.031
▁Zeitung	-11.0311
ologie	-11.0311
▁zählen	-11.0312
▁bottle	-11.0331
▁Generationen	-11.0332
▁accept	-11.0335
▁filter	-11.0336
▁losing	-11.0339
▁Details	-11.0342
▁Ph	-11.0342
▁Armen	-11.0344
▁28	-11.0348
▁meiste	-11.0349
gie	-11.0351
▁Schrift	-11.0352
▁br	-11.0353
▁21.	-11.0356
▁versch	-11.0358
▁empty	-11.0359
▁evil	-11.0359
▁transparent	-11.0359
▁Chemie	-11.0359
▁Rock	-11.036
▁researchers	-11.0362
▁Wi	-11.0362
▁rocket	-11.0364
hal	-11.0367
▁method	-11.0369
▁Informations	-11.0369
▁shapes	-11.037
▁covered	-11.0372
▁languages	-11.0376
▁künstliche	-11.0388
net	-11.0393
▁Zweck	-11.0393
▁musst	-11.0394
▁experienced	-11.0396
▁Forschungs	-11.0407
▁schrecklich	-11.0408
▁copy	-11.0416
▁Arbeiter	-11.0417
▁kurzen	-11.0427
▁drüben	-11.0428
▁Britain	-11.0428
▁designing	-11.0428
▁Effekt	-11.0429
▁Mikroben	-11.0429
▁Viren	-11.0429
▁Lager	-11.043
▁definieren	-11.0432
▁transition	-11.0433
▁harm	-11.0435
▁beschäftigen	-11.0436
▁arrived	-11.0436
gezogen	-11.0436
meter	-11.0437
▁volume	-11.0439
si	-11.044
▁Pe	-11.044
▁convinced	-11.0441
▁consequences	-11.0443
▁fat	-11.0448
▁appear	-11.0449
sum	-11.0452
▁Organ	-11.0454
▁Mar	-11.0456
▁Seine	-11.0456
▁Anteil	-11.0456
▁wondering	-11.0457
2-	-11.0458
hin	-11.0459
▁Rot	-11.0459
▁meist	-11.0459
▁beschloss	-11.0459
▁Rück	-11.0459
▁print	-11.0462
▁generations	-11.0463
▁fähig	-11.0468
▁Bu	-11.047
▁satellite	-11.0473
▁muscle	-11.0473
day	-11.0473
Mail	-11.0476
xi	-11.048
▁engineer	-11.0485
ank	-11.0487
▁Arbeiten	-11.0488
▁lebten	-11.0488
▁Arab	-11.0497
▁Brust	-11.0498
▁Korruption	-11.0498
▁poetry	-11.0498
kraft	-11.0499
▁Lachen	-11.05
▁Global	-11.0501
▁Wohlstand	-11.0501
▁Vorfahren	-11.0503
gegeben	-11.0505
Wo	-11.0507
▁Peter	-11.0508
▁Signal	-11.0512
▁considered	-11.0517
▁tiefer	-11.0517
▁Lauf	-11.0517
▁Talk	-11.0519
20	-11.0523
▁Ad	-11.0528
▁broke	-11.0528
▁May	-11.053
▁Fl	-11.0534
sehen	-11.0536
▁Nord	-11.0537
▁steps	-11.0537
▁sites	-11.0541
▁reaction	-11.0545
▁forced	-11.0546
▁button	-11.0551
▁economics	-11.0557
▁mention	-11.0563
▁erkennt	-11.0563
▁essential	-11.0564
nach	-11.0564
▁mothers	-11.0565
▁President	-11.0568
▁analysis	-11.0568
▁Alzheimer	-11.0568
▁Health	-11.0568
▁reagiert	-11.0568
▁microbes	-11.0568
▁darstellen	-11.0569
▁Kirche	-11.0576
▁Emotionen	-11.0578
back	-11.0582
▁Bus	-11.0588
sländern	-11.0589
▁fantastisch	-11.0592
▁steigt	-11.0594
▁picked	-11.0597
▁Diskussion	-11.0597
▁Weile	-11.0602
▁Their	-11.061
▁laugh	-11.0616
▁camp	-11.0618
▁expression	-11.0624
▁honor	-11.063
▁Jahrzehnt	-11.0634
▁regular	-11.0635
▁dots	-11.0637
▁folgt	-11.0637
▁Kl	-11.0639
▁erscheint	-11.0639
▁anwenden	-11.0639
▁verbindet	-11.0642
tern	-11.0645
tech	-11.0645
▁Gewinn	-11.0648
▁Mut	-11.065
▁calling	-11.0655
stein	-11.0659
▁Vier	-11.0664
▁sh	-11.0669
▁Student	-11.0671
▁Red	-11.0671
▁rote	-11.0673
▁sprachen	-11.0674
▁wuchs	-11.0677
▁traditionellen	-11.0678
▁International	-11.0685
▁player	-11.0689
oo	-11.0691
▁deeper	-11.0695
hung	-11.0702
▁rare	-11.0708
▁battery	-11.0711
▁explanation	-11.0711
▁pleasure	-11.0711
▁possibilities	-11.0711
▁Deutschland	-11.0711
▁Canada	-11.0711
▁deswegen	-11.0711
▁Day	-11.0711
▁SMS	-11.0711
▁Zufall	-11.0712
▁el	-11.0712
▁cutting	-11.0713
▁setzte	-11.0716
▁Wein	-11.0717
▁Wetter	-11.072
▁management	-11.0723
▁soviel	-11.0724
▁starten	-11.0728
▁Architekten	-11.0729
▁Helden	-11.073
▁Nachbarn	-11.0732
▁Bereiche	-11.0739
j	-11.074
▁Körpers	-11.0743
▁spielte	-11.0745
▁morgens	-11.0757
▁vorne	-11.0767
machen	-11.0767
▁Theater	-11.0776
▁Ur	-11.0778
▁Gras	-11.0782
▁aufzubauen	-11.0783
▁fasziniert	-11.0783
▁quasi	-11.0783
▁verdient	-11.0783
▁variety	-11.0783
▁Maßstab	-11.0783
▁Green	-11.0783
▁chemistry	-11.0783
▁healthcare	-11.0783
▁Zucker	-11.0783
▁homes	-11.0783
▁flies	-11.0784
▁Jim	-11.0785
▁tons	-11.0785
▁Geräusch	-11.0788
▁Union	-11.0788
▁Schwierigkeiten	-11.0792
▁gang	-11.0793
▁erstellt	-11.0795
stück	-11.0795
pri	-11.0798
▁gelöst	-11.08
▁einiger	-11.0801
▁expected	-11.0805
▁seltsam	-11.0805
▁Tests	-11.0805
▁relative	-11.0813
▁movies	-11.0814
▁Fälle	-11.0816
▁internationale	-11.0816
med	-11.0822
▁Hai	-11.083
▁signs	-11.0834
▁leaves	-11.0835
zugehen	-11.0847
▁quiet	-11.085
stellung	-11.0852
▁Darstellung	-11.0855
▁conclusion	-11.0855
▁digitale	-11.0856
▁Instrument	-11.0859
lic	-11.0859
ov	-11.0861
▁Verhältnis	-11.0865
▁Freundin	-11.0866
▁aufgebaut	-11.0866
▁Roman	-11.0867
▁independent	-11.0868
▁connections	-11.0872
▁hang	-11.0883
rei	-11.0886
▁Pat	-11.0892
▁annehmen	-11.0894
▁moralische	-11.0897
car	-11.0897
▁meistens	-11.09
▁König	-11.09
head	-11.0906
▁location	-11.0909
haft	-11.0909
▁shoot	-11.0915
▁letters	-11.0917
▁consumer	-11.0917
▁Kenia	-11.092
▁natürlichen	-11.0922
▁weak	-11.0923
▁holes	-11.0925
▁Gericht	-11.0927
▁tomorrow	-11.0928
▁underneath	-11.0928
▁vermitteln	-11.0928
▁Homo	-11.0929
▁Garten	-11.0931
pel	-11.0935
▁Kurs	-11.0936
wesen	-11.0949
▁soft	-11.0949
atur	-11.0956
50	-11.0961
▁fan	-11.0961
▁fern	-11.0964
▁Gib	-11.097
▁enorm	-11.0975
▁weibliche	-11.0976
▁addition	-11.0978
▁disappear	-11.0979
ges	-11.0982
▁Gegen	-11.0982
▁chemicals	-11.0983
▁heißen	-11.0987
▁überraschend	-11.0992
ory	-11.0993
▁Joe	-11.0994
▁option	-11.0994
▁contract	-11.0995
mmer	-11.0997
▁relate	-11.1
mar	-11.1001
▁north	-11.1002
▁Smith	-11.1002
▁participate	-11.1002
▁title	-11.1002
▁Hunger	-11.1002
▁Saturn	-11.1002
▁mittlere	-11.1002
▁corruption	-11.1002
▁grid	-11.1003
▁2001	-11.1005
▁Südafrika	-11.1006
▁gewissen	-11.1008
▁advanced	-11.101
▁dinosaurs	-11.1014
geschichte	-11.1024
▁trials	-11.103
▁gegenseitig	-11.103
programm	-11.1031
tun	-11.1032
▁Zivilisation	-11.1034
▁Gr	-11.1036
ack	-11.1039
▁zieht	-11.1045
▁experts	-11.1045
▁rief	-11.1053
▁waves	-11.1056
stehen	-11.1058
▁gun	-11.1059
▁unit	-11.1062
lf	-11.1063
▁verhalten	-11.1063
vo	-11.1064
netz	-11.1066
▁müssten	-11.1067
dienst	-11.1071
▁increasing	-11.1073
▁Neues	-11.1075
▁DNS	-11.1076
▁teeth	-11.1076
▁äußerst	-11.1076
▁valuable	-11.1076
▁Anyway	-11.1076
▁dank	-11.1076
▁außen	-11.1076
▁Ausstellung	-11.1077
▁Winter	-11.1078
▁relatively	-11.1081
▁Moral	-11.1081
▁ergibt	-11.1084
▁fields	-11.1085
▁Verlust	-11.1087
▁Atem	-11.1087
mat	-11.1091
▁Sogar	-11.1095
▁Kein	-11.1099
▁entdeckte	-11.1102
hen	-11.1104
▁gain	-11.1111
▁höre	-11.1113
▁dunkle	-11.1113
▁fantastische	-11.1115
▁hasn	-11.1116
werte	-11.1119
▁passen	-11.1122
▁introduce	-11.1137
▁convince	-11.1137
▁pen	-11.114
▁schlechten	-11.1145
▁Satelliten	-11.1149
stoff	-11.1149
▁al	-11.1149
▁ruhig	-11.115
▁sweet	-11.115
▁Auswahl	-11.1151
▁2003	-11.1153
▁roughly	-11.1153
▁rapidly	-11.1154
▁carefully	-11.1154
▁besagt	-11.1155
▁Werbung	-11.1156
▁status	-11.1157
▁statement	-11.1162
▁schätzen	-11.1165
▁requires	-11.1166
▁Bereichen	-11.1168
gy	-11.1169
▁organized	-11.117
▁Meeres	-11.1172
▁Bi	-11.1177
ett	-11.1178
To	-11.1183
▁Bein	-11.1183
▁Stufe	-11.1184
▁Sitz	-11.1193
▁myth	-11.1195
▁85	-11.1196
▁sources	-11.1196
▁require	-11.1197
▁kannte	-11.12
▁moderne	-11.1204
▁treten	-11.1207
igung	-11.1211
▁untersucht	-11.1212
ulation	-11.1216
▁instrument	-11.1223
▁Hinter	-11.1225
▁Geheimnis	-11.1225
vis	-11.1225
▁Löcher	-11.1226
▁emerging	-11.1226
▁gelebt	-11.1226
▁besorgt	-11.1226
▁Fahrrad	-11.1226
▁Damals	-11.1226
▁Geschenk	-11.1226
▁Grand	-11.1227
▁sharks	-11.1229
▁gebeten	-11.1229
tische	-11.123
▁Ro	-11.123
▁facing	-11.123
▁Könnte	-11.1233
▁decline	-11.1234
▁KB	-11.1235
jo	-11.1243
▁ersetzen	-11.1244
▁keeping	-11.1245
▁Kulturen	-11.1247
▁konzentriert	-11.1251
▁Hey	-11.1255
▁Tim	-11.1256
▁kosten	-11.1258
▁Vögel	-11.1259
▁Geschäfts	-11.1263
▁Strategie	-11.1267
▁parent	-11.1276
▁mix	-11.1279
▁33	-11.1281
▁solcher	-11.129
▁symbol	-11.1291
▁transport	-11.1292
▁element	-11.1297
▁length	-11.1301
▁vermeiden	-11.1301
▁vulnerable	-11.1301
▁beinahe	-11.1301
▁stattdessen	-11.1301
▁gebraucht	-11.1302
▁hydrogen	-11.1302
▁gay	-11.1302
▁specifically	-11.1302
▁winter	-11.1304
▁protection	-11.1306
▁Could	-11.1307
▁bike	-11.1308
▁producing	-11.1309
funktion	-11.1315
▁feelings	-11.1321
▁blow	-11.1323
▁folgende	-11.1327
▁Gates	-11.1331
▁Stärke	-11.1333
schalten	-11.1336
▁entstand	-11.1337
wissenschaften	-11.1342
▁remain	-11.1343
▁Situationen	-11.1358
▁messages	-11.136
▁characters	-11.1362
ühl	-11.1363
▁verwandelt	-11.1364
▁Sub	-11.1366
▁poem	-11.1367
0.000	-11.1368
▁Act	-11.1369
▁prime	-11.1371
zeug	-11.1375
▁Cambridge	-11.1378
▁Entfernung	-11.1378
▁Risiken	-11.1378
▁Großmutter	-11.1378
▁Stuhl	-11.1378
▁properties	-11.1378
▁Congress	-11.1378
▁primary	-11.1378
▁10-	-11.1378
▁GDP	-11.1378
▁frame	-11.1379
Ein	-11.1381
▁Buchstaben	-11.1382
ake	-11.1383
▁victims	-11.1387
▁effectively	-11.1387
ls	-11.1393
cent	-11.1393
▁Korallen	-11.1394
▁studio	-11.1394
▁gefangen	-11.1395
▁hinten	-11.1401
▁emissions	-11.1402
▁Sicherheits	-11.1408
▁700	-11.1409
gleich	-11.1411
weisen	-11.1411
▁Uni	-11.1412
mie	-11.1413
▁trans	-11.1415
▁Aufnahme	-11.142
ther	-11.1421
▁menschlicher	-11.1426
▁Sir	-11.1427
eur	-11.1428
fälle	-11.1437
▁height	-11.1439
▁encourage	-11.144
▁horse	-11.1443
▁ecosystem	-11.1444
Ha	-11.1445
▁biologische	-11.1447
▁Cha	-11.1447
▁perform	-11.1449
▁Pflege	-11.1452
▁south	-11.1453
▁Potential	-11.1455
▁verfolgt	-11.1455
▁malaria	-11.1455
wissenschaftler	-11.1455
▁lady	-11.1455
▁orange	-11.1456
▁doubt	-11.1459
▁tank	-11.1462
▁Tonnen	-11.1464
▁Sprach	-11.1464
▁Hotel	-11.1465
▁Kampagne	-11.1467
▁fold	-11.1467
▁fewer	-11.1469
scale	-11.1469
lage	-11.147
▁Blumen	-11.147
▁Tradition	-11.1477
▁persönlichen	-11.148
fu	-11.1482
▁Diagramm	-11.1484
▁represents	-11.1484
▁Galaxie	-11.149
▁Untersuchung	-11.149
▁leichter	-11.1495
▁erhielt	-11.1497
ät	-11.1512
▁chart	-11.1512
▁entscheidend	-11.1515
▁Fe	-11.1515
▁Durchschnitt	-11.1517
▁replace	-11.1518
wissenschaft	-11.1529
▁Teenager	-11.1532
▁technological	-11.1532
▁liberal	-11.1532
▁judge	-11.1532
pol	-11.1538
▁Derek	-11.1539
▁besuchen	-11.1539
▁Wesentlichen	-11.1542
▁presentation	-11.1542
▁versteht	-11.1543
▁alter	-11.1545
▁viruses	-11.1547
▁factor	-11.1547
▁director	-11.1549
▁rates	-11.1555
▁added	-11.1563
▁invent	-11.1574
▁king	-11.1575
▁Null	-11.1577
▁Lab	-11.1588
▁adapt	-11.1596
▁Wow	-11.1601
▁discussion	-11.1601
▁bubble	-11.1602
▁crack	-11.1603
▁patent	-11.1606
▁fiction	-11.161
▁voran	-11.161
▁steel	-11.161
▁darstellt	-11.1611
▁kitchen	-11.1611
▁Pfund	-11.1611
▁Teilnehmer	-11.1611
▁cards	-11.1616
lock	-11.1619
▁limb	-11.1619
▁thin	-11.1619
▁illusion	-11.162
▁Leider	-11.1622
▁formen	-11.1622
▁seitdem	-11.1624
▁anschaut	-11.1626
▁extract	-11.1626
weit	-11.1628
▁carrying	-11.1633
▁Grafik	-11.1635
▁stock	-11.1637
▁Mac	-11.1641
setzt	-11.1647
▁talks	-11.1651
▁quarter	-11.1653
▁verstehe	-11.1654
▁mu	-11.1658
▁langer	-11.1658
heim	-11.1665
▁details	-11.167
▁Herren	-11.1671
▁Erinnerungen	-11.1674
gesellschaftlich	-11.168
▁lokale	-11.1681
▁Willen	-11.1681
▁mathematical	-11.1684
▁radical	-11.1684
▁previous	-11.1684
▁curve	-11.1687
▁restaurant	-11.1687
▁Persönlichkeit	-11.1689
▁drauf	-11.1689
▁reduziert	-11.1689
▁prize	-11.1689
▁molecular	-11.1689
▁marine	-11.1689
▁mortality	-11.1689
▁split	-11.1689
▁schlafen	-11.1689
▁nations	-11.169
▁Other	-11.169
▁sight	-11.1691
▁Women	-11.1691
▁nest	-11.1693
▁singen	-11.1696
▁Gutes	-11.1701
▁generally	-11.1703
▁Molekül	-11.1704
▁grüne	-11.1705
▁voices	-11.1716
▁hierher	-11.172
wissenschaftlich	-11.1722
▁seid	-11.1724
han	-11.1724
technologie	-11.1725
▁Bedürfnisse	-11.1726
▁depends	-11.173
▁politicians	-11.1734
▁zentrale	-11.1734
▁sending	-11.1736
▁Süden	-11.1738
gebracht	-11.1739
▁grosse	-11.1744
▁Musiker	-11.1744
▁Einzel	-11.1747
▁handle	-11.1751
▁score	-11.1758
▁Volk	-11.1761
▁schwieriger	-11.1762
▁meinte	-11.1763
▁German	-11.1764
▁command	-11.1765
▁situations	-11.1768
▁Echtzeit	-11.1768
▁Respekt	-11.1768
▁academic	-11.1768
▁Debatte	-11.1768
▁robust	-11.1768
▁feststellen	-11.1769
▁hotel	-11.1771
▁democratic	-11.1772
▁loop	-11.1773
▁Präsentation	-11.1773
▁Lego	-11.1773
▁note	-11.1774
▁prepared	-11.1775
▁bauten	-11.1779
▁White	-11.1782
Look	-11.1783
▁stehe	-11.1783
ically	-11.1784
▁beschrieben	-11.1785
▁released	-11.1788
▁however	-11.1788
uh	-11.1789
▁Wieso	-11.179
▁beweisen	-11.179
▁engaged	-11.1792
▁Klein	-11.1793
▁review	-11.1793
▁steuern	-11.1795
ice	-11.1799
ahn	-11.1802
bereich	-11.1804
▁SS	-11.1814
zubringen	-11.1816
▁ring	-11.1817
▁liked	-11.1819
▁user	-11.1819
uellen	-11.182
▁Gegend	-11.1822
gabe	-11.1824
kan	-11.1825
tik	-11.1826
▁organ	-11.183
▁assume	-11.1835
▁Verhaltens	-11.1836
▁ski	-11.1838
▁tradition	-11.184
▁cameras	-11.1844
lle	-11.1848
▁Taliban	-11.1848
▁bietet	-11.1848
▁gegründet	-11.1848
▁inspiration	-11.1848
▁lecture	-11.1848
▁lediglich	-11.1848
▁Stammzellen	-11.1849
▁darunter	-11.1849
▁staff	-11.1849
▁enthält	-11.1849
▁fake	-11.1849
eit	-11.1849
▁gefällt	-11.1849
▁Since	-11.185
▁Koran	-11.185
▁Element	-11.1851
▁Yet	-11.1851
▁definiert	-11.1853
▁gespielt	-11.1855
▁vorzustellen	-11.1855
▁schwarz	-11.186
▁introduced	-11.1863
▁Jack	-11.1866
▁Richtig	-11.1867
▁Kr	-11.1868
▁sparen	-11.1873
▁Magie	-11.1876
▁kompliziert	-11.1878
▁standen	-11.1879
▁aufnehmen	-11.1881
▁arme	-11.1883
▁Depression	-11.1887
▁selling	-11.1889
kel	-11.1892
▁components	-11.1894
▁Würde	-11.1897
▁linear	-11.1905
▁Gore	-11.1911
wirtschaft	-11.1915
lung	-11.1916
krieg	-11.1916
▁limit	-11.1916
▁Fliegen	-11.1919
▁succeed	-11.192
▁interessanter	-11.1924
▁newspaper	-11.1925
▁shark	-11.1926
▁internationalen	-11.1927
▁danger	-11.1929
▁Chemikalien	-11.1929
▁entfernen	-11.1929
▁liquid	-11.1929
▁scheinbar	-11.1929
▁psychological	-11.1929
▁Long	-11.1929
▁collaboration	-11.1929
▁reference	-11.193
▁Mai	-11.193
▁Mehrheit	-11.193
▁liefern	-11.1932
▁Darum	-11.1933
▁19.	-11.1934
▁Metall	-11.1934
▁Weltkrieg	-11.1936
rop	-11.1936
cor	-11.1936
▁reich	-11.1936
▁blauen	-11.1937
ump	-11.1939
▁terrorism	-11.1939
Wow	-11.1946
▁Decke	-11.195
▁Fast	-11.1959
▁Ihres	-11.1959
af	-11.1959
▁Ed	-11.1962
▁atoms	-11.1964
▁Erfindung	-11.1968
▁Damen	-11.1969
▁reflect	-11.1981
▁Wall	-11.1982
▁lebendig	-11.1983
▁techniques	-11.1985
▁buying	-11.1993
▁reveal	-11.2001
lon	-11.2003
▁Große	-11.2005
▁permanent	-11.2005
▁entgegen	-11.2007
elle	-11.2007
▁disaster	-11.2007
▁Mc	-11.2008
ani	-11.2009
ign	-11.201
▁August	-11.201
▁beteiligt	-11.201
▁langweilig	-11.201
▁Literatur	-11.201
▁radiation	-11.2011
▁internal	-11.2011
▁Gebiete	-11.2012
pers	-11.2012
▁Pacific	-11.2014
▁Danach	-11.2014
▁Unfall	-11.2015
Me	-11.2018
▁tumor	-11.2022
▁boom	-11.2022
▁videos	-11.2025
▁übernehmen	-11.2026
▁Ozeane	-11.2027
person	-11.2033
▁Shi	-11.204
je	-11.2042
▁digitalen	-11.2043
▁cultures	-11.2044
▁employees	-11.2045
▁UN	-11.2049
▁Rechte	-11.2049
nderungen	-11.205
▁veränderte	-11.2051
▁schw	-11.2052
▁Fabrik	-11.2055
▁Protein	-11.206
▁behaviors	-11.2069
▁Weltraum	-11.207
▁lokalen	-11.2074
▁collapse	-11.2078
▁season	-11.208
▁Signale	-11.2082
▁opinion	-11.2091
▁shop	-11.2092
▁traurig	-11.2092
▁pair	-11.2092
▁definitely	-11.2092
▁gravity	-11.2092
▁silence	-11.2092
▁kreieren	-11.2092
▁sphere	-11.2092
▁Stattdessen	-11.2092
▁überwinden	-11.2092
▁medium	-11.2093
handel	-11.2094
▁lachen	-11.2094
▁bag	-11.2095
▁interests	-11.2096
▁organs	-11.2097
▁Kontinent	-11.2101
▁Air	-11.2101
▁Pre	-11.2103
▁kriegen	-11.2103
▁Stern	-11.211
▁11.	-11.211
▁mögliche	-11.2113
▁Gehen	-11.2114
▁meaningful	-11.2115
▁bezeichnet	-11.2121
ktiv	-11.2121
▁wine	-11.2122
▁Kriegs	-11.2123
▁movements	-11.2124
forschung	-11.2132
▁Brücke	-11.2134
▁Grundlage	-11.2135
▁Einstellung	-11.2136
▁junger	-11.214
erei	-11.2142
ieg	-11.2148
▁Einheit	-11.2154
▁include	-11.2161
▁fl	-11.2165
▁monitor	-11.2166
▁800	-11.2169
▁practical	-11.217
▁mark	-11.2172
▁pollution	-11.2175
▁silk	-11.2175
▁spectrum	-11.2175
▁Überraschung	-11.2175
▁Deswegen	-11.2175
▁Kabel	-11.2176
▁evolutionary	-11.2176
▁froh	-11.2183
▁scared	-11.2186
▁route	-11.2186
▁factors	-11.2189
▁Fortschritte	-11.2191
▁affected	-11.2193
oren	-11.2193
▁derzeit	-11.2197
▁pl	-11.2205
▁Belohnung	-11.2215
struktur	-11.2216
▁Küste	-11.2216
▁herein	-11.2219
▁former	-11.2226
▁Vorteile	-11.2226
▁grundsätzlich	-11.2228
▁Hall	-11.223
ette	-11.2235
▁angle	-11.2242
▁bare	-11.2242
ily	-11.2252
▁sucht	-11.2254
▁maps	-11.2255
▁topic	-11.2256
▁fi	-11.2256
▁regions	-11.2258
▁false	-11.2258
▁phrase	-11.2258
▁snow	-11.2258
▁heisst	-11.2258
▁Media	-11.2259
▁dahinter	-11.226
▁akzeptieren	-11.2261
▁öffentlich	-11.2261
▁Momente	-11.2262
▁conscious	-11.2262
▁typically	-11.2265
uadrat	-11.2267
▁Laptop	-11.2268
▁trend	-11.2268
▁stream	-11.2268
schnitt	-11.227
▁Schritte	-11.2274
my	-11.2275
verhalten	-11.2278
▁Ruf	-11.2278
▁armen	-11.228
▁glaubte	-11.228
▁Handel	-11.2281
▁Ray	-11.2281
▁Süd	-11.2281
▁recorded	-11.2284
sse	-11.2288
▁reached	-11.2288
▁Statistiken	-11.2289
▁mis	-11.229
▁houses	-11.2291
▁Russia	-11.2301
▁Nase	-11.2302
▁Interaktion	-11.2303
▁Seele	-11.2305
▁grab	-11.2307
▁wirkt	-11.2316
kor	-11.2324
ji	-11.2332
▁Schw	-11.2333
gh	-11.2342
▁swim	-11.2342
▁Central	-11.2342
▁Gerechtigkeit	-11.2342
▁Schicksal	-11.2342
▁cortex	-11.2342
▁erweitern	-11.2342
▁hieß	-11.2342
▁license	-11.2342
▁unusual	-11.2342
▁afternoon	-11.2342
▁telephone	-11.2342
▁wiederholt	-11.2342
▁reverse	-11.2343
licht	-11.2345
▁worldwide	-11.2346
▁feature	-11.2346
lai	-11.2346
▁industrielle	-11.235
▁cup	-11.2351
▁Heim	-11.2352
▁eng	-11.2357
gerät	-11.2359
▁5,000	-11.2364
▁investiert	-11.2366
▁pulled	-11.2367
sichtlich	-11.2369
▁blocks	-11.2372
▁poet	-11.2376
▁goals	-11.2377
▁clock	-11.238
▁funktionierte	-11.2389
▁Erwachsenen	-11.2396
▁crash	-11.2397
▁Interessen	-11.2399
▁kulturelle	-11.2399
▁hero	-11.24
▁Aktivitäten	-11.2403
▁Gedächtnis	-11.2404
▁risks	-11.2405
selben	-11.2405
▁berühmte	-11.2408
▁fishing	-11.2414
▁doppelt	-11.2416
▁repeat	-11.2418
▁lessons	-11.2419
▁driven	-11.2424
▁skill	-11.2426
▁Milch	-11.2427
▁bemerken	-11.2427
▁Alexander	-11.2427
▁Gegenwart	-11.2427
▁Gemälde	-11.2427
▁Perhaps	-11.2427
▁Spektrum	-11.2427
▁literature	-11.2427
▁privacy	-11.2427
▁sophisticated	-11.2427
▁britische	-11.2427
▁erhöhen	-11.2427
▁Jesus	-11.2427
▁Klassenzimmer	-11.2427
▁psychology	-11.2427
▁fruit	-11.2427
▁Terrorismus	-11.2427
▁ought	-11.2427
▁dropped	-11.2427
▁France	-11.2428
▁shut	-11.2428
uß	-11.2428
▁breathe	-11.2428
▁Nutzung	-11.2429
▁Jahrzehnten	-11.2431
▁occur	-11.2431
▁Symbol	-11.2432
▁apartment	-11.2432
▁Gesichter	-11.2436
▁Chef	-11.2441
▁umgeben	-11.2441
istische	-11.2442
▁required	-11.2444
house	-11.2447
▁singing	-11.2447
▁momentan	-11.2448
▁foundation	-11.2449
▁Zell	-11.2451
▁manchen	-11.2452
ender	-11.2453
▁angenommen	-11.2453
▁phase	-11.2454
▁Hacker	-11.2455
▁blog	-11.2455
making	-11.2456
▁Resultat	-11.2459
▁großartigen	-11.2459
▁gesch	-11.2461
▁Mama	-11.2464
▁traveling	-11.2464
▁cave	-11.2468
▁talent	-11.2471
▁anfing	-11.2471
▁Wüste	-11.2472
▁neighbors	-11.2479
nimmt	-11.2496
▁baute	-11.25
oh	-11.2506
▁constant	-11.2508
fügen	-11.251
▁dieselben	-11.2511
▁Kanada	-11.2513
▁Studio	-11.2513
▁irgendjemand	-11.2513
▁court	-11.2513
▁Sechs	-11.2513
▁Russland	-11.2513
▁Anführer	-11.2513
▁verletzt	-11.2513
▁Riesen	-11.2513
▁cord	-11.2514
▁paradigm	-11.2516
▁3,000	-11.2516
▁Brief	-11.2517
▁hoping	-11.2518
ified	-11.2518
▁puzzle	-11.2519
▁mechanism	-11.2519
Y	-11.252
▁applied	-11.2526
▁Eric	-11.2531
▁Tri	-11.2532
▁pour	-11.2537
▁personally	-11.2538
▁fund	-11.2541
▁naturally	-11.2541
ase	-11.2543
▁mile	-11.2547
zustellen	-11.255
▁Innovationen	-11.2554
▁Phase	-11.2557
▁Lektion	-11.2557
▁mountains	-11.2558
Da	-11.256
▁Bord	-11.2564
arbeiter	-11.2565
▁Hat	-11.2566
▁seltsame	-11.2566
▁Mengen	-11.2573
▁unbe	-11.2574
mann	-11.2575
▁kontrolliert	-11.2579
▁suffer	-11.2581
▁schwierige	-11.2583
▁kick	-11.259
▁sc	-11.2592
▁illness	-11.2592
▁ultimate	-11.2594
führung	-11.2597
▁Solar	-11.2599
▁destruction	-11.2599
▁shame	-11.2599
▁tea	-11.2599
▁besitzt	-11.2599
▁Blatt	-11.2599
▁Geräusche	-11.2599
▁input	-11.26
▁institution	-11.2602
▁2011	-11.2602
▁organisiert	-11.2605
▁eggs	-11.2606
▁Gute	-11.2607
▁transplant	-11.2609
▁percentage	-11.2609
▁script	-11.261
▁Billionen	-11.2611
▁combined	-11.2614
▁fundamentally	-11.2616
▁section	-11.2618
▁pilot	-11.2619
lit	-11.2625
gruppen	-11.2625
▁jener	-11.2626
▁arts	-11.2628
▁berühmt	-11.2633
▁Get	-11.2634
▁weiße	-11.2638
erie	-11.2639
linie	-11.2646
▁Absicht	-11.2646
▁ancestors	-11.2648
▁Unterricht	-11.2648
air	-11.265
haltung	-11.265
▁primitive	-11.2652
▁poll	-11.2653
Na	-11.2662
lam	-11.2672
▁features	-11.2682
▁Arme	-11.2682
lief	-11.2684
▁toxic	-11.2685
▁Transport	-11.2686
▁activities	-11.2686
▁church	-11.2686
▁efficiency	-11.2686
▁eröffnet	-11.2686
▁behave	-11.2686
▁Zunächst	-11.2686
▁Stahl	-11.2686
▁birthday	-11.2686
▁humor	-11.2686
▁Marketing	-11.2686
▁Wagen	-11.2687
▁pile	-11.2687
▁wunderschöne	-11.2687
▁sinnvoll	-11.2687
▁Nachbarschaft	-11.2687
▁awareness	-11.2688
▁vertrauen	-11.2689
▁Law	-11.269
▁Howard	-11.269
▁ausgebildet	-11.269
sta	-11.2691
▁Mike	-11.2691
▁remove	-11.2691
▁Schlag	-11.2692
▁Business	-11.2693
▁ansieht	-11.2695
▁chemische	-11.2695
▁Space	-11.2697
▁bezeichnen	-11.27
▁fährt	-11.2702
▁Tra	-11.2705
▁zunehmend	-11.2706
Dollar	-11.2707
▁electronic	-11.2708
▁überlegen	-11.2709
▁Bur	-11.2715
▁gefallen	-11.2716
mark	-11.2718
macht	-11.2719
▁Beruf	-11.272
▁Rad	-11.2722
▁increased	-11.2723
▁sports	-11.2727
▁wirkliche	-11.2727
down	-11.2731
▁thanks	-11.2731
▁bekomme	-11.2732
▁Gottes	-11.2733
▁Frei	-11.2733
▁stronger	-11.2736
▁Webseite	-11.2739
istic	-11.2741
▁receive	-11.2742
▁h	-11.2744
▁vehicles	-11.2745
gar	-11.2747
▁grass	-11.2753
▁musical	-11.2756
▁Sha	-11.2756
▁maintain	-11.276
▁Armee	-11.2762
▁weiterer	-11.2768
rew	-11.2768
▁abstract	-11.2768
kin	-11.277
schutz	-11.277
▁Vietnam	-11.2772
▁bemerkenswert	-11.2772
▁Wissens	-11.2772
▁department	-11.2773
▁manufacturing	-11.2773
▁memories	-11.2773
▁shadow	-11.2773
▁getrennt	-11.2773
▁framework	-11.2774
▁dargestellt	-11.2774
▁occurred	-11.2774
▁House	-11.2774
▁sunlight	-11.2774
▁underwater	-11.2774
▁transportation	-11.2775
Fi	-11.2775
▁productive	-11.2776
▁Berge	-11.2777
▁hey	-11.278
▁origin	-11.278
▁Kongress	-11.2781
▁algorithm	-11.2786
▁Boy	-11.2788
▁zeigten	-11.2788
▁physically	-11.2794
▁formed	-11.2795
chi	-11.2795
▁diverse	-11.2798
ifi	-11.2798
▁behaupten	-11.2802
▁zeichnen	-11.2802
▁Come	-11.2807
▁Five	-11.2808
▁Sta	-11.2813
▁Ke	-11.2814
▁Grün	-11.2819
▁Folie	-11.282
ebene	-11.2821
▁Sam	-11.2821
▁forests	-11.2823
▁dogs	-11.2824
▁acting	-11.2825
▁solved	-11.2827
▁nose	-11.2827
▁verb	-11.283
▁Su	-11.2832
lly	-11.2833
alen	-11.2834
▁dauerte	-11.2836
bot	-11.284
▁unglaublichen	-11.2846
regel	-11.2846
▁algorithms	-11.285
▁senden	-11.2852
▁Führung	-11.2853
▁Th	-11.2859
▁Kapitel	-11.2862
▁beispielsweise	-11.2862
▁dominant	-11.2862
▁empathy	-11.2862
▁bicycle	-11.2862
▁Dafür	-11.2863
▁wechseln	-11.2863
▁hinunter	-11.2863
▁bug	-11.2864
▁29	-11.2865
unternehmen	-11.2869
▁durchführen	-11.287
▁aufgewachsen	-11.2871
ht	-11.2872
▁laptop	-11.2874
▁cooking	-11.2875
▁pitch	-11.2878
▁Up	-11.2881
▁nu	-11.2884
System	-11.2885
▁geteilt	-11.2886
▁Ford	-11.2896
▁Proteine	-11.2898
▁processing	-11.2901
▁Pi	-11.2903
▁Maß	-11.2904
▁aging	-11.2908
▁Ereignisse	-11.291
nten	-11.291
▁Annahme	-11.291
▁Hallo	-11.291
▁Lu	-11.2911
▁Wa	-11.2912
▁Metapher	-11.2914
▁nett	-11.2915
folge	-11.292
▁Blau	-11.292
▁kostenlos	-11.2921
laufen	-11.2928
▁Mitglieder	-11.2931
▁translate	-11.2937
▁suppose	-11.2937
▁com	-11.294
schl	-11.2944
typ	-11.2946
▁comfort	-11.295
▁advice	-11.2951
▁computing	-11.2951
▁erforscht	-11.2951
▁piano	-11.2951
▁Fokus	-11.2951
▁smoke	-11.2951
▁vorbereitet	-11.2951
▁conservation	-11.2951
▁Schuld	-11.2952
▁Knie	-11.2952
▁somewhat	-11.2952
▁protest	-11.2952
▁wofür	-11.2953
▁1000	-11.2954
▁falschen	-11.2955
▁Moore	-11.2955
▁Mio	-11.2955
▁Zauber	-11.2956
dung	-11.2956
▁equally	-11.296
▁Party	-11.2963
▁zählt	-11.2964
▁Elefanten	-11.2964
▁clinic	-11.2965
▁lift	-11.2965
▁Blue	-11.2968
▁burning	-11.2969
▁actions	-11.2969
▁sowas	-11.297
film	-11.2976
▁drücken	-11.2978
tieren	-11.2979
▁sum	-11.2981
▁reisen	-11.2985
kle	-11.2985
▁largely	-11.2986
▁Wild	-11.2991
▁Fr	-11.2992
isches	-11.2993
▁mistakes	-11.2994
▁AB	-11.2994
▁falling	-11.2998
barkeit	-11.2999
▁Any	-11.3
▁cook	-11.3008
▁Programme	-11.301
lig	-11.3012
arbeiten	-11.3018
▁langsamer	-11.3018
▁prefer	-11.3023
▁centers	-11.3027
▁fehlt	-11.3036
zeichen	-11.3039
▁innen	-11.3039
▁2.	-11.3041
▁dramatic	-11.3041
▁admit	-11.3041
voll	-11.3041
▁concrete	-11.3041
▁presence	-11.3041
▁regelmäßig	-11.3041
▁verschwunden	-11.3041
▁swimming	-11.3041
▁Ursprung	-11.3041
▁Saudi	-11.3041
▁merken	-11.3042
▁Geburtstag	-11.3042
▁Nobody	-11.3042
▁hunger	-11.3042
▁Verbrechen	-11.3042
▁teilweise	-11.3043
▁Prinzipien	-11.3043
▁2012	-11.3043
▁combine	-11.3045
modell	-11.3046
▁appropriate	-11.305
▁innere	-11.305
▁animation	-11.3051
▁berichten	-11.3052
merk	-11.3052
▁beibringen	-11.3053
▁Mil	-11.3054
▁fingen	-11.3055
▁collected	-11.3056
▁ok	-11.3056
bit	-11.3056
▁election	-11.3057
▁insight	-11.306
▁intuitive	-11.3061
bahn	-11.3063
▁kalt	-11.3064
▁scan	-11.3066
▁storm	-11.3069
▁Vorstellungen	-11.3069
▁Kar	-11.3071
▁Wellen	-11.3071
▁Sternen	-11.3073
▁ho	-11.3074
▁Ohren	-11.3076
▁upper	-11.3077
▁55	-11.3079
▁Aspekte	-11.3083
▁River	-11.3086
▁willst	-11.3089
▁Ski	-11.309
▁Akt	-11.3095
▁offene	-11.3098
wer	-11.3102
avi	-11.3103
▁bits	-11.3109
far	-11.3115
▁aspect	-11.3119
▁blau	-11.3124
▁document	-11.3127
▁Ereignis	-11.3131
▁Titan	-11.3131
▁Inspiration	-11.3132
▁Number	-11.3132
▁While	-11.3132
▁Something	-11.3132
see	-11.3132
▁visible	-11.3132
▁repair	-11.3132
▁finance	-11.3132
▁balloon	-11.3132
▁erneut	-11.3133
▁June	-11.3133
▁Todes	-11.3133
▁cents	-11.3133
▁Flügel	-11.3134
hält	-11.3135
▁Jahrzehnte	-11.3135
▁flexible	-11.3137
▁bemerkte	-11.3138
▁Ohne	-11.314
▁claim	-11.314
▁ear	-11.314
▁gesunde	-11.3146
▁potentially	-11.3148
▁sensitive	-11.3149
▁string	-11.315
▁creature	-11.315
▁functions	-11.3152
▁pink	-11.3152
▁Ten	-11.3153
▁zweimal	-11.3153
hing	-11.3156
▁style	-11.3159
▁zusätzliche	-11.3163
▁environments	-11.3163
▁Anders	-11.3164
griff	-11.3164
▁fo	-11.3165
▁afrikanischen	-11.3165
uer	-11.3166
▁protected	-11.3171
ust	-11.3171
▁tax	-11.3173
▁hadn	-11.3175
maschine	-11.3181
▁hits	-11.3182
▁Aussage	-11.3182
▁chose	-11.3182
▁versteckt	-11.3186
▁verstand	-11.3189
technik	-11.3189
▁realen	-11.3194
▁react	-11.3196
▁springen	-11.3197
▁umher	-11.3197
▁starben	-11.3198
maß	-11.3198
cal	-11.32
lager	-11.3201
My	-11.3204
▁wi	-11.3207
▁Gemeinschaften	-11.3222
geschwindigkeit	-11.3224
▁contrast	-11.3224
▁Unfortunately	-11.3224
▁überlebt	-11.3224
▁Kugel	-11.3224
▁download	-11.3226
▁Ni	-11.3227
▁2050	-11.3227
▁Männchen	-11.3228
▁Back	-11.3232
▁Time	-11.3234
state	-11.3234
▁operation	-11.3238
▁trinken	-11.3241
▁outcome	-11.3243
▁Zur	-11.3245
▁Fernseh	-11.3245
▁baut	-11.3246
▁schlug	-11.3246
▁bekannten	-11.3247
▁trafen	-11.3248
▁narrative	-11.3248
▁Haar	-11.3251
being	-11.3251
▁defined	-11.3253
▁führten	-11.3255
▁Em	-11.3259
▁hospitals	-11.326
▁records	-11.3264
▁recording	-11.3265
▁Matt	-11.3275
▁bildet	-11.3275
tragen	-11.3275
▁poster	-11.328
▁genetisch	-11.328
▁Geistes	-11.328
▁antwortete	-11.3283
pla	-11.3284
▁Versuche	-11.3289
ese	-11.3292
▁Live	-11.3292
▁Lo	-11.3293
▁besseres	-11.3296
▁embrace	-11.3302
▁Schnitt	-11.3303
▁proteins	-11.3304
▁accurate	-11.3312
▁Instrumente	-11.3312
▁Four	-11.3316
▁FBI	-11.3317
▁Nachhaltigkeit	-11.3317
▁Zweifel	-11.3317
▁geholfen	-11.3317
▁gekauft	-11.3317
▁genügend	-11.3317
▁milk	-11.3317
▁Schließlich	-11.3317
▁chapter	-11.3317
▁thick	-11.3317
▁Anstatt	-11.3317
▁Chaos	-11.3317
▁tonight	-11.3317
▁Bevor	-11.3319
▁exploration	-11.3319
▁Abfall	-11.3321
▁Analyse	-11.3323
▁evening	-11.3324
▁ausgesetzt	-11.3326
▁confidence	-11.3327
▁desk	-11.3327
▁overall	-11.3328
leiter	-11.3329
▁landen	-11.333
▁billig	-11.3334
▁gemeinsamen	-11.3334
▁schwarzen	-11.3336
▁monkey	-11.3338
▁Only	-11.3339
▁Bay	-11.334
▁solange	-11.3342
gruppe	-11.3343
▁gelangt	-11.3344
▁tracking	-11.3346
uz	-11.3347
▁basierend	-11.3348
▁lebe	-11.3349
duct	-11.3352
rang	-11.3354
▁Inter	-11.3363
greifen	-11.3366
▁Märkte	-11.3368
0,000	-11.3373
▁Aktion	-11.3374
▁wundervolle	-11.3377
unter	-11.3378
▁hinauf	-11.3378
▁erkannt	-11.3381
▁Eier	-11.3383
▁42	-11.3383
▁Samen	-11.3384
▁Erlebnis	-11.3386
▁organisieren	-11.339
Man	-11.3393
▁hielten	-11.3401
▁extend	-11.3401
▁appreciate	-11.3402
▁marketing	-11.3403
reichen	-11.3407
kam	-11.3407
sfähigkeit	-11.3407
▁Bibliothek	-11.341
fällig	-11.341
▁Christmas	-11.341
▁betroffen	-11.341
▁providing	-11.341
▁wütend	-11.341
▁motivation	-11.341
▁brutal	-11.341
▁Schweden	-11.341
▁intense	-11.341
▁sustainability	-11.341
▁Fach	-11.3411
▁Strand	-11.3411
▁Verstehen	-11.3411
▁Hunderte	-11.3412
▁Physiker	-11.3412
▁clothes	-11.3413
▁Pu	-11.3413
▁exhibition	-11.3413
▁komplexen	-11.3413
ition	-11.3413
▁elektronische	-11.3413
▁Budget	-11.3414
▁surrounded	-11.3415
▁Status	-11.3415
▁sexuelle	-11.3416
▁Asien	-11.3416
treffen	-11.3417
▁infiziert	-11.3417
▁Sichtweise	-11.3418
▁violent	-11.3419
▁infected	-11.3419
▁End	-11.3422
▁root	-11.3423
schließen	-11.3427
▁Tu	-11.3428
lied	-11.3429
▁Schuhe	-11.3431
▁truck	-11.3433
▁error	-11.3433
▁ta	-11.3433
▁runs	-11.3433
▁Detail	-11.3434
▁circumstances	-11.3439
▁border	-11.344
gekommen	-11.3443
▁Staats	-11.3444
▁stayed	-11.3446
▁explained	-11.3449
▁pan	-11.345
▁profit	-11.345
qua	-11.345
elt	-11.3453
▁existing	-11.3456
teile	-11.3459
ney	-11.3461
▁Räume	-11.3462
▁tall	-11.3466
▁ends	-11.347
wo	-11.3472
▁flower	-11.3477
▁klinische	-11.3477
pass	-11.3477
▁ernsthaft	-11.3478
▁host	-11.3481
tier	-11.3481
▁seek	-11.3482
▁achten	-11.3489
▁schwere	-11.3489
▁Stücke	-11.3496
▁grünen	-11.3497
▁Regionen	-11.3502
▁Gandhi	-11.3504
▁Shanghai	-11.3504
▁wisst	-11.3504
▁Sonnenlicht	-11.3504
▁flew	-11.3504
▁nowhere	-11.3504
▁authority	-11.3505
▁knapp	-11.3505
▁commitment	-11.3505
▁enthalten	-11.3505
▁stoppen	-11.3506
▁Aufbau	-11.3509
▁betreiben	-11.3511
schicht	-11.3512
▁Schaden	-11.3514
▁aktuelle	-11.3514
▁hörten	-11.3515
▁Fett	-11.352
isierte	-11.3521
▁weißen	-11.3521
▁Minister	-11.3522
▁Wolken	-11.3526
▁männliche	-11.3527
▁schreckliche	-11.3528
▁plate	-11.3529
▁odd	-11.3529
set	-11.3529
projekt	-11.3532
Yeah	-11.3533
lass	-11.3534
▁photographs	-11.3535
▁gebrochen	-11.3535
mut	-11.3536
▁closely	-11.3537
▁hängen	-11.3539
▁Restaurant	-11.354
▁Mach	-11.3541
▁erhöht	-11.3543
▁Ki	-11.3543
▁emotionale	-11.3545
▁van	-11.3548
▁measured	-11.3551
▁ten	-11.3552
schule	-11.3556
▁tested	-11.3558
▁partners	-11.3559
▁Nick	-11.3561
▁offenen	-11.3561
▁drives	-11.3562
problem	-11.3563
▁nannten	-11.357
▁x	-11.357
▁emerge	-11.3582
stelle	-11.3593
gypten	-11.3595
▁zufrieden	-11.3598
▁Verwendung	-11.3599
▁Führer	-11.3599
▁Blätter	-11.36
▁horrible	-11.36
▁nachgedacht	-11.36
▁trigger	-11.36
▁Mandela	-11.36
▁Potenzial	-11.36
▁Grippe	-11.36
▁Frankreich	-11.36
▁exakt	-11.36
▁kreativ	-11.36
▁wireless	-11.36
▁flach	-11.36
▁unknown	-11.3601
▁Johnson	-11.3601
▁lifestyle	-11.3601
▁spin	-11.3602
treten	-11.3604
▁wertvoll	-11.3605
▁Spielzeug	-11.3605
▁verglichen	-11.3608
▁Mary	-11.361
▁unterrichten	-11.361
▁nieder	-11.361
▁Mi	-11.3612
rry	-11.3614
▁apple	-11.3614
▁remains	-11.3615
▁polar	-11.3616
▁joined	-11.3621
▁Einfach	-11.3625
▁minister	-11.3626
▁flip	-11.3634
▁mode	-11.3637
erin	-11.3638
lauf	-11.3638
bank	-11.3639
▁nachts	-11.3643
▁refer	-11.3644
gas	-11.3645
▁studiert	-11.3657
▁Pri	-11.3663
sort	-11.3665
▁Trick	-11.3671
▁shock	-11.3673
De	-11.3674
▁dumm	-11.3676
▁Konsum	-11.3677
▁roads	-11.3689
▁Noten	-11.3689
dge	-11.3692
ony	-11.3692
▁Bronx	-11.3696
▁Futter	-11.3696
▁Nelson	-11.3696
▁Teufel	-11.3696
▁begegnen	-11.3696
▁challenging	-11.3696
▁depth	-11.3696
▁gerettet	-11.3696
▁kaputt	-11.3696
▁Gemüse	-11.3696
▁Zerstörung	-11.3696
▁nervös	-11.3696
▁vorsichtig	-11.3696
▁heaven	-11.3696
▁therapy	-11.3696
▁housing	-11.3696
▁Henry	-11.3696
▁Population	-11.3696
▁Basically	-11.3696
▁neural	-11.3696
▁heilen	-11.3697
▁regime	-11.3698
▁Sonnensystem	-11.3698
▁wirken	-11.3699
▁schreibt	-11.37
don	-11.37
tum	-11.3701
▁attacks	-11.3701
▁Bang	-11.3702
▁busy	-11.3703
volle	-11.3703
▁MT	-11.3704
▁2002	-11.3704
▁Verb	-11.3705
▁Box	-11.3706
▁orbit	-11.371
can	-11.3712
▁sensors	-11.3714
▁Marke	-11.3715
▁voneinander	-11.3716
▁wiederholen	-11.3717
▁wa	-11.3717
▁Chancen	-11.3719
▁controlled	-11.372
▁jail	-11.372
▁architect	-11.3724
▁rhythm	-11.3725
wechsel	-11.3726
level	-11.3727
▁anger	-11.3727
▁Blog	-11.3729
▁notes	-11.3733
bildung	-11.3735
▁author	-11.3738
ini	-11.3738
▁wheel	-11.3742
▁symptoms	-11.3745
▁heutige	-11.3751
▁Schicht	-11.3752
gebiet	-11.3758
▁applications	-11.3761
▁Ernährung	-11.3762
▁stone	-11.3762
▁Har	-11.3763
lies	-11.3765
▁subjects	-11.3769
▁sides	-11.3769
▁behavioral	-11.3771
ala	-11.3774
rich	-11.3777
▁economists	-11.3778
▁celebrate	-11.3779
▁Kindes	-11.3781
sprache	-11.3789
▁passionate	-11.3789
träge	-11.3789
▁Diagnose	-11.3793
▁Research	-11.3793
▁Square	-11.3793
▁aufgeregt	-11.3793
▁centuries	-11.3793
▁laboratory	-11.3793
▁thumb	-11.3793
▁Brian	-11.3793
▁1998	-11.3793
▁Schnee	-11.3793
▁gentlemen	-11.3793
▁verliebt	-11.3793
▁weshalb	-11.3793
▁cr	-11.3793
▁greenhouse	-11.3793
▁boring	-11.3794
▁globe	-11.3794
▁wünschte	-11.3795
ville	-11.3795
▁lying	-11.3796
▁Verbreitung	-11.3797
▁Afrikaner	-11.3798
▁suchte	-11.38
▁europäische	-11.3801
▁Heimat	-11.3801
▁conversations	-11.3801
▁bewirken	-11.3802
▁favor	-11.3802
▁Wirklich	-11.3804
▁liefert	-11.3805
Wer	-11.3805
▁einst	-11.3807
foot	-11.3808
Mo	-11.381
▁Epidemie	-11.381
▁tests	-11.381
star	-11.3814
▁options	-11.3815
▁determine	-11.3819
▁Wohn	-11.3819
let	-11.382
▁pool	-11.3823
▁technique	-11.3823
▁Sal	-11.3824
▁logic	-11.3827
sein	-11.3829
▁grain	-11.3834
box	-11.3834
▁Machen	-11.3839
lick	-11.3841
▁keeps	-11.3844
▁Bericht	-11.3847
▁harte	-11.3847
▁provided	-11.3849
▁file	-11.3851
▁facts	-11.3851
▁nor	-11.3853
▁William	-11.3854
bücher	-11.3857
▁whales	-11.3858
▁Paar	-11.3859
▁Brown	-11.3859
▁traditionelle	-11.3868
▁elegant	-11.3874
▁derselben	-11.3882
▁Cor	-11.3882
lte	-11.3889
größe	-11.389
▁Gesamt	-11.389
▁Gulf	-11.3891
▁Silicon	-11.3891
▁insbesondere	-11.3891
▁neugierig	-11.3891
▁regret	-11.3891
▁veröffentlichen	-11.3891
▁autism	-11.3891
▁secure	-11.3891
▁betrieben	-11.3891
▁Kleidung	-11.3891
▁Herstellung	-11.3891
▁genießen	-11.3894
▁Egypt	-11.3894
och	-11.3896
züge	-11.3898
▁100.000	-11.3901
Pa	-11.3901
▁Nerven	-11.3905
▁vergangenen	-11.3908
schauen	-11.391
ome	-11.391
▁transformed	-11.391
rand	-11.3912
tzt	-11.3913
▁Sonnen	-11.3923
▁application	-11.3923
▁whale	-11.3923
▁Naja	-11.3925
▁Leiden	-11.3926
▁pin	-11.3926
vers	-11.3927
▁pig	-11.3929
▁cow	-11.3932
chten	-11.3938
ständig	-11.3939
fache	-11.3943
▁wherever	-11.3944
▁Fläche	-11.3948
Co	-11.395
▁gewisser	-11.395
▁bestand	-11.395
▁Bell	-11.3951
rück	-11.3955
▁höchsten	-11.396
▁ears	-11.3967
▁amounts	-11.3968
ktion	-11.3969
▁zone	-11.397
▁wenigstens	-11.3971
▁bones	-11.3973
▁contribute	-11.3976
▁Erste	-11.3978
▁physische	-11.3978
preis	-11.398
▁convert	-11.3981
▁infinite	-11.3985
▁tag	-11.3985
tritt	-11.3985
▁entrepreneurs	-11.3988
politik	-11.3989
▁Lincoln	-11.399
▁gesammelt	-11.399
▁identical	-11.399
▁suspect	-11.399
▁Brooklyn	-11.399
▁extent	-11.399
▁gestaltet	-11.399
▁angry	-11.399
▁Voice	-11.399
▁besessen	-11.399
▁capitalism	-11.3991
▁gründen	-11.3992
▁Denkweise	-11.3992
▁englische	-11.3992
▁puts	-11.3995
▁Witz	-11.3995
▁schm	-11.3995
▁plot	-11.3997
▁transfer	-11.3997
▁Tor	-11.3998
▁Zeitraum	-11.4002
▁Atom	-11.4003
ima	-11.4004
▁teil	-11.4009
▁ergeben	-11.401
▁database	-11.4011
gegen	-11.4013
▁glaubten	-11.4014
▁worauf	-11.4019
▁beach	-11.402
▁prototype	-11.4023
denken	-11.4024
▁songs	-11.4026
▁Entwicklungs	-11.4028
hour	-11.4029
▁feeding	-11.403
▁sozial	-11.403
▁samples	-11.4031
▁robotic	-11.4033
▁Geschäfte	-11.4035
losen	-11.4036
gemacht	-11.4038
tail	-11.4039
▁fingers	-11.404
RB	-11.4044
▁unteren	-11.4045
▁kreative	-11.4046
▁organism	-11.4047
▁jung	-11.4053
▁Erd	-11.4056
schi	-11.406
▁destroy	-11.4067
▁flowers	-11.4069
ain	-11.4075
▁rum	-11.4075
▁Latin	-11.4076
▁evolve	-11.4076
▁Anruf	-11.4077
▁encounter	-11.4081
▁dress	-11.4081
▁films	-11.4083
ably	-11.4085
▁Tony	-11.4085
▁Zwischen	-11.409
▁policies	-11.409
▁versorgen	-11.409
▁shall	-11.409
▁footprint	-11.409
▁Wärme	-11.409
▁Pollen	-11.409
▁unlike	-11.409
▁Streit	-11.4091
ssen	-11.4093
▁spüren	-11.4097
▁Uns	-11.4097
▁dankbar	-11.4097
▁weltweiten	-11.4097
▁Fund	-11.4099
▁Van	-11.41
▁CD	-11.4101
glücklicherweise	-11.4104
▁Fest	-11.4112
▁fixed	-11.4112
▁guide	-11.4113
▁Wann	-11.4115
▁Tiefe	-11.4116
artige	-11.4116
▁linked	-11.4117
▁concern	-11.4117
bin	-11.412
dischen	-11.412
▁mächtig	-11.4124
▁Tee	-11.4125
▁firm	-11.4131
▁Innen	-11.4133
▁Gespräche	-11.4134
▁Erwachsene	-11.4138
▁pollen	-11.4138
▁Schauspieler	-11.4141
ians	-11.4141
schrift	-11.4143
▁Einen	-11.4145
▁Aufnahmen	-11.4145
uff	-11.4146
fragen	-11.4147
▁folgenden	-11.4153
▁Faktor	-11.4157
▁chip	-11.4157
▁Gleich	-11.4167
ew	-11.4167
Don	-11.4176
▁divide	-11.4177
tür	-11.4177
▁abuse	-11.4185
▁severe	-11.4186
nom	-11.4189
▁Feynman	-11.4191
▁Lebenserwartung	-11.4191
▁Sektor	-11.4191
▁corporate	-11.4191
▁dancing	-11.4191
▁narrow	-11.4191
▁verdammt	-11.4191
▁Before	-11.4191
▁session	-11.4191
▁verliert	-11.4191
▁conclude	-11.4191
▁hinzufügen	-11.4191
▁strip	-11.4191
▁Verkauf	-11.4191
▁unterwegs	-11.4192
▁Chile	-11.4192
▁Nano	-11.4193
▁1.000	-11.4193
▁Kongo	-11.4195
▁Out	-11.4195
▁Serie	-11.4197
▁educational	-11.4197
▁Kuh	-11.4197
▁lo	-11.4199
▁bizarre	-11.4203
▁Konsequenzen	-11.4207
▁funding	-11.4208
▁eingeladen	-11.4208
▁folgendes	-11.4209
▁Wäre	-11.4209
▁army	-11.4211
▁trat	-11.4211
brechen	-11.4212
▁Afrikas	-11.4213
gent	-11.4213
▁faced	-11.4215
wind	-11.4217
▁aufge	-11.4221
▁cartoon	-11.4222
▁mach	-11.4224
▁painful	-11.4224
▁vaccine	-11.4229
▁equation	-11.4229
▁Leiter	-11.4236
▁lebende	-11.4239
ration	-11.4241
▁beenden	-11.4241
▁erklärte	-11.4245
▁Krieges	-11.4247
▁dive	-11.4248
▁pet	-11.4248
▁schauten	-11.4249
▁eigentliche	-11.4253
▁hyper	-11.4253
karte	-11.4257
▁Acht	-11.4265
▁verschieden	-11.427
▁37	-11.4271
▁Hans	-11.4273
▁loud	-11.4276
▁figures	-11.4278
▁gu	-11.4286
▁mechanical	-11.4288
gefühl	-11.4292
▁Child	-11.4292
▁spiritual	-11.4292
▁Euro	-11.4293
▁earthquake	-11.4293
▁measuring	-11.4293
▁Greek	-11.4293
▁domestic	-11.4293
▁verursachen	-11.4293
▁grateful	-11.4293
▁Carolina	-11.4293
▁verlangt	-11.4293
▁causing	-11.4293
▁selection	-11.4294
▁hinterlassen	-11.4294
ush	-11.4295
▁spinal	-11.4296
▁poorest	-11.4296
▁limits	-11.4296
▁Sc	-11.4297
▁photographer	-11.4298
▁passive	-11.43
▁Mode	-11.43
▁floating	-11.4301
ju	-11.4302
▁Erwartungen	-11.4304
▁neutral	-11.4312
▁instruments	-11.4313
burg	-11.4317
▁wondered	-11.4322
eten	-11.4324
▁boxes	-11.4325
genommen	-11.4327
▁pushing	-11.4328
stab	-11.4329
American	-11.433
▁implications	-11.4332
▁Dimensionen	-11.4333
▁neighbor	-11.4334
▁letzter	-11.4334
▁36	-11.4336
But	-11.434
▁suggests	-11.4341
▁angeht	-11.4342
▁Steuer	-11.4343
▁continued	-11.4344
well	-11.4344
design	-11.4346
öl	-11.4347
▁Make	-11.4351
▁komplizierte	-11.4356
▁Kurve	-11.4359
▁schwimmen	-11.4359
fass	-11.436
▁dauern	-11.4364
icht	-11.4367
wan	-11.4371
nna	-11.4371
▁trug	-11.4381
▁Wegen	-11.4383
▁Jugend	-11.4383
▁Ingenieure	-11.4384
class	-11.4392
▁Schau	-11.4394
▁standards	-11.4395
grad	-11.4395
▁Abraham	-11.4396
▁Detroit	-11.4396
▁Erdbeben	-11.4396
▁Weisheit	-11.4396
▁chocolate	-11.4396
▁frankly	-11.4396
▁judgment	-11.4396
▁unexpected	-11.4396
▁Brustkrebs	-11.4396
▁erfüllt	-11.4396
▁minimal	-11.4396
▁wovon	-11.4398
▁Algorithmen	-11.4398
▁interactive	-11.4398
▁Verfahren	-11.4398
▁dense	-11.4399
▁gemein	-11.4405
▁SW	-11.4407
ogen	-11.4408
▁thoughts	-11.4411
fällt	-11.4419
▁umzugehen	-11.4419
▁Male	-11.4419
üge	-11.442
▁lung	-11.4421
▁earn	-11.4421
▁Te	-11.4422
▁classes	-11.4423
▁Please	-11.4426
▁contain	-11.4428
▁Groß	-11.4428
ham	-11.4429
▁agreed	-11.4429
▁eingeführt	-11.443
▁Ei	-11.4436
▁heiß	-11.4436
▁channel	-11.4438
▁surgeon	-11.4438
▁expert	-11.4439
▁spider	-11.4439
baren	-11.4442
eis	-11.4443
Le	-11.4443
10	-11.4448
▁villages	-11.4449
▁Muslims	-11.4451
▁Song	-11.4455
▁grundlegend	-11.4456
bewegung	-11.4457
▁geo	-11.4458
iges	-11.4458
▁mammals	-11.4462
▁younger	-11.4462
▁rely	-11.4464
▁Entdeckungen	-11.4464
gab	-11.4464
▁architects	-11.4469
grund	-11.447
▁Si	-11.4476
▁surf	-11.448
▁Fehl	-11.4487
▁Regierungs	-11.4489
▁jährlich	-11.4491
▁clouds	-11.4491
▁Beijing	-11.45
▁DVD	-11.45
▁irgendwelche	-11.45
▁library	-11.45
▁romantic	-11.45
▁silent	-11.45
▁struck	-11.45
▁geschützt	-11.45
▁Gipfel	-11.45
▁erfassen	-11.45
▁carried	-11.45
▁automatically	-11.45
▁Psychologie	-11.45
▁Sweden	-11.4501
▁Trotzdem	-11.4501
▁Black	-11.4501
▁Everyone	-11.4501
▁Finally	-11.4502
mun	-11.4503
▁Nobel	-11.4503
▁mittels	-11.4503
▁obsessed	-11.4505
▁Saal	-11.4508
▁brach	-11.4508
▁rocks	-11.4509
tausend	-11.4512
▁Reaktionen	-11.4513
▁dozen	-11.4515
▁intelligente	-11.4516
▁offered	-11.4517
▁breathing	-11.4521
sprozess	-11.4522
▁kognitive	-11.4522
▁niemanden	-11.4522
▁Handys	-11.4525
▁drinking	-11.4525
▁existed	-11.4531
▁Viel	-11.4531
▁Toten	-11.4532
team	-11.4532
zugeben	-11.4533
▁parking	-11.4535
▁Gebrauch	-11.4542
▁mice	-11.4543
▁Meere	-11.4543
▁Lasst	-11.4543
▁ursprünglich	-11.4545
▁elephant	-11.4545
stoß	-11.4545
▁promote	-11.4545
ward	-11.4545
▁component	-11.4545
▁toilet	-11.4546
▁Hä	-11.4549
▁tube	-11.455
▁cast	-11.4552
▁Nutzer	-11.4552
▁disorders	-11.4553
▁laser	-11.4555
aw	-11.4559
▁Fahrzeug	-11.4562
▁rat	-11.4567
tiere	-11.4567
fern	-11.4574
auer	-11.4575
▁Abou	-11.4582
▁Angriff	-11.4582
q	-11.4582
zieren	-11.4584
▁Dis	-11.4585
▁Immer	-11.4587
▁Richtungen	-11.4591
▁Feind	-11.4594
dding	-11.4594
version	-11.4596
▁wach	-11.46
▁attract	-11.4602
▁Steven	-11.4603
▁nachhaltige	-11.4604
▁careful	-11.4605
figur	-11.4605
▁Anstieg	-11.4605
▁November	-11.4605
▁Plötzlich	-11.4605
▁bedroht	-11.4605
▁diagram	-11.4605
▁economies	-11.4605
▁konfrontiert	-11.4605
▁polio	-11.4605
▁recognition	-11.4605
▁Rwanda	-11.4605
▁zurückkehren	-11.4605
▁mystery	-11.4605
▁vital	-11.4605
▁pretend	-11.4605
▁Redwood	-11.4606
▁Berlin	-11.4606
▁Hitze	-11.4606
▁seht	-11.4606
▁resistance	-11.4606
▁shake	-11.4606
▁dramatically	-11.4606
▁plug	-11.4606
▁gray	-11.4606
▁Verlauf	-11.4607
▁fluid	-11.4607
▁sang	-11.4607
nnerhalb	-11.4607
▁2030	-11.4608
▁Mathe	-11.461
▁Vagina	-11.4611
▁legt	-11.4611
▁Computern	-11.4611
gibt	-11.4611
▁Treffen	-11.4611
▁distributed	-11.4612
▁rapid	-11.4613
▁deaths	-11.4614
▁Mangel	-11.4614
▁einfaches	-11.4615
▁Newton	-11.4617
▁Haie	-11.4618
▁anpassen	-11.462
▁conventional	-11.4623
▁grün	-11.4624
nah	-11.4624
▁spannend	-11.4625
▁represented	-11.4625
▁shell	-11.4628
▁begreifen	-11.4629
▁pie	-11.4635
▁Give	-11.4642
▁dienen	-11.4644
▁performing	-11.4645
▁dient	-11.4645
▁Faktoren	-11.4649
▁para	-11.4657
▁lock	-11.4662
▁brave	-11.4663
▁Gegenden	-11.4663
▁bedeutete	-11.4666
▁Rechts	-11.4667
▁Eigenschaft	-11.467
ace	-11.4671
schlagen	-11.4673
▁Flagge	-11.4675
reise	-11.4676
▁dramatisch	-11.4676
▁Bildungs	-11.4678
▁Gebäuden	-11.468
▁Hör	-11.4682
wagen	-11.4684
▁corals	-11.4688
▁Chinesen	-11.469
▁senses	-11.4696
▁drill	-11.4698
▁Sequenz	-11.4698
▁besuchte	-11.47
▁komplex	-11.4702
ierende	-11.4704
▁gezogen	-11.4707
▁BIP	-11.4712
▁Ungleichheit	-11.4712
▁Antibiotika	-11.4712
▁Clinton	-11.4712
▁Heutzutage	-11.4712
▁Klavier	-11.4712
▁Motivation	-11.4712
▁clue	-11.4712
▁sweat	-11.4712
▁overcome	-11.4712
▁Remember	-11.4712
▁Dunkelheit	-11.4712
▁Normalerweise	-11.4712
▁Polio	-11.4712
▁Bibel	-11.4712
▁naja	-11.4713
▁suck	-11.4715
das	-11.4715
▁properly	-11.4716
▁2020	-11.4716
low	-11.4719
▁Terroristen	-11.4722
▁papers	-11.4722
▁grundlegenden	-11.4722
▁vorhin	-11.4723
▁dunkel	-11.4727
▁cash	-11.4728
▁mainly	-11.4728
▁Scott	-11.4729
enz	-11.4729
▁shooting	-11.4731
▁plans	-11.4732
▁Symptome	-11.4732
▁ausgeben	-11.4737
▁Theorien	-11.4739
pot	-11.4747
▁raw	-11.4748
▁Cr	-11.4757
▁spreading	-11.4764
▁Russian	-11.4766
auch	-11.4766
▁wunderbaren	-11.4769
▁classic	-11.477
▁Mathematiker	-11.4772
swert	-11.4773
▁par	-11.4773
▁31	-11.4775
ular	-11.4776
▁Bedrohung	-11.4777
▁zusätzlich	-11.4783
▁Bier	-11.4788
▁magnetic	-11.4788
ford	-11.4789
▁Wach	-11.4794
▁monkeys	-11.4795
▁Richtige	-11.4795
▁invite	-11.4806
hood	-11.4807
▁Ingenieur	-11.4808
▁Leber	-11.4811
gelegt	-11.4817
▁klassische	-11.4817
▁freie	-11.4819
▁Versorgung	-11.4819
ueen	-11.4819
▁miracle	-11.4819
▁reduction	-11.4819
▁Benjamin	-11.4819
▁Fantasie	-11.4819
▁Kevin	-11.4819
▁Niveau	-11.4819
▁Watson	-11.4819
▁Weibchen	-11.4819
▁ceiling	-11.4819
▁enemy	-11.4819
▁ernähren	-11.4819
▁indicate	-11.4819
▁neither	-11.4819
▁bekämpfen	-11.4819
▁Entwurf	-11.4819
▁lehren	-11.4819
▁Stephen	-11.4819
▁engaging	-11.4819
▁agenda	-11.4819
▁rufen	-11.482
▁Nothing	-11.482
▁Vorträge	-11.4821
▁Grab	-11.4821
▁machst	-11.4823
▁defend	-11.4823
▁January	-11.4824
▁Ali	-11.4826
▁dreidimensional	-11.4827
run	-11.4832
▁Level	-11.4833
▁solving	-11.4834
bett	-11.4835
▁Argument	-11.4836
▁Wichtigste	-11.4837
bal	-11.4837
▁Summe	-11.484
uss	-11.4841
zel	-11.4846
▁Reich	-11.4854
▁bill	-11.4854
▁i	-11.4855
hören	-11.4857
▁Ganzen	-11.4859
▁Schweine	-11.486
▁Amy	-11.486
▁enden	-11.487
▁arguments	-11.4874
▁habitat	-11.4876
called	-11.4879
Aber	-11.4884
kte	-11.4886
▁Zähne	-11.4886
ände	-11.4886
▁Batterie	-11.4892
▁lebenden	-11.4895
▁Konflikte	-11.4896
▁winzige	-11.4896
▁penguins	-11.4897
bezüglich	-11.4898
▁placed	-11.49
mine	-11.4901
▁Haare	-11.4901
▁Dem	-11.4902
stände	-11.4903
▁sets	-11.4905
▁outcomes	-11.4905
▁Wale	-11.4906
▁interactions	-11.4908
▁kaufte	-11.4908
▁Wahlen	-11.4911
▁Israeli	-11.4911
▁liebte	-11.4911
▁harvest	-11.4914
▁Führungs	-11.4915
▁mad	-11.4923
▁Januar	-11.4923
grade	-11.4926
▁Angebot	-11.4928
▁Bruno	-11.4928
▁Humor	-11.4928
▁Shakespeare	-11.4928
▁grandfather	-11.4928
▁recommend	-11.4928
▁obesity	-11.4928
▁genius	-11.4928
▁herrscht	-11.4928
▁Italien	-11.4928
▁shelter	-11.4928
▁kreiert	-11.4928
▁honey	-11.4928
▁erfüllen	-11.4928
▁neigen	-11.4928
▁1900	-11.4929
▁wahrnehmen	-11.4929
▁hardware	-11.4929
▁tanzen	-11.493
▁Rick	-11.4931
▁Jones	-11.4931
▁scary	-11.4932
▁Woman	-11.4933
▁Leonardo	-11.4933
▁Doktor	-11.4934
▁controlling	-11.4934
▁ignore	-11.4934
▁Delhi	-11.4936
▁jegliche	-11.4939
▁rechte	-11.4942
▁increases	-11.4942
▁y	-11.4944
ali	-11.4945
▁anzusehen	-11.4949
▁log	-11.4951
▁Marken	-11.4954
ned	-11.4955
▁atmen	-11.4955
▁consumers	-11.4956
▁oberen	-11.4956
fish	-11.4957
äre	-11.4959
▁2:	-11.4962
▁Weiter	-11.4963
▁Sagen	-11.4967
▁leiten	-11.497
▁directions	-11.4974
▁Stiftung	-11.4975
▁sculpture	-11.4981
▁disorder	-11.4982
▁particle	-11.4983
▁350	-11.4984
▁Alters	-11.4992
▁Schulter	-11.4999
▁windows	-11.5002
▁Widerstand	-11.5005
▁Stift	-11.5006
▁Dame	-11.501
geführt	-11.5012
▁consume	-11.5013
▁Put	-11.5017
▁Szene	-11.5022
▁grossen	-11.5025
teilen	-11.5028
ey	-11.5029
▁Spar	-11.5031
ellen	-11.5032
▁extinct	-11.5034
▁courage	-11.5037
▁Medica	-11.5038
▁ausgewählt	-11.5038
▁defense	-11.5038
▁plenty	-11.5038
▁philosophy	-11.5038
▁welcome	-11.5038
▁Einwohner	-11.5038
▁Privatsphäre	-11.5038
▁till	-11.5038
▁inequality	-11.5038
▁cooperation	-11.5038
▁Medium	-11.5038
▁1999	-11.5038
▁chest	-11.5038
▁salt	-11.5038
▁befreien	-11.5038
▁Congo	-11.5039
▁stack	-11.5039
▁MRI	-11.5039
▁County	-11.5039
▁Laufen	-11.504
▁Weltbevölkerung	-11.504
▁elite	-11.504
▁precisely	-11.5041
▁Islamic	-11.5042
▁Nachfrage	-11.5045
▁tries	-11.5045
▁beendet	-11.5045
▁beigebracht	-11.5047
▁ländlichen	-11.5047
essen	-11.5048
▁destroyed	-11.5048
▁golf	-11.5048
▁Kameras	-11.505
▁blame	-11.505
▁liver	-11.5052
▁verrückte	-11.5052
▁raising	-11.5053
▁entered	-11.5054
▁Preise	-11.5055
teressanterweise	-11.5058
▁printing	-11.5059
▁Inneren	-11.5061
▁Schreiben	-11.5063
ks	-11.5066
zuhalten	-11.507
▁tuna	-11.5072
▁antibiotics	-11.5072
▁Presse	-11.5074
▁vierte	-11.5074
▁rescue	-11.5078
▁presented	-11.5083
dollar	-11.5083
▁Trend	-11.5087
iß	-11.5087
▁journalist	-11.5088
OK	-11.5091
▁mathematische	-11.5093
▁besucht	-11.5093
▁pocket	-11.5094
▁zukünftige	-11.5095
ware	-11.5098
▁immune	-11.5099
▁zurückgehen	-11.5101
▁Organe	-11.5107
▁Katze	-11.5107
▁Alternative	-11.5109
▁drehte	-11.5111
▁Schmerzen	-11.512
▁borders	-11.5122
▁indische	-11.5123
▁Kreuz	-11.5123
▁cm	-11.5124
▁broad	-11.5128
▁savings	-11.5132
▁öffnet	-11.5132
▁inspire	-11.5135
▁Geschmack	-11.5137
blick	-11.5137
alter	-11.5143
▁McDonald	-11.5149
▁beschreibt	-11.5149
▁gestartet	-11.5149
▁microscope	-11.5149
▁scenario	-11.5149
▁rising	-11.5149
▁Gleichgewicht	-11.5149
▁grave	-11.5149
▁bedeckt	-11.5149
▁engagement	-11.5152
▁kritische	-11.5152
schrei	-11.5152
▁Diabetes	-11.5154
▁Teams	-11.5154
▁Kredit	-11.5155
▁Initiative	-11.5155
dom	-11.5156
▁demographic	-11.5158
Let	-11.5158
unclear	-11.5159
▁Girl	-11.5159
▁rep	-11.516
▁usual	-11.516
▁optimistisch	-11.516
▁acts	-11.5162
▁appeared	-11.5164
konomen	-11.5167
▁ausmachen	-11.5169
▁PC	-11.517
▁heiße	-11.517
▁kleinere	-11.5171
▁aim	-11.5172
▁Achse	-11.5173
▁IBM	-11.5174
▁bend	-11.5178
▁Such	-11.5179
▁Fahrer	-11.5179
▁winzig	-11.5181
▁traveled	-11.5183
▁Videospiele	-11.5186
▁Umständen	-11.5186
▁connecting	-11.5191
▁soweit	-11.5192
ließ	-11.5194
Projekt	-11.5195
play	-11.5195
▁technische	-11.5197
▁mate	-11.5201
▁Andrew	-11.5202
tischen	-11.5205
▁expectations	-11.5205
▁änderte	-11.5206
▁hip	-11.5207
schein	-11.5207
▁planen	-11.5208
▁starken	-11.521
▁rooms	-11.521
▁aggressive	-11.521
▁sport	-11.5211
▁technischen	-11.5215
▁functional	-11.5215
ille	-11.5217
▁gewann	-11.5219
▁brechen	-11.5222
sinn	-11.5222
▁Statistik	-11.5225
▁Funktionen	-11.5227
spielen	-11.5227
mus	-11.5229
▁Schwarze	-11.523
▁Sorge	-11.5234
▁sales	-11.5237
▁Training	-11.5238
▁geh	-11.5244
▁weltweite	-11.5244
cle	-11.5249
▁vessels	-11.5254
▁Autismus	-11.5261
▁Hawaii	-11.5261
▁Monterey	-11.5261
▁berühren	-11.5261
▁emergency	-11.5261
▁external	-11.5261
▁furniture	-11.5261
▁integriert	-11.5261
▁surveillance	-11.5261
▁süß	-11.5261
▁Geographic	-11.5262
▁entertainment	-11.5262
▁gemessen	-11.5262
▁export	-11.5262
▁fascinated	-11.5263
▁bond	-11.5263
▁colony	-11.5263
▁bemerkenswerte	-11.5263
▁Stock	-11.5265
▁Atlantic	-11.5266
▁density	-11.5266
▁finanziert	-11.5266
▁attached	-11.5267
not	-11.5267
▁personality	-11.5267
▁Jean	-11.5269
lia	-11.5271
▁positiv	-11.5272
▁verschiedener	-11.5274
▁gesunden	-11.5274
▁berechnen	-11.5275
▁latest	-11.5276
ziel	-11.5276
▁writer	-11.5279
▁Ze	-11.5281
▁schlimm	-11.5281
▁laughing	-11.5283
▁höchste	-11.5285
hop	-11.5287
pfen	-11.5287
▁interessanten	-11.5297
▁Dutzend	-11.5299
▁30-	-11.5299
ui	-11.5304
lange	-11.5308
▁estimate	-11.5309
▁wieviel	-11.531
▁surely	-11.531
gestellt	-11.5312
life	-11.5312
zieht	-11.5314
▁optimistic	-11.5315
▁hi	-11.5322
▁CEO	-11.5322
▁Leid	-11.5324
▁Prozesse	-11.5328
▁circuit	-11.5329
▁benutze	-11.5333
▁könne	-11.5333
▁Ausnahme	-11.5334
▁organize	-11.5337
▁Ger	-11.5338
flu	-11.5339
▁Figur	-11.5339
▁gather	-11.5339
probleme	-11.5342
▁Stil	-11.5348
ments	-11.535
▁Age	-11.5351
▁privilege	-11.5361
▁escape	-11.5361
wasser	-11.5362
raten	-11.5364
▁thrown	-11.5364
▁anstelle	-11.5372
▁Ruhe	-11.5375
▁flash	-11.5375
▁Neuigkeiten	-11.5375
▁awesome	-11.5375
▁description	-11.5375
▁exploring	-11.5375
▁lächerlich	-11.5375
▁request	-11.5375
▁yield	-11.5375
▁concert	-11.5375
▁committed	-11.5375
▁pyramid	-11.5375
▁gezwungen	-11.5375
aktion	-11.5376
▁Betrieb	-11.5376
▁vielmehr	-11.5376
▁Pause	-11.5377
▁spill	-11.5377
▁Höhepunkt	-11.5378
▁Port	-11.5378
▁objective	-11.5378
▁Darüber	-11.5379
▁Dienst	-11.5379
▁Euch	-11.5381
▁brothers	-11.5382
▁Beton	-11.5383
▁representation	-11.5383
zelle	-11.5383
▁jenen	-11.5388
▁brief	-11.5388
ura	-11.539
▁divided	-11.5391
▁l	-11.5391
▁Lama	-11.5393
nahme	-11.5396
▁eingebaut	-11.5403
▁mutig	-11.5403
▁imagined	-11.5403
▁Stoff	-11.5404
▁Einrichtungen	-11.5405
▁axis	-11.5408
▁interacting	-11.5409
▁Investitionen	-11.5411
erte	-11.5411
▁tower	-11.5414
fähig	-11.5416
▁glücklicher	-11.5418
▁Rob	-11.5423
▁mitnehmen	-11.5425
▁gering	-11.5426
▁Komm	-11.5428
▁48	-11.5428
▁schlau	-11.543
▁practices	-11.543
▁ungewöhnlich	-11.5432
tze	-11.5433
▁reaching	-11.5435
▁allgemeine	-11.5437
▁shoulder	-11.5438
▁criminal	-11.5439
zunehmen	-11.5445
▁beliebt	-11.5445
versorgung	-11.5447
▁Wälder	-11.5448
▁Verbesserung	-11.5448
▁unsichtbar	-11.5449
▁nationale	-11.5449
▁Partei	-11.5449
▁fabric	-11.5452
▁Vo	-11.5453
▁Welten	-11.5455
▁Nations	-11.5457
▁Plattform	-11.5457
▁allgemein	-11.546
▁inspirieren	-11.5462
▁afrikanische	-11.5463
▁biologischen	-11.5464
effekt	-11.5465
▁Verkehr	-11.5466
▁cute	-11.5472
▁kreativen	-11.5473
▁lovely	-11.5474
▁tiefe	-11.5478
▁rush	-11.548
▁Stamm	-11.548
▁seed	-11.5482
spitze	-11.5483
zo	-11.5485
ification	-11.5487
▁Flüssigkeit	-11.549
▁Speicher	-11.549
▁Verteilung	-11.549
▁angepasst	-11.549
▁curiosity	-11.549
▁dazwischen	-11.549
▁diabetes	-11.549
▁gefährdet	-11.549
▁identifizieren	-11.549
▁korrekt	-11.549
▁repräsentiert	-11.549
▁öfter	-11.549
▁Next	-11.549
▁drove	-11.549
▁dioxide	-11.549
▁adjust	-11.549
▁ugly	-11.549
▁stroke	-11.549
▁Dialog	-11.549
reißen	-11.5491
▁stake	-11.5492
▁ticket	-11.5493
▁recovery	-11.5494
▁Ethiopia	-11.5494
▁LG	-11.5494
▁JF	-11.5495
ruf	-11.5497
ou	-11.55
▁fed	-11.5501
▁demonstrate	-11.5502
▁gross	-11.5504
sagen	-11.5506
▁Sensoren	-11.5506
▁ausmacht	-11.5507
▁Miss	-11.5507
▁angehen	-11.5507
▁Dia	-11.5508
▁klug	-11.5508
▁males	-11.5509
ets	-11.551
▁prices	-11.5514
▁begrenzt	-11.5515
All	-11.5517
▁tick	-11.5521
▁Men	-11.5526
strom	-11.5531
▁appears	-11.5532
▁schaue	-11.5533
üsse	-11.5535
▁gelassen	-11.5536
▁Flächen	-11.5539
▁Werbe	-11.5542
▁recognized	-11.5542
bie	-11.5547
room	-11.5548
▁130	-11.555
▁breaking	-11.5551
▁gesetzt	-11.5552
rig	-11.5552
▁dunklen	-11.5555
▁colleague	-11.5558
basierte	-11.5559
▁wise	-11.5559
▁Projekten	-11.556
▁hassen	-11.5564
▁komisch	-11.5566
▁spoken	-11.5568
olds	-11.5569
will	-11.557
▁ethical	-11.557
▁peer	-11.5571
▁winzigen	-11.5578
pre	-11.5579
▁besonderen	-11.5581
▁involves	-11.5581
hü	-11.5583
▁gründete	-11.5585
spieler	-11.5593
ify	-11.5594
▁customers	-11.5595
▁Fang	-11.5599
füll	-11.5601
▁kl	-11.5604
▁Wasserstoff	-11.5605
▁regard	-11.5606
▁Gletscher	-11.5606
▁Erfinder	-11.5606
▁Ocean	-11.5606
▁SETI	-11.5606
▁crucial	-11.5606
▁dignity	-11.5606
▁distant	-11.5606
▁gewöhnt	-11.5606
▁sandwich	-11.5606
▁scratch	-11.5606
▁stirbt	-11.5606
▁brown	-11.5606
▁productivity	-11.5607
menge	-11.5607
▁horizontal	-11.5607
▁Kapitalismus	-11.5607
▁hindurch	-11.5607
▁Vorgang	-11.5609
▁Block	-11.5609
▁opposed	-11.5609
▁Philosophie	-11.561
▁Brüder	-11.5611
▁saubere	-11.5612
Pro	-11.5615
▁virtually	-11.5617
▁slides	-11.5617
▁erwähnen	-11.5617
▁komplexer	-11.5618
▁ersetzt	-11.5624
ograph	-11.5625
tanz	-11.5626
unwahrscheinlich	-11.5627
▁gear	-11.5627
▁Nachde	-11.5632
▁units	-11.5633
▁signed	-11.5637
lagen	-11.5638
▁gebildet	-11.5638
▁Ju	-11.5641
▁Laser	-11.5641
▁Muskeln	-11.5641
▁achieved	-11.5642
▁intensive	-11.5645
▁worker	-11.5646
▁neuro	-11.5653
▁stimmen	-11.5655
▁Mess	-11.5655
Mails	-11.5656
how	-11.5657
tschaftswachstum	-11.5659
▁weißt	-11.5659
▁entscheidende	-11.5663
▁Cal	-11.5665
upp	-11.5669
▁schnelle	-11.5675
▁Metern	-11.5675
▁belong	-11.5678
▁lernten	-11.5679
chan	-11.568
▁Ehre	-11.5681
frage	-11.5681
▁politisch	-11.5681
▁Füße	-11.5682
▁stieg	-11.5682
▁concepts	-11.5683
▁Handlung	-11.5684
▁cry	-11.5691
zusetzen	-11.5692
▁halt	-11.5693
stern	-11.5694
▁comment	-11.5697
▁tasks	-11.5699
▁Privat	-11.5701
▁löst	-11.5703
▁saßen	-11.5705
▁corn	-11.5707
nis	-11.5709
▁Rezept	-11.5709
▁magnet	-11.5713
bus	-11.5713
▁Großen	-11.5714
▁tech	-11.5715
▁qu	-11.5717
code	-11.5717
▁anonym	-11.5724
▁April	-11.5724
▁Knopf	-11.5724
▁Parkinson	-11.5724
▁Tragödie	-11.5724
▁embedded	-11.5724
▁orchestra	-11.5724
▁routine	-11.5724
▁umgekehrt	-11.5724
▁Verlangen	-11.5724
▁schief	-11.5724
▁Narrator	-11.5724
▁angemessen	-11.5724
▁Ausrüstung	-11.5724
▁sheep	-11.5724
▁Nahrungsmittel	-11.5724
▁Hong	-11.5725
▁Übergang	-11.5725
▁Dadurch	-11.5725
▁Umgang	-11.5726
▁ignorieren	-11.5726
▁Vorschlag	-11.5727
▁Wut	-11.5729
▁mold	-11.573
▁tired	-11.573
▁wenden	-11.5731
▁50,000	-11.5732
cut	-11.5732
▁treiben	-11.5735
▁20,000	-11.5737
▁Pferd	-11.5738
▁disappeared	-11.5739
▁resolution	-11.5741
▁übersetzt	-11.5741
boot	-11.5741
▁Komponenten	-11.5743
▁reported	-11.5745
▁wing	-11.5745
▁Pinguine	-11.5745
tage	-11.5747
▁psychische	-11.575
▁replicate	-11.5752
ita	-11.5753
sitz	-11.5754
wort	-11.5754
▁Reisen	-11.5757
▁cheaper	-11.5759
▁Beide	-11.5759
fan	-11.5761
formen	-11.5763
Hi	-11.5765
▁muscles	-11.5767
power	-11.5767
▁Universitäten	-11.577
▁72	-11.5772
verkehr	-11.5772
▁meter	-11.5778
▁Gel	-11.5779
▁jenem	-11.5779
▁rebuild	-11.5779
steht	-11.5786
▁Nahe	-11.5789
▁20-	-11.5792
▁schwerer	-11.5792
▁telescope	-11.5796
▁LED	-11.5796
▁Vergnügen	-11.5796
▁alien	-11.58
▁Ursache	-11.5801
▁NGOs	-11.5803
▁Katastrophe	-11.5805
▁Klinik	-11.5809
räume	-11.5815
iness	-11.5817
▁Unternehmens	-11.5819
made	-11.5822
▁aspects	-11.5822
▁neuron	-11.5827
▁historische	-11.5832
änge	-11.5832
itis	-11.5833
▁stretch	-11.5834
▁Probe	-11.5836
▁incentives	-11.5837
▁vertical	-11.5838
▁initial	-11.5838
▁load	-11.5839
▁Schlacht	-11.584
▁teams	-11.584
schluss	-11.5841
▁Cyber	-11.5843
▁Bewohner	-11.5843
▁Hölle	-11.5843
▁Tränen	-11.5843
▁Täuschung	-11.5843
▁frozen	-11.5843
▁geeignet	-11.5843
▁heiraten	-11.5843
▁insgesamt	-11.5843
▁insurance	-11.5843
▁ridiculous	-11.5843
▁sensation	-11.5843
▁skeleton	-11.5843
▁suicide	-11.5843
▁ladies	-11.5843
▁adventure	-11.5843
▁Reichtum	-11.5843
▁Gegenstände	-11.5843
▁blend	-11.5843
▁Einfachheit	-11.5843
▁lake	-11.5845
▁Kilo	-11.5847
▁Children	-11.5848
▁geschlossen	-11.5853
▁heroes	-11.5854
kurs	-11.5856
▁accepted	-11.5859
▁anscheinend	-11.5861
cop	-11.5861
aving	-11.5862
▁sexy	-11.5864
▁paintings	-11.5865
▁removed	-11.5865
▁Gesichts	-11.5871
▁realm	-11.5873
▁Prototypen	-11.5875
werfen	-11.5878
▁Systemen	-11.5881
▁Proben	-11.5887
▁generated	-11.5888
▁illustrate	-11.589
▁backwards	-11.589
▁weh	-11.5893
hol	-11.5897
century	-11.5897
▁melt	-11.5899
wachsen	-11.5899
▁gelbe	-11.59
eign	-11.5909
▁Kommen	-11.5912
▁Besuch	-11.5914
▁Farm	-11.5916
cellular	-11.5918
▁Bad	-11.5921
▁Küche	-11.5921
leistung	-11.5921
▁Intel	-11.5921
▁Schwestern	-11.5925
▁iron	-11.5925
▁Medikamenten	-11.5926
▁grows	-11.5929
▁officer	-11.5929
▁Seil	-11.5935
ria	-11.5937
▁unternehmen	-11.5937
wende	-11.5942
▁moralischen	-11.5942
▁Nordamerika	-11.5951
richtung	-11.5951
put	-11.5954
▁ah	-11.5955
▁Kit	-11.5956
▁analog	-11.5959
▁rough	-11.5959
rot	-11.596
szeit	-11.596
körper	-11.5963
▁Außen	-11.5963
▁Abenteuer	-11.5963
▁Hügel	-11.5963
▁Schädel	-11.5963
▁Transparenz	-11.5963
▁legacy	-11.5963
▁rainforest	-11.5963
▁Sätze	-11.5963
▁zwingen	-11.5963
▁poison	-11.5964
▁Jedenfalls	-11.5964
▁fliegt	-11.5964
▁mittlerweile	-11.5964
▁Logik	-11.5964
▁strategies	-11.5964
▁Indeed	-11.5964
▁football	-11.5964
▁Organismus	-11.5964
▁demonstration	-11.5965
schläge	-11.5965
▁hilfreich	-11.5965
▁restore	-11.5965
▁Staub	-11.5965
▁northern	-11.5966
▁Effizienz	-11.5966
▁dedicated	-11.5966
▁lamp	-11.5966
▁Charlie	-11.5967
bon	-11.5968
▁molekulare	-11.5969
▁darkness	-11.597
▁RM	-11.597
getreten	-11.5971
▁kg	-11.5971
▁womit	-11.5972
▁JA	-11.5973
▁Ti	-11.5975
▁Pop	-11.5978
▁eingehen	-11.5978
zulegen	-11.5979
mmel	-11.5982
▁captured	-11.5991
▁mächtige	-11.5993
▁EM	-11.5998
gründe	-11.5999
▁volunteers	-11.6001
ären	-11.6004
▁kn	-11.6005
▁Katzen	-11.6009
▁komplette	-11.6013
fahrt	-11.6015
▁umso	-11.6019
▁populations	-11.6019
▁kümmert	-11.6024
▁tour	-11.6026
hang	-11.6029
▁Strategien	-11.6031
▁bekannte	-11.6032
pper	-11.6033
▁Resultate	-11.604
generation	-11.6042
▁weapon	-11.6043
▁Übung	-11.6043
▁Gi	-11.6045
ologische	-11.6047
▁Wachstums	-11.605
bereit	-11.6054
▁Ballon	-11.6056
▁schickte	-11.6058
iest	-11.6058
▁interpret	-11.6061
bilder	-11.6065
▁Fischer	-11.6067
▁Präsidenten	-11.6068
▁Hinweise	-11.607
▁calculate	-11.6071
▁linke	-11.6073
sätze	-11.6077
▁Juni	-11.608
▁lens	-11.6081
▁Spe	-11.6082
▁label	-11.6083
▁Teleskop	-11.6084
▁Bedürfnis	-11.6084
▁icon	-11.6085
zier	-11.6085
▁Hilfs	-11.6085
▁Wechsel	-11.6085
▁Alkohol	-11.6085
▁Anpassung	-11.6085
▁Berkeley	-11.6085
▁Lächeln	-11.6085
▁advertising	-11.6085
▁analysieren	-11.6085
▁charity	-11.6085
▁reparieren	-11.6085
▁universities	-11.6085
▁hungry	-11.6085
▁Soviet	-11.6085
▁neuroscience	-11.6085
▁getestet	-11.6085
▁Social	-11.6086
▁governance	-11.6086
▁Geruch	-11.6086
▁partnership	-11.6086
▁1930	-11.6086
▁Virginia	-11.6086
din	-11.6086
▁theories	-11.6086
▁verbraucht	-11.6086
▁march	-11.6086
▁Harry	-11.6086
▁leak	-11.6086
▁accessible	-11.6086
▁Aufstieg	-11.6087
▁nebenbei	-11.6087
▁laughter	-11.6087
▁Datenbank	-11.6088
▁Scham	-11.6088
▁equality	-11.6088
▁gewaltige	-11.6089
▁conservative	-11.6089
▁Bible	-11.609
▁exposed	-11.6091
▁Sammlung	-11.6091
▁wirksam	-11.6091
▁sharp	-11.6092
▁Oberflächen	-11.6093
▁Line	-11.6093
▁stammen	-11.6094
▁Fan	-11.6097
▁Ideal	-11.6097
▁dolphins	-11.6098
▁autonomous	-11.6099
▁crying	-11.6099
steigen	-11.6099
▁missed	-11.6104
▁38	-11.6104
▁abgesehen	-11.6106
▁rap	-11.6111
unk	-11.6113
▁ökonomische	-11.6114
▁collecting	-11.6115
▁quit	-11.6117
▁Lake	-11.612
▁Mitglied	-11.6121
▁Taschen	-11.6127
trieb	-11.613
▁cap	-11.6132
▁mail	-11.6133
▁aside	-11.6133
▁chosen	-11.6141
▁theme	-11.6141
Technologie	-11.6143
▁Personal	-11.6144
hor	-11.6145
groß	-11.6146
▁Ohr	-11.6147
▁globally	-11.6147
▁advance	-11.6149
are	-11.6154
ax	-11.6157
oni	-11.6162
▁radikal	-11.6162
fläche	-11.6166
▁deck	-11.6174
Ab	-11.6175
▁stands	-11.6179
srate	-11.6186
▁neighborhoods	-11.6186
▁implant	-11.6194
▁arrive	-11.6195
▁stepp	-11.6196
▁ruin	-11.62
▁Pole	-11.6205
▁historical	-11.6206
▁east	-11.6207
▁coat	-11.6208
geschäft	-11.6208
kräfte	-11.6208
▁Bedarf	-11.6209
▁Käfer	-11.6209
▁Oxytocin	-11.6209
▁Verteidigung	-11.6209
▁geöffnet	-11.6209
▁mechanics	-11.6209
▁musikalische	-11.6209
▁probability	-11.6209
▁reputation	-11.6209
▁senior	-11.6209
▁skull	-11.6209
▁smooth	-11.6209
▁inzwischen	-11.6209
▁viral	-11.6209
▁domain	-11.6209
▁Konsumenten	-11.6209
▁feiern	-11.6209
▁Disney	-11.6209
▁sta	-11.6209
▁Globalisierung	-11.6209
▁Zero	-11.621
▁Richter	-11.621
▁Trans	-11.621
▁Louis	-11.6211
▁essence	-11.6212
▁Standpunkt	-11.6213
▁Terror	-11.6213
▁Santa	-11.6214
▁Biologen	-11.6216
▁simulation	-11.6218
▁oldest	-11.6219
▁dig	-11.6219
▁bedeutende	-11.6219
▁höchst	-11.622
▁Service	-11.6222
inblick	-11.6224
▁amongst	-11.6225
tete	-11.6225
place	-11.6227
There	-11.6228
▁actors	-11.6235
esten	-11.6235
▁Pass	-11.6236
▁einzigartig	-11.6237
▁Durchschnitts	-11.6237
▁professionelle	-11.6238
▁conflicts	-11.6238
▁staatliche	-11.624
▁touched	-11.6241
unt	-11.6243
roll	-11.6244
▁searching	-11.6259
ica	-11.6259
▁Fahrzeuge	-11.6261
AIDS	-11.6268
wood	-11.6268
rechte	-11.6277
▁unterrichtet	-11.6278
illa	-11.6279
▁44	-11.6291
▁Mäuse	-11.6292
▁iPod	-11.6292
▁Umstände	-11.6293
▁verließ	-11.6294
▁volunteer	-11.6295
▁stations	-11.6297
räumen	-11.63
▁pot	-11.6306
▁Geo	-11.6308
produkt	-11.6309
▁Han	-11.632
▁ältere	-11.6321
▁sozialer	-11.6322
▁flog	-11.6327
▁riesiges	-11.633
▁Beschreibung	-11.6334
▁Jewish	-11.6334
▁Mozart	-11.6334
▁Mumbai	-11.6334
▁Vermögen	-11.6334
▁decrease	-11.6334
▁elsewhere	-11.6334
▁facial	-11.6334
▁herself	-11.6334
▁simplicity	-11.6334
▁borrow	-11.6334
▁identisch	-11.6334
▁jeweils	-11.6334
▁nachdenkt	-11.6334
▁boundaries	-11.6334
▁Seattle	-11.6334
▁freak	-11.6334
▁Übrigens	-11.6334
▁Daniel	-11.6334
▁minus	-11.6334
▁Bürgerkrieg	-11.6334
▁festgestellt	-11.6335
▁Spring	-11.6335
schütte	-11.6335
▁apparently	-11.6336
▁magische	-11.6336
▁debt	-11.6336
▁Rollen	-11.6337
▁Jerusalem	-11.6337
▁beeindruckend	-11.6338
▁hingehen	-11.6339
▁Links	-11.634
▁Fliege	-11.6341
tsch	-11.6341
▁vorgestellt	-11.6342
▁Arthur	-11.6342
▁Bauch	-11.6342
▁beitragen	-11.6342
▁hire	-11.6343
▁locked	-11.6345
▁Hill	-11.6348
tat	-11.6349
Can	-11.6353
▁golden	-11.6353
▁Really	-11.6355
▁empfinden	-11.6358
ties	-11.6359
▁typische	-11.6359
▁unendlich	-11.636
▁Flugzeuge	-11.6364
▁setzten	-11.6366
▁irgendein	-11.6368
▁Lungen	-11.637
▁Toiletten	-11.6374
▁SP	-11.6374
firma	-11.638
▁Africans	-11.6382
▁nahezu	-11.6382
▁richten	-11.6387
isierten	-11.6389
haben	-11.6393
▁Gedichte	-11.6404
▁Konzepte	-11.641
take	-11.6413
atom	-11.6414
▁reicher	-11.6415
▁ingredients	-11.6416
▁Wände	-11.6419
▁verlor	-11.6419
▁Tasche	-11.6419
mitten	-11.642
woher	-11.6421
gan	-11.6421
▁bow	-11.6425
▁Pflanze	-11.6427
▁Patent	-11.6429
▁Tour	-11.6437
Und	-11.6439
▁Handeln	-11.6439
rus	-11.6439
▁bias	-11.6444
▁electronics	-11.6446
▁Papa	-11.6446
▁Werke	-11.6451
hoo	-11.6453
▁Mannes	-11.6455
▁Autor	-11.6455
▁inklusive	-11.646
▁intuition	-11.646
▁pregnant	-11.646
▁letztlich	-11.646
▁leap	-11.646
▁Anzeige	-11.646
▁Simulation	-11.646
▁Bürgermeister	-11.6461
▁tragedy	-11.6461
▁Joseph	-11.6461
▁glad	-11.6461
▁aircraft	-11.6461
▁underground	-11.6461
▁profile	-11.6461
▁Prize	-11.6461
▁passenger	-11.6461
▁Zurück	-11.6461
▁spell	-11.6461
▁Onkel	-11.6461
▁queen	-11.6461
▁tunnel	-11.6461
▁geraten	-11.6462
▁isoliert	-11.6462
▁drum	-11.6462
▁ill	-11.6462
bruch	-11.6462
▁ju	-11.6463
▁symmetry	-11.6466
▁Löwen	-11.6466
▁Geschlecht	-11.6468
▁Ross	-11.6469
▁Watt	-11.6469
▁antworten	-11.647
▁killer	-11.6471
▁fließt	-11.6472
▁fifth	-11.6476
oid	-11.6476
▁tears	-11.6477
▁rating	-11.6479
gesetzt	-11.6481
▁Weltall	-11.6482
▁wunderschön	-11.6483
▁Haushalt	-11.6485
▁RS	-11.6488
▁pause	-11.6489
▁enormen	-11.649
▁gerecht	-11.6492
▁Love	-11.6493
▁freundlich	-11.6493
▁..."	-11.65
▁formal	-11.6501
▁meetings	-11.6502
▁dish	-11.6505
▁Handlungen	-11.6506
▁Wohl	-11.6506
▁Darauf	-11.6509
▁Schöne	-11.6514
▁walks	-11.6517
▁nurse	-11.6523
▁dust	-11.6524
▁Tal	-11.6525
fahrer	-11.6529
hafte	-11.653
▁frühe	-11.6541
▁Anwendungen	-11.6541
▁seeds	-11.6543
▁pe	-11.6544
▁official	-11.6546
Wissen	-11.6546
▁mochte	-11.6547
ark	-11.6548
▁knee	-11.6551
dor	-11.6557
▁unglücklich	-11.6568
▁Friedens	-11.6568
▁zurecht	-11.6569
heben	-11.6572
▁Gebieten	-11.6572
▁heben	-11.6574
▁bother	-11.6575
▁Daumen	-11.6588
▁Enkel	-11.6589
▁Atlanta	-11.6589
▁Möbel	-11.6589
▁Tempo	-11.6589
▁shrimp	-11.6589
▁translation	-11.6589
▁transparency	-11.6589
▁trocken	-11.6589
▁ungeheuer	-11.6589
▁vagina	-11.6589
▁anbieten	-11.6589
▁vermittelt	-11.6589
▁Front	-11.6589
▁Blickwinkel	-11.6589
▁beschleunigt	-11.6589
▁Sprung	-11.6589
▁Mount	-11.6589
▁bump	-11.6589
▁stets	-11.6589
▁Länge	-11.6589
▁Zahn	-11.659
▁ausreichend	-11.659
▁Antrieb	-11.659
▁Kreise	-11.659
▁benutzten	-11.659
▁airport	-11.659
▁pursue	-11.6591
▁Gestaltung	-11.6591
▁verteilen	-11.6591
▁verarbeiten	-11.6592
▁prop	-11.6592
▁Lebensraum	-11.6592
▁mentor	-11.6592
▁neck	-11.6593
▁Six	-11.6593
▁dirty	-11.6594
pack	-11.6595
▁achievement	-11.6596
▁Eastern	-11.6596
▁Explosion	-11.6597
▁Schon	-11.6597
▁Maßnahmen	-11.6598
▁Dinger	-11.66
▁explosion	-11.6601
▁wound	-11.6601
▁bi	-11.6603
▁tricks	-11.6604
▁Halt	-11.6605
graphie	-11.6608
▁individuelle	-11.661
jähriger	-11.6612
▁visited	-11.6613
▁Ted	-11.6613
▁reefs	-11.6615
▁früheren	-11.6616
▁formula	-11.6618
▁efforts	-11.6619
▁geworfen	-11.662
▁Planung	-11.6621
▁Ratten	-11.6622
▁AM	-11.6623
oma	-11.6628
prozess	-11.663
▁Fremden	-11.663
iff	-11.6633
schau	-11.6643
▁gek	-11.6643
▁tauchen	-11.6648
▁afterwards	-11.6651
▁schöner	-11.6651
▁scar	-11.6654
book	-11.6654
Bahn	-11.6654
▁Würden	-11.6656
▁zuhören	-11.6656
▁erhielten	-11.6658
▁nachhaltig	-11.6658
▁Felder	-11.6661
▁Systems	-11.6663
▁proportion	-11.6665
▁contains	-11.6665
ave	-11.6665
▁Besitz	-11.6665
▁speaker	-11.6669
station	-11.6669
▁Abed	-11.6676
▁Symmetrie	-11.6676
▁durfte	-11.6676
▁Animation	-11.6676
▁Waffe	-11.6677
▁god	-11.6677
etic	-11.6679
▁Therapie	-11.6682
▁Carl	-11.6682
▁continues	-11.6685
▁fiber	-11.6686
▁Chip	-11.6691
▁Dichter	-11.6691
▁Laut	-11.6695
▁Techniken	-11.6703
▁ka	-11.6705
▁recover	-11.6705
▁steal	-11.6705
▁experimental	-11.6707
▁niedrig	-11.6707
▁wanting	-11.6708
▁Stille	-11.6708
And	-11.6713
▁capita	-11.6715
lösung	-11.6716
▁dimension	-11.6716
temperatur	-11.6718
▁Entstehung	-11.6718
▁vorwärts	-11.6718
▁Dynamik	-11.6718
▁Intuition	-11.6718
▁beschränkt	-11.6718
▁diskutieren	-11.6718
▁erfordert	-11.6718
▁sorgfältig	-11.6718
▁substance	-11.6718
▁verstecken	-11.6718
▁Passwörter	-11.6719
▁gelehrt	-11.6719
▁befassen	-11.6719
▁trends	-11.6719
▁Kooperation	-11.6719
▁Gerade	-11.6719
▁Rückenmark	-11.6719
▁erfasst	-11.6719
▁slice	-11.6719
▁Indus	-11.6719
▁Italy	-11.6719
▁wette	-11.672
▁Schokolade	-11.672
▁Coca	-11.672
▁farmer	-11.672
post	-11.672
▁Jeff	-11.6721
jahr	-11.6722
▁anfängt	-11.6722
▁legte	-11.6723
▁geistige	-11.6723
▁Ausland	-11.6723
▁Rover	-11.6723
▁stable	-11.6724
▁granted	-11.6724
▁Auftrag	-11.6724
▁initiative	-11.6725
▁Camp	-11.6726
▁poly	-11.6726
▁technologische	-11.6727
▁produces	-11.6727
▁Force	-11.6728
▁Fort	-11.6734
▁upset	-11.6736
▁Original	-11.6738
▁Lichter	-11.6738
▁Hinweis	-11.6739
▁symbols	-11.6744
▁Lesen	-11.6746
▁Kal	-11.675
▁übersetzen	-11.675
▁quer	-11.6752
sländer	-11.6755
▁vieler	-11.6755
▁Play	-11.6755
pping	-11.6756
▁magical	-11.6761
NG	-11.6762
▁dringend	-11.6762
▁Inhalte	-11.6766
zahlen	-11.6767
▁Part	-11.6767
▁gefahren	-11.6767
▁kit	-11.6773
▁Muslime	-11.6777
▁Schl	-11.678
▁wartet	-11.678
▁Büchern	-11.6783
pur	-11.6783
▁Ober	-11.6784
▁Hut	-11.6787
▁hearts	-11.6787
▁15-	-11.6791
ola	-11.6792
uell	-11.6799
▁Lehr	-11.68
▁pointed	-11.68
sgeschichte	-11.6808
▁Toilette	-11.6808
▁terror	-11.6808
▁Investition	-11.6808
quot	-11.6809
▁schreibe	-11.6812
▁echtes	-11.6813
▁observation	-11.6816
▁Etwa	-11.6817
▁nerve	-11.6822
▁behaupte	-11.6823
▁Ber	-11.6827
▁aufrecht	-11.6827
▁wirtschaftlich	-11.6832
gebiete	-11.6835
▁passwords	-11.6837
▁nano	-11.6837
sie	-11.6838
▁lasse	-11.6839
▁dial	-11.6839
▁mechanisms	-11.684
▁Guten	-11.685
▁Skelett	-11.685
▁Treppe	-11.685
▁irrational	-11.685
▁Department	-11.685
▁FDA	-11.685
▁Großvater	-11.685
▁Ruanda	-11.685
▁Sarah	-11.685
▁ausschließlich	-11.685
▁definitiv	-11.685
▁depressed	-11.685
▁freiwillig	-11.685
▁origami	-11.685
▁smoking	-11.685
▁spectacular	-11.685
▁twist	-11.685
▁verdoppelt	-11.685
▁verzweifelt	-11.685
▁japanische	-11.685
▁comparison	-11.685
▁federal	-11.685
▁crops	-11.685
▁plain	-11.685
▁capability	-11.685
▁synthetic	-11.685
▁Ehemann	-11.685
▁füllen	-11.685
▁array	-11.685
▁fortune	-11.6851
▁Wright	-11.6851
hether	-11.6851
▁Doppel	-11.6851
▁Egal	-11.6851
▁Fischerei	-11.6851
▁Kong	-11.6852
feuer	-11.6852
▁isolated	-11.6853
▁affordable	-11.6853
▁beträgt	-11.6854
▁announced	-11.6855
▁hook	-11.6856
▁ensure	-11.6858
▁südlich	-11.6859
zuziehen	-11.6859
▁surrounding	-11.686
▁dear	-11.6861
Energieverbrauch	-11.6861
▁komplizierter	-11.6862
▁output	-11.6862
▁Ken	-11.6867
▁volle	-11.6867
▁pace	-11.6868
holen	-11.6868
▁proper	-11.6868
▁delivered	-11.6873
▁ausgegeben	-11.6875
▁suggesting	-11.6877
cat	-11.6878
▁wahren	-11.6878
▁Gal	-11.6879
▁Nest	-11.6879
▁terrorists	-11.6879
▁leverage	-11.6879
itz	-11.6882
▁rent	-11.6882
▁Berechnungen	-11.6884
▁import	-11.6885
▁Ebenen	-11.6886
organisationen	-11.6888
▁passing	-11.6893
ological	-11.6893
▁Katastrophen	-11.6897
▁methods	-11.6901
▁effizient	-11.6903
half	-11.6904
100	-11.6904
▁pulling	-11.6907
▁Sahara	-11.691
ationen	-11.6911
▁Gar	-11.6914
▁Dichte	-11.6915
▁printer	-11.6915
▁communications	-11.6917
free	-11.6917
Where	-11.6917
▁Philip	-11.6919
▁boss	-11.6919
wirtschaftlichen	-11.6925
▁selbe	-11.6931
▁Ansichten	-11.6932
▁Hol	-11.6936
▁beliefs	-11.6939
▁Nature	-11.6939
▁graphic	-11.694
▁virtuelle	-11.6943
▁layers	-11.6943
gram	-11.6944
wing	-11.6944
▁Sag	-11.6947
▁danken	-11.6949
Who	-11.6949
kreis	-11.695
▁intervention	-11.6951
▁variation	-11.6951
▁Mist	-11.6957
▁Inseln	-11.6958
▁litt	-11.6958
▁Versuchen	-11.6961
▁wage	-11.6965
▁lighting	-11.6966
▁Hin	-11.6967
▁relations	-11.6968
▁tu	-11.6971
▁Pol	-11.6972
▁chimpanzees	-11.6972
▁murder	-11.6974
▁compete	-11.6983
▁Baseball	-11.6983
▁Columbia	-11.6983
▁agricultural	-11.6983
▁category	-11.6983
▁chief	-11.6983
▁district	-11.6983
▁happier	-11.6983
▁verringern	-11.6983
▁verschwindet	-11.6983
▁breakthrough	-11.6983
▁geplant	-11.6983
▁mild	-11.6984
▁auszudrücken	-11.6984
▁subtle	-11.6984
▁Frühling	-11.6984
▁berichtet	-11.6984
▁neat	-11.6984
▁uncomfortable	-11.6984
▁Extra	-11.6985
▁keyboard	-11.6985
▁spark	-11.6985
▁toys	-11.6985
▁kochen	-11.6985
stätte	-11.6986
▁mask	-11.6986
▁laid	-11.6986
▁musicians	-11.6987
▁coach	-11.6988
▁schlimmsten	-11.6988
▁Studium	-11.6988
▁Brand	-11.6988
▁Einblick	-11.6989
▁ausdrücken	-11.6991
▁integrated	-11.6991
▁Marine	-11.6993
▁strangers	-11.6994
right	-11.6995
▁Hindernisse	-11.6998
gon	-11.7
issen	-11.7002
▁sheet	-11.7005
▁Angesicht	-11.7007
phy	-11.7009
▁Ausgaben	-11.701
▁participants	-11.7012
▁Wurzeln	-11.7012
deck	-11.7018
▁herab	-11.7023
▁inspiring	-11.7025
achtet	-11.7026
▁Höhlen	-11.7027
position	-11.7031
ante	-11.7033
▁dick	-11.7035
aries	-11.7039
geld	-11.7041
sucht	-11.7052
aktiv	-11.7055
▁Erkenntnisse	-11.7057
▁richer	-11.7057
▁aktuellen	-11.7064
▁kulturellen	-11.7068
▁stabil	-11.707
▁physischen	-11.7073
▁Tun	-11.7074
wunder	-11.7075
▁sacrifice	-11.7076
▁gest	-11.7076
▁Option	-11.7077
▁soap	-11.7079
▁zusammenarbeite	-11.708
own	-11.7081
hielt	-11.7085
▁privaten	-11.7087
▁revenue	-11.7088
▁glo	-11.7088
▁seats	-11.7088
ehrt	-11.7088
▁physicist	-11.7088
▁consequence	-11.7089
nseits	-11.7089
▁fa	-11.7089
▁improvement	-11.709
▁ausgehen	-11.7092
uk	-11.7092
produktion	-11.7093
▁balls	-11.7094
▁fehlende	-11.7096
Spiel	-11.7099
ika	-11.71
▁analyze	-11.7105
▁virtue	-11.7117
▁prior	-11.7117
▁Alaska	-11.7119
▁Buddha	-11.7119
▁Third	-11.7119
▁absurd	-11.7119
▁circa	-11.7119
▁erledigen	-11.7119
▁fraction	-11.7119
▁helicopter	-11.7119
▁pandemic	-11.7119
▁spontan	-11.7119
▁vacuum	-11.7119
▁instinct	-11.7119
▁Everest	-11.7119
▁Treibstoff	-11.7119
▁Kuchen	-11.7119
▁Lärm	-11.712
uanten	-11.712
▁Überall	-11.712
▁Erziehung	-11.7121
▁portion	-11.7121
▁Strahlung	-11.7123
▁extinction	-11.7123
▁Digital	-11.7123
▁Mechanismus	-11.7124
▁trivial	-11.7126
zentrum	-11.7126
▁Winkel	-11.7128
▁terrorist	-11.7131
▁wings	-11.7132
▁parties	-11.7133
▁reactor	-11.7134
▁photography	-11.7135
▁Jane	-11.7136
▁dependent	-11.7137
▁umzusetzen	-11.7137
losigkeit	-11.7139
energie	-11.7146
▁craft	-11.7147
▁Farb	-11.7148
▁Archiv	-11.7149
fliegen	-11.7153
▁Journalisten	-11.7156
▁separated	-11.7159
▁lasst	-11.7159
▁beides	-11.7159
▁via	-11.716
▁drawn	-11.7161
fische	-11.7162
▁reduced	-11.7164
▁scales	-11.7165
▁speakers	-11.7169
reiche	-11.7169
▁heim	-11.7174
▁Best	-11.7174
▁protecting	-11.7179
▁psycho	-11.718
ez	-11.7182
▁underly	-11.7186
our	-11.7188
bekommen	-11.7189
minute	-11.719
▁Seh	-11.7191
▁Hören	-11.7191
DP	-11.7191
uten	-11.7195
▁characteristics	-11.7196
▁immense	-11.7204
uad	-11.7209
mbo	-11.7209
bü	-11.7211
sicher	-11.7212
read	-11.7214
liste	-11.7216
▁produktiv	-11.7217
▁Hals	-11.722
▁Poster	-11.7222
▁Gleichung	-11.7226
Aus	-11.7226
get	-11.7227
▁reef	-11.7228
eil	-11.7228
▁biologists	-11.7228
lot	-11.7231
▁elections	-11.7232
▁actor	-11.7235
▁Designs	-11.7235
programme	-11.7239
krise	-11.724
nor	-11.7242
▁predictions	-11.7245
▁employ	-11.7245
▁angel	-11.7247
▁Unterwasser	-11.7248
▁branch	-11.7249
schiff	-11.725
▁benutzte	-11.7252
medizin	-11.7255
▁Canyon	-11.7256
▁Engagement	-11.7256
▁Jupiter	-11.7256
▁Kennedy	-11.7256
▁Urknall	-11.7256
▁Wohlbefinden	-11.7256
▁Zufriedenheit	-11.7256
▁aesthetic	-11.7256
▁agencies	-11.7256
▁bedeutsam	-11.7256
▁dictionary	-11.7256
▁Beitrag	-11.7256
▁Mittlere	-11.7256
▁ignorance	-11.7256
▁Edward	-11.7256
▁Palm	-11.7256
▁twin	-11.7256
▁kühl	-11.7256
▁Pfeil	-11.7256
▁'60	-11.7256
▁assignment	-11.7256
▁Griff	-11.7257
▁unterhalb	-11.7257
▁Lord	-11.7257
▁urge	-11.7257
▁Mother	-11.7257
▁älteren	-11.7258
▁southern	-11.7258
▁günstig	-11.7259
▁highway	-11.726
▁tackle	-11.7261
schuss	-11.7261
▁briefly	-11.7261
▁sauce	-11.7262
▁unterhalten	-11.7262
▁unlikely	-11.7262
▁Zehn	-11.7263
▁anxiety	-11.7263
▁identified	-11.7263
arian	-11.7264
▁gefährliche	-11.7265
▁Talent	-11.7271
▁painted	-11.7278
▁Elektronen	-11.7279
▁determined	-11.7279
▁Werden	-11.7282
▁returned	-11.7284
▁AG	-11.7286
brachte	-11.7289
▁Sollte	-11.7293
▁Raketen	-11.7296
▁offenbar	-11.7298
▁spa	-11.7301
wor	-11.7303
▁profession	-11.7303
▁Reis	-11.7307
▁publish	-11.7309
▁positiven	-11.7311
▁inventor	-11.7311
▁Hass	-11.7311
▁zukünftigen	-11.7319
▁bra	-11.7321
▁Flo	-11.7322
▁accidents	-11.7324
▁News	-11.7325
nny	-11.7327
Schau	-11.7329
human	-11.7331
▁Kauf	-11.7333
Test	-11.7335
▁picking	-11.7337
▁dozens	-11.7338
▁lungs	-11.734
▁sensor	-11.7341
LT	-11.7341
▁nets	-11.7346
▁Muskel	-11.7352
▁Blase	-11.7353
▁Auswirkung	-11.7353
▁Nadel	-11.7353
▁46	-11.7353
▁inform	-11.7354
▁Neue	-11.7354
▁einsam	-11.7355
▁Wohnung	-11.7356
▁allgemeinen	-11.7356
▁Gefahren	-11.7358
80	-11.7362
▁circles	-11.7366
▁Institution	-11.7367
▁schrieben	-11.7368
▁Flasche	-11.7369
▁citizen	-11.7369
▁deserve	-11.737
matic	-11.7371
▁gelb	-11.7377
park	-11.7378
Ah	-11.738
▁sail	-11.7381
▁flood	-11.7381
▁Lieder	-11.7384
▁uncle	-11.7384
▁witness	-11.7385
▁teenagers	-11.7386
ups	-11.7386
▁beobachtete	-11.7386
▁Benzin	-11.7388
▁perceive	-11.7391
▁Gestalt	-11.7392
▁erinnerte	-11.7394
▁includes	-11.7394
▁opera	-11.7394
blätter	-11.7394
▁1994	-11.7394
▁Abhängigkeit	-11.7394
▁Alpha	-11.7394
▁Kohlendioxid	-11.7394
▁Konzentration	-11.7394
▁Obviously	-11.7394
▁Oktober	-11.7394
▁Praxis	-11.7394
▁Privileg	-11.7394
▁Substanz	-11.7394
▁Sylvia	-11.7394
▁cliff	-11.7394
▁diskutiert	-11.7394
▁fabulous	-11.7394
▁gegessen	-11.7394
▁oxytocin	-11.7394
▁verurteilt	-11.7394
▁wheelchair	-11.7394
gewebe	-11.7394
▁convey	-11.7394
▁impression	-11.7394
▁verlangen	-11.7394
▁smallpox	-11.7394
▁Eigentum	-11.7394
▁bathroom	-11.7394
▁1995	-11.7395
▁Mikroskop	-11.7395
▁Montana	-11.7395
▁Branche	-11.7395
▁Luther	-11.7395
▁vorhersagen	-11.7395
▁Gegenstand	-11.7395
▁Sierra	-11.7395
▁leise	-11.7395
▁attractive	-11.7395
▁islamische	-11.7395
▁kiss	-11.7395
▁Dennoch	-11.7396
▁winner	-11.7397
▁editor	-11.7398
▁globalization	-11.7398
▁Kapazität	-11.7399
▁Riff	-11.7399
▁innovations	-11.7399
▁niedriger	-11.7401
▁Entschuldigung	-11.7401
▁jüngste	-11.7402
▁Rechner	-11.7402
▁Management	-11.7402
▁constructed	-11.7403
▁herstellt	-11.7403
▁bewahren	-11.7404
▁edges	-11.7404
▁Dick	-11.7404
▁tied	-11.7406
▁tension	-11.7406
▁klingen	-11.7406
▁zurückkommen	-11.7407
rank	-11.7408
▁Leser	-11.7409
▁tribes	-11.7411
▁originally	-11.7412
▁Nervenzellen	-11.7414
▁einzigartige	-11.7414
▁unver	-11.7415
▁Data	-11.7415
▁institutional	-11.7416
▁reminded	-11.7418
▁hanging	-11.742
▁wünschen	-11.7422
geist	-11.7424
▁Kriege	-11.7426
lesen	-11.7427
▁leer	-11.7429
▁crossing	-11.7432
arch	-11.7433
▁Mich	-11.7434
▁Felsen	-11.7435
▁Lehrern	-11.7435
▁einzusetzen	-11.7437
▁Pla	-11.7438
umme	-11.7442
▁43	-11.7446
▁Fernseher	-11.745
▁coole	-11.7455
▁AK	-11.7456
40	-11.7457
▁anzugehen	-11.7457
kontrolle	-11.7461
▁körperliche	-11.7468
leuchten	-11.7468
▁dynamics	-11.747
▁pit	-11.7472
▁Trends	-11.7472
cha	-11.7475
▁bath	-11.748
▁fuhren	-11.7481
geräte	-11.7483
▁gewöhnlich	-11.7488
▁teilnehmen	-11.7491
▁landed	-11.7492
▁Interview	-11.7492
▁Gri	-11.7493
▁Kopie	-11.7494
▁Nachbar	-11.7496
▁liebt	-11.7497
▁Mauer	-11.7502
▁Oper	-11.7506
▁spots	-11.7506
▁absorb	-11.7511
▁dinosaur	-11.7512
rock	-11.7513
▁Stop	-11.7524
▁gemeinnützige	-11.7529
▁faszinierende	-11.7534
▁October	-11.7535
▁Schwanz	-11.7535
▁Völker	-11.7535
▁akzeptiert	-11.7535
▁alcohol	-11.7535
▁außerordentlich	-11.7535
▁chaos	-11.7535
▁contribution	-11.7535
▁facility	-11.7535
▁kombiniert	-11.7535
▁primarily	-11.7535
▁schlussendlich	-11.7535
▁verhindert	-11.7535
▁bewirkt	-11.7535
▁injury	-11.7535
▁naked	-11.7535
▁schmerzhaft	-11.7535
▁Joshua	-11.7535
▁agency	-11.7535
▁fragile	-11.7535
▁motiviert	-11.7535
▁vernetzt	-11.7535
▁copyright	-11.7535
▁Autorität	-11.7536
▁permission	-11.7536
▁Schock	-11.7536
▁discoveries	-11.7537
hai	-11.7537
▁Bedenken	-11.7537
▁Alice	-11.7537
▁Master	-11.7537
▁bullet	-11.7538
▁4,000	-11.7538
▁präzise	-11.7539
▁Arabic	-11.7539
▁rope	-11.7539
▁sensory	-11.754
▁ärmsten	-11.754
▁Pläne	-11.7541
▁erkunden	-11.7541
▁interpretation	-11.7544
▁Afghan	-11.7544
▁Oel	-11.7544
▁rarely	-11.7545
▁Filter	-11.7545
▁DR	-11.7546
▁zogen	-11.7546
▁rüber	-11.7547
▁Mall	-11.755
▁Liter	-11.7551
▁sin	-11.7554
▁ecosystems	-11.7556
▁pole	-11.7557
▁optimal	-11.7558
ppel	-11.7564
▁ausführen	-11.7565
▁predicted	-11.7566
▁pushed	-11.7568
fluss	-11.7572
.'"	-11.7575
▁proof	-11.7577
tti	-11.7578
30	-11.7586
ky	-11.7599
neu	-11.7599
▁Königin	-11.7601
▁toy	-11.7609
▁ending	-11.761
▁Autoren	-11.7611
Kopf	-11.7612
related	-11.7612
▁jet	-11.7613
▁stages	-11.7613
▁banks	-11.7616
dan	-11.7619
▁ratio	-11.762
▁sicherer	-11.762
▁billiger	-11.7626
▁Bewusstseins	-11.7629
▁Genie	-11.7631
▁einiges	-11.7633
▁greifen	-11.7635
▁inches	-11.7635
▁Illusion	-11.7636
▁Überzeugung	-11.7636
▁Höhle	-11.7637
▁Spur	-11.7641
▁trucks	-11.7643
▁logisch	-11.7647
▁helpful	-11.7648
▁abstrakte	-11.7649
▁aufregende	-11.7651
▁34	-11.7652
▁ewig	-11.7653
▁Letztes	-11.7654
▁treatments	-11.7654
▁unabhängige	-11.7655
gesichts	-11.7655
▁predator	-11.7656
▁attitude	-11.7656
▁lawyer	-11.7656
▁Milo	-11.7658
▁keinem	-11.7662
▁Fotografie	-11.7662
▁ursprüngliche	-11.7662
▁audio	-11.7667
▁cheat	-11.7668
▁clients	-11.7669
▁sink	-11.7669
▁Bäumen	-11.767
▁Nahrungs	-11.7671
▁govern	-11.7672
förmige	-11.7672
▁duck	-11.7674
table	-11.7674
▁Albert	-11.7674
▁Weiß	-11.7677
▁youth	-11.7678
fabrik	-11.7678
pflanzt	-11.7678
▁Babies	-11.7678
▁Individuum	-11.7678
▁Produktivität	-11.7678
▁aufmerksam	-11.7678
▁automobile	-11.7678
▁dialogue	-11.7678
▁ehemalige	-11.7678
▁ethnic	-11.7678
▁excuse	-11.7678
▁expansion	-11.7678
▁genocide	-11.7678
▁glacier	-11.7678
▁inevitable	-11.7678
▁recipe	-11.7678
▁threshold	-11.7678
▁unterscheidet	-11.7678
▁überprüfen	-11.7678
▁scharf	-11.7678
▁figuring	-11.7678
▁fought	-11.7678
▁erlangen	-11.7678
▁gewinnt	-11.7678
▁verbrauchen	-11.7678
▁shopping	-11.7678
▁ooh	-11.7679
▁Larry	-11.7679
▁anonymous	-11.7679
▁Arbeitsplatz	-11.7679
▁Spenden	-11.7679
▁Lebensqualität	-11.7679
▁fool	-11.7679
▁infant	-11.7679
▁Menschlichkeit	-11.768
▁shine	-11.768
▁profitieren	-11.768
▁assumptions	-11.7681
▁beachten	-11.7681
▁grandchildren	-11.7682
▁garage	-11.7683
▁artistic	-11.7685
▁Manager	-11.7685
▁Gehör	-11.7686
▁Prüfung	-11.7688
▁ignoriert	-11.7689
▁scanner	-11.7689
▁Route	-11.7689
▁angetrieben	-11.7691
▁Len	-11.7692
▁begun	-11.7692
▁extended	-11.7692
ckel	-11.7692
▁Sei	-11.7693
▁gathering	-11.7695
▁geblieben	-11.7696
▁Klar	-11.7697
▁fordert	-11.7698
▁translated	-11.77
▁versagt	-11.77
▁reports	-11.7701
gung	-11.7702
▁Haltung	-11.7704
▁suchten	-11.7705
krat	-11.7706
▁expanding	-11.7708
▁Verbraucher	-11.7709
▁farming	-11.7711
▁Bomben	-11.7716
▁Köpfen	-11.7718
sani	-11.772
lb	-11.7722
▁bound	-11.7722
▁virtuellen	-11.7723
▁bars	-11.7726
▁angekommen	-11.7728
rid	-11.773
▁religiösen	-11.7731
▁wow	-11.7731
▁Kommunikations	-11.7734
▁nurses	-11.7736
▁Sieben	-11.7736
entwicklung	-11.7737
sterblichkeit	-11.7742
▁auto	-11.7745
stücke	-11.7746
▁Einheiten	-11.7751
Auf	-11.7753
▁Maße	-11.7756
Programm	-11.7757
Boot	-11.7757
zone	-11.7759
Welt	-11.7761
▁Pan	-11.7763
▁ni	-11.7764
rzten	-11.7765
gänge	-11.7766
tauchen	-11.7769
▁span	-11.7772
spect	-11.7774
▁entdeckten	-11.7777
▁fu	-11.7778
werten	-11.7779
▁bang	-11.7781
▁kollektive	-11.7781
organisation	-11.7781
▁Fels	-11.7782
rger	-11.7791
ites	-11.7793
zustand	-11.7796
▁Nährstoffe	-11.7797
▁Zeitungen	-11.7801
▁nutzten	-11.7803
▁acid	-11.7805
▁surfaces	-11.7806
▁Bel	-11.7807
▁Magazin	-11.7809
▁wash	-11.781
▁Trag	-11.7813
▁Feedback	-11.7816
▁consistent	-11.7818
▁Anreize	-11.7819
gesellschaft	-11.7821
ordnung	-11.7821
▁exploit	-11.7822
▁ne	-11.7823
▁tear	-11.7823
risiko	-11.7823
▁Allerdings	-11.7823
▁Anhänger	-11.7823
▁Bangladesh	-11.7823
▁Empathie	-11.7823
▁Stewart	-11.7823
▁Versicherung	-11.7823
▁burst	-11.7823
▁elderly	-11.7823
▁treibt	-11.7823
▁zwölf	-11.7823
▁whistle	-11.7823
▁Venus	-11.7823
▁programmieren	-11.7823
▁theoretisch	-11.7823
▁sacred	-11.7823
▁involviert	-11.7823
▁beschützen	-11.7823
▁Regenwald	-11.7823
▁Thailand	-11.7823
▁blink	-11.7823
▁reinvent	-11.7823
▁endet	-11.7824
▁rice	-11.7824
▁Pocken	-11.7824
▁Kluft	-11.7824
▁Alex	-11.7825
▁Stone	-11.7826
▁Tiger	-11.7827
▁Hochzeit	-11.7829
▁nationalen	-11.7829
▁geringe	-11.783
▁EU	-11.783
▁club	-11.7831
▁mindset	-11.7832
▁frequency	-11.7832
▁views	-11.7834
▁Güter	-11.7834
▁furchtbar	-11.7835
▁suggestion	-11.7835
▁installation	-11.7835
▁Mais	-11.7839
▁üben	-11.784
einheit	-11.7841
▁emit	-11.7843
▁Bescheid	-11.7843
▁emerged	-11.7844
▁beginne	-11.7846
▁Ernst	-11.7849
▁Ya	-11.7849
▁Brad	-11.7852
wache	-11.7852
▁eigen	-11.7853
▁crystal	-11.7853
▁dump	-11.7854
▁Schriftsteller	-11.7855
▁bereitet	-11.7856
▁gases	-11.7862
▁throwing	-11.7866
block	-11.7866
▁Spuren	-11.7866
▁Station	-11.7868
▁ethic	-11.7869
▁additional	-11.787
▁Schülern	-11.7871
fund	-11.7875
▁altes	-11.7875
▁Lehre	-11.7876
12	-11.7876
▁fuels	-11.7878
▁Oft	-11.788
▁Dad	-11.7881
▁Protest	-11.7883
▁Besitzer	-11.789
einhalb	-11.789
▁Depressionen	-11.7899
▁smarter	-11.7903
Sahara	-11.7904
▁caring	-11.7905
▁grob	-11.7906
Star	-11.7907
▁hing	-11.7912
▁focusing	-11.7913
▁schau	-11.7919
ähnliche	-11.7922
▁sentences	-11.7926
▁weiterentwickel	-11.7926
▁Tätigkeit	-11.7928
▁böse	-11.7928
uit	-11.7931
▁pal	-11.7936
▁adopt	-11.7938
▁wipe	-11.7938
▁rotate	-11.7939
▁reiste	-11.7941
▁beliebige	-11.7944
▁computation	-11.795
▁dose	-11.7951
▁grad	-11.7951
▁erweitert	-11.7952
▁Pferde	-11.7952
▁answered	-11.7953
▁victim	-11.7953
▁Klassen	-11.7954
▁tribe	-11.7954
▁soldier	-11.7954
▁Med	-11.7955
▁construct	-11.7957
▁implement	-11.796
▁knock	-11.7961
▁precise	-11.7965
▁panels	-11.7965
▁Korean	-11.7966
lla	-11.7967
▁spiele	-11.7968
▁Himalaya	-11.797
▁nördlich	-11.797
▁purchase	-11.797
▁1997	-11.797
▁Analogie	-11.797
▁Erwärmung	-11.797
▁Through	-11.797
▁abilities	-11.797
▁gesünder	-11.797
▁mysterious	-11.797
▁participation	-11.797
▁ecological	-11.797
▁resilience	-11.797
Glücklicherweise	-11.797
▁barrel	-11.797
▁erzielen	-11.797
▁Horizont	-11.797
▁Offensichtlich	-11.797
▁verwandt	-11.797
▁Arbeitsplätze	-11.797
▁collaborative	-11.797
▁trennen	-11.797
▁'90	-11.797
▁Things	-11.797
▁teure	-11.7971
▁Anerkennung	-11.7971
▁stunt	-11.7971
▁Gift	-11.7971
▁umfasst	-11.7971
▁'70	-11.7971
▁Gleichheit	-11.7971
▁blicken	-11.7971
rick	-11.7971
▁spray	-11.7971
▁abgeschlossen	-11.7971
▁Ladung	-11.7971
▁concentration	-11.7971
▁quad	-11.7972
▁forgotten	-11.7972
▁Amazonas	-11.7972
▁sicherstellen	-11.7974
▁highlight	-11.7974
▁partly	-11.7974
▁TEDTalks	-11.7975
▁imagery	-11.7975
▁Konstruktion	-11.7976
▁Beute	-11.7977
▁confident	-11.7978
▁diagnosed	-11.7978
▁errichten	-11.7979
▁weitermachen	-11.798
▁Simon	-11.798
▁Früher	-11.7982
▁verknüpft	-11.7982
▁proposed	-11.7982
▁Pen	-11.7982
▁Schreibtisch	-11.7983
▁bubbles	-11.7987
▁Asteroiden	-11.7989
▁suggested	-11.799
▁Dauer	-11.7992
▁aufeinander	-11.7993
▁Einmal	-11.7994
tial	-11.7994
▁diesmal	-11.7998
▁Betrachten	-11.7999
▁Störungen	-11.8
▁schießen	-11.8001
▁bedenken	-11.8002
gehend	-11.8002
▁served	-11.8004
▁failing	-11.8004
▁klare	-11.8007
▁auftreten	-11.8008
▁attribute	-11.8011
▁difficulty	-11.8013
▁Austausch	-11.8014
▁Sorry	-11.8016
▁Chi	-11.8022
▁misst	-11.8023
▁Figuren	-11.8025
▁Beinen	-11.8027
▁manipulate	-11.8029
▁sendet	-11.8031
gri	-11.8034
▁sleeping	-11.8036
▁schwierigen	-11.8038
kosten	-11.8041
zog	-11.8042
▁unmittelbar	-11.8043
▁drivers	-11.8044
▁needle	-11.8045
turm	-11.8048
▁del	-11.8048
▁stores	-11.8049
interest	-11.8054
When	-11.8054
möglichkeiten	-11.8056
▁schönes	-11.8058
pflanzen	-11.8061
betrieb	-11.8072
▁muslimische	-11.8078
still	-11.8078
For	-11.808
▁umfassende	-11.8081
"?	-11.8085
anlage	-11.8087
▁peaceful	-11.8087
▁targets	-11.809
ano	-11.809
scha	-11.8091
schwer	-11.8093
bert	-11.8095
immer	-11.8096
▁meal	-11.8096
▁finanzielle	-11.8099
iving	-11.81
▁Christian	-11.8104
▁dolphin	-11.8104
▁Bra	-11.8105
▁landete	-11.8105
▁Güte	-11.8108
▁Fußball	-11.8109
▁wirft	-11.811
▁discipline	-11.811
▁cable	-11.8112
▁Vers	-11.8113
▁Islands	-11.8115
▁immediate	-11.8115
▁resist	-11.8118
▁fühlten	-11.8119
▁Apollo	-11.8119
▁Balance	-11.8119
▁Council	-11.8119
▁Dopamin	-11.8119
▁Flughafen	-11.8119
▁Pazifik	-11.8119
▁Philadelphia	-11.8119
▁Plätze	-11.8119
▁astonishing	-11.8119
▁biodiversity	-11.8119
▁buried	-11.8119
▁cheese	-11.8119
▁devil	-11.8119
▁expedition	-11.8119
▁pioneer	-11.8119
▁struggling	-11.8119
▁tweet	-11.8119
▁unangenehm	-11.8119
▁whatsoever	-11.8119
▁Mühe	-11.8119
▁Tibet	-11.8119
▁unfair	-11.8119
▁Arctic	-11.8119
▁Schwerkraft	-11.8119
▁ermutigen	-11.8119
▁1984	-11.812
▁Peace	-11.812
▁colonies	-11.812
▁programming	-11.812
▁Somebody	-11.812
▁baseball	-11.812
gehoben	-11.812
▁Direktor	-11.812
▁merely	-11.8121
▁Statt	-11.8121
▁dumb	-11.8121
▁Anzeichen	-11.8122
▁2015	-11.8122
▁doors	-11.8122
▁Never	-11.8123
▁Abstand	-11.8123
▁hitting	-11.8123
▁Handels	-11.8125
▁Ram	-11.8126
▁Amt	-11.8126
▁competitive	-11.8128
▁radically	-11.8128
▁Tell	-11.8129
▁Erforschung	-11.813
▁vermute	-11.813
▁Hätte	-11.8131
▁scores	-11.8133
▁berechnet	-11.8133
▁20.000	-11.8136
▁openness	-11.8137
▁tri	-11.8139
▁sank	-11.8139
▁Allgemeinen	-11.814
▁einziges	-11.8143
muster	-11.8146
▁Win	-11.8153
ngste	-11.8154
▁photographed	-11.8156
▁bucks	-11.8156
Is	-11.8157
▁MS	-11.8158
60	-11.816
▁luck	-11.8165
▁häufiger	-11.8166
▁effizienter	-11.8169
▁Bin	-11.817
▁weinen	-11.817
haut	-11.8171
▁einzig	-11.8174
hau	-11.8181
▁opt	-11.8185
▁supported	-11.8186
▁erzählten	-11.819
▁Reden	-11.8191
▁Meme	-11.8192
▁allzu	-11.8192
aci	-11.8193
load	-11.8193
▁writers	-11.8195
▁entsprechend	-11.8197
▁leeren	-11.8198
bringt	-11.8201
▁Flut	-11.8202
▁Amerikas	-11.8205
trick	-11.8208
▁trage	-11.8211
▁Ach	-11.8211
clock	-11.8212
▁Tricks	-11.8213
million	-11.8215
▁wundervoll	-11.8215
▁Real	-11.8215
▁Institut	-11.8219
yo	-11.8219
▁lud	-11.822
▁zugleich	-11.8222
water	-11.8223
▁owner	-11.8227
▁chairs	-11.8228
▁lagen	-11.8229
hat	-11.8229
▁Funk	-11.8229
▁irre	-11.8229
▁Köpfe	-11.8229
▁hydro	-11.823
litz	-11.8231
spiele	-11.8231
▁ban	-11.8235
rab	-11.8236
▁erfuhr	-11.8236
▁Rauch	-11.8237
▁operations	-11.824
▁documents	-11.8241
was	-11.8242
▁Interessante	-11.8244
▁Denk	-11.8246
unterricht	-11.8246
▁woke	-11.8247
▁Fakt	-11.8248
▁complain	-11.8248
▁Ring	-11.8253
▁package	-11.8258
▁refugee	-11.8263
rap	-11.8263
▁Nu	-11.8263
note	-11.8265
▁designs	-11.8266
▁exhibit	-11.8266
▁nette	-11.8268
▁einziger	-11.8269
▁agent	-11.8269
rechnung	-11.827
▁Schnell	-11.8271
▁Church	-11.8271
▁Norwegen	-11.8271
▁Orchester	-11.8271
▁Portugal	-11.8271
▁analysiert	-11.8271
▁bewältigen	-11.8271
▁engagiert	-11.8271
▁erledigt	-11.8271
▁erstaunt	-11.8271
▁valley	-11.8271
▁Auffassung	-11.8271
▁silly	-11.8271
▁structural	-11.8271
▁vergleichbar	-11.8271
▁Gerüst	-11.8271
▁Tendenz	-11.8271
▁valid	-11.8271
analyse	-11.8271
▁trash	-11.8271
▁lenken	-11.8271
▁signature	-11.8271
▁grausam	-11.8271
▁Stoffwechsel	-11.8271
▁supermarket	-11.8271
▁Bindung	-11.8271
▁expectancy	-11.8271
▁Herkunft	-11.8271
▁stattfinden	-11.8271
▁Abendessen	-11.8271
▁irgendwas	-11.8271
▁Übersetzung	-11.8271
▁Sunday	-11.8271
▁Methan	-11.8271
▁slavery	-11.8271
▁appearance	-11.8272
▁joint	-11.8272
▁Kamel	-11.8272
▁mood	-11.8272
▁Nike	-11.8272
▁Phil	-11.8273
▁Mischung	-11.8273
▁unsicher	-11.8273
▁Kor	-11.8274
▁selfish	-11.8274
▁industries	-11.8274
▁Mom	-11.8275
▁cake	-11.8275
▁zweieinhalb	-11.8275
▁February	-11.8275
▁Später	-11.8276
▁sticks	-11.8276
▁Beach	-11.8277
▁aufwuchs	-11.8277
nahmen	-11.8278
▁stieß	-11.8279
▁architectural	-11.8279
▁Veranstaltung	-11.8281
ulu	-11.8281
▁Pra	-11.8283
▁Des	-11.8285
▁shocked	-11.8285
▁bot	-11.8286
▁Za	-11.8287
▁anzuschauen	-11.8287
▁gefüllt	-11.8291
▁Kreislauf	-11.8292
▁Model	-11.8292
▁dreimal	-11.8293
▁successfully	-11.8293
▁palm	-11.8297
▁impacts	-11.8298
▁ökologische	-11.8299
▁ansprechen	-11.8301
▁climbing	-11.8303
▁Schild	-11.8304
oon	-11.8304
gesehen	-11.8307
ook	-11.8307
▁mimic	-11.8308
▁1,5	-11.8311
▁controls	-11.8312
▁Kleine	-11.8313
▁erfolgreiche	-11.8315
▁plays	-11.8315
▁Ron	-11.8315
▁shirt	-11.8321
▁completed	-11.8322
scher	-11.8323
boden	-11.8324
Li	-11.8324
▁arise	-11.8324
▁satellites	-11.8327
▁rennen	-11.8332
▁studierte	-11.8332
▁Bor	-11.8338
▁Lee	-11.8338
▁positions	-11.8339
▁trauma	-11.8346
▁Falle	-11.8347
▁Küsten	-11.8348
einander	-11.8349
four	-11.8351
▁Genome	-11.8351
▁kauft	-11.8352
▁Untersuchungen	-11.8353
▁chemischen	-11.8354
wal	-11.8354
istisch	-11.8358
▁elephants	-11.8359
Tech	-11.8359
Cola	-11.8361
glich	-11.8361
▁interestingly	-11.8364
▁explaining	-11.8364
▁gen	-11.8365
long	-11.8366
▁zweitens	-11.837
▁Operationen	-11.8371
▁werdet	-11.8373
▁Gebäudes	-11.8373
▁echter	-11.8377
▁98	-11.838
▁Stämme	-11.8382
▁Spannung	-11.8382
schneiden	-11.8383
▁erschien	-11.8383
▁Prototyp	-11.8383
▁Umfrage	-11.8384
▁militärische	-11.8384
gemeinschaft	-11.8384
▁roots	-11.8388
ata	-11.8388
▁startete	-11.8391
fully	-11.8392
▁instructions	-11.8394
▁Journalist	-11.8396
▁Zentral	-11.8396
Mein	-11.8397
▁sisters	-11.8399
▁discuss	-11.8401
▁47	-11.8402
▁shaped	-11.8404
law	-11.8404
wick	-11.8405
wege	-11.8409
▁prepare	-11.8411
▁fotografiert	-11.8411
▁Gelände	-11.8411
thiopien	-11.8412
▁preserve	-11.8412
▁egg	-11.8412
▁Jeden	-11.8412
▁infection	-11.8414
▁insect	-11.8415
▁Werten	-11.8415
▁award	-11.8418
▁Symbole	-11.8422
▁Mögliche	-11.8422
schritt	-11.8423
▁wrap	-11.8424
männer	-11.8424
▁Dezember	-11.8425
▁Kansas	-11.8425
▁Parlament	-11.8425
▁Pyramide	-11.8425
▁capabilities	-11.8425
▁durchzuführen	-11.8425
▁geredet	-11.8425
▁hypothesis	-11.8425
▁methane	-11.8425
▁unbelievable	-11.8425
▁bedienen	-11.8425
▁civic	-11.8425
▁gewissermaßen	-11.8425
▁wohlhabend	-11.8425
▁Tesla	-11.8425
▁Apparat	-11.8425
▁Mittagessen	-11.8425
▁multinational	-11.8425
▁combat	-11.8425
▁generell	-11.8425
▁Distanz	-11.8425
▁Norway	-11.8425
▁Väter	-11.8425
▁Vielzahl	-11.8425
▁künstlerische	-11.8425
▁träumen	-11.8425
▁instant	-11.8425
▁annual	-11.8425
▁Mentor	-11.8425
▁nonprofit	-11.8425
▁Panik	-11.8425
▁prä	-11.8425
▁kidney	-11.8426
geholt	-11.8426
▁Heilung	-11.8426
▁Auflösung	-11.8426
▁finanzieren	-11.8427
▁Kurzem	-11.8428
▁5.000	-11.8428
▁confused	-11.8429
▁Anreiz	-11.8429
▁attend	-11.8431
▁damn	-11.8431
flug	-11.8432
pflege	-11.8434
▁angeschaut	-11.8435
▁Seife	-11.8435
▁informed	-11.8435
▁Weltbank	-11.8436
▁surprisingly	-11.8436
▁Besten	-11.8436
▁warning	-11.8439
▁Menschenrechte	-11.8439
▁refugees	-11.8439
▁suffered	-11.8441
▁Walk	-11.8442
baum	-11.8443
öse	-11.8446
▁tar	-11.8448
▁invested	-11.845
▁strongly	-11.8451
▁auftauchen	-11.8451
▁journal	-11.8456
▁Erkrankungen	-11.8458
▁stranger	-11.846
▁inspirierend	-11.8462
▁funded	-11.8463
▁vorkommen	-11.8463
▁Effekte	-11.8465
▁reale	-11.8473
▁Geschlechts	-11.8473
▁schließt	-11.8475
kehr	-11.8478
▁schaffte	-11.8478
▁manual	-11.8482
▁hack	-11.8483
▁tollen	-11.8488
▁Tut	-11.849
frei	-11.8491
▁Einkommens	-11.8493
auto	-11.8496
▁Elite	-11.8499
▁beziehen	-11.8502
▁Fabriken	-11.8504
Ist	-11.8505
▁Pilz	-11.8506
rude	-11.8507
▁Wüsten	-11.8508
▁washing	-11.851
▁trainiert	-11.8511
▁Still	-11.8514
Modell	-11.8515
virus	-11.8517
komm	-11.852
Komm	-11.8521
▁Tele	-11.8521
zero	-11.8521
▁bedeutend	-11.8521
▁Beobachtung	-11.8522
tron	-11.8522
▁hackers	-11.8523
folgen	-11.8528
▁founded	-11.8531
▁dec	-11.8535
▁Taten	-11.8536
▁Genen	-11.8538
▁bewegte	-11.8538
▁Lücke	-11.8539
▁Pilot	-11.8539
▁Kommentar	-11.854
▁Held	-11.8541
▁compromise	-11.8543
gingen	-11.8547
▁Jung	-11.8547
▁Au	-11.8547
eben	-11.8548
▁observe	-11.855
▁wunderschönen	-11.855
▁Par	-11.855
läufe	-11.8553
▁regional	-11.8554
schreiben	-11.8559
▁Ost	-11.8567
decke	-11.8571
sweise	-11.8571
▁sinken	-11.8572
▁ego	-11.8572
▁physician	-11.8572
▁fortunate	-11.8576
▁Februar	-11.8576
▁dung	-11.8577
▁distinct	-11.8577
▁Kranken	-11.8579
▁tägliche	-11.8579
▁Journal	-11.858
▁slave	-11.858
▁incident	-11.8581
▁December	-11.8581
▁Jefferson	-11.8581
▁Namibia	-11.8581
▁Society	-11.8581
▁Technology	-11.8581
▁Töchter	-11.8581
▁bestätigt	-11.8581
▁choosing	-11.8581
▁extension	-11.8581
▁hemisphere	-11.8581
▁kombinieren	-11.8581
▁konstruiert	-11.8581
▁microbial	-11.8581
▁Tafel	-11.8581
▁leaf	-11.8581
▁Bandbreite	-11.8581
▁pride	-11.8581
▁broadcast	-11.8581
▁Italian	-11.8581
▁uncertainty	-11.8581
▁bribe	-11.8581
▁Wollen	-11.8581
▁Elektronik	-11.8581
▁geliebt	-11.8581
▁vereint	-11.8581
ibly	-11.8581
▁Offenheit	-11.8581
▁stoßen	-11.8581
▁Supermarkt	-11.8581
▁senken	-11.8582
▁Wörterbuch	-11.8582
klettert	-11.8582
▁marketplace	-11.8582
▁Leistungen	-11.8582
▁Versagen	-11.8582
▁Autobahn	-11.8583
▁Jay	-11.8583
▁Sturm	-11.8583
luft	-11.8584
▁Halb	-11.8584
▁weekend	-11.8585
▁homework	-11.8585
▁tanzt	-11.8585
▁elected	-11.8586
▁trainieren	-11.8586
kur	-11.8587
▁pharmaceutical	-11.8588
horn	-11.8588
▁Lust	-11.8589
▁vielerlei	-11.8589
▁adopted	-11.8591
▁Ego	-11.8592
▁Should	-11.8592
▁50.000	-11.8592
▁züchten	-11.8593
▁Para	-11.8599
▁mixed	-11.86
▁erwähnte	-11.8601
sprech	-11.8601
Reg	-11.8601
▁grasp	-11.8604
▁bewerten	-11.8605
▁Programmierer	-11.8605
▁Kleider	-11.8606
▁fressen	-11.8607
▁Mel	-11.8608
▁educated	-11.8611
▁universelle	-11.8613
▁Zeichnungen	-11.8613
freie	-11.8613
▁zahlreiche	-11.8613
▁Magazine	-11.8615
▁entschlossen	-11.8615
▁entering	-11.8615
gging	-11.8619
▁geleitet	-11.8622
▁exception	-11.8623
lösen	-11.8628
link	-11.8629
agen	-11.8631
▁anhalten	-11.8632
▁öffnete	-11.8633
▁camel	-11.8641
aeda	-11.8644
▁sustain	-11.8645
quelle	-11.8646
▁gods	-11.8646
▁perfekten	-11.8647
▁stops	-11.8648
▁viewer	-11.865
▁ink	-11.8651
▁Fahr	-11.8653
▁parasite	-11.8663
abend	-11.8665
staat	-11.8667
front	-11.8668
▁tent	-11.8668
motiv	-11.8674
▁heal	-11.8675
▁Danny	-11.8677
field	-11.8687
Un	-11.8689
▁Merkmale	-11.8691
punkte	-11.8692
▁160	-11.8695
▁Schlange	-11.8698
▁aussah	-11.8698
▁Kiste	-11.87
▁Chirurg	-11.8702
▁Einrichtung	-11.8702
tiert	-11.8703
▁zusammenge	-11.8708
Weißt	-11.871
▁Meinungen	-11.8711
▁Far	-11.8712
viel	-11.8714
▁Dreh	-11.8715
▁punch	-11.8717
▁Rose	-11.8722
▁Steine	-11.8724
▁habit	-11.8725
▁select	-11.8729
▁frog	-11.8733
anischen	-11.8733
▁trace	-11.8733
▁TEDTalk	-11.8735
▁enhance	-11.8738
▁Trotz	-11.8738
▁drift	-11.8739
▁Craig	-11.874
▁Kosovo	-11.874
▁Nachmittag	-11.874
▁Oklahoma	-11.874
▁Optimismus	-11.874
▁RNA	-11.874
▁Verzweiflung	-11.874
▁begegnet	-11.874
▁closing	-11.874
▁experiencing	-11.874
▁gradually	-11.874
▁magnitude	-11.874
▁PowerPoint	-11.874
▁Tanzania	-11.874
▁erheblich	-11.874
▁strategic	-11.874
▁ultra	-11.874
▁unheimlich	-11.874
▁Rollstuhl	-11.874
▁begleitet	-11.874
▁Court	-11.874
▁Turkey	-11.874
▁motivieren	-11.874
gewalt	-11.874
▁friedlich	-11.874
▁speichern	-11.874
▁Gewässer	-11.874
▁authorities	-11.874
▁Treibhausgase	-11.874
▁Geschäftsmodell	-11.874
▁Automobil	-11.874
▁verheiratet	-11.874
▁grösser	-11.8741
▁exam	-11.8741
▁Unfälle	-11.8741
▁genetically	-11.8741
▁paralyzed	-11.8742
Krankenschwester	-11.8742
▁west	-11.8742
▁compassionate	-11.8743
▁compelling	-11.8743
▁Trade	-11.8744
▁ages	-11.8744
▁Liberia	-11.8745
▁neulich	-11.8746
▁Tja	-11.8746
▁zahlt	-11.8746
▁Polar	-11.8747
▁paradox	-11.8747
▁realizing	-11.8748
▁Min	-11.8748
▁Waren	-11.8748
zogen	-11.8748
▁Power	-11.8749
▁Stimmt	-11.8749
▁beantwortet	-11.8752
mission	-11.8752
▁verständlich	-11.8753
▁fastest	-11.8754
shed	-11.8754
200	-11.8759
asse	-11.8759
▁None	-11.8762
▁lawyers	-11.8764
▁owned	-11.8765
▁Studierenden	-11.8772
▁betreten	-11.8775
▁Geh	-11.8776
▁richtet	-11.8777
▁Banken	-11.8777
▁negativ	-11.8785
▁geschlagen	-11.8788
▁pad	-11.8789
▁Füßen	-11.8797
▁irgendeiner	-11.8799
▁Somit	-11.8801
▁Gl	-11.8804
▁sits	-11.8806
▁aufgeben	-11.8811
▁expecting	-11.8813
▁cats	-11.8815
▁körperlich	-11.8817
uri	-11.8818
▁daughters	-11.8824
▁Bahn	-11.8826
▁dicht	-11.8827
möglich	-11.8827
aft	-11.8829
usch	-11.8833
▁Elektro	-11.8833
masse	-11.8833
ih	-11.8837
▁holds	-11.8837
▁projection	-11.8837
ught	-11.8839
▁Profit	-11.884
▁diver	-11.884
▁Punkten	-11.884
▁cartoons	-11.884
farben	-11.8842
▁ursprünglichen	-11.885
ching	-11.8854
▁wundervollen	-11.8856
▁Ameise	-11.8859
▁einstellen	-11.886
▁Berechnung	-11.886
▁meme	-11.8861
▁Architekt	-11.8862
ough	-11.8868
▁gewöhnliche	-11.8869
▁Skulptur	-11.887
▁Koch	-11.8878
▁measures	-11.8878
▁alarm	-11.8881
▁verbreitete	-11.8882
▁remembered	-11.8882
Erinnern	-11.8886
weichen	-11.8896
▁exponential	-11.8896
anlagen	-11.8896
▁mosquito	-11.8897
▁cluster	-11.8897
▁drone	-11.8898
▁assumption	-11.8898
▁Zoo	-11.8899
▁commit	-11.89
▁transmit	-11.89
▁horizon	-11.8901
▁Immunsystem	-11.8901
▁Türkei	-11.8901
▁Wünsche	-11.8901
▁Zentimeter	-11.8901
▁beneath	-11.8901
▁burden	-11.8901
▁chamber	-11.8901
▁cousin	-11.8901
▁einschließlich	-11.8901
▁fortgeschritten	-11.8901
▁leather	-11.8901
▁probieren	-11.8901
▁stattfindet	-11.8901
▁trajectory	-11.8901
▁uniform	-11.8901
▁verwirrt	-11.8901
▁creator	-11.8901
▁gewohnt	-11.8901
▁innocent	-11.8901
▁Hardware	-11.8901
▁statistisch	-11.8901
▁prüfen	-11.8901
▁Flüsse	-11.8901
▁winning	-11.8901
▁membrane	-11.8901
▁Unsicherheit	-11.8901
▁Roger	-11.8902
▁Geheimnisse	-11.8902
▁Snowden	-11.8902
▁rats	-11.8902
▁Ausschnitt	-11.8902
▁Klick	-11.8903
▁campus	-11.8904
▁musician	-11.8905
▁verhält	-11.8905
▁Gewinner	-11.8905
▁verfügen	-11.8905
▁Garage	-11.8905
▁tumors	-11.8906
▁anstellen	-11.8906
▁Vereinte	-11.8907
▁initially	-11.8908
▁Algorithmus	-11.8908
▁verblüffend	-11.8908
▁mining	-11.8908
▁Cu	-11.8909
▁Hersteller	-11.8909
gebaut	-11.891
▁Keiner	-11.8911
▁Way	-11.8911
▁Tode	-11.8912
▁Food	-11.8913
▁homeless	-11.8914
▁profoundly	-11.8914
▁imaging	-11.8914
▁lokal	-11.8914
▁widely	-11.8914
▁Angel	-11.8914
▁TEDx	-11.8915
netzwerk	-11.8915
▁schafften	-11.8916
▁Iranian	-11.8916
▁kurzer	-11.8916
▁ankommen	-11.8917
suche	-11.8918
▁450	-11.892
▁überwältigend	-11.8922
▁Einzige	-11.8924
▁metric	-11.8925
▁Sound	-11.8925
▁Kreaturen	-11.8927
▁included	-11.8928
▁Maria	-11.8929
▁remaining	-11.893
ße	-11.893
▁unable	-11.893
▁navigate	-11.8931
▁überlassen	-11.8932
▁jumped	-11.8932
▁100-	-11.8933
▁lit	-11.8933
waffe	-11.8934
Up	-11.8936
▁Genetik	-11.894
▁mitteilen	-11.894
▁informiert	-11.8944
zwei	-11.8945
▁gewachsen	-11.8947
▁covering	-11.8947
osi	-11.8948
▁wozu	-11.8956
▁improved	-11.8958
ami	-11.8958
▁logical	-11.8962
ava	-11.8964
▁Schichten	-11.8971
▁Messer	-11.8972
▁finanziellen	-11.8974
kamera	-11.8986
▁staying	-11.8992
zutreten	-11.8995
▁flows	-11.8995
krankheiten	-11.8996
ddy	-11.8996
namen	-11.8997
▁threats	-11.8998
♫	-11.8999
▁besides	-11.8999
▁einnehmen	-11.8999
▁Kids	-11.8999
shi	-11.9001
▁Motoren	-11.9003
▁fate	-11.9003
▁tritt	-11.901
▁spielten	-11.9014
fold	-11.9016
▁niedrige	-11.9018
licher	-11.9018
rabischen	-11.902
▁Röntgen	-11.902
▁wüsste	-11.9023
▁bears	-11.9024
rage	-11.9029
klasse	-11.903
▁Grundstück	-11.9034
▁headed	-11.9034
▁Tausenden	-11.9037
ionen	-11.9041
▁Rasse	-11.9043
▁religiöse	-11.9044
▁dünne	-11.9045
onnen	-11.9048
▁Vortrags	-11.9048
▁cart	-11.905
▁appeal	-11.9051
▁wertvolle	-11.9057
▁evolutionäre	-11.9057
▁Ch	-11.906
aktivität	-11.9064
▁Spitzen	-11.9064
schütz	-11.9064
krebs	-11.9065
▁shore	-11.9065
▁Arduino	-11.9065
▁Bangalore	-11.9065
▁Fettleibigkeit	-11.9065
▁Getreide	-11.9065
▁Ignoranz	-11.9065
▁Käse	-11.9065
▁Phantom	-11.9065
▁Poesie	-11.9065
▁Reichweite	-11.9065
▁Trinkwasser	-11.9065
▁Vernunft	-11.9065
▁Verwaltung	-11.9065
▁akademische	-11.9065
▁ambition	-11.9065
▁beeindruckt	-11.9065
▁curriculum	-11.9065
▁enterprise	-11.9065
▁facilities	-11.9065
▁interior	-11.9065
▁qualities	-11.9065
▁scheitern	-11.9065
▁vergewaltigt	-11.9065
▁überqueren	-11.9065
▁tendency	-11.9065
▁verarbeitet	-11.9065
▁tongue	-11.9065
▁verboten	-11.9065
▁Widerspruch	-11.9065
▁vulnerability	-11.9065
▁beschleunigen	-11.9065
▁Tiefsee	-11.9065
▁Sudan	-11.9065
▁Office	-11.9065
▁Nepal	-11.9065
▁arrow	-11.9065
▁marry	-11.9065
forscher	-11.9065
▁Solche	-11.9065
▁programmiert	-11.9065
▁Religionen	-11.9065
▁fence	-11.9066
▁lean	-11.9066
▁'80	-11.9066
▁derzeitige	-11.9066
▁native	-11.9066
▁subway	-11.9066
▁Mittelpunkt	-11.9066
▁Abschnitt	-11.9067
▁crop	-11.9067
▁footage	-11.9067
▁Blitz	-11.9067
▁Without	-11.9067
zimmer	-11.9069
▁stamp	-11.9069
▁Sklaven	-11.9069
▁Arzneimittel	-11.907
▁geek	-11.9071
▁psychopath	-11.9071
▁Voll	-11.9074
▁Northern	-11.9075
▁mono	-11.9075
▁präsentieren	-11.9075
▁traditions	-11.9076
▁Music	-11.9076
▁Aufzeichnungen	-11.9078
▁präsentiert	-11.9079
eine	-11.9083
▁Sprecher	-11.9084
▁widmen	-11.9085
char	-11.9087
▁Nigerian	-11.9087
▁burned	-11.9087
▁Erinner	-11.9089
strahl	-11.909
▁Salz	-11.909
▁detailed	-11.909
maßnahme	-11.9091
sprechen	-11.9092
risch	-11.9092
▁classical	-11.9093
▁Alan	-11.9094
▁Verletzungen	-11.9095
▁Emissionen	-11.9096
▁Einzelnen	-11.9098
▁Impfstoff	-11.91
kette	-11.9103
▁Arabisch	-11.9107
▁180	-11.911
▁wachsende	-11.9112
▁approaches	-11.9113
▁influenced	-11.9113
▁pa	-11.9114
eller	-11.9114
▁140	-11.9114
▁Juli	-11.9115
▁Blasen	-11.9115
▁survived	-11.9123
zeiten	-11.9124
▁radikale	-11.9128
▁merkwürdig	-11.9128
▁Ufer	-11.9131
▁Bergen	-11.9134
getragen	-11.9137
urf	-11.9137
▁gel	-11.9137
▁disc	-11.914
▁individuellen	-11.9144
springen	-11.9147
▁kannten	-11.9147
▁schickten	-11.9149
but	-11.915
▁Ku	-11.9151
firmen	-11.9155
▁lass	-11.9156
▁ankommt	-11.9157
▁rape	-11.9157
fiel	-11.9159
▁Brücken	-11.9162
smodell	-11.9163
lässt	-11.9163
born	-11.9164
point	-11.9165
geschrieben	-11.9165
riss	-11.9166
alität	-11.9173
▁beg	-11.9174
▁Farmer	-11.9175
▁liest	-11.9179
▁distinguish	-11.9181
▁reine	-11.9182
▁malen	-11.9182
▁effektiver	-11.9185
▁Kolonie	-11.919
▁Lunge	-11.919
▁schwach	-11.9197
äst	-11.9199
▁restliche	-11.92
zusehen	-11.9201
▁jünger	-11.9201
▁Kontroll	-11.9205
schaut	-11.9212
cap	-11.9212
▁entrepreneur	-11.9212
▁behauptet	-11.9212
▁guarantee	-11.9218
▁Asian	-11.9219
▁beam	-11.9221
▁confront	-11.9221
ierer	-11.9222
▁occurs	-11.9222
▁Neben	-11.9224
rennen	-11.9227
▁occasion	-11.9228
▁ships	-11.923
nutzung	-11.923
Syndrom	-11.9232
▁Anwälte	-11.9232
▁Glamour	-11.9232
▁LHC	-11.9232
▁LKW	-11.9232
▁Leg	-11.9232
▁Michigan	-11.9232
▁Reihenfolge	-11.9232
▁chaotisch	-11.9232
▁coordinate	-11.9232
▁dilemma	-11.9232
▁frustrated	-11.9232
▁gelähmt	-11.9232
▁generous	-11.9232
▁glamorous	-11.9232
▁jahrelang	-11.9232
▁miserable	-11.9232
▁reproduce	-11.9232
▁sponsor	-11.9232
▁tsunami	-11.9232
▁unprecedented	-11.9232
▁vergrößert	-11.9232
▁verstärkt	-11.9232
▁Jill	-11.9232
▁Cousin	-11.9232
▁Lewis	-11.9232
▁Tunnel	-11.9232
▁zutiefst	-11.9232
▁Töne	-11.9232
▁überwachen	-11.9232
▁Dutch	-11.9232
▁Führungskräfte	-11.9232
▁rubber	-11.9232
▁optimism	-11.9232
▁Hilfsmittel	-11.9232
▁nutrients	-11.9232
generating	-11.9232
▁Königreich	-11.9232
▁vielmals	-11.9232
▁simultaneously	-11.9232
▁Interpretation	-11.9232
▁betonen	-11.9233
▁factories	-11.9233
▁gesucht	-11.9233
▁medication	-11.9233
▁rose	-11.9233
▁overwhelming	-11.9233
▁Genauso	-11.9233
▁uralte	-11.9234
▁geb	-11.9235
▁wodurch	-11.9236
▁detection	-11.9236
▁intersection	-11.9236
▁Mord	-11.9236
▁instantly	-11.9237
▁nerd	-11.9237
▁Alltag	-11.9239
▁ethnische	-11.9239
▁hormone	-11.9239
▁clothing	-11.924
▁conducted	-11.924
▁hierfür	-11.924
▁Feier	-11.9242
▁pulse	-11.9242
▁Tinte	-11.9244
using	-11.9245
▁gathered	-11.9245
▁March	-11.9245
▁eingeschlossen	-11.9246
▁Cloud	-11.9246
▁detector	-11.9247
▁significantly	-11.9249
▁Lügen	-11.9253
▁fatal	-11.9257
▁port	-11.9259
▁Allein	-11.926
▁transportiert	-11.9261
▁Pink	-11.9263
▁schlägt	-11.9264
▁Vorhersagen	-11.9264
▁städtischen	-11.9264
mond	-11.9266
▁Angestellten	-11.9267
▁upside	-11.9267
digit	-11.9268
▁physicists	-11.9269
▁investing	-11.9271
ierbar	-11.9273
▁Kommentare	-11.9275
▁heilige	-11.9276
▁interessantes	-11.9276
halte	-11.9277
▁hunter	-11.9279
▁Zweiten	-11.9285
▁pound	-11.9286
führer	-11.929
▁shit	-11.929
▁rank	-11.9293
▁mayor	-11.9294
▁geringer	-11.9294
▁rivers	-11.9296
ua	-11.9296
▁Chr	-11.9296
▁format	-11.9297
▁52	-11.9298
▁comments	-11.93
▁Welle	-11.93
quellen	-11.9302
▁exponentiell	-11.9303
werke	-11.9306
▁physisch	-11.9309
▁tie	-11.931
▁veröffentlichte	-11.931
15	-11.9312
▁breit	-11.9317
▁articles	-11.9319
▁genaue	-11.932
▁zentral	-11.9321
▁zugeben	-11.9324
▁Flüchtlinge	-11.9324
inder	-11.9325
▁50-	-11.9328
▁künstlich	-11.9328
▁glückliche	-11.933
▁12-	-11.9331
verse	-11.9333
▁tone	-11.9333
▁socially	-11.9337
▁chips	-11.934
▁basieren	-11.9343
azi	-11.9351
Ihr	-11.9353
▁erfand	-11.9359
▁Infektion	-11.9359
▁legten	-11.9359
▁errors	-11.936
tus	-11.9362
Am	-11.9362
öte	-11.9369
▁affects	-11.9372
▁lese	-11.9377
▁Hy	-11.9381
▁propose	-11.9389
▁Altern	-11.939
▁Phosphor	-11.9391
▁Oma	-11.9391
▁ähnliches	-11.9393
▁demands	-11.9393
spiegel	-11.9396
▁Jordan	-11.94
gebäude	-11.9401
▁Knoten	-11.9401
gespräch	-11.9401
▁Carnegie	-11.9401
▁Demonstration	-11.9401
▁Edinburgh	-11.9401
▁Friday	-11.9401
▁Hospital	-11.9401
▁Kalorien	-11.9401
▁NSA	-11.9401
▁Selektion	-11.9401
▁Zuhörer	-11.9401
▁acoustic	-11.9401
▁befragt	-11.9401
▁despair	-11.9401
▁eBay	-11.9401
▁eröffnen	-11.9401
▁garbage	-11.9401
▁schwanger	-11.9401
▁steigern	-11.9401
▁ultimative	-11.9401
▁vergrößern	-11.9401
▁1991	-11.9401
▁Babbage	-11.9401
▁Installation	-11.9401
▁Jazz	-11.9401
▁Jäger	-11.9401
▁Luxus	-11.9401
▁versorgt	-11.9401
zentren	-11.9401
▁Brut	-11.9401
▁Kühe	-11.9401
▁cotton	-11.9401
▁garantiert	-11.9401
▁gigantische	-11.9401
▁ähnelt	-11.9401
▁Motto	-11.9401
▁contemporary	-11.9401
kunst	-11.9401
▁Unabhängigkeit	-11.9401
▁verbrennen	-11.9401
▁ownership	-11.9401
▁Zehen	-11.9401
▁expertise	-11.9401
▁wildlife	-11.9402
▁gentleman	-11.9402
blatt	-11.9403
▁pairs	-11.9403
▁Water	-11.9403
▁sicherzustellen	-11.9404
▁Coke	-11.9404
▁Fair	-11.9404
▁Susan	-11.9404
letting	-11.9406
▁morality	-11.9406
▁Leder	-11.9406
karten	-11.9406
▁improving	-11.9406
▁Objekten	-11.9407
▁Rhythmus	-11.9407
▁analogy	-11.9408
cer	-11.9408
kanal	-11.9408
▁panel	-11.9408
▁agreement	-11.9409
▁healthier	-11.9409
pin	-11.9409
▁Dreieck	-11.9411
keiten	-11.9411
▁civilian	-11.9413
▁Fu	-11.9413
▁reflection	-11.9414
▁30,000	-11.9414
▁Dir	-11.9414
some	-11.9414
▁bombs	-11.9416
▁delivery	-11.9416
▁Work	-11.9416
▁Club	-11.9417
▁Interface	-11.9417
▁wealthy	-11.9417
▁coin	-11.9417
▁Bären	-11.9418
▁professionals	-11.9418
stone	-11.9419
▁Kunststoff	-11.9419
▁Por	-11.942
▁remained	-11.9422
▁Point	-11.9423
▁charges	-11.9425
▁Rate	-11.9427
stheorie	-11.9428
▁schlimmste	-11.9429
strecken	-11.943
▁würdest	-11.943
▁bush	-11.943
omi	-11.9431
▁fusion	-11.9433
▁bezieht	-11.9433
▁serving	-11.9434
▁fließen	-11.9435
▁Formel	-11.9436
▁Dritte	-11.9437
aking	-11.9438
▁AO	-11.9439
▁Alternativen	-11.9443
▁markiert	-11.9444
▁spezifische	-11.9445
▁rolling	-11.9446
▁Chirurgen	-11.9446
▁Kochen	-11.9448
bte	-11.9452
▁powers	-11.9453
▁forming	-11.9455
fest	-11.9455
▁reactions	-11.9461
▁flowing	-11.9465
▁gewaltig	-11.9468
zieh	-11.9471
Diese	-11.9472
▁gaps	-11.9478
▁durchgehen	-11.9479
▁lauter	-11.9483
▁wedding	-11.9484
▁Nie	-11.9486
▁leichte	-11.9488
rufe	-11.9488
versuch	-11.949
für	-11.9494
▁sichere	-11.9494
▁obstacles	-11.9495
smittel	-11.9502
▁soup	-11.9502
▁channels	-11.9503
▁cra	-11.9503
▁update	-11.9505
▁alternatives	-11.9505
efficient	-11.9508
▁Nächstes	-11.951
zusammenarbeiten	-11.9513
Vor	-11.9515
rechnen	-11.9516
▁pigs	-11.9517
▁lions	-11.952
known	-11.9521
▁Anfänge	-11.9523
labor	-11.9523
länge	-11.9527
zy	-11.9527
▁odds	-11.9529
▁Chor	-11.953
▁Strecke	-11.9531
vision	-11.9533
▁Has	-11.9534
holz	-11.9534
▁großartiger	-11.9536
▁Hypothese	-11.9536
▁lehrt	-11.9537
▁Pet	-11.9538
leiten	-11.9538
bla	-11.9542
▁sorgt	-11.9543
▁insights	-11.9544
leute	-11.9544
▁Affe	-11.9546
▁Säugetiere	-11.9546
▁Wochenende	-11.9547
▁Prozesses	-11.9547
gelassen	-11.9556
▁Geburts	-11.9559
Lo	-11.956
▁establish	-11.9563
ulate	-11.9568
▁Cur	-11.9568
▁kritisch	-11.9569
methode	-11.9569
▁Laptops	-11.957
▁Neugier	-11.9571
▁naive	-11.9572
ivity	-11.9572
▁Diplomat	-11.9572
▁streng	-11.9572
▁quest	-11.9573
▁Berührung	-11.9573
▁1993	-11.9573
▁Amsterdam	-11.9573
▁Bakterium	-11.9573
▁Bedauern	-11.9573
▁Expedition	-11.9573
▁Kiribati	-11.9573
▁Primaten	-11.9573
▁Stabilität	-11.9573
▁Tokyo	-11.9573
▁Ungefähr	-11.9573
▁categories	-11.9573
▁cosmic	-11.9573
▁cricket	-11.9573
▁dopamine	-11.9573
▁fröhlich	-11.9573
▁reducing	-11.9573
▁stattfand	-11.9573
▁theoretical	-11.9573
▁Watch	-11.9574
▁amateur	-11.9574
▁auswählen	-11.9574
▁triangle	-11.9574
▁Tropfen	-11.9574
▁Solarenergie	-11.9574
▁tätig	-11.9574
papier	-11.9574
▁Gramm	-11.9574
▁ongoing	-11.9574
▁Emily	-11.9574
▁Princeton	-11.9574
▁externe	-11.9574
▁darzustellen	-11.9574
▁Hafen	-11.9574
▁shipping	-11.9574
▁Drittens	-11.9574
▁Kino	-11.9575
▁representative	-11.9575
▁drüber	-11.9575
▁Royal	-11.9575
▁addiction	-11.9575
▁Leone	-11.9576
▁redesign	-11.9576
▁Meister	-11.9576
▁cop	-11.9577
▁Spain	-11.9577
▁bull	-11.9577
▁located	-11.9577
verlust	-11.9578
▁threatened	-11.958
▁workplace	-11.958
▁column	-11.9581
▁Both	-11.9582
▁Konzert	-11.9582
▁incentive	-11.9582
▁Tief	-11.9583
▁established	-11.9583
▁nukleare	-11.9583
▁hunting	-11.9585
gut	-11.9586
▁beizubringen	-11.9588
▁Moon	-11.9588
▁float	-11.9588
▁Schlagzeilen	-11.9589
▁aktiviert	-11.959
▁upward	-11.9591
▁someday	-11.9592
▁pose	-11.9592
▁üblich	-11.9592
▁jagen	-11.9594
▁Sprechen	-11.9594
▁dünn	-11.9594
70	-11.9595
span	-11.9595
▁printed	-11.9596
▁Peru	-11.9597
▁Cape	-11.9597
▁Darm	-11.9599
durch	-11.9601
▁formt	-11.9606
▁lobe	-11.9608
▁aufzunehmen	-11.9611
▁anzunehmen	-11.9622
lehnen	-11.9622
▁rannte	-11.9626
▁PR	-11.9627
▁Fundament	-11.9627
worth	-11.9628
aging	-11.9628
▁eingestellt	-11.9629
▁umsetzen	-11.9633
new	-11.9635
▁Sorte	-11.9639
hnlich	-11.9639
▁Diego	-11.964
rack	-11.9643
▁specialist	-11.9647
▁direkte	-11.9649
▁breaks	-11.9651
▁Cola	-11.9655
▁friendly	-11.9656
lop	-11.9656
▁tiefen	-11.9657
▁Erfindungen	-11.9663
▁Grundlagen	-11.9664
▁Leit	-11.9665
istischen	-11.9668
▁armed	-11.9671
view	-11.9673
▁ernste	-11.9675
▁shots	-11.9675
▁tötet	-11.9675
▁gate	-11.9677
▁tight	-11.9679
▁Profil	-11.9682
▁blieben	-11.9684
tausch	-11.9685
▁erwachsen	-11.9686
▁supporting	-11.9686
▁Rettungs	-11.9686
▁seas	-11.9688
▁Home	-11.9692
uring	-11.9697
ED	-11.9697
▁Blogs	-11.9698
▁Dimension	-11.9707
▁Eisen	-11.9709
▁Bombe	-11.9709
▁Umgebungen	-11.9717
mitglieder	-11.9718
ßt	-11.972
▁Va	-11.972
▁recall	-11.9723
▁Op	-11.9723
▁secrets	-11.9727
▁merkte	-11.9729
verbrauch	-11.9731
▁Deine	-11.9732
▁Kämpfe	-11.9732
▁panic	-11.9732
qualität	-11.9733
▁tracks	-11.9734
▁langfristige	-11.9735
▁quo	-11.9737
▁125	-11.974
▁wiegt	-11.9742
liches	-11.9746
▁Erscheinung	-11.9747
Herangehensweise	-11.9749
▁Although	-11.9749
▁Entropie	-11.9749
▁Erlaubnis	-11.9749
▁Götter	-11.9749
▁Jedoch	-11.9749
▁Keith	-11.9749
▁Notwendigkeit	-11.9749
▁Urlaub	-11.9749
▁Verpflichtung	-11.9749
▁Zimbabwe	-11.9749
▁anzuwenden	-11.9749
▁aufhört	-11.9749
▁awkward	-11.9749
▁bzw	-11.9749
▁clay	-11.9749
▁entropy	-11.9749
▁excellent	-11.9749
▁geprägt	-11.9749
▁impressive	-11.9749
▁reliable	-11.9749
▁spektakulär	-11.9749
▁verbrannt	-11.9749
▁Michelangelo	-11.9749
▁OECD	-11.9749
▁Selbstmord	-11.9749
▁beteiligen	-11.9749
▁cigarette	-11.9749
▁konsumieren	-11.9749
▁Coast	-11.9749
▁mutual	-11.9749
▁aspiration	-11.9749
▁tiefgreifend	-11.9749
▁Spanish	-11.9749
▁Lagos	-11.9749
▁Wohnzimmer	-11.9749
▁Fußgänger	-11.9749
▁division	-11.9749
▁excitement	-11.9749
▁Hindu	-11.9749
▁1:	-11.975
▁Regal	-11.975
▁jedenfalls	-11.975
▁crew	-11.975
▁occasionally	-11.9751
▁Word	-11.9751
▁Redner	-11.9751
erfolg	-11.9751
▁glamourös	-11.9751
▁wohnt	-11.9751
▁transportieren	-11.9752
▁rasch	-11.9752
▁unfold	-11.9752
▁drones	-11.9752
▁aktivieren	-11.9753
▁Whereas	-11.9754
▁versetzt	-11.9754
▁slip	-11.9755
▁benannt	-11.9757
▁ausländische	-11.9758
▁UV	-11.9758
▁200,000	-11.9759
▁strike	-11.9759
▁engines	-11.9759
▁comedy	-11.976
▁client	-11.9761
▁vessel	-11.9761
▁matrix	-11.9761
▁niemandem	-11.9762
▁glue	-11.9762
▁goat	-11.9766
▁restaurants	-11.9766
atten	-11.9768
▁moralisch	-11.9768
▁Whatever	-11.9769
▁Secondly	-11.9769
▁Erzähler	-11.9769
▁performed	-11.977
▁teenager	-11.9771
kind	-11.9773
▁Origami	-11.9773
▁interviewed	-11.9775
▁Psychologen	-11.9777
faktoren	-11.9778
▁intensiv	-11.978
▁jüngere	-11.9781
▁mat	-11.9782
▁gedreht	-11.9782
▁Rennen	-11.9782
▁sixth	-11.9783
▁Verkehrs	-11.9786
▁getrieben	-11.9787
Are	-11.9789
▁offering	-11.9791
▁divers	-11.9792
▁pu	-11.9792
▁closest	-11.9793
▁wüssten	-11.9794
artigen	-11.9797
▁vent	-11.9798
▁Ly	-11.9798
▁Flaschen	-11.9802
▁blogs	-11.9804
cep	-11.9805
Go	-11.9806
▁counting	-11.9806
▁komische	-11.9811
▁arabische	-11.9811
▁Schwarz	-11.9819
▁bottles	-11.982
▁getragen	-11.9823
kologie	-11.9826
▁Weißen	-11.9827
anda	-11.9827
▁MA	-11.9828
▁Listen	-11.9831
▁Interaktionen	-11.9837
▁mechanische	-11.9838
Dienstleistungen	-11.9841
▁badly	-11.9844
active	-11.9844
▁86	-11.9845
-3	-11.9845
▁pond	-11.9848
▁irgend	-11.985
▁praktische	-11.985
motor	-11.9853
rlei	-11.9856
▁Sich	-11.9856
▁ankam	-11.9856
▁Diskussionen	-11.9858
fertig	-11.9859
school	-11.9861
▁Schwein	-11.9862
therapie	-11.9863
steigt	-11.9865
▁Energien	-11.9865
▁konzentrierte	-11.9866
▁vierten	-11.9866
▁zeit	-11.9872
▁phenomena	-11.9879
▁Restaurants	-11.9881
▁IT	-11.9885
▁Glaube	-11.9886
▁drag	-11.9887
zumachen	-11.989
page	-11.9893
▁Höhen	-11.9894
ehe	-11.9894
ira	-11.9895
▁AT	-11.9899
name	-11.9905
bble	-11.9909
▁rituals	-11.991
ffen	-11.9912
▁visuell	-11.9912
▁resolve	-11.9915
behörde	-11.9916
▁critic	-11.9921
▁blank	-11.9925
▁gemeint	-11.9926
▁bell	-11.9927
▁tragic	-11.9927
verschmutzung	-11.9927
▁Großeltern	-11.9927
▁Matrix	-11.9927
▁Nairobi	-11.9927
▁Natasha	-11.9927
▁Schizophrenie	-11.9927
▁Security	-11.9927
▁Vegas	-11.9927
▁Vulkan	-11.9927
▁administration	-11.9927
▁angewandt	-11.9927
▁beängstigend	-11.9927
▁chronic	-11.9927
▁earliest	-11.9927
▁genuine	-11.9927
▁gestohlen	-11.9927
▁hybrid	-11.9927
▁iPad	-11.9927
▁luxury	-11.9927
▁negotiate	-11.9927
▁pencil	-11.9927
▁precious	-11.9927
▁silver	-11.9927
▁terribly	-11.9927
▁Anwalt	-11.9928
▁bewiesen	-11.9928
▁harness	-11.9928
▁peinlich	-11.9928
▁canopy	-11.9928
▁gelingt	-11.9928
▁microphone	-11.9928
▁straightforward	-11.9928
▁Meeresspiegel	-11.9928
[...]
