<pad>	0
<unk>	0
<s>	0
</s>	0
en	-0
er	-1
in	-2
▁t	-3
ch	-4
▁a	-5
▁d	-6
▁w	-7
▁s	-8
▁th	-9
nd	-10
ie	-11
es	-12
▁i	-13
at	-14
on	-15
▁m	-16
as	-17
an	-18
re	-19
▁the	-20
▁b	-21
▁h	-22
st	-23
it	-24
▁o	-25
▁e	-26
ll	-27
▁u	-28
▁g	-29
ou	-30
or	-31
ich	-32
▁f	-33
ar	-34
▁in	-35
ing	-36
▁I	-37
▁n	-38
▁S	-39
le	-40
is	-41
▁c	-42
▁p	-43
▁die	-44
te	-45
▁A	-46
▁to	-47
▁v	-48
ir	-49
▁ein	-50
al	-51
▁of	-52
▁and	-53
om	-54
ig	-55
▁l	-56
▁W	-57
ed	-58
▁k	-59
▁und	-60
▁be	-61
un	-62
▁z	-63
ut	-64
ur	-65
us	-66
▁das	-67
el	-68
ion	-69
▁T	-70
et	-71
ent	-72
▁y	-73
▁D	-74
▁that	-75
▁M	-76
ro	-77
em	-78
▁ha	-79
▁we	-80
ere	-81
ic	-82
ra	-83
▁you	-84
▁B	-85
▁E	-86
▁der	-87
▁wh	-88
ten	-89
hr	-90
ve	-91
▁is	-92
▁wir	-93
▁zu	-94
il	-95
ow	-96
▁ist	-97
ter	-98
▁G	-99
▁it	-100
▁se	-101
ot	-102
▁an	-103
icht	-104
am	-105
gen	-106
ber	-107
ach	-108
se	-109
de	-110
ier	-111
lich	-112
ind	-113
ben	-114
ge	-115
▁so	-116
sch	-117
uf	-118
▁U	-119
▁re	-120
all	-121
ke	-122
▁F	-123
▁K	-124
▁un	-125
▁ver	-126
ol	-127
▁on	-128
▁ich	-129
▁P	-130
im	-131
▁es	-132
▁L	-133
▁was	-134
ct	-135
▁me	-136
he	-137
ay	-138
▁And	-139
ung	-140
▁H	-141
▁st	-142
den	-143
▁al	-144
ver	-145
▁er	-146
▁N	-147
▁this	-148
▁den	-149
▁sie	-150
um	-151
▁Sie	-152
and	-153
▁-	-154
▁j	-155
ür	-156
ck	-157
uch	-158
id	-159
ld	-160
nen	-161
▁all	-162
sen	-163
op	-164
▁nicht	-165
be	-166
ation	-167
ce	-168
▁"	-169
▁dass	-170
▁von	-171
▁for	-172
▁--	-173
ht	-174
▁R	-175
▁eine	-176
ine	-177
ann	-178
▁ab	-179
▁r	-180
▁als	-181
▁auf	-182
▁im	-183
▁V	-184
▁do	-185
▁Und	-186
est	-187
der	-188
hen	-189
ag	-190
her	-191
ill	-192
ell	-193
▁ge	-194
▁ne	-195
▁mit	-196
ess	-197
▁li	-198
ly	-199
ff	-200
▁are	-201
ith	-202
ally	-203
▁sch	-204
▁J	-205
▁man	-206
▁wie	-207
isch	-208
ist	-209
▁uns	-210
▁war	-211
ul	-212
enn	-213
aus	-214
▁have	-215
▁go	-216
▁with	-217
▁C	-218
▁So	-219
▁le	-220
▁they	-221
au	-222
kt	-223
men	-224
▁sich	-225
▁Th	-226
▁he	-227
ust	-228
out	-229
▁mo	-230
▁can	-231
ers	-232
▁as	-233
▁Z	-234
we	-235
▁O	-236
▁Ich	-237
os	-238
▁wor	-239
ab	-240
ant	-241
ad	-242
ib	-243
▁pro	-244
ern	-245
ort	-246
▁sind	-247
▁what	-248
über	-249
und	-250
▁1	-251
ön	-252
▁com	-253
ies	-254
▁at	-255
ft	-256
oo	-257
▁dies	-258
▁sp	-259
ould	-260
▁haben	-261
pp	-262
▁St	-263
▁In	-264
▁für	-265
▁about	-266
▁fr	-267
▁ex	-268
▁hat	-269
art	-270
▁not	-271
00	-272
▁aus	-273
ze	-274
ien	-275
▁We	-276
▁The	-277
ik	-278
iv	-279
▁um	-280
ein	-281
iel	-282
ese	-283
▁ch	-284
ahr	-285
▁or	-286
oll	-287
og	-288
▁som	-289
▁über	-290
hl	-291
▁des	-292
ne	-293
▁kön	-294
▁Le	-295
ight	-296
▁Das	-297
▁wer	-298
▁sa	-299
end	-300
▁Es	-301
▁dem	-302
▁my	-303
▁de	-304
▁there	-305
▁Sch	-306
qu	-307
▁pe	-308
▁Wir	-309
mer	-310
ink	-311
ive	-312
."	-313
ople	-314
▁da	-315
ate	-316
▁It	-317
▁ma	-318
▁con	-319
igen	-320
och	-321
ity	-322
▁one	-323
od	-324
▁diese	-325
▁people	-326
th	-327
▁Er	-328
▁sh	-329
▁like	-330
▁from	-331
elt	-332
ute	-333
esch	-334
ure	-335
▁Be	-336
ass	-337
▁tr	-338
ang	-339
ause	-340
ap	-341
▁ar	-342
▁also	-343
nt	-344
now	-345
▁wenn	-346
▁bec	-347
▁but	-348
ste	-349
▁us	-350
▁our	-351
▁einen	-352
ast	-353
▁out	-354
▁get	-355
ook	-356
▁Die	-357
zen	-358
▁know	-359
ensch	-360
▁just	-361
▁ih	-362
▁Ge	-363
ieren	-364
▁Pro	-365
ted	-366
▁2	-367
▁thing	-368
▁Ar	-369
▁können	-370
ear	-371
▁pl	-372
▁werden	-373
▁oder	-374
▁Y	-375
ungen	-376
▁them	-377
ick	-378
iert	-379
ild	-380
▁But	-381
▁vor	-382
oug	-383
▁these	-384
▁very	-385
▁her	-386
▁ent	-387
▁if	-388
▁up	-389
▁think	-390
▁sein	-391
▁who	-392
ert	-393
ank	-394
orm	-395
ite	-396
ah	-397
ru	-398
ound	-399
▁mach	-400
fe	-401
our	-402
one	-403
ige	-404
▁kann	-405
▁aber	-406
▁Al	-407
▁going	-408
▁by	-409
iz	-410
▁auch	-411
ud	-412
ain	-413
tw	-414
▁Mensch	-415
▁einer	-416
ack	-417
per	-418
▁Ver	-419
ät	-420
scha	-421
▁see	-422
▁gen	-423
▁Aber	-424
▁einem	-425
▁some	-426
▁act	-427
▁when	-428
ial	-429
sten	-430
ibt	-431
zt	-432
eren	-433
▁nach	-434
▁dar	-435
▁because	-436
▁An	-437
▁Un	-438
▁your	-439
▁mein	-440
ame	-441
▁di	-442
▁nur	-443
ide	-444
▁had	-445
änd	-446
olog	-447
▁more	-448
▁en	-449
pt	-450
pl	-451
age	-452
▁year	-453
ans	-454
ard	-455
▁wird	-456
▁etw	-457
ob	-458
▁sehr	-459
ak	-460
▁Re	-461
▁te	-462
▁hier	-463
▁will	-464
▁tim	-465
if	-466
▁would	-467
ischen	-468
ble	-469
reat	-470
ör	-471
▁Menschen	-472
to	-473
▁which	-474
▁ever	-475
itt	-476
ück	-477
urch	-478
ose	-479
ug	-480
äch	-481
ise	-482
▁look	-483
ple	-484
▁were	-485
ond	-486
▁their	-487
▁am	-488
▁really	-489
▁how	-490
▁mich	-491
are	-492
ous	-493
ually	-494
keit	-495
ther	-496
▁work	-497
▁♫	-498
hing	-499
▁gibt	-500
issen	-501
ens	-502
▁Te	-503
▁inter	-504
hal	-505
▁–	-506
▁Jahr	-507
▁wur	-508
▁dann	-509
▁way	-510
chen	-511
lle	-512
ong	-513
▁gro	-514
▁per	-515
▁gl	-516
▁vie	-517
heit	-518
▁here	-519
du	-520
▁Ih	-521
ect	-522
ue	-523
▁qu	-524
▁has	-525
▁world	-526
wo	-527
chn	-528
lie	-529
▁noch	-530
ment	-531
ven	-532
ign	-533
▁ste	-534
ions	-535
▁You	-536
▁time	-537
ater	-538
▁Sp	-539
▁ihr	-540
▁etwas	-541
▁then	-542
schaft	-543
ommen	-544
▁fa	-545
ia	-546
▁This	-547
ken	-548
ough	-549
▁other	-550
ub	-551
ore	-552
me	-553
▁fe	-554
▁mir	-555
eit	-556
▁every	-557
▁don	-558
▁pr	-559
▁sehen	-560
än	-561
ip	-562
▁into	-563
▁Welt	-564
▁habe	-565
▁Als	-566
▁Ein	-567
▁actually	-568
▁say	-569
yst	-570
beit	-571
rie	-572
▁could	-573
▁dieser	-574
▁bet	-575
sel	-576
auf	-577
▁mehr	-578
alk	-579
tern	-580
▁mus	-581
▁ke	-582
pr	-583
▁want	-584
▁zur	-585
▁durch	-586
▁bei	-587
▁gr	-588
ische	-589
▁things	-590
▁where	-591
▁now	-592
▁years	-593
ult	-594
▁sag	-595
▁jed	-596
▁bra	-597
▁ag	-598
ner	-599
ystem	-600
lichen	-601
▁did	-602
▁Wh	-603
▁Now	-604
ren	-605
ace	-606
▁viel	-607
cht	-608
ring	-609
▁Se	-610
etzt	-611
▁Wenn	-612
▁somet	-613
▁Leben	-614
▁alle	-615
ical	-616
▁been	-617
liche	-618
▁Fra	-619
▁They	-620
ac	-621
form	-622
▁sc	-623
▁ro	-624
▁any	-625
üs	-626
blem	-627
▁diff	-628
▁make	-629
zu	-630
▁happ	-631
▁cl	-632
ome	-633
▁Zeit	-634
▁ob	-635
▁no	-636
▁Ch	-637
▁let	-638
▁beg	-639
ry	-640
rei	-641
ile	-642
fach	-643
ost	-644
▁find	-645
▁need	-646
ungs	-647
ph	-648
▁gan	-649
fl	-650
fen	-651
▁comp	-652
klich	-653
▁tra	-654
▁zum	-655
▁wurde	-656
▁said	-657
hn	-658
▁mö	-659
inge	-660
ake	-661
▁part	-662
irst	-663
▁unser	-664
wer	-665
ice	-666
▁wür	-667
▁over	-668
▁right	-669
mt	-670
ree	-671
ory	-672
▁Ihnen	-673
ßen	-674
▁bl	-675
ähr	-676
chte	-677
▁He	-678
▁unter	-679
▁something	-680
▁sel	-681
ient	-682
▁zwe	-683
iver	-684
che	-685
▁machen	-686
assen	-687
gt	-688
ellen	-689
▁back	-690
▁wo	-691
ange	-692
illion	-693
ount	-694
▁two	-695
als	-696
iter	-697
ys	-698
able	-699
▁ihre	-700
▁got	-701
chnolog	-702
▁much	-703
erst	-704
▁wirklich	-705
▁than	-706
▁Gesch	-707
000	-708
fr	-709
▁kind	-710
fü	-711
▁3	-712
ger	-713
▁tun	-714
▁einfach	-715
▁immer	-716
red	-717
▁meine	-718
▁call	-719
ark	-720
▁those	-721
acht	-722
▁bu	-723
sp	-724
▁Kind	-725
▁first	-726
aten	-727
ittle	-728
▁weil	-729
ations	-730
bst	-731
▁bes	-732
▁Ne	-733
▁little	-734
ffen	-735
erson	-736
▁kon	-737
▁Gr	-738
▁Also	-739
cent	-740
own	-741
▁new	-742
▁lot	-743
▁imp	-744
▁woll	-745
▁fü	-746
▁Or	-747
ord	-748
?"	-749
▁lo	-750
ats	-751
way	-752
▁res	-753
▁soll	-754
ves	-755
ale	-756
iger	-757
▁ra	-758
rit	-759
▁müs	-760
eln	-761
vel	-762
▁hatte	-763
▁ges	-764
▁That	-765
▁ze	-766
hmen	-767
▁bis	-768
▁ac	-769
▁kom	-770
▁spe	-771
▁unsere	-772
▁po	-773
ase	-774
▁talk	-775
▁dieses	-776
gan	-777
▁ph	-778
▁dis	-779
▁Man	-780
▁she	-781
▁kle	-782
▁most	-783
ody	-784
ri	-785
leich	-786
nte	-787
▁Was	-788
uchen	-789
ood	-790
ving	-791
▁only	-792
▁dam	-793
▁keine	-794
hlen	-795
ied	-796
ath	-797
glich	-798
▁Leute	-799
aut	-800
..	-801
ance	-802
▁real	-803
är	-804
ated	-805
uen	-806
▁life	-807
ition	-808
▁wissen	-809
▁ad	-810
ktion	-811
ely	-812
ents	-813
▁hum	-814
▁his	-815
mal	-816
▁müssen	-817
▁day	-818
▁even	-819
▁Art	-820
▁star	-821
▁gut	-822
▁19	-823
erent	-824
ish	-825
▁diesem	-826
▁Ges	-827
▁cont	-828
ram	-829
iß	-830
inn	-831
bar	-832
▁viele	-833
xt	-834
▁vers	-835
other	-836
ges	-837
ok	-838
▁thr	-839
▁waren	-840
▁different	-841
▁take	-842
▁sagen	-843
ons	-844
▁Dinge	-845
▁sagte	-846
▁many	-847
igkeit	-848
▁Vor	-849
▁pass	-850
ichte	-851
▁fl	-852
▁off	-853
▁lie	-854
▁diesen	-855
▁good	-856
▁ide	-857
▁bin	-858
▁Jahren	-859
gl	-860
unden	-861
▁20	-862
▁groß	-863
▁bef	-864
▁does	-865
int	-866
▁su	-867
ict	-868
▁down	-869
wn	-870
▁ind	-871
▁There	-872
▁around	-873
▁hel	-874
▁eines	-875
get	-876
gend	-877
▁nat	-878
▁andere	-879
ammen	-880
▁through	-881
ont	-882
▁zwei	-883
ors	-884
▁put	-885
urn	-886
▁5	-887
act	-888
▁jetzt	-889
▁hin	-890
tel	-891
▁What	-892
llen	-893
▁kein	-894
▁Aus	-895
▁anderen	-896
▁gew	-897
ichtig	-898
▁bek	-899
iss	-900
▁pre	-901
▁wieder	-902
ität	-903
ution	-904
▁show	-905
▁10	-906
off	-907
▁verb	-908
ool	-909
usammen	-910
cess	-911
lleicht	-912
oc	-913
ahre	-914
ible	-915
▁Me	-916
▁em	-917
▁glau	-918
▁use	-919
▁Auf	-920
▁sol	-921
▁being	-922
ience	-923
▁tell	-924
wick	-925
ha	-926
ought	-927
▁alles	-928
ty	-929
▁Wie	-930
▁würde	-931
ary	-932
auen	-933
ss	-934
▁Unter	-935
vol	-936
isten	-937
▁Dies	-938
gr	-939
igh	-940
▁problem	-941
▁comm	-942
oss	-943
vor	-944
▁selbst	-945
▁same	-946
▁happen	-947
ious	-948
old	-949
▁damit	-950
ual	-951
igt	-952
▁du	-953
▁try	-954
▁inc	-955
ekt	-956
▁best	-957
▁bring	-958
ars	-959
ces	-960
▁4	-961
▁fact	-962
▁Der	-963
ede	-964
▁wen	-965
▁Ind	-966
▁stud	-967
▁ins	-968
arn	-969
▁sm	-970
▁Ent	-971
▁come	-972
geb	-973
ep	-974
yp	-975
▁gem	-976
att	-977
ower	-978
ism	-979
ian	-980
day	-981
▁fun	-982
ün	-983
▁geht	-984
ful	-985
ject	-986
halten	-987
amil	-988
▁doing	-989
▁dr	-990
▁Jahre	-991
hren	-992
▁count	-993
fter	-994
▁Pl	-995
▁human	-996
omen	-997
▁may	-998
nis	-999
ction	-1000
▁great	-1001
formation	-1002
▁Mit	-1003
ire	-1004
ically	-1005
äl	-1006
▁three	-1007
▁big	-1008
▁zurück	-1009
▁gesch	-1010
▁wä	-1011
▁lang	-1012
▁nie	-1013
▁muss	-1014
▁sur	-1015
▁denn	-1016
▁system	-1017
ved	-1018
▁hal	-1019
ade	-1020
▁bit	-1021
▁If	-1022
▁versch	-1023
▁weiter	-1024
uss	-1025
▁start	-1026
▁end	-1027
tet	-1028
▁Um	-1029
▁sim	-1030
piel	-1031
ting	-1032
▁percent	-1033
ics	-1034
▁well	-1035
▁dec	-1036
ucht	-1037
ds	-1038
öß	-1039
▁gu	-1040
▁ger	-1041
▁produ	-1042
▁ask	-1043
la	-1044
▁schon	-1045
▁zw	-1046
ize	-1047
ächlich	-1048
thing	-1049
▁called	-1050
▁pol	-1051
▁klein	-1052
▁heraus	-1053
▁pa	-1054
▁build	-1055
iden	-1056
▁bas	-1057
▁ir	-1058
▁app	-1059
▁Well	-1060
zent	-1061
von	-1062
tra	-1063
▁hand	-1064
ock	-1065
nten	-1066
stell	-1067
▁Fl	-1068
▁ben	-1069
self	-1070
ating	-1071
▁ganz	-1072
teil	-1073
▁Bl	-1074
▁again	-1075
▁gra	-1076
ahl	-1077
▁möchte	-1078
rä	-1079
üt	-1080
▁child	-1081
▁ihnen	-1082
io	-1083
▁Amer	-1084
▁quest	-1085
cial	-1086
▁made	-1087
▁vielleicht	-1088
▁Her	-1089
ork	-1090
gel	-1091
pro	-1092
its	-1093
▁Teil	-1094
ull	-1095
▁technolog	-1096
▁Arbeit	-1097
ates	-1098
esen	-1099
▁ele	-1100
bt	-1101
ler	-1102
▁long	-1103
ivers	-1104
▁import	-1105
▁zusammen	-1106
▁Ide	-1107
ek	-1108
▁rem	-1109
ities	-1110
alt	-1111
az	-1112
▁trans	-1113
▁Afr	-1114
etz	-1115
▁Kinder	-1116
atsächlich	-1117
tell	-1118
▁should	-1119
▁rel	-1120
▁einz	-1121
fahr	-1122
▁Da	-1123
▁Land	-1124
▁fra	-1125
▁learn	-1126
▁why	-1127
eld	-1128
▁own	-1129
inden	-1130
▁davon	-1131
bs	-1132
sche	-1133
▁sec	-1134
▁For	-1135
les	-1136
▁mak	-1137
▁dort	-1138
entlich	-1139
angen	-1140
hne	-1141
sam	-1142
oment	-1143
▁Nun	-1144
▁underst	-1145
ins	-1146
▁Gen	-1147
▁turn	-1148
ierte	-1149
▁exper	-1150
▁wel	-1151
rank	-1152
▁gleich	-1153
uten	-1154
▁person	-1155
▁Grund	-1156
uter	-1157
▁design	-1158
▁Beis	-1159
ational	-1160
uß	-1161
pf	-1162
▁Im	-1163
▁Tag	-1164
▁heute	-1165
zie	-1166
for	-1167
▁Hier	-1168
▁hatten	-1169
▁change	-1170
▁All	-1171
▁cour	-1172
▁letz	-1173
▁mean	-1174
anet	-1175
▁fin	-1176
▁today	-1177
ubl	-1178
▁genau	-1179
▁rec	-1180
▁after	-1181
▁thought	-1182
▁important	-1183
▁didn	-1184
▁feel	-1185
halb	-1186
▁Wissen	-1187
▁Geschichte	-1188
ope	-1189
▁idea	-1190
onom	-1191
weise	-1192
ail	-1193
▁car	-1194
ielen	-1195
▁belie	-1196
▁Bild	-1197
br	-1198
▁Nach	-1199
aum	-1200
▁Thank	-1201
ichten	-1202
▁play	-1203
erm	-1204
anden	-1205
ular	-1206
▁creat	-1207
zä	-1208
,000	-1209
chten	-1210
▁Fre	-1211
▁last	-1212
▁jem	-1213
kl	-1214
▁ihn	-1215
▁started	-1216
body	-1217
▁exp	-1218
rechen	-1219
hör	-1220
hir	-1221
ix	-1222
ica	-1223
▁its	-1224
omp	-1225
▁him	-1226
▁könnte	-1227
gar	-1228
▁drei	-1229
▁exam	-1230
ändern	-1231
▁Zu	-1232
▁Diese	-1233
äd	-1234
mlich	-1235
orn	-1236
▁200	-1237
atz	-1238
▁Ste	-1239
▁einige	-1240
▁wollen	-1241
ode	-1242
olle	-1243
oren	-1244
imm	-1245
stehen	-1246
vent	-1247
erg	-1248
▁went	-1249
over	-1250
▁paar	-1251
▁meiner	-1252
▁before	-1253
▁understand	-1254
▁still	-1255
ings	-1256
▁course	-1257
pen	-1258
▁might	-1259
▁gehen	-1260
▁sond	-1261
▁wurden	-1262
reich	-1263
atur	-1264
▁give	-1265
▁nun	-1266
▁help	-1267
erv	-1268
▁better	-1269
asser	-1270
▁darüber	-1271
▁able	-1272
ility	-1273
gram	-1274
anz	-1275
▁schw	-1276
▁another	-1277
▁eff	-1278
▁werde	-1279
bei	-1280
▁never	-1281
▁med	-1282
ina	-1283
▁erst	-1284
ache	-1285
▁Gl	-1286
utzen	-1287
▁kl	-1288
▁Problem	-1289
ieden	-1290
ists	-1291
▁bess	-1292
▁sondern	-1293
▁tatsächlich	-1294
▁story	-1295
▁Beispiel	-1296
nde	-1297
ather	-1298
▁tak	-1299
utz	-1300
▁Ab	-1301
umber	-1302
schein	-1303
ennen	-1304
▁str	-1305
▁cons	-1306
äh	-1307
▁point	-1308
für	-1309
ital	-1310
änder	-1311
▁verw	-1312
▁brain	-1313
amm	-1314
▁found	-1315
iten	-1316
▁power	-1317
▁weiß	-1318
ürlich	-1319
ährend	-1320
▁zie	-1321
ogra	-1322
ov	-1323
▁Ü	-1324
▁Geb	-1325
▁besch	-1326
▁sort	-1327
nehmen	-1328
▁bo	-1329
▁gab	-1330
▁wahr	-1331
▁unserer	-1332
▁Ihre	-1333
▁6	-1334
ander	-1335
uff	-1336
▁ago	-1337
▁kid	-1338
▁eigen	-1339
▁Kl	-1340
▁Reg	-1341
▁seine	-1342
▁Intern	-1343
ott	-1344
ugen	-1345
▁br	-1346
arch	-1347
▁Gehir	-1348
kay	-1349
▁mon	-1350
,"	-1351
ym	-1352
allen	-1353
gether	-1354
▁together	-1355
▁bede	-1356
▁next	-1357
iven	-1358
aw	-1359
amen	-1360
alth	-1361
▁Mus	-1362
rat	-1363
▁ec	-1364
▁geb	-1365
ward	-1366
▁Aut	-1367
fol	-1368
▁mal	-1369
▁wäre	-1370
ues	-1371
▁leben	-1372
▁water	-1373
▁Des	-1374
▁came	-1375
▁gel	-1376
▁New	-1377
▁place	-1378
▁school	-1379
▁Ph	-1380
ave	-1381
ata	-1382
ited	-1383
atient	-1384
enden	-1385
land	-1386
▁größ	-1387
▁vom	-1388
▁commun	-1389
▁arbeit	-1390
▁dazu	-1391
ween	-1392
velop	-1393
▁few	-1394
ingen	-1395
▁sl	-1396
volution	-1397
▁Kon	-1398
▁denke	-1399
▁imag	-1400
ED	-1401
▁comple	-1402
cted	-1403
schen	-1404
▁hät	-1405
▁number	-1406
read	-1407
▁neue	-1408
öglich	-1409
cken	-1410
achen	-1411
▁Lebens	-1412
▁En	-1413
▁finden	-1414
▁Million	-1415
gef	-1416
...	-1417
bl	-1418
▁verl	-1419
▁denken	-1420
▁kommen	-1421
▁entwick	-1422
▁used	-1423
▁sogar	-1424
▁gef	-1425
▁wichtig	-1426
▁denen	-1427
anted	-1428
▁macht	-1429
▁each	-1430
▁high	-1431
▁Hand	-1432
aufen	-1433
▁between	-1434
▁Mal	-1435
ized	-1436
▁einmal	-1437
▁technology	-1438
öff	-1439
▁art	-1440
▁gegen	-1441
gs	-1442
▁glob	-1443
eter	-1444
▁Med	-1445
ines	-1446
▁When	-1447
iness	-1448
ced	-1449
▁question	-1450
▁zwischen	-1451
▁gerade	-1452
▁Wer	-1453
▁inst	-1454
▁develop	-1455
atch	-1456
▁gemacht	-1457
▁Internet	-1458
▁De	-1459
▁Technolog	-1460
▁15	-1461
cause	-1462
▁glaube	-1463
arbeit	-1464
els	-1465
oth	-1466
▁erzä	-1467
▁Br	-1468
▁100	-1469
▁set	-1470
▁small	-1471
arm	-1472
▁interess	-1473
▁geben	-1474
▁Frauen	-1475
▁kommt	-1476
▁min	-1477
ative	-1478
hrt	-1479
▁ans	-1480
ember	-1481
ific	-1482
cy	-1483
▁ohne	-1484
ierung	-1485
ways	-1486
esting	-1487
▁funktion	-1488
mit	-1489
▁four	-1490
▁weit	-1491
▁looking	-1492
▁example	-1493
▁30	-1494
▁Gehirn	-1495
▁too	-1496
geben	-1497
kommen	-1498
ika	-1499
▁bere	-1500
▁50	-1501
▁Ihr	-1502
▁cre	-1503
▁Frage	-1504
▁Wasser	-1505
ps	-1506
ium	-1507
▁run	-1508
▁How	-1509
ule	-1510
▁done	-1511
▁organ	-1512
▁disc	-1513
▁schn	-1514
agen	-1515
uge	-1516
▁par	-1517
▁8	-1518
affen	-1519
itu	-1520
▁Because	-1521
▁met	-1522
▁old	-1523
▁expl	-1524
▁partic	-1525
▁Über	-1526
▁9	-1527
▁TED	-1528
▁el	-1529
▁näch	-1530
▁data	-1531
uer	-1532
▁letzten	-1533
ably	-1534
▁Ex	-1535
atter	-1536
▁doesn	-1537
▁bi	-1538
aterial	-1539
▁nichts	-1540
unkt	-1541
▁form	-1542
▁women	-1543
▁zeigen	-1544
hand	-1545
▁ihren	-1546
▁7	-1547
▁love	-1548
▁Stud	-1549
▁würden	-1550
▁irgend	-1551
▁cell	-1552
dem	-1553
▁grow	-1554
ts	-1555
▁Is	-1556
▁At	-1557
▁dafür	-1558
elle	-1559
▁vis	-1560
tz	-1561
ationen	-1562
▁wr	-1563
▁light	-1564
▁cent	-1565
tschaft	-1566
alen	-1567
▁konnte	-1568
▁passiert	-1569
▁live	-1570
▁verschieden	-1571
stellen	-1572
▁ersten	-1573
▁sieht	-1574
▁Ant	-1575
▁inv	-1576
▁jeder	-1577
zeit	-1578
▁wanted	-1579
gew	-1580
▁second	-1581
immt	-1582
ält	-1583
▁care	-1584
ement	-1585
pe	-1586
gie	-1587
gest	-1588
anke	-1589
▁famil	-1590
ures	-1591
ikan	-1592
▁whole	-1593
▁reg	-1594
▁lar	-1595
▁poss	-1596
▁gener	-1597
▁Univers	-1598
aub	-1599
ften	-1600
▁Pr	-1601
▁million	-1602
▁verstehen	-1603
▁sk	-1604
ross	-1605
oy	-1606
ös	-1607
led	-1608
▁Fr	-1609
▁Prozent	-1610
achte	-1611
▁eng	-1612
▁Eine	-1613
▁während	-1614
▁trying	-1615
ness	-1616
▁reas	-1617
▁daran	-1618
fer	-1619
net	-1620
cept	-1621
here	-1622
rupp	-1623
▁Millionen	-1624
▁dra	-1625
▁mag	-1626
ogen	-1627
▁polit	-1628
▁besser	-1629
under	-1630
▁War	-1631
▁stand	-1632
unde	-1633
yn	-1634
wort	-1635
iele	-1636
▁etwa	-1637
▁chang	-1638
▁working	-1639
oney	-1640
ilm	-1641
▁mind	-1642
selves	-1643
▁tre	-1644
▁phys	-1645
▁sub	-1646
ense	-1647
ider	-1648
▁away	-1649
▁ander	-1650
▁As	-1651
▁always	-1652
esehen	-1653
fin	-1654
▁norm	-1655
▁resp	-1656
▁warum	-1657
los	-1658
▁begin	-1659
ives	-1660
▁read	-1661
▁Daten	-1662
▁lassen	-1663
▁erste	-1664
vers	-1665
▁Comp	-1666
▁econom	-1667
▁children	-1668
enten	-1669
▁prob	-1670
wir	-1671
▁less	-1672
ma	-1673
▁believe	-1674
weg	-1675
▁bus	-1676
▁dire	-1677
ster	-1678
▁anim	-1679
▁fast	-1680
essen	-1681
▁mensch	-1682
▁sollten	-1683
cher	-1684
▁sollte	-1685
agt	-1686
gehen	-1687
▁natürlich	-1688
▁Fe	-1689
alls	-1690
ideo	-1691
jekt	-1692
▁Idee	-1693
▁cap	-1694
▁Person	-1695
▁Geld	-1696
▁book	-1697
▁health	-1698
amp	-1699
▁meinen	-1700
▁country	-1701
zeug	-1702
▁Mon	-1703
unk	-1704
▁acc	-1705
ural	-1706
ollar	-1707
▁meinem	-1708
ischer	-1709
▁könnten	-1710
ands	-1711
▁supp	-1712
ußer	-1713
ries	-1714
▁My	-1715
▁schnell	-1716
äng	-1717
ivid	-1718
illi	-1719
▁pict	-1720
▁cor	-1721
hip	-1722
sy	-1723
▁ja	-1724
▁Raum	-1725
▁Schw	-1726
schied	-1727
row	-1728
▁dre	-1729
▁meisten	-1730
akt	-1731
▁hard	-1732
tre	-1733
amer	-1734
▁frien	-1735
▁Tr	-1736
▁wollte	-1737
licher	-1738
▁ganze	-1739
▁große	-1740
▁abs	-1741
▁jemand	-1742
isen	-1743
▁using	-1744
err	-1745
raft	-1746
▁Weg	-1747
▁space	-1748
▁ziemlich	-1749
▁sprechen	-1750
.000	-1751
hin	-1752
ilt	-1753
▁means	-1754
▁System	-1755
dern	-1756
▁ihrer	-1757
ruck	-1758
adt	-1759
ünd	-1760
▁cou	-1761
▁aut	-1762
▁mod	-1763
▁five	-1764
▁bekommen	-1765
öglichkeit	-1766
▁thinking	-1767
ernen	-1768
▁sagt	-1769
▁ging	-1770
str	-1771
utet	-1772
▁took	-1773
lung	-1774
asch	-1775
▁kids	-1776
▁fre	-1777
▁US	-1778
ane	-1779
▁dabei	-1780
▁create	-1781
▁information	-1782
utter	-1783
▁project	-1784
press	-1785
ett	-1786
▁eig	-1787
▁such	-1788
▁maybe	-1789
uft	-1790
▁Mar	-1791
▁Verb	-1792
▁mark	-1793
fühl	-1794
▁kam	-1795
ierten	-1796
ständ	-1797
▁Dank	-1798
▁publ	-1799
legen	-1800
▁Am	-1801
▁money	-1802
▁sicher	-1803
▁everything	-1804
rop	-1805
▁hör	-1806
▁spec	-1807
▁doll	-1808
▁sing	-1809
▁arbeiten	-1810
▁Min	-1811
▁open	-1812
arth	-1813
▁darauf	-1814
onder	-1815
▁home	-1816
▁One	-1817
▁'	-1818
kun	-1819
▁become	-1820
scheinlich	-1821
örper	-1822
ets	-1823
urs	-1824
▁nehmen	-1825
ters	-1826
aff	-1827
▁under	-1828
▁att	-1829
emein	-1830
▁compan	-1831
▁process	-1832
gesch	-1833
▁energ	-1834
fte	-1835
▁nam	-1836
▁Ener	-1837
▁left	-1838
ruct	-1839
ric	-1840
annt	-1841
▁ass	-1842
gh	-1843
ald	-1844
ird	-1845
sehen	-1846
▁Schl	-1847
▁moment	-1848
▁Wissenschaft	-1849
ime	-1850
▁teach	-1851
äter	-1852
▁Ende	-1853
vern	-1854
▁Mann	-1855
imes	-1856
▁food	-1857
urz	-1858
ouse	-1859
up	-1860
▁Men	-1861
ci	-1862
▁enough	-1863
▁fut	-1864
▁walk	-1865
reiben	-1866
▁weniger	-1867
▁Ger	-1868
arly	-1869
▁quite	-1870
▁China	-1871
▁getting	-1872
nov	-1873
▁Dann	-1874
vir	-1875
▁doch	-1876
▁Inter	-1877
icher	-1878
▁cle	-1879
▁These	-1880
▁head	-1881
".	-1882
▁Kom	-1883
▁kleinen	-1884
▁interesting	-1885
ories	-1886
▁comes	-1887
ktur	-1888
▁cr	-1889
▁coll	-1890
▁hist	-1891
ga	-1892
▁Mein	-1893
ringen	-1894
reen	-1895
ilen	-1896
▁sense	-1897
sych	-1898
kunft	-1899
▁York	-1900
▁half	-1901
▁vier	-1902
▁bedeutet	-1903
▁govern	-1904
▁stop	-1905
▁Famil	-1906
llt	-1907
▁probably	-1908
▁...	-1909
▁social	-1910
uck	-1911
iere	-1912
aupt	-1913
port	-1914
▁future	-1915
abor	-1916
esten	-1917
▁energy	-1918
oot	-1919
ennt	-1920
▁She	-1921
usst	-1922
▁happened	-1923
line	-1924
▁unseren	-1925
duc	-1926
ließ	-1927
▁Vers	-1928
▁sign	-1929
▁Wo	-1930
▁bre	-1931
▁Denn	-1932
▁Pol	-1933
▁typ	-1934
▁prof	-1935
orgen	-1936
▁times	-1937
ulation	-1938
▁Dollar	-1939
ustr	-1940
ograph	-1941
▁Krank	-1942
▁Wor	-1943
▁erw	-1944
ments	-1945
cer	-1946
▁Technologie	-1947
▁pop	-1948
ertain	-1949
▁Information	-1950
äs	-1951
cke	-1952
▁heiß	-1953
▁int	-1954
▁Sache	-1955
▁planet	-1956
▁bewe	-1957
ole	-1958
▁Kre	-1959
cle	-1960
hlt	-1961
aces	-1962
▁grou	-1963
▁month	-1964
▁Eur	-1965
nah	-1966
▁talking	-1967
▁dachte	-1968
iet	-1969
▁fas	-1970
▁making	-1971
äft	-1972
ude	-1973
äus	-1974
▁stuff	-1975
par	-1976
▁co	-1977
▁beste	-1978
tty	-1979
▁welche	-1980
▁contro	-1981
▁room	-1982
ican	-1983
▁add	-1984
▁Okay	-1985
ift	-1986
▁building	-1987
▁Möglichkeit	-1988
ax	-1989
▁global	-1990
▁bringen	-1991
▁conne	-1992
▁ihm	-1993
▁seit	-1994
schl	-1995
ware	-1996
▁ser	-1997
▁soz	-1998
ister	-1999
▁Ha	-2000
ron	-2001
fort	-2002
▁kleine	-2003
▁möglich	-2004
▁brauchen	-2005
▁Here	-2006
ever	-2007
▁body	-2008
eder	-2009
ices	-2010
▁Energie	-2011
▁eigentlich	-2012
▁gesehen	-2013
▁Gro	-2014
▁dist	-2015
tem	-2016
hol	-2017
▁without	-2018
▁Chr	-2019
▁cur	-2020
▁told	-2021
halt	-2022
▁Stra	-2023
▁18	-2024
man	-2025
▁pie	-2026
ately	-2027
▁Design	-2028
▁seem	-2029
▁far	-2030
hle	-2031
▁elect	-2032
▁pretty	-2033
▁Män	-2034
achsen	-2035
▁else	-2036
ior	-2037
▁pra	-2038
viron	-2039
▁hund	-2040
iff	-2041
rad	-2042
ether	-2043
▁ungl	-2044
▁großen	-2045
▁countries	-2046
▁schl	-2047
▁beaut	-2048
▁Proble	-2049
▁dollars	-2050
▁Seite	-2051
▁lives	-2052
▁side	-2053
iges	-2054
▁week	-2055
▁wenig	-2056
▁coming	-2057
▁reason	-2058
▁12	-2059
eten	-2060
▁gar	-2061
esent	-2062
iment	-2063
▁Ob	-2064
▁ber	-2065
etzen	-2066
ismus	-2067
▁voll	-2068
▁business	-2069
▁keep	-2070
▁anything	-2071
ng	-2072
▁bad	-2073
▁pos	-2074
▁jeden	-2075
",	-2076
▁El	-2077
▁job	-2078
▁Ze	-2079
▁top	-2080
▁Weise	-2081
ief	-2082
isk	-2083
▁40	-2084
▁opp	-2085
▁Stadt	-2086
▁wonder	-2087
gle	-2088
ret	-2089
ying	-2090
ipp	-2091
ional	-2092
▁ret	-2093
aps	-2094
▁fol	-2095
opf	-2096
▁Frau	-2097
▁schle	-2098
▁allow	-2099
▁across	-2100
uring	-2101
schaften	-2102
itive	-2103
▁ganzen	-2104
▁Computer	-2105
▁environ	-2106
richt	-2107
▁Spiel	-2108
ged	-2109
▁Gew	-2110
▁Let	-2111
▁Bü	-2112
▁Den	-2113
dent	-2114
esearch	-2115
▁keinen	-2116
aun	-2117
▁Str	-2118
▁men	-2119
▁sound	-2120
▁Ele	-2121
chite	-2122
▁Ged	-2123
ument	-2124
▁hoch	-2125
▁Africa	-2126
▁matter	-2127
▁says	-2128
▁außer	-2129
Ich	-2130
▁OK	-2131
▁eas	-2132
ionen	-2133
quen	-2134
erne	-2135
▁makes	-2136
▁Engl	-2137
▁Woch	-2138
▁simple	-2139
▁Menge	-2140
▁Zukunft	-2141
▁No	-2142
▁Kar	-2143
mun	-2144
ince	-2145
iving	-2146
gal	-2147
▁gesagt	-2148
irl	-2149
ernt	-2150
▁hope	-2151
▁absol	-2152
▁Grupp	-2153
nf	-2154
▁versuchen	-2155
▁je	-2156
▁science	-2157
▁seen	-2158
▁hätte	-2159
▁später	-2160
▁saw	-2161
ches	-2162
▁living	-2163
NA	-2164
tellt	-2165
▁later	-2166
▁gest	-2167
ality	-2168
▁val	-2169
▁Fall	-2170
emat	-2171
▁soc	-2172
leben	-2173
▁air	-2174
▁fig	-2175
▁sit	-2176
▁glauben	-2177
hind	-2178
▁ä	-2179
most	-2180
▁asked	-2181
vie	-2182
▁educ	-2183
▁goes	-2184
▁experience	-2185
▁Ort	-2186
▁Buch	-2187
ulture	-2188
▁particular	-2189
utes	-2190
▁On	-2191
▁hour	-2192
▁niem	-2193
▁exist	-2194
erence	-2195
ily	-2196
▁ey	-2197
where	-2198
rieben	-2199
▁Körper	-2200
▁Entwick	-2201
▁program	-2202
▁happens	-2203
▁rest	-2204
undheit	-2205
▁vielen	-2206
▁beim	-2207
▁unglaub	-2208
ape	-2209
▁phot	-2210
▁Vielen	-2211
▁having	-2212
achten	-2213
▁char	-2214
▁move	-2215
ker	-2216
ator	-2217
▁lea	-2218
ders	-2219
▁fest	-2220
app	-2221
▁col	-2222
▁Ko	-2223
▁scient	-2224
▁Lie	-2225
▁Augen	-2226
▁Danke	-2227
rib	-2228
▁Groß	-2229
▁picture	-2230
work	-2231
▁oft	-2232
▁stellen	-2233
öl	-2234
ende	-2235
▁Met	-2236
ament	-2237
iety	-2238
mittel	-2239
ähigkeit	-2240
▁ways	-2241
▁konnten	-2242
▁Do	-2243
▁nä	-2244
ization	-2245
▁computer	-2246
kte	-2247
▁Moment	-2248
erein	-2249
▁Natur	-2250
▁answer	-2251
ots	-2252
onnen	-2253
▁individ	-2254
▁fal	-2255
▁Licht	-2256
▁heißt	-2257
einander	-2258
▁complete	-2259
ene	-2260
▁rob	-2261
▁six	-2262
ants	-2263
▁family	-2264
▁eigenen	-2265
▁gehör	-2266
▁thous	-2267
▁lernen	-2268
ume	-2269
racht	-2270
athemat	-2271
▁effect	-2272
▁Ber	-2273
illiar	-2274
▁problems	-2275
▁funktioniert	-2276
stand	-2277
▁Dar	-2278
▁25	-2279
▁mil	-2280
▁irgendw	-2281
ckt	-2282
▁öff	-2283
▁land	-2284
▁indem	-2285
▁fünf	-2286
unter	-2287
▁days	-2288
▁jedes	-2289
oman	-2290
▁Planet	-2291
▁research	-2292
ared	-2293
▁single	-2294
▁Sh	-2295
nung	-2296
▁Spra	-2297
▁stre	-2298
▁equ	-2299
▁vir	-2300
▁level	-2301
▁bro	-2302
ändert	-2303
▁remember	-2304
▁schaffen	-2305
▁environment	-2306
▁perfe	-2307
ike	-2308
itz	-2309
asse	-2310
▁case	-2311
folg	-2312
▁Zwe	-2313
▁unt	-2314
▁city	-2315
▁Earth	-2316
▁ev	-2317
▁langu	-2318
äm	-2319
zeich	-2320
hrer	-2321
▁pers	-2322
▁Mutter	-2323
▁loc	-2324
ote	-2325
▁Erde	-2326
▁Haus	-2327
▁Warum	-2328
▁ble	-2329
ident	-2330
▁Jetzt	-2331
ellschaft	-2332
▁gute	-2333
reichen	-2334
▁basically	-2335
▁Probleme	-2336
ision	-2337
ready	-2338
ided	-2339
▁inside	-2340
▁komple	-2341
▁nutzen	-2342
▁Milliar	-2343
▁music	-2344
▁Produ	-2345
▁normal	-2346
üh	-2347
ritt	-2348
zahl	-2349
air	-2350
▁certain	-2351
zuf	-2352
▁almost	-2353
▁possible	-2354
ruktur	-2355
▁public	-2356
ury	-2357
▁Jo	-2358
▁bew	-2359
rück	-2360
▁Rob	-2361
▁Sel	-2362
▁besond	-2363
▁yet	-2364
▁saying	-2365
iker	-2366
▁hear	-2367
gefähr	-2368
▁Wahr	-2369
▁sure	-2370
▁extre	-2371
▁Organ	-2372
▁prote	-2373
▁young	-2374
av	-2375
▁watch	-2376
let	-2377
▁amaz	-2378
▁once	-2379
▁guy	-2380
isches	-2381
stellung	-2382
▁fund	-2383
▁biolog	-2384
▁seiner	-2385
ilder	-2386
▁began	-2387
▁while	-2388
▁Gesundheit	-2389
anc	-2390
ption	-2391
▁Uns	-2392
ash	-2393
chs	-2394
ktiv	-2395
▁USA	-2396
▁whether	-2397
uche	-2398
▁wahrscheinlich	-2399
▁verk	-2400
▁che	-2401
▁tot	-2402
▁Kont	-2403
gn	-2404
iti	-2405
▁Ang	-2406
▁sah	-2407
▁pain	-2408
▁exc	-2409
▁bed	-2410
▁dig	-2411
▁aller	-2412
▁helfen	-2413
▁Form	-2414
▁allen	-2415
ahlen	-2416
▁nothing	-2417
ield	-2418
stoff	-2419
▁already	-2420
bo	-2421
rag	-2422
auer	-2423
▁net	-2424
▁contin	-2425
▁suc	-2426
▁discover	-2427
▁anders	-2428
▁billion	-2429
▁beha	-2430
▁both	-2431
iverse	-2432
▁wrong	-2433
dle	-2434
aden	-2435
▁Not	-2436
▁incred	-2437
oice	-2438
ünst	-2439
▁betra	-2440
▁looked	-2441
▁pat	-2442
▁dise	-2443
▁genug	-2444
▁ideas	-2445
fahren	-2446
riff	-2447
▁someone	-2448
▁exact	-2449
▁Bo	-2450
▁Par	-2451
scheid	-2452
heiten	-2453
▁zeigt	-2454
▁within	-2455
▁self	-2456
▁schön	-2457
so	-2458
öt	-2459
inz	-2460
▁line	-2461
▁unserem	-2462
ush	-2463
chmal	-2464
▁neuen	-2465
▁patient	-2466
ases	-2467
▁herum	-2468
▁erzählen	-2469
▁DNA	-2470
▁lange	-2471
▁treat	-2472
glichen	-2473
ife	-2474
▁community	-2475
ages	-2476
side	-2477
▁Why	-2478
▁looks	-2479
unst	-2480
▁product	-2481
▁weg	-2482
▁Ever	-2483
denken	-2484
▁control	-2485
▁nächsten	-2486
iful	-2487
▁history	-2488
inter	-2489
ogn	-2490
inen	-2491
▁Bed	-2492
▁myself	-2493
▁invest	-2494
▁frag	-2495
▁term	-2496
gleich	-2497
▁speak	-2498
▁begann	-2499
rum	-2500
▁heart	-2501
▁CA	-2502
▁kennen	-2503
▁cells	-2504
▁true	-2505
▁often	-2506
▁cost	-2507
lichkeit	-2508
osed	-2509
imate	-2510
▁Gegen	-2511
icro	-2512
welt	-2513
stead	-2514
▁recht	-2515
▁amazing	-2516
▁iss	-2517
ention	-2518
▁heard	-2519
aby	-2520
▁Schul	-2521
▁Patient	-2522
▁kne	-2523
▁dev	-2524
wend	-2525
▁Tod	-2526
arten	-2527
▁richtig	-2528
▁order	-2529
▁wus	-2530
▁verd	-2531
▁Ja	-2532
▁cond	-2533
▁kill	-2534
▁extra	-2535
▁challen	-2536
▁erinn	-2537
▁words	-2538
ären	-2539
▁ungefähr	-2540
▁jede	-2541
▁Ma	-2542
gangen	-2543
liches	-2544
▁Gemein	-2545
▁United	-2546
▁figure	-2547
▁imagine	-2548
fra	-2549
▁bauen	-2550
▁universe	-2551
▁Sta	-2552
▁Bere	-2553
▁girl	-2554
▁mass	-2555
▁ü	-2556
▁mar	-2557
umen	-2558
▁couple	-2559
ösen	-2560
▁ur	-2561
▁Nicht	-2562
▁alt	-2563
ollow	-2564
kennen	-2565
iol	-2566
▁To	-2567
uchte	-2568
vious	-2569
forder	-2570
▁erf	-2571
oral	-2572
ivity	-2573
zus	-2574
zieh	-2575
▁train	-2576
▁works	-2577
fä	-2578
ultur	-2579
▁built	-2580
▁gemein	-2581
▁wa	-2582
chan	-2583
▁Kunst	-2584
▁bevor	-2585
eah	-2586
undert	-2587
▁night	-2588
ians	-2589
zess	-2590
▁aff	-2591
▁mid	-2592
▁nah	-2593
▁Selbst	-2594
▁hundred	-2595
▁months	-2596
▁liegt	-2597
▁psych	-2598
▁result	-2599
ituation	-2600
▁bisschen	-2601
▁class	-2602
ination	-2603
less	-2604
▁Projekt	-2605
fle	-2606
▁Du	-2607
▁beautiful	-2608
innen	-2609
▁entire	-2610
▁hö	-2611
▁Ideen	-2612
▁Leuten	-2613
ones	-2614
▁age	-2615
▁must	-2616
▁friends	-2617
▁Planeten	-2618
Wh	-2619
▁eing	-2620
▁klar	-2621
▁mother	-2622
▁mot	-2623
▁seinen	-2624
äre	-2625
iting	-2626
▁insp	-2627
▁cancer	-2628
äche	-2629
▁full	-2630
ße	-2631
▁Em	-2632
▁sw	-2633
▁Forsch	-2634
▁Musik	-2635
▁Fähigkeit	-2636
▁ho	-2637
aper	-2638
▁Fot	-2639
▁sei	-2640
▁kurz	-2641
▁Schule	-2642
▁wicht	-2643
zust	-2644
▁schwer	-2645
▁government	-2646
ums	-2647
▁link	-2648
▁trad	-2649
▁sex	-2650
▁pay	-2651
▁face	-2652
▁verändern	-2653
▁Informationen	-2654
ress	-2655
▁rad	-2656
▁Punkt	-2657
spr	-2658
▁Für	-2659
▁überall	-2660
The	-2661
▁60	-2662
▁front	-2663
▁language	-2664
▁group	-2665
▁incre	-2666
▁Erfahr	-2667
mut	-2668
▁ant	-2669
llig	-2670
▁stehen	-2671
▁sagten	-2672
ieht	-2673
▁inner	-2674
cl	-2675
▁defin	-2676
▁piece	-2677
▁material	-2678
mö	-2679
ired	-2680
▁follow	-2681
aur	-2682
▁erl	-2683
▁species	-2684
cc	-2685
nitt	-2686
outh	-2687
▁dich	-2688
▁ident	-2689
une	-2690
▁places	-2691
▁isn	-2692
ivil	-2693
omet	-2694
▁gehört	-2695
imens	-2696
▁los	-2697
▁Arten	-2698
▁Unternehmen	-2699
▁until	-2700
▁everybody	-2701
utzt	-2702
▁Bet	-2703
▁wasn	-2704
▁model	-2705
▁Wirtschaft	-2706
▁Mäd	-2707
anken	-2708
▁video	-2709
▁market	-2710
nisse	-2711
▁Kopf	-2712
▁neur	-2713
lt	-2714
▁erkl	-2715
▁Dem	-2716
▁dest	-2717
▁terr	-2718
▁darum	-2719
▁appro	-2720
satz	-2721
▁nennen	-2722
lagen	-2723
▁decided	-2724
▁Antwort	-2725
▁schwier	-2726
por	-2727
anzen	-2728
▁Krie	-2729
▁Fragen	-2730
▁education	-2731
▁Milliarden	-2732
immen	-2733
▁completely	-2734
omes	-2735
ested	-2736
▁eben	-2737
▁Männer	-2738
ateg	-2739
▁199	-2740
ering	-2741
▁quick	-2742
raum	-2743
▁behav	-2744
voll	-2745
▁ihrem	-2746
▁innov	-2747
asst	-2748
ußen	-2749
▁dru	-2750
▁chem	-2751
▁reden	-2752
▁erh	-2753
▁musste	-2754
▁Meine	-2755
met	-2756
▁anf	-2757
▁large	-2758
▁Pe	-2759
werk	-2760
▁Gra	-2761
▁Vie	-2762
ential	-2763
▁spend	-2764
▁Gebä	-2765
▁writ	-2766
▁anderes	-2767
▁mess	-2768
▁Dieses	-2769
▁hinter	-2770
stit	-2771
▁States	-2772
▁Geschichten	-2773
ton	-2774
izin	-2775
▁bereits	-2776
▁emot	-2777
▁study	-2778
▁exactly	-2779
▁80	-2780
reif	-2781
▁Glück	-2782
▁nature	-2783
▁stories	-2784
inner	-2785
▁miss	-2786
▁became	-2787
heim	-2788
ibly	-2789
▁Bes	-2790
▁großart	-2791
kten	-2792
▁Exper	-2793
▁though	-2794
wohl	-2795
gende	-2796
ortun	-2797
▁euch	-2798
▁Jahrh	-2799
▁intern	-2800
▁object	-2801
osph	-2802
plic	-2803
face	-2804
ienen	-2805
▁taking	-2806
▁word	-2807
▁animals	-2808
▁students	-2809
▁happening	-2810
wor	-2811
acter	-2812
med	-2813
ielt	-2814
alten	-2815
▁tool	-2816
▁Every	-2817
▁entwickelt	-2818
ctor	-2819
▁son	-2820
▁schein	-2821
▁knew	-2822
▁view	-2823
▁kinds	-2824
▁Afrika	-2825
▁prov	-2826
▁itself	-2827
ilfe	-2828
rieb	-2829
▁Goo	-2830
▁Gott	-2831
▁India	-2832
▁fragen	-2833
▁Can	-2834
▁det	-2835
▁red	-2836
▁law	-2837
▁oce	-2838
▁Mode	-2839
▁sens	-2840
ftware	-2841
▁erkennen	-2842
bed	-2843
ides	-2844
zept	-2845
igten	-2846
▁Film	-2847
▁America	-2848
▁erreichen	-2849
▁somebody	-2850
inal	-2851
▁share	-2852
▁Minuten	-2853
▁struct	-2854
▁Zusammen	-2855
istan	-2856
▁ourselves	-2857
ging	-2858
▁adv	-2859
▁steht	-2860
▁woman	-2861
▁engine	-2862
▁learned	-2863
▁besonders	-2864
▁tro	-2865
▁wunder	-2866
▁Lös	-2867
▁cool	-2868
▁since	-2869
ability	-2870
▁halten	-2871
▁Gesellschaft	-2872
▁Ur	-2873
▁priv	-2874
▁Mädchen	-2875
▁deal	-2876
▁oben	-2877
▁namens	-2878
▁society	-2879
▁past	-2880
▁repr	-2881
▁house	-2882
▁success	-2883
uster	-2884
▁spielen	-2885
ütz	-2886
▁Di	-2887
ively	-2888
▁Netz	-2889
bra	-2890
▁won	-2891
▁minutes	-2892
inning	-2893
▁Verhalten	-2894
icken	-2895
▁gets	-2896
▁entde	-2897
▁hätten	-2898
▁Familie	-2899
▁benutzen	-2900
▁verschiedene	-2901
▁mem	-2902
▁sow	-2903
ature	-2904
▁Gener	-2905
▁Spe	-2906
igung	-2907
▁gerne	-2908
fang	-2909
haps	-2910
▁conf	-2911
▁seinem	-2912
ests	-2913
▁dir	-2914
▁techn	-2915
▁complex	-2916
ommt	-2917
▁company	-2918
ral	-2919
▁questions	-2920
immer	-2921
▁themselves	-2922
reit	-2923
▁God	-2924
▁dep	-2925
▁av	-2926
▁along	-2927
▁turns	-2928
äuf	-2929
bare	-2930
▁sym	-2931
▁huge	-2932
ocus	-2933
▁var	-2934
▁Oder	-2935
▁against	-2936
stra	-2937
▁name	-2938
▁machte	-2939
▁Entscheid	-2940
▁relations	-2941
▁Kön	-2942
▁meet	-2943
▁prop	-2944
▁stat	-2945
▁wind	-2946
▁darin	-2947
▁Indien	-2948
zug	-2949
unge	-2950
grund	-2951
▁hören	-2952
▁game	-2953
▁hours	-2954
▁rather	-2955
onne	-2956
ichen	-2957
ource	-2958
indung	-2959
uchten	-2960
▁Fol	-2961
▁cir	-2962
icult	-2963
▁Flug	-2964
▁colle	-2965
▁na	-2966
gung	-2967
änger	-2968
▁ones	-2969
▁opportun	-2970
itting	-2971
▁created	-2972
ager	-2973
reis	-2974
▁free	-2975
bild	-2976
scheiden	-2977
▁cra	-2978
▁ähn	-2979
▁Wort	-2980
▁Sc	-2981
▁fly	-2982
wards	-2983
▁Them	-2984
▁bott	-2985
▁Gruppe	-2986
▁Google	-2987
▁extrem	-2988
▁Then	-2989
▁oper	-2990
haupt	-2991
ished	-2992
liegen	-2993
50	-2994
erk	-2995
▁pot	-2996
▁statt	-2997
▁Sk	-2998
▁Herz	-2999
▁least	-3000
anten	-3001
▁Macht	-3002
ahn	-3003
ames	-3004
▁opt	-3005
▁wohl	-3006
▁couldn	-3007
ologie	-3008
▁focus	-3009
oter	-3010
▁mov	-3011
▁Doch	-3012
▁meas	-3013
▁pred	-3014
▁Gefühl	-3015
▁tradition	-3016
▁guys	-3017
▁risk	-3018
▁Beweg	-3019
▁Ergeb	-3020
▁worked	-3021
iste	-3022
roll	-3023
▁jedem	-3024
ump	-3025
ächt	-3026
gramm	-3027
▁sechs	-3028
▁braucht	-3029
neh	-3030
▁Sü	-3031
▁del	-3032
▁liter	-3033
▁Angst	-3034
▁Richt	-3035
richten	-3036
▁Some	-3037
▁sometimes	-3038
▁Bilder	-3039
▁difficult	-3040
▁Vielleicht	-3041
▁Ir	-3042
▁Bei	-3043
▁aud	-3044
▁Auto	-3045
ließlich	-3046
merk	-3047
ples	-3048
annte	-3049
endet	-3050
▁Eltern	-3051
▁Fü	-3052
▁Weil	-3053
lo	-3054
weit	-3055
▁eins	-3056
▁lead	-3057
▁Durch	-3058
▁others	-3059
▁American	-3060
ef	-3061
▁Kor	-3062
gestellt	-3063
▁Patienten	-3064
ey	-3065
▁ries	-3066
▁gesam	-3067
▁thousands	-3068
▁Jahrhundert	-3069
esse	-3070
punkt	-3071
▁invol	-3072
▁disease	-3073
orden	-3074
▁state	-3075
▁Sprache	-3076
▁vorstellen	-3077
sh	-3078
▁ange	-3079
▁Far	-3080
ützen	-3081
▁gave	-3082
▁early	-3083
iqu	-3084
▁11	-3085
▁Kn	-3086
▁Lin	-3087
▁news	-3088
ined	-3089
inger	-3090
▁happy	-3091
fall	-3092
bes	-3093
▁hoff	-3094
▁glück	-3095
ams	-3096
führt	-3097
istic	-3098
▁redu	-3099
▁third	-3100
▁anal	-3101
tend	-3102
▁systems	-3103
▁Fir	-3104
▁lik	-3105
▁Freund	-3106
ätz	-3107
▁deep	-3108
▁lots	-3109
▁amount	-3110
▁Ad	-3111
illions	-3112
▁Kultur	-3113
osp	-3114
▁instead	-3115
▁everyone	-3116
hler	-3117
▁poor	-3118
▁listen	-3119
cul	-3120
▁non	-3121
▁hold	-3122
▁Vater	-3123
▁field	-3124
▁richt	-3125
schnitt	-3126
▁einigen	-3127
▁erhalten	-3128
▁arm	-3129
▁Stunden	-3130
▁irgendwie	-3131
ask	-3132
ekte	-3133
▁micro	-3134
▁entwickeln	-3135
▁Bi	-3136
iken	-3137
indet	-3138
▁welt	-3139
▁einge	-3140
▁behavior	-3141
aug	-3142
▁Oh	-3143
▁network	-3144
icherheit	-3145
▁verschiedenen	-3146
view	-3147
öhn	-3148
hlte	-3149
ässt	-3150
▁bewegen	-3151
▁natural	-3152
uh	-3153
utions	-3154
▁beiden	-3155
igte	-3156
▁manchmal	-3157
ante	-3158
anger	-3159
antast	-3160
▁16	-3161
of	-3162
apt	-3163
akter	-3164
ither	-3165
zeugen	-3166
cing	-3167
▁neu	-3168
▁taken	-3169
▁Veränder	-3170
▁arg	-3171
amera	-3172
▁Char	-3173
▁Luft	-3174
▁film	-3175
▁relig	-3176
▁outside	-3177
▁Bro	-3178
▁Rück	-3179
▁Städ	-3180
▁relationship	-3181
apan	-3182
iben	-3183
▁behind	-3184
▁intell	-3185
▁wollten	-3186
itions	-3187
▁difference	-3188
ison	-3189
ried	-3190
tens	-3191
äten	-3192
▁inte	-3193
▁führen	-3194
▁bestimm	-3195
▁collect	-3196
sk	-3197
▁erk	-3198
aster	-3199
▁ändern	-3200
▁auss	-3201
▁pick	-3202
▁black	-3203
▁seven	-3204
▁stell	-3205
!"	-3206
▁recent	-3207
ehen	-3208
ölker	-3209
▁genet	-3210
▁changed	-3211
▁machine	-3212
▁learning	-3213
hnt	-3214
ning	-3215
ising	-3216
▁impro	-3217
▁nämlich	-3218
▁interact	-3219
▁leg	-3220
▁close	-3221
▁einzige	-3222
pfen	-3223
▁ang	-3224
alität	-3225
system	-3226
▁cut	-3227
▁mult	-3228
▁death	-3229
▁einzel	-3230
▁vorher	-3231
▁HI	-3232
▁area	-3233
▁Hause	-3234
▁Europe	-3235
▁14	-3236
▁oil	-3237
ester	-3238
▁Sinn	-3239
Oh	-3240
St	-3241
uz	-3242
ony	-3243
▁frü	-3244
▁Meer	-3245
▁Krebs	-3246
▁Masch	-3247
ney	-3248
alax	-3249
▁Video	-3250
▁Sachen	-3251
▁century	-3252
ully	-3253
▁online	-3254
▁unterschied	-3255
pect	-3256
wand	-3257
ublik	-3258
▁Techn	-3259
▁Regierung	-3260
▁cann	-3261
lossen	-3262
▁Bezieh	-3263
▁besten	-3264
▁middle	-3265
▁record	-3266
▁dein	-3267
▁verändert	-3268
imp	-3269
oms	-3270
häng	-3271
▁sage	-3272
aktion	-3273
▁green	-3274
▁connect	-3275
▁verwenden	-3276
ards	-3277
uren	-3278
▁pattern	-3279
ence	-3280
▁201	-3281
▁eher	-3282
tt	-3283
▁super	-3284
▁common	-3285
▁unglaublich	-3286
ikro	-3287
opp	-3288
▁HIV	-3289
▁Material	-3290
ased	-3291
ummer	-3292
▁90	-3293
▁eyes	-3294
erweise	-3295
▁moving	-3296
▁perhaps	-3297
▁easy	-3298
▁test	-3299
▁given	-3300
▁Organis	-3301
▁innerhalb	-3302
okrat	-3303
unch	-3304
▁Fahr	-3305
▁John	-3306
▁fand	-3307
▁event	-3308
▁beginnen	-3309
▁yourself	-3310
rü	-3311
▁experiment	-3312
▁menschlichen	-3313
▁lim	-3314
▁Kindern	-3315
bere	-3316
▁sug	-3317
▁leave	-3318
gang	-3319
▁indust	-3320
▁Gebäude	-3321
▁Hö	-3322
▁Beg	-3323
▁Ziel	-3324
▁short	-3325
▁turned	-3326
▁Ke	-3327
▁tem	-3328
▁eight	-3329
▁Heraus	-3330
▁comput	-3331
▁getan	-3332
uld	-3333
▁Stück	-3334
▁wegen	-3335
▁Roboter	-3336
rew	-3337
tete	-3338
▁Werk	-3339
▁Aufga	-3340
▁offen	-3341
▁terms	-3342
▁überhaupt	-3343
ände	-3344
beite	-3345
▁Part	-3346
genommen	-3347
ply	-3348
ufen	-3349
▁incl	-3350
▁serv	-3351
▁const	-3352
▁hands	-3353
▁explain	-3354
▁absolute	-3355
▁population	-3356
▁jour	-3357
▁takes	-3358
eh	-3359
▁Cl	-3360
▁cities	-3361
▁culture	-3362
zustellen	-3363
aren	-3364
berfl	-3365
ließen	-3366
zieren	-3367
▁needs	-3368
andel	-3369
▁Gleich	-3370
gress	-3371
uelle	-3372
▁break	-3373
▁Dieser	-3374
▁Länder	-3375
▁beginning	-3376
jor	-3377
augh	-3378
wert	-3379
▁fort	-3380
▁obvious	-3381
ana	-3382
ling	-3383
▁low	-3384
▁occ	-3385
▁tut	-3386
text	-3387
▁seeing	-3388
▁finally	-3389
▁wonderful	-3390
▁gleichen	-3391
hy	-3392
min	-3393
▁17	-3394
▁ern	-3395
▁Chris	-3396
▁interessant	-3397
zy	-3398
ially	-3399
▁beob	-3400
▁paper	-3401
▁Chin	-3402
▁fish	-3403
▁zer	-3404
▁Har	-3405
▁Just	-3406
▁zwar	-3407
▁versucht	-3408
▁Mil	-3409
▁archite	-3410
▁schauen	-3411
▁communic	-3412
▁personal	-3413
oud	-3414
▁Mo	-3415
idence	-3416
▁Umwelt	-3417
▁sozial	-3418
▁fantast	-3419
lev	-3420
▁inde	-3421
▁stra	-3422
völker	-3423
▁parts	-3424
▁cannot	-3425
▁Lage	-3426
▁desc	-3427
▁pract	-3428
▁Anfang	-3429
▁friend	-3430
auben	-3431
▁local	-3432
▁father	-3433
haft	-3434
▁Res	-3435
▁allem	-3436
isieren	-3437
▁profess	-3438
▁ocean	-3439
▁fundament	-3440
urt	-3441
orie	-3442
▁Stellen	-3443
▁Kle	-3444
▁squ	-3445
ology	-3446
▁reach	-3447
▁Wochen	-3448
▁during	-3449
year	-3450
▁image	-3451
▁Universum	-3452
▁evolution	-3453
▁Fort	-3454
▁Herausforder	-3455
rab	-3456
▁blue	-3457
▁World	-3458
bte	-3459
alif	-3460
onen	-3461
▁Car	-3462
▁ill	-3463
▁ster	-3464
▁longer	-3465
▁digital	-3466
▁mathemat	-3467
part	-3468
elten	-3469
▁simply	-3470
▁Rest	-3471
▁spra	-3472
▁companies	-3473
co	-3474
ama	-3475
ängt	-3476
▁verst	-3477
wär	-3478
▁Su	-3479
oten	-3480
▁cal	-3481
ently	-3482
▁mole	-3483
▁grand	-3484
▁realized	-3485
umm	-3486
▁Bau	-3487
▁Zum	-3488
enne	-3489
omat	-3490
▁powerful	-3491
mm	-3492
▁Je	-3493
haus	-3494
▁sat	-3495
▁scale	-3496
▁expect	-3497
▁niemand	-3498
▁treffen	-3499
verage	-3500
▁major	-3501
▁thank	-3502
▁Publik	-3503
book	-3504
▁access	-3505
▁needed	-3506
▁perform	-3507
▁stay	-3508
agn	-3509
▁team	-3510
▁meines	-3511
▁mussten	-3512
▁Entwicklung	-3513
oun	-3514
pid	-3515
ziehen	-3516
▁moral	-3517
▁Prozess	-3518
▁whatever	-3519
▁Erfahrung	-3520
kü	-3521
▁Zug	-3522
baren	-3523
▁Tier	-3524
▁bereit	-3525
▁arbeite	-3526
lam	-3527
achst	-3528
nahme	-3529
▁entf	-3530
▁Japan	-3531
▁Tiere	-3532
Well	-3533
▁Lehrer	-3534
ove	-3535
▁Kap	-3536
sicht	-3537
▁size	-3538
▁Typ	-3539
▁bir	-3540
▁Dingen	-3541
▁Mittel	-3542
▁ko	-3543
iale	-3544
▁May	-3545
▁Nat	-3546
▁Prä	-3547
▁sun	-3548
fully	-3549
▁economic	-3550
▁obs	-3551
▁ple	-3552
iziert	-3553
▁kamen	-3554
▁robot	-3555
▁special	-3556
by	-3557
▁fore	-3558
ources	-3559
▁tried	-3560
▁weitere	-3561
hor	-3562
lungs	-3563
▁enc	-3564
ahren	-3565
▁People	-3566
▁parents	-3567
zub	-3568
ledge	-3569
▁Tages	-3570
▁nächste	-3571
hood	-3572
chter	-3573
▁Essen	-3574
▁wusste	-3575
bel	-3576
ills	-3577
ingt	-3578
ritte	-3579
▁surv	-3580
▁surpr	-3581
▁interested	-3582
af	-3583
▁post	-3584
▁present	-3585
ox	-3586
bor	-3587
auso	-3588
▁media	-3589
▁vö	-3590
▁198	-3591
▁Freunde	-3592
ötz	-3593
ächst	-3594
▁felt	-3595
▁Verein	-3596
▁fühlen	-3597
▁reality	-3598
cin	-3599
▁hol	-3600
inary	-3601
▁conc	-3602
▁enorm	-3603
fgh	-3604
▁Seit	-3605
▁Trans	-3606
▁Grunde	-3607
▁erre	-3608
▁buy	-3609
▁Klim	-3610
▁okay	-3611
acy	-3612
▁13	-3613
▁21	-3614
isse	-3615
▁Job	-3616
▁orig	-3617
▁perfect	-3618
▁Geschäft	-3619
▁jo	-3620
▁Rei	-3621
▁viol	-3622
▁ground	-3623
▁solche	-3624
▁verste	-3625
▁quickly	-3626
▁Sicherheit	-3627
ised	-3628
▁feed	-3629
annten	-3630
▁press	-3631
schaffen	-3632
ails	-3633
icks	-3634
▁Pap	-3635
anach	-3636
cially	-3637
antwort	-3638
ibility	-3639
▁70	-3640
hält	-3641
▁gone	-3642
▁recogn	-3643
iot	-3644
orth	-3645
▁unten	-3646
▁strong	-3647
▁bel	-3648
▁architect	-3649
sent	-3650
udden	-3651
▁dark	-3652
▁send	-3653
▁eigene	-3654
▁schlecht	-3655
▁Vir	-3656
rieden	-3657
▁Polit	-3658
▁value	-3659
▁Struktur	-3660
elte	-3661
▁Markt	-3662
▁growth	-3663
▁support	-3664
▁menschliche	-3665
hnen	-3666
itter	-3667
▁falsch	-3668
▁worden	-3669
sein	-3670
zial	-3671
▁Web	-3672
fghan	-3673
ele	-3674
aring	-3675
▁spent	-3676
▁ability	-3677
▁fu	-3678
omin	-3679
zentr	-3680
▁requ	-3681
▁unters	-3682
▁erstaun	-3683
▁Unterschied	-3684
ived	-3685
▁hab	-3686
cious	-3687
▁Boden	-3688
▁deren	-3689
▁lässt	-3690
▁letzte	-3691
▁approach	-3692
▁Möglichkeiten	-3693
▁Tage	-3694
▁humans	-3695
▁inspir	-3696
▁feet	-3697
ban	-3698
lin	-3699
statt	-3700
▁weeks	-3701
▁wären	-3702
▁bringt	-3703
▁damals	-3704
▁jedoch	-3705
▁shows	-3706
izieren	-3707
pression	-3708
▁Publikum	-3709
iny	-3710
äss	-3711
ains	-3712
▁Sek	-3713
▁circ	-3714
▁Hilfe	-3715
reg	-3716
falls	-3717
▁Neur	-3718
isiert	-3719
▁Haupt	-3720
▁democ	-3721
▁Lassen	-3722
▁obwohl	-3723
imme	-3724
▁essen	-3725
▁animal	-3726
▁hervor	-3727
▁sitting	-3728
ai	-3729
▁direkt	-3730
▁opportunity	-3731
orning	-3732
▁grund	-3733
▁known	-3734
▁völlig	-3735
ee	-3736
merikan	-3737
▁political	-3738
▁schreiben	-3739
▁kont	-3740
You	-3741
▁key	-3742
rogen	-3743
▁either	-3744
▁gleiche	-3745
▁Pa	-3746
▁hy	-3747
ball	-3748
ouch	-3749
▁Nacht	-3750
▁stark	-3751
ürger	-3752
▁Nein	-3753
▁lost	-3754
▁ged	-3755
izing	-3756
▁economy	-3757
abil	-3758
▁Thema	-3759
ötzlich	-3760
▁fragte	-3761
▁Dr	-3762
▁Staaten	-3763
▁anderer	-3764
▁surface	-3765
bon	-3766
▁App	-3767
▁lab	-3768
▁Vort	-3769
▁bleiben	-3770
irm	-3771
What	-3772
ites	-3773
▁har	-3774
▁Meth	-3775
▁phone	-3776
▁measure	-3777
ales	-3778
▁instit	-3779
ops	-3780
ilos	-3781
▁Elekt	-3782
▁beein	-3783
▁Bereich	-3784
nal	-3785
zin	-3786
bert	-3787
usion	-3788
▁fear	-3789
iction	-3790
zellen	-3791
▁Stand	-3792
▁Woche	-3793
▁areas	-3794
▁lösen	-3795
samkeit	-3796
▁dessen	-3797
▁mechan	-3798
▁entscheiden	-3799
sc	-3800
fluss	-3801
▁pres	-3802
▁write	-3803
▁Instit	-3804
hrte	-3805
▁Right	-3806
▁Kü	-3807
▁Ro	-3808
este	-3809
▁neg	-3810
▁Gren	-3811
▁slow	-3812
▁besteht	-3813
▁respons	-3814
▁structure	-3815
▁incredible	-3816
wirk	-3817
edeut	-3818
flanzen	-3819
▁sollen	-3820
▁leaders	-3821
lex	-3822
▁hor	-3823
bol	-3824
cks	-3825
öße	-3826
rote	-3827
itzen	-3828
▁Denken	-3829
▁Monate	-3830
lef	-3831
▁Per	-3832
hören	-3833
zogen	-3834
▁virt	-3835
nahmen	-3836
▁Viele	-3837
▁suchen	-3838
aught	-3839
stein	-3840
wusst	-3841
▁Mars	-3842
▁bottom	-3843
▁verbess	-3844
▁consider	-3845
▁patients	-3846
▁betrachten	-3847
com	-3848
ograf	-3849
▁Park	-3850
▁draw	-3851
▁plan	-3852
▁prim	-3853
ierend	-3854
▁direct	-3855
▁Ben	-3856
▁Oze	-3857
▁Tre	-3858
▁blood	-3859
▁Gedanken	-3860
▁National	-3861
▁schwierig	-3862
uth	-3863
▁nu	-3864
ades	-3865
ators	-3866
▁caus	-3867
▁main	-3868
▁ment	-3869
▁based	-3870
▁attention	-3871
▁Ist	-3872
▁wouldn	-3873
▁morning	-3874
▁gemeinsam	-3875
▁dad	-3876
▁changes	-3877
▁individual	-3878
Was	-3879
▁Namen	-3880
ausende	-3881
▁ed	-3882
itze	-3883
▁eat	-3884
▁Lond	-3885
▁foot	-3886
▁cover	-3887
▁behand	-3888
▁teilen	-3889
▁Gesicht	-3890
yl	-3891
oon	-3892
▁Sym	-3893
▁Ster	-3894
▁zuvor	-3895
▁Afghan	-3896
▁genauso	-3897
oph	-3898
▁Archite	-3899
▁average	-3900
▁challenge	-3901
elbe	-3902
ilden	-3903
gebung	-3904
▁Ländern	-3905
▁numbers	-3906
ks	-3907
ips	-3908
lang	-3909
▁Dam	-3910
▁West	-3911
ustain	-3912
▁persön	-3913
▁realize	-3914
▁bar	-3915
▁box	-3916
erstör	-3917
arbeitet	-3918
▁funktionieren	-3919
▁Nahr	-3920
▁pull	-3921
▁Kraft	-3922
▁univers	-3923
ows	-3924
use	-3925
▁Kr	-3926
rift	-3927
▁Mot	-3928
▁Zellen	-3929
▁stellt	-3930
▁aw	-3931
uell	-3932
ichter	-3933
▁Innov	-3934
orge	-3935
alien	-3936
▁Tats	-3937
ission	-3938
▁sudden	-3939
▁international	-3940
▁Bra	-3941
▁step	-3942
▁benöt	-3943
osition	-3944
▁brought	-3945
chie	-3946
frast	-3947
zeigt	-3948
▁Fern	-3949
▁clos	-3950
▁Autos	-3951
▁fight	-3952
▁führt	-3953
▁trotz	-3954
▁consum	-3955
▁zweite	-3956
rän	-3957
▁ermö	-3958
▁fall	-3959
▁Familien	-3960
▁gefunden	-3961
▁Tra	-3962
wesen	-3963
▁Lösung	-3964
▁modern	-3965
▁physical	-3966
▁crit	-3967
ustrie	-3968
▁Ihren	-3969
▁Medik	-3970
▁feeling	-3971
ival	-3972
▁emp	-3973
▁Mikro	-3974
▁unseres	-3975
▁log	-3976
ances	-3977
uellen	-3978
▁London	-3979
finden	-3980
▁Liebe	-3981
▁schre	-3982
▁meaning	-3983
▁verbunden	-3984
We	-3985
▁Red	-3986
▁born	-3987
▁teil	-3988
▁größten	-3989
▁developed	-3990
kre	-3991
oes	-3992
ilar	-3993
▁ansch	-3994
▁Modell	-3995
▁photograph	-3996
inos	-3997
▁Wahl	-3998
▁emer	-3999
▁impact	-4000
▁sieben	-4001
▁sterben	-4002
oid	-4003
▁kn	-4004
ynam	-4005
▁Bar	-4006
atten	-4007
ieten	-4008
zeuge	-4009
▁comb	-4010
▁farm	-4011
ikaner	-4012
▁bitte	-4013
▁kaufen	-4014
▁vol	-4015
▁Europ	-4016
berfläche	-4017
▁tw	-4018
bene	-4019
gefühl	-4020
▁growing	-4021
▁transform	-4022
▁Our	-4023
druck	-4024
ouble	-4025
▁fail	-4026
▁Heute	-4027
▁komplex	-4028
vest	-4029
▁500	-4030
▁English	-4031
▁amerikan	-4032
▁knowledge	-4033
Das	-4034
▁Fin	-4035
▁deg	-4036
jekte	-4037
▁Hoff	-4038
▁Fisch	-4039
▁seems	-4040
▁langsam	-4041
▁scheint	-4042
isst	-4043
gegen	-4044
▁books	-4045
▁liebe	-4046
▁wrote	-4047
aliforn	-4048
▁Arbeits	-4049
▁forward	-4050
aben	-4051
mosph	-4052
ollen	-4053
▁Cent	-4054
▁Mich	-4055
▁Yeah	-4056
▁Bedeut	-4057
▁größte	-4058
▁running	-4059
iber	-4060
licht	-4061
▁Best	-4062
▁Verl	-4063
▁giving	-4064
▁literally	-4065
▁flo	-4066
▁syn	-4067
▁Frei	-4068
▁Zahl	-4069
▁hast	-4070
reifen	-4071
▁ersch	-4072
▁force	-4073
▁lesen	-4074
▁Unsere	-4075
▁theory	-4076
▁draußen	-4077
▁technologies	-4078
.,	-4079
bten	-4080
▁Kat	-4081
inzip	-4082
▁welches	-4083
▁Wissenschaftler	-4084
zw	-4085
eng	-4086
ätze	-4087
▁nice	-4088
▁national	-4089
▁Gemeinschaft	-4090
äß	-4091
bau	-4092
▁CO	-4093
ored	-4094
▁Bewegung	-4095
äuft	-4096
chsel	-4097
▁tief	-4098
prochen	-4099
▁beeinfl	-4100
jähr	-4101
ünde	-4102
produ	-4103
▁white	-4104
▁spread	-4105
ichtlich	-4106
▁climate	-4107
ieg	-4108
res	-4109
▁clear	-4110
unehmen	-4111
go	-4112
ja	-4113
idge	-4114
ücke	-4115
▁197	-4116
▁Krieg	-4117
▁Sehen	-4118
▁gebaut	-4119
igkeiten	-4120
völkerung	-4121
▁erinnern	-4122
▁Revolution	-4123
leep	-4124
▁map	-4125
▁Wert	-4126
▁nahm	-4127
▁favor	-4128
▁scientists	-4129
ube	-4130
uit	-4131
obody	-4132
▁medic	-4133
▁verschw	-4134
▁hundreds	-4135
▁understanding	-4136
In	-4137
head	-4138
▁ign	-4139
ktor	-4140
▁Jed	-4141
▁fair	-4142
estern	-4143
▁miles	-4144
▁neigh	-4145
▁größer	-4146
▁gelernt	-4147
▁starting	-4148
▁schließlich	-4149
jen	-4150
▁24	-4151
aged	-4152
▁Erw	-4153
▁led	-4154
▁Alle	-4155
▁Brit	-4156
assion	-4157
▁anyone	-4158
▁center	-4159
entlichen	-4160
▁Mag	-4161
▁gewesen	-4162
olz	-4163
usch	-4164
weis	-4165
▁Com	-4166
▁hine	-4167
▁vill	-4168
▁Medien	-4169
▁erschaffen	-4170
▁arr	-4171
kraft	-4172
▁Labor	-4173
▁color	-4174
ünstler	-4175
▁bewusst	-4176
oper	-4177
▁rein	-4178
▁Jeder	-4179
▁South	-4180
▁civil	-4181
▁gives	-4182
agieren	-4183
▁fanden	-4184
▁leicht	-4185
▁serious	-4186
Th	-4187
ploy	-4188
ochen	-4189
▁path	-4190
▁prin	-4191
▁images	-4192
▁audience	-4193
▁Natürlich	-4194
▁glücklich	-4195
▁curr	-4196
▁fert	-4197
▁sehe	-4198
▁ausge	-4199
▁visual	-4200
▁millions	-4201
▁passieren	-4202
▁alone	-4203
▁tools	-4204
▁telling	-4205
▁Programm	-4206
ex	-4207
▁et	-4208
▁Gef	-4209
▁City	-4210
▁Vert	-4211
▁soon	-4212
zeitig	-4213
▁bekannt	-4214
▁electric	-4215
▁erklären	-4216
▁Reihe	-4217
▁finan	-4218
▁gegenüber	-4219
▁Recht	-4220
▁guess	-4221
▁Schritt	-4222
▁Eis	-4223
▁bist	-4224
▁Muster	-4225
ativ	-4226
ends	-4227
ores	-4228
▁300	-4229
▁sea	-4230
▁prom	-4231
gliche	-4232
put	-4233
otyp	-4234
▁ice	-4235
▁mer	-4236
▁ref	-4237
blick	-4238
iation	-4239
▁Bürger	-4240
▁Technik	-4241
▁Tatsache	-4242
ped	-4243
▁jemals	-4244
▁wachsen	-4245
▁Tw	-4246
cond	-4247
▁Dav	-4248
▁San	-4249
▁Sol	-4250
▁Süd	-4251
▁hosp	-4252
▁daraus	-4253
▁Wahrheit	-4254
▁Verbindung	-4255
yr	-4256
cker	-4257
ersp	-4258
igent	-4259
▁cars	-4260
gewöhn	-4261
▁block	-4262
▁unterst	-4263
▁geworden	-4264
afft	-4265
▁avail	-4266
▁issue	-4267
▁nimmt	-4268
▁Studenten	-4269
org	-4270
▁übr	-4271
inder	-4272
älfte	-4273
▁dead	-4274
gessen	-4275
▁polic	-4276
▁erfolg	-4277
▁folgen	-4278
▁hinaus	-4279
ID	-4280
zens	-4281
▁flu	-4282
▁worth	-4283
▁schwar	-4284
▁Technologien	-4285
son	-4286
▁1,	-4287
iled	-4288
alter	-4289
clear	-4290
hnung	-4291
▁text	-4292
▁includ	-4293
▁Kranken	-4294
▁deshalb	-4295
mar	-4296
▁cho	-4297
▁type	-4298
▁Alles	-4299
▁mache	-4300
wirtschaft	-4301
▁miteinander	-4302
eum	-4303
iod	-4304
uchs	-4305
ules	-4306
▁196	-4307
urity	-4308
wegen	-4309
▁bege	-4310
▁bemer	-4311
vention	-4312
▁möchten	-4313
▁nachdem	-4314
▁playing	-4315
▁aussehen	-4316
▁creating	-4317
▁discovered	-4318
▁development	-4319
▁wissenschaft	-4320
▁Gem	-4321
asing	-4322
ified	-4323
▁among	-4324
▁neben	-4325
▁optim	-4326
▁Anzahl	-4327
▁travel	-4328
▁sustain	-4329
▁Richtung	-4330
bre	-4331
umb	-4332
▁Blut	-4333
▁showed	-4334
▁protect	-4335
▁suff	-4336
forsch	-4337
▁Platz	-4338
▁stage	-4339
▁movement	-4340
▁positive	-4341
▁revolution	-4342
▁mob	-4343
organ	-4344
itäten	-4345
▁neues	-4346
▁beginnt	-4347
▁concept	-4348
▁verloren	-4349
▁Tatsächlich	-4350
▁mom	-4351
zeugt	-4352
▁aren	-4353
▁road	-4354
▁Besch	-4355
▁kleines	-4356
▁anfangen	-4357
▁raus	-4358
▁offens	-4359
▁absolutely	-4360
▁Afghanistan	-4361
▁Rad	-4362
▁def	-4363
▁dro	-4364
▁est	-4365
rolle	-4366
örter	-4367
icans	-4368
▁zehn	-4369
▁kleiner	-4370
▁similar	-4371
▁Mathemat	-4372
0,	-4373
▁Bas	-4374
▁Tem	-4375
▁Tit	-4376
▁hon	-4377
▁Face	-4378
▁Stre	-4379
▁sell	-4380
▁Einige	-4381
▁recently	-4382
gor	-4383
▁cult	-4384
▁sofort	-4385
pecially	-4386
öst	-4387
▁ear	-4388
▁hig	-4389
▁verm	-4390
ras	-4391
rug	-4392
lebt	-4393
▁Erk	-4394
▁With	-4395
▁Stimme	-4396
▁attack	-4397
▁Produkt	-4398
▁industry	-4399
▁developing	-4400
▁Sicht	-4401
▁falls	-4402
▁danach	-4403
▁findet	-4404
▁gezeigt	-4405
▁schrieb	-4406
▁Krankheit	-4407
▁plötzlich	-4408
▁Ira	-4409
▁Som	-4410
▁hil	-4411
▁spir	-4412
stellt	-4413
▁konzentr	-4414
eth	-4415
aubt	-4416
wind	-4417
▁Fuß	-4418
▁eye	-4419
▁toll	-4420
▁talked	-4421
▁Aufgabe	-4422
▁eth	-4423
▁pur	-4424
▁tat	-4425
▁Aben	-4426
▁Ihrem	-4427
▁achie	-4428
▁chance	-4429
▁Chinese	-4430
▁stellte	-4431
▁entfernt	-4432
▁resources	-4433
▁Ris	-4434
bsite	-4435
▁Viel	-4436
▁Deshalb	-4437
▁incredibly	-4438
iko	-4439
ered	-4440
ragen	-4441
▁Phys	-4442
▁song	-4443
gemein	-4444
▁truth	-4445
▁issues	-4446
▁convers	-4447
▁Umgebung	-4448
anze	-4449
rael	-4450
▁egal	-4451
▁unbe	-4452
▁guten	-4453
▁Christ	-4454
▁asking	-4455
rig	-4456
fern	-4457
▁Kam	-4458
ctors	-4459
▁acht	-4460
▁wert	-4461
gorith	-4462
▁Ihrer	-4463
▁Gewalt	-4464
▁Städte	-4465
▁reasons	-4466
▁beschäft	-4467
ille	-4468
▁fur	-4469
▁voice	-4470
xy	-4471
Sch	-4472
auft	-4473
ügen	-4474
recht	-4475
▁rate	-4476
setzen	-4477
▁shape	-4478
▁genannt	-4479
▁experien	-4480
▁Rel	-4481
▁cop	-4482
▁Prof	-4483
▁camp	-4484
▁Super	-4485
▁Teile	-4486
▁benef	-4487
▁entsch	-4488
▁period	-4489
▁produce	-4490
▁lay	-4491
enken	-4492
bringen	-4493
▁bekommt	-4494
▁weltweit	-4495
▁innovation	-4496
▁Veränderung	-4497
▁Vorstellung	-4498
lim	-4499
oose	-4500
ining	-4501
▁Rolle	-4502
▁knows	-4503
▁allein	-4504
▁available	-4505
rodu	-4506
▁infl	-4507
▁Austr	-4508
▁Blick	-4509
▁aufge	-4510
▁sever	-4511
▁la	-4512
▁Arm	-4513
ändig	-4514
▁fing	-4515
▁sold	-4516
▁Eigen	-4517
▁Bildung	-4518
▁solution	-4519
▁Bedeutung	-4520
▁verwendet	-4521
▁Ju	-4522
ünden	-4523
▁pack	-4524
▁wall	-4525
▁involved	-4526
▁Situation	-4527
▁Fä	-4528
teilt	-4529
ussen	-4530
worten	-4531
▁haven	-4532
▁designed	-4533
▁evidence	-4534
▁komplett	-4535
▁situation	-4536
fore	-4537
▁save	-4538
roffen	-4539
▁Größe	-4540
achstum	-4541
▁By	-4542
▁Hälfte	-4543
▁Facebook	-4544
▁Wirklich	-4545
▁Entwicklungs	-4546
aly	-4547
▁tö	-4548
▁Team	-4549
▁fire	-4550
▁tiny	-4551
ritten	-4552
▁Reise	-4553
▁sonst	-4554
unktion	-4555
▁choice	-4556
▁Während	-4557
▁subject	-4558
▁Demokrat	-4559
omb	-4560
▁kü	-4561
hrung	-4562
unkte	-4563
▁Schwe	-4564
des	-4565
▁iP	-4566
rate	-4567
▁Tat	-4568
▁list	-4569
ichtet	-4570
▁David	-4571
▁solar	-4572
▁solve	-4573
osystem	-4574
▁Regier	-4575
▁Sonnen	-4576
▁pictures	-4577
▁cy	-4578
▁baby	-4579
▁flow	-4580
▁elekt	-4581
▁search	-4582
▁veröff	-4583
▁benutzt	-4584
▁Realität	-4585
▁nachdenken	-4586
aß	-4587
iers	-4588
▁lif	-4589
▁Stat	-4590
▁milit	-4591
▁gefähr	-4592
zufinden	-4593
▁becomes	-4594
▁soziale	-4595
▁changing	-4596
kon	-4597
▁react	-4598
▁niemals	-4599
▁especially	-4600
yond	-4601
▁samm	-4602
▁hoffe	-4603
▁länger	-4604
▁Meinung	-4605
▁compassion	-4606
itch	-4607
▁Erd	-4608
▁Zent	-4609
führen	-4610
▁beide	-4611
▁message	-4612
ique	-4613
änge	-4614
▁Hel	-4615
stens	-4616
▁Nord	-4617
▁Aktiv	-4618
▁touch	-4619
▁bigger	-4620
▁Herausforderung	-4621
rel	-4622
▁ak	-4623
racy	-4624
setz	-4625
ideos	-4626
▁refle	-4627
▁smart	-4628
▁Straßen	-4629
▁predict	-4630
▁computers	-4631
SA	-4632
cts	-4633
zte	-4634
hern	-4635
lage	-4636
legt	-4637
▁Bel	-4638
▁Kil	-4639
▁Mex	-4640
▁blind	-4641
utage	-4642
▁Chem	-4643
▁Foto	-4644
itation	-4645
▁Erfolg	-4646
▁carbon	-4647
▁street	-4648
▁jemanden	-4649
▁ann	-4650
▁fix	-4651
äsent	-4652
▁Studie	-4653
▁except	-4654
isierung	-4655
▁putting	-4656
▁erreicht	-4657
roh	-4658
▁geh	-4659
▁ult	-4660
▁yes	-4661
iesen	-4662
▁bekam	-4663
IDS	-4664
esh	-4665
inne	-4666
lied	-4667
pfer	-4668
▁conv	-4669
agement	-4670
▁function	-4671
▁erfolgreich	-4672
ags	-4673
gra	-4674
olf	-4675
band	-4676
dlich	-4677
▁mögen	-4678
▁general	-4679
▁verrück	-4680
how	-4681
▁Ken	-4682
▁Sat	-4683
▁Wind	-4684
▁alten	-4685
▁lived	-4686
▁total	-4687
▁writing	-4688
▁Entscheidungen	-4689
ms	-4690
▁Tür	-4691
▁gingen	-4692
▁groups	-4693
ißen	-4694
wood	-4695
ishing	-4696
▁trust	-4697
▁zeige	-4698
utzutage	-4699
▁medical	-4700
▁fundamental	-4701
arily	-4702
feren	-4703
▁Mitte	-4704
▁girls	-4705
▁moder	-4706
möglich	-4707
▁likely	-4708
Wir	-4709
▁Dor	-4710
▁Schü	-4711
▁drive	-4712
▁laufen	-4713
▁ziehen	-4714
▁Prinzip	-4715
ify	-4716
akes	-4717
room	-4718
▁Sau	-4719
▁bor	-4720
ected	-4721
esser	-4722
▁table	-4723
▁Europa	-4724
▁kontroll	-4725
kel	-4726
adem	-4727
äume	-4728
aking	-4729
onstr	-4730
▁died	-4731
▁nine	-4732
▁daher	-4733
▁sleep	-4734
▁beyond	-4735
▁gegeben	-4736
▁Nie	-4737
▁ball	-4738
▁sent	-4739
▁First	-4740
▁Geist	-4741
▁links	-4742
▁Straße	-4743
▁Amerika	-4744
▁bestimmt	-4745
▁genommen	-4746
▁progress	-4747
▁software	-4748
▁Mc	-4749
▁Forschung	-4750
asen	-4751
▁anc	-4752
▁fem	-4753
ziert	-4754
▁Preis	-4755
▁dream	-4756
▁bacter	-4757
▁integr	-4758
▁lieben	-4759
▁necess	-4760
▁towards	-4761
▁gek	-4762
▁Einz	-4763
▁Iran	-4764
▁rules	-4765
▁überw	-4766
▁fahren	-4767
▁Medizin	-4768
▁Generation	-4769
▁Na	-4770
uals	-4771
▁See	-4772
ellow	-4773
▁dram	-4774
▁Sonne	-4775
▁Kosten	-4776
▁schneller	-4777
▁North	-4778
▁generation	-4779
▁Nur	-4780
▁Von	-4781
ängen	-4782
üssel	-4783
▁rock	-4784
lassen	-4785
▁device	-4786
▁several	-4787
▁betrachte	-4788
sm	-4789
mung	-4790
▁Hir	-4791
olekü	-4792
ounds	-4793
ously	-4794
▁Eink	-4795
jenigen	-4796
▁Bakter	-4797
▁Zahlen	-4798
▁machten	-4799
oß	-4800
schw	-4801
▁rich	-4802
sequen	-4803
▁drugs	-4804
▁setzen	-4805
iar	-4806
back	-4807
ford	-4808
▁wid	-4809
plant	-4810
▁wish	-4811
▁danger	-4812
▁interessiert	-4813
▁Of	-4814
iate	-4815
seite	-4816
▁drug	-4817
▁evol	-4818
▁Psych	-4819
▁breat	-4820
▁peace	-4821
arbeiten	-4822
▁Mitgefühl	-4823
▁geschieht	-4824
▁Vereinigten	-4825
zü	-4826
ienst	-4827
ctions	-4828
▁speed	-4829
▁brachte	-4830
▁particularly	-4831
▁op	-4832
imal	-4833
ällt	-4834
▁Bab	-4835
älter	-4836
▁onto	-4837
▁tend	-4838
▁Gesundheits	-4839
▁herauszufinden	-4840
Pro	-4841
kehr	-4842
pped	-4843
indest	-4844
erstoff	-4845
▁nachzu	-4846
▁anybody	-4847
▁geboren	-4848
▁Oberfläche	-4849
▁Maß	-4850
▁Strom	-4851
▁motiv	-4852
▁Schauen	-4853
▁capital	-4854
▁strateg	-4855
▁conscious	-4856
▁Nachrichten	-4857
▁ca	-4858
▁Don	-4859
▁liegen	-4860
▁sounds	-4861
▁Maschine	-4862
▁Fähigkeiten	-4863
▁1.	-4864
teile	-4865
ometer	-4866
▁Firma	-4867
▁nennt	-4868
bildung	-4869
▁Hinter	-4870
▁faszin	-4871
▁Bewusst	-4872
▁fliegen	-4873
▁quality	-4874
▁verwand	-4875
piele	-4876
ätzen	-4877
▁anzu	-4878
▁near	-4879
dessen	-4880
▁moved	-4881
▁virus	-4882
▁absolut	-4883
stru	-4884
▁Meter	-4885
▁Where	-4886
▁compet	-4887
▁vision	-4888
▁character	-4889
▁oh	-4890
▁000	-4891
wissen	-4892
▁Jahrze	-4893
▁Papier	-4894
▁action	-4895
▁stimmt	-4896
▁Sex	-4897
▁akt	-4898
▁extraord	-4899
umor	-4900
▁frei	-4901
▁Kommun	-4902
▁office	-4903
▁Fortsch	-4904
▁schools	-4905
▁Ergebnis	-4906
▁Beziehung	-4907
▁potential	-4908
ada	-4909
fre	-4910
gem	-4911
oke	-4912
itet	-4913
▁rece	-4914
abhäng	-4915
▁basic	-4916
▁games	-4917
indungen	-4918
▁gesamte	-4919
▁einfache	-4920
hre	-4921
win	-4922
anda	-4923
atte	-4924
rief	-4925
▁Männ	-4926
come	-4927
itor	-4928
▁beh	-4929
▁nein	-4930
▁park	-4931
wh	-4932
▁Yes	-4933
antly	-4934
▁Maybe	-4935
▁Fehler	-4936
ological	-4937
▁showing	-4938
▁walking	-4939
▁zerstör	-4940
wirkungen	-4941
▁examples	-4942
▁obviously	-4943
▁wirtschaft	-4944
ta	-4945
▁hit	-4946
auten	-4947
▁Ding	-4948
▁Mark	-4949
▁Rich	-4950
▁mount	-4951
▁dachten	-4952
▁irgende	-4953
▁student	-4954
▁begannen	-4955
▁University	-4956
wür	-4957
atic	-4958
bald	-4959
ikel	-4960
lauf	-4961
viel	-4962
flict	-4963
▁bank	-4964
▁nahe	-4965
▁further	-4966
▁sozialen	-4967
▁certainly	-4968
▁transport	-4969
cen	-4970
ech	-4971
▁Det	-4972
▁lok	-4973
igens	-4974
▁Hoch	-4975
▁Wand	-4976
▁Will	-4977
lungen	-4978
▁essent	-4979
▁materials	-4980
▁geschrieben	-4981
ny	-4982
feld	-4983
ücken	-4984
▁entw	-4985
▁repl	-4986
▁Karte	-4987
▁Kolle	-4988
▁apart	-4989
▁track	-4990
▁Israel	-4991
▁scientific	-4992
bur	-4993
▁TV	-4994
ette	-4995
▁Vol	-4996
nehmer	-4997
▁multi	-4998
▁verfü	-4999
▁sprach	-5000
▁wichtiger	-5001
merksamkeit	-5002
zer	-5003
▁warm	-5004
▁After	-5005
▁Druck	-5006
▁separ	-5007
▁context	-5008
▁totally	-5009
ises	-5010
▁Any	-5011
artet	-5012
▁Auch	-5013
ivität	-5014
teilen	-5015
▁Islam	-5016
▁plant	-5017
▁zuerst	-5018
▁anstatt	-5019
▁Hoffnung	-5020
▁gesprochen	-5021
ami	-5022
onse	-5023
▁gas	-5024
ühren	-5025
▁heut	-5026
gendes	-5027
ämpfen	-5028
▁wants	-5029
▁starts	-5030
▁verurs	-5031
▁journey	-5032
▁chemical	-5033
▁projects	-5034
▁Aufmerksamkeit	-5035
▁400	-5036
▁Pal	-5037
▁mut	-5038
▁Russ	-5039
weisen	-5040
▁Frank	-5041
▁effic	-5042
▁histor	-5043
▁nobody	-5044
▁screen	-5045
▁biggest	-5046
▁largest	-5047
▁exciting	-5048
unger	-5049
▁Alter	-5050
▁extremely	-5051
enk	-5052
bung	-5053
ickt	-5054
more	-5055
▁ernst	-5056
▁Pflanzen	-5057
▁teachers	-5058
Die	-5059
leg	-5060
▁Terr	-5061
▁door	-5062
▁Genau	-5063
▁Behand	-5064
▁Bücher	-5065
▁bewegt	-5066
▁großer	-5067
▁tragen	-5068
▁Politik	-5069
▁everywhere	-5070
ikal	-5071
stre	-5072
▁Büro	-5073
▁results	-5074
▁gleichzeitig	-5075
schie	-5076
▁prot	-5077
▁cross	-5078
▁Leiden	-5079
▁higher	-5080
▁memory	-5081
▁terror	-5082
▁Schulen	-5083
▁particip	-5084
▁passierte	-5085
icle	-5086
▁fam	-5087
isions	-5088
▁activ	-5089
▁sahen	-5090
▁ähnlich	-5091
▁Abs	-5092
▁bald	-5093
▁meant	-5094
▁Wieder	-5095
▁hinein	-5096
▁Studien	-5097
▁neighbor	-5098
▁represent	-5099
arf	-5100
like	-5101
▁150	-5102
▁Eff	-5103
▁bill	-5104
▁camera	-5105
▁früher	-5106
plicated	-5107
▁Gruppen	-5108
▁deliver	-5109
kr	-5110
▁Ed	-5111
nete	-5112
ramm	-5113
pidem	-5114
▁carry	-5115
aughter	-5116
▁notice	-5117
▁region	-5118
▁Reaktion	-5119
ror	-5120
aute	-5121
▁Are	-5122
▁Kan	-5123
▁jen	-5124
▁Most	-5125
▁Orte	-5126
▁Künstler	-5127
▁security	-5128
▁verlassen	-5129
▁beobachten	-5130
▁Bevölkerung	-5131
erve	-5132
oming	-5133
▁Baby	-5134
▁Ress	-5135
▁gern	-5136
▁Schön	-5137
▁dynam	-5138
unately	-5139
▁verbra	-5140
▁Demokratie	-5141
▁Experiment	-5142
▁bestimmten	-5143
▁Zw	-5144
auch	-5145
▁Fle	-5146
▁Dorf	-5147
▁role	-5148
ourcen	-5149
▁Zugang	-5150
▁kosten	-5151
▁member	-5152
▁transl	-5153
▁wichtige	-5154
▁happiness	-5155
▁boy	-5156
▁hot	-5157
▁appl	-5158
▁wild	-5159
wasser	-5160
▁Seiten	-5161
▁continue	-5162
▁thousand	-5163
▁Sw	-5164
erei	-5165
imin	-5166
▁Los	-5167
front	-5168
immel	-5169
inken	-5170
leist	-5171
▁lose	-5172
ements	-5173
▁Kreat	-5174
▁trial	-5175
▁sequen	-5176
▁account	-5177
▁supposed	-5178
▁violence	-5179
▁versuchte	-5180
krie	-5181
▁bee	-5182
ground	-5183
▁graph	-5184
▁junge	-5185
▁response	-5186
▁gearbeitet	-5187
▁sod	-5188
▁Baum	-5189
▁jobs	-5190
▁Armut	-5191
▁Telef	-5192
▁clean	-5193
▁Wörter	-5194
▁threat	-5195
▁ansehen	-5196
▁intelligen	-5197
con	-5198
▁Hin	-5199
teten	-5200
▁sand	-5201
altung	-5202
▁Niger	-5203
▁finde	-5204
▁Monaten	-5205
▁private	-5206
▁Software	-5207
ery	-5208
▁kur	-5209
▁mis	-5210
eless	-5211
▁Bank	-5212
▁Plan	-5213
▁capt	-5214
▁kreat	-5215
▁named	-5216
underte	-5217
▁favorite	-5218
ley	-5219
verty	-5220
▁Ozean	-5221
▁kompl	-5222
▁näher	-5223
▁ready	-5224
▁trees	-5225
ossible	-5226
▁Regeln	-5227
▁Versuch	-5228
▁poverty	-5229
▁ständig	-5230
▁Einfluss	-5231
▁democracy	-5232
▁eventually	-5233
▁Universität	-5234
deck	-5235
▁Uhr	-5236
▁nar	-5237
zeichnet	-5238
▁connected	-5239
▁individuals	-5240
ari	-5241
the	-5242
▁Sm	-5243
rage	-5244
▁sil	-5245
▁vac	-5246
▁Bill	-5247
▁lern	-5248
ativen	-5249
▁birth	-5250
▁quant	-5251
peratur	-5252
▁Vortrag	-5253
▁Kontrolle	-5254
ohl	-5255
etze	-5256
zies	-5257
ützt	-5258
▁Tro	-5259
ulate	-5260
▁2000	-5261
▁fill	-5262
▁poll	-5263
▁conflict	-5264
▁ehr	-5265
ächen	-5266
▁Sohn	-5267
▁citi	-5268
▁empf	-5269
▁immed	-5270
▁vertra	-5271
▁Konzept	-5272
mus	-5273
▁Ag	-5274
isis	-5275
▁etc	-5276
▁ext	-5277
odies	-5278
▁adult	-5279
▁crazy	-5280
▁labor	-5281
▁natür	-5282
▁models	-5283
▁watching	-5284
sth	-5285
▁Gu	-5286
iegel	-5287
▁Lauf	-5288
▁safe	-5289
▁Morgen	-5290
▁altern	-5291
▁faster	-5292
▁sitzen	-5293
▁bessere	-5294
▁activity	-5295
▁Evolution	-5296
▁essentially	-5297
▁ö	-5298
lei	-5299
tex	-5300
▁NA	-5301
abel	-5302
ragt	-5303
▁Trä	-5304
▁Mehr	-5305
▁cause	-5306
▁meist	-5307
▁minds	-5308
▁tells	-5309
▁urban	-5310
ikation	-5311
▁Menschheit	-5312
▁offensichtlich	-5313
etic	-5314
mark	-5315
▁Col	-5316
▁tar	-5317
▁bunch	-5318
▁medizin	-5319
▁passion	-5320
▁verbessern	-5321
▁Sa	-5322
vert	-5323
astic	-5324
▁Zust	-5325
▁skin	-5326
▁Eines	-5327
▁Galax	-5328
▁plants	-5329
▁return	-5330
▁source	-5331
▁perspect	-5332
▁richtige	-5333
ils	-5334
joy	-5335
obil	-5336
▁Act	-5337
▁inf	-5338
▁rid	-5339
▁grew	-5340
▁laun	-5341
▁nied	-5342
▁Franc	-5343
▁Regen	-5344
▁prakt	-5345
▁bleibt	-5346
▁Erinner	-5347
▁Nachbar	-5348
▁richtigen	-5349
▁Fil	-5350
atory	-5351
▁Even	-5352
▁clin	-5353
▁gehe	-5354
▁mine	-5355
▁Daher	-5356
▁movie	-5357
▁worse	-5358
▁spezie	-5359
▁concern	-5360
▁village	-5361
▁einzelne	-5362
▁position	-5363
▁suddenly	-5364
▁conditions	-5365
▁communities	-5366
IT	-5367
ufe	-5368
▁Asp	-5369
▁Ord	-5370
▁Who	-5371
▁ine	-5372
▁push	-5373
▁shown	-5374
▁disapp	-5375
▁wussten	-5376
windigkeit	-5377
▁vergessen	-5378
▁Krankheiten	-5379
zwe	-5380
▁35	-5381
itte	-5382
letz	-5383
▁Gel	-5384
▁Wür	-5385
▁goal	-5386
ielten	-5387
▁galax	-5388
▁ihres	-5389
hington	-5390
ilities	-5391
▁Stelle	-5392
▁bilden	-5393
▁brains	-5394
▁nuclear	-5395
▁creative	-5396
abl	-5397
ables	-5398
▁Look	-5399
▁meth	-5400
▁affect	-5401
▁inform	-5402
▁nation	-5403
▁objects	-5404
▁hospital	-5405
▁buildings	-5406
mp	-5407
uad	-5408
upp	-5409
▁zus	-5410
eller	-5411
schlag	-5412
▁Relig	-5413
▁höher	-5414
▁appear	-5415
▁indeed	-5416
▁African	-5417
▁collabor	-5418
▁Innovation	-5419
aue	-5420
unt	-5421
▁tru	-5422
▁East	-5423
▁Paul	-5424
▁sorts	-5425
▁waste	-5426
indruck	-5427
schluss	-5428
▁Molekü	-5429
▁choose	-5430
▁großes	-5431
▁Beispiele	-5432
▁Vergangen	-5433
imen	-5434
▁rot	-5435
▁Port	-5436
ration	-5437
ruption	-5438
▁Gebiet	-5439
▁colleag	-5440
▁möglichen	-5441
ko	-5442
bit	-5443
sta	-5444
eles	-5445
ulpt	-5446
▁Arab	-5447
▁late	-5448
▁rele	-5449
aterie	-5450
ensive	-5451
▁remark	-5452
▁emotion	-5453
▁finding	-5454
▁somewhere	-5455
▁Washington	-5456
örp	-5457
plex	-5458
ünft	-5459
annen	-5460
▁Spaß	-5461
▁phen	-5462
▁site	-5463
ausend	-5464
tember	-5465
▁Orten	-5466
▁Können	-5467
entliche	-5468
▁arbeitete	-5469
▁impossible	-5470
▁extraordinary	-5471
gy	-5472
ägt	-5473
amin	-5474
ires	-5475
plan	-5476
▁Zeug	-5477
▁lands	-5478
▁larger	-5479
▁princi	-5480
▁England	-5481
▁suggest	-5482
▁teacher	-5483
▁anschauen	-5484
0.	-5485
prü	-5486
rom	-5487
uern	-5488
▁dete	-5489
▁task	-5490
▁Tagen	-5491
▁kannst	-5492
▁Grenzen	-5493
▁Schüler	-5494
▁medicine	-5495
▁Nachricht	-5496
ham	-5497
abet	-5498
▁Gut	-5499
▁Ser	-5500
▁Oper	-5501
▁Wohl	-5502
▁above	-5503
▁dahin	-5504
▁domin	-5505
▁minute	-5506
▁Twitter	-5507
▁hundert	-5508
▁verlieren	-5509
abr	-5510
ued	-5511
klär	-5512
▁Zuf	-5513
▁lau	-5514
ustrial	-5515
▁Firmen	-5516
▁killed	-5517
▁stress	-5518
▁taught	-5519
▁address	-5520
▁erzeugen	-5521
▁zumindest	-5522
fs	-5523
ala	-5524
üss	-5525
edom	-5526
▁swe	-5527
arian	-5528
spiel	-5529
▁Sign	-5530
werfen	-5531
▁Gerät	-5532
▁denkt	-5533
▁enjoy	-5534
▁forms	-5535
▁lower	-5536
▁voller	-5537
▁allowed	-5538
▁erlaubt	-5539
▁signific	-5540
▁Wirklichkeit	-5541
▁Vergangenheit	-5542
uk	-5543
Wie	-5544
▁Tas	-5545
▁Priv	-5546
▁deine	-5547
▁diagn	-5548
▁Terror	-5549
▁erzählt	-5550
legenheit	-5551
▁aussieht	-5552
▁products	-5553
Re	-5554
▁Hy	-5555
▁sn	-5556
▁Bud	-5557
▁erg	-5558
ender	-5559
▁deut	-5560
ribute	-5561
▁respond	-5562
▁including	-5563
▁complicated	-5564
ürz	-5565
cape	-5566
lern	-5567
rech	-5568
wart	-5569
▁cat	-5570
bauen	-5571
▁wife	-5572
▁Those	-5573
▁stick	-5574
▁Gesetz	-5575
▁Francis	-5576
▁nachzudenken	-5577
ört	-5578
nder	-5579
zusch	-5580
▁rain	-5581
though	-5582
▁attra	-5583
▁ended	-5584
ruction	-5585
▁doctor	-5586
▁erklär	-5587
izations	-5588
▁irgendwo	-5589
No	-5590
osm	-5591
gere	-5592
ücht	-5593
▁Bot	-5594
iegen	-5595
verse	-5596
▁Gene	-5597
▁cart	-5598
▁Leist	-5599
▁Worte	-5600
▁Invest	-5601
▁analys	-5602
▁manche	-5603
▁introdu	-5604
▁usually	-5605
▁überras	-5606
▁gebracht	-5607
pts	-5608
merz	-5609
ured	-5610
räfte	-5611
▁cases	-5612
▁afford	-5613
▁allows	-5614
▁fertig	-5615
▁launch	-5616
▁Richard	-5617
▁increase	-5618
▁Bakterien	-5619
▁produzieren	-5620
▁Erf	-5621
▁Ern	-5622
▁Kern	-5623
▁echt	-5624
▁stär	-5625
▁wait	-5626
▁Konfl	-5627
▁Today	-5628
▁alive	-5629
▁shift	-5630
▁truly	-5631
▁Objekt	-5632
▁Spezies	-5633
▁discuss	-5634
▁schreck	-5635
▁studies	-5636
▁Personen	-5637
▁arbeitet	-5638
▁demonstr	-5639
▁phenomen	-5640
▁emotional	-5641
▁interview	-5642
▁traditional	-5643
mals	-5644
mand	-5645
▁Sim	-5646
erman	-5647
▁Sand	-5648
▁häuf	-5649
▁mist	-5650
▁massive	-5651
▁training	-5652
▁Mathematik	-5653
amb	-5654
was	-5655
lier	-5656
▁Haut	-5657
▁Ebene	-5658
▁check	-5659
▁earth	-5660
▁führte	-5661
▁keiner	-5662
▁sodass	-5663
ständnis	-5664
▁excited	-5665
▁families	-5666
▁gesamten	-5667
fel	-5668
▁Mü	-5669
▁tä	-5670
▁Wel	-5671
▁bal	-5672
▁bur	-5673
▁pen	-5674
▁Kong	-5675
▁Zwei	-5676
▁fine	-5677
▁roll	-5678
icians	-5679
reiten	-5680
▁Feuer	-5681
▁beings	-5682
▁points	-5683
falt	-5684
drück	-5685
▁Like	-5686
▁burn	-5687
▁infe	-5688
▁kaum	-5689
▁older	-5690
▁author	-5691
▁solchen	-5692
▁Sekunden	-5693
▁decision	-5694
▁interest	-5695
▁standing	-5696
▁trotzdem	-5697
▁versuche	-5698
▁successful	-5699
edia	-5700
iced	-5701
▁doc	-5702
▁oxy	-5703
▁luck	-5704
▁traf	-5705
▁winz	-5706
▁price	-5707
▁stars	-5708
▁Landes	-5709
▁morgen	-5710
▁report	-5711
▁symbol	-5712
▁critical	-5713
▁gewinnen	-5714
▁Ergebnisse	-5715
ids	-5716
pol	-5717
▁Ker	-5718
▁kre	-5719
▁tie	-5720
altet	-5721
blich	-5722
▁Test	-5723
▁card	-5724
▁purp	-5725
isation	-5726
▁einges	-5727
▁gewalt	-5728
▁Theorie	-5729
▁mention	-5730
▁Verantwort	-5731
dom	-5732
▁dog	-5733
▁sky	-5734
holen	-5735
▁selt	-5736
iately	-5737
▁Somet	-5738
▁Stamm	-5739
▁mental	-5740
▁befinden	-5741
▁heutzutage	-5742
ago	-5743
olly	-5744
▁High	-5745
▁upon	-5746
▁yeah	-5747
machen	-5748
rochen	-5749
▁throw	-5750
▁Second	-5751
▁retten	-5752
▁college	-5753
▁bacteria	-5754
licherweise	-5755
▁Amerikaner	-5756
▁electricity	-5757
ckte	-5758
▁lag	-5759
änden	-5760
▁AIDS	-5761
▁coun	-5762
▁tree	-5763
vented	-5764
▁lines	-5765
▁crisis	-5766
▁prison	-5767
▁series	-5768
ingungen	-5769
▁reading	-5770
▁bestimmte	-5771
▁conversation	-5772
isms	-5773
orben	-5774
▁code	-5775
▁Monat	-5776
▁nenne	-5777
wendung	-5778
▁pieces	-5779
▁somehow	-5780
▁erschein	-5781
▁gekommen	-5782
▁geschehen	-5783
▁perspective	-5784
▁Entscheidung	-5785
ser	-5786
ählt	-5787
kommt	-5788
▁cook	-5789
▁port	-5790
▁Chance	-5791
▁zeigte	-5792
▁influen	-5793
▁provide	-5794
▁patterns	-5795
▁Regierungen	-5796
amt	-5797
▁Nä	-5798
▁inse	-5799
astrop	-5800
▁Hände	-5801
▁aktiv	-5802
▁healthy	-5803
▁globalen	-5804
▁specific	-5805
▁Ressourcen	-5806
▁Wahrscheinlich	-5807
uls	-5808
▁Mr	-5809
kelet	-5810
werke	-5811
▁vert	-5812
utzung	-5813
▁ignor	-5814
▁Indian	-5815
▁runter	-5816
▁Frieden	-5817
▁smaller	-5818
▁Einstein	-5819
▁untersuchen	-5820
▁Del	-5821
▁kept	-5822
ferenz	-5823
▁Gefäng	-5824
▁expert	-5825
▁physics	-5826
▁seconds	-5827
▁einzelnen	-5828
▁unmöglich	-5829
▁verbinden	-5830
ara	-5831
omm	-5832
genie	-5833
iling	-5834
▁Präs	-5835
▁sele	-5836
▁aufre	-5837
▁occur	-5838
▁rights	-5839
▁automat	-5840
▁gefragt	-5841
▁written	-5842
▁Netzwerk	-5843
ray	-5844
▁Sä	-5845
hang	-5846
board	-5847
örder	-5848
▁neun	-5849
▁biology	-5850
▁neurons	-5851
▁anywhere	-5852
▁aufgrund	-5853
▁recognize	-5854
ios	-5855
ulf	-5856
wers	-5857
rasch	-5858
▁Imag	-5859
▁erhö	-5860
▁rund	-5861
▁town	-5862
▁wann	-5863
▁Prote	-5864
▁letzt	-5865
▁slight	-5866
▁content	-5867
▁treatment	-5868
fortunately	-5869
▁organization	-5870
ux	-5871
hem	-5872
▁Pak	-5873
▁Disk	-5874
▁Heim	-5875
▁früh	-5876
▁page	-5877
wenden	-5878
▁Bezug	-5879
▁Gespr	-5880
▁Linie	-5881
ualität	-5882
▁robots	-5883
▁himself	-5884
▁riesige	-5885
▁version	-5886
▁Funktion	-5887
rem	-5888
ingu	-5889
▁Dis	-5890
▁lebt	-5891
ierter	-5892
▁actual	-5893
▁calcul	-5894
▁military	-5895
▁straight	-5896
▁entdecken	-5897
▁increasing	-5898
dig	-5899
ius	-5900
pfe	-5901
ilet	-5902
ribe	-5903
▁Hall	-5904
▁alte	-5905
▁Kampf	-5906
▁angef	-5907
▁board	-5908
▁hilft	-5909
▁depend	-5910
▁please	-5911
▁anymore	-5912
▁doctors	-5913
▁express	-5914
▁Kollegen	-5915
ya	-5916
▁MIT	-5917
▁veh	-5918
▁wes	-5919
▁Kons	-5920
stelle	-5921
▁molec	-5922
▁messen	-5923
▁Partner	-5924
▁programm	-5925
▁Americans	-5926
▁architecture	-5927
5,	-5928
hyth	-5929
pret	-5930
▁Bus	-5931
▁Che	-5932
itude	-5933
redit	-5934
▁Phil	-5935
▁passen	-5936
▁service	-5937
▁großartige	-5938
aria	-5939
pend	-5940
▁kil	-5941
▁rep	-5942
gener	-5943
▁Arzt	-5944
▁desp	-5945
▁prec	-5946
▁west	-5947
assung	-5948
▁Times	-5949
▁Which	-5950
▁School	-5951
▁effort	-5952
▁jungen	-5953
▁philos	-5954
▁sowohl	-5955
▁weight	-5956
▁propert	-5957
▁Erwachsen	-5958
▁verstanden	-5959
▁herausfinden	-5960
aup	-5961
▁Hü	-5962
▁Ok	-5963
scht	-5964
ähig	-5965
▁nut	-5966
▁sor	-5967
ahmen	-5968
lands	-5969
sprün	-5970
▁Mond	-5971
▁clim	-5972
▁dunk	-5973
▁nerv	-5974
▁wirk	-5975
▁wund	-5976
ektive	-5977
iments	-5978
▁Außer	-5979
▁Schla	-5980
▁danke	-5981
▁genes	-5982
▁bodies	-5983
imension	-5984
▁Ordnung	-5985
▁großartig	-5986
▁Auswirkungen	-5987
mäß	-5988
will	-5989
emand	-5990
▁cold	-5991
▁zufä	-5992
▁Damit	-5993
erences	-5994
▁Jahres	-5995
▁employ	-5996
▁Bewusstsein	-5997
▁entschieden	-5998
ec	-5999
key	-6000
arte	-6001
dete	-6002
▁Kur	-6003
glicht	-6004
▁läuft	-6005
▁Geheim	-6006
▁Himmel	-6007
▁intelle	-6008
▁leisten	-6009
▁erfahren	-6010
äte	-6011
vard	-6012
▁bab	-6013
▁hop	-6014
▁las	-6015
▁whe	-6016
ildet	-6017
▁Ball	-6018
▁legs	-6019
amente	-6020
zimmer	-6021
▁Einer	-6022
▁hörte	-6023
▁earlier	-6024
▁erzählte	-6025
▁gestellt	-6026
po	-6027
buch	-6028
onie	-6029
▁fil	-6030
aging	-6031
grupp	-6032
steht	-6033
äusch	-6034
▁Herr	-6035
▁Höhe	-6036
▁hält	-6037
▁rand	-6038
reitet	-6039
stoffe	-6040
zahlen	-6041
▁Formen	-6042
▁Museum	-6043
▁dadurch	-6044
▁greater	-6045
▁zweiten	-6046
▁becoming	-6047
▁einander	-6048
▁machines	-6049
▁painting	-6050
Es	-6051
osh	-6052
▁Sep	-6053
▁Miss	-6054
▁abge	-6055
ieties	-6056
▁Brust	-6057
▁Traum	-6058
▁loved	-6059
▁kommun	-6060
▁police	-6061
▁policy	-6062
▁skills	-6063
▁verfol	-6064
▁Wachstum	-6065
▁standard	-6066
▁decisions	-6067
▁ermöglicht	-6068
▁normalerweise	-6069
time	-6070
▁Nor	-6071
▁Tal	-6072
▁web	-6073
äuser	-6074
▁Sold	-6075
▁Wohn	-6076
▁Sinne	-6077
▁catch	-6078
ierende	-6079
▁Bienen	-6080
▁rechts	-6081
▁Glauben	-6082
▁clearly	-6083
▁statist	-6084
▁willing	-6085
▁Flugzeug	-6086
▁listening	-6087
▁öffentlichen	-6088
30	-6089
iat	-6090
yle	-6091
▁Pf	-6092
same	-6093
▁Ere	-6094
▁inn	-6095
▁Zivil	-6096
▁glass	-6097
▁weren	-6098
▁fallen	-6099
▁Another	-6100
▁brother	-6101
▁sammeln	-6102
▁übrigens	-6103
▁throughout	-6104
ino	-6105
ipl	-6106
acity	-6107
gaben	-6108
riere	-6109
▁Rand	-6110
▁shot	-6111
▁älter	-6112
ständig	-6113
▁einzig	-6114
▁familiar	-6115
▁expensive	-6116
▁geschaffen	-6117
▁Krankenhaus	-6118
9,	-6119
▁45	-6120
rzte	-6121
▁jump	-6122
▁vern	-6123
ameras	-6124
▁determ	-6125
▁famous	-6126
zunehmen	-6127
▁Freiheit	-6128
▁bestehen	-6129
▁außerhalb	-6130
▁diejenigen	-6131
mon	-6132
itens	-6133
▁höch	-6134
atives	-6135
▁Angel	-6136
▁costs	-6137
▁drink	-6138
▁worry	-6139
mitteln	-6140
teilung	-6141
▁Entdeck	-6142
▁Harvard	-6143
▁Methode	-6144
▁current	-6145
▁befindet	-6146
▁September	-6147
▁solutions	-6148
▁therefore	-6149
rif	-6150
iner	-6151
▁Ame	-6152
▁Wik	-6153
▁div	-6154
▁exh	-6155
▁fit	-6156
▁sam	-6157
anter	-6158
ctive	-6159
rifft	-6160
▁Erst	-6161
▁Pass	-6162
▁harm	-6163
ournal	-6164
▁Fotos	-6165
▁magic	-6166
▁range	-6167
▁Nummer	-6168
▁Systeme	-6169
▁comfort	-6170
▁Beziehungen	-6171
leb	-6172
mend	-6173
play	-6174
▁unc	-6175
reche	-6176
ütter	-6177
▁Berg	-6178
▁reich	-6179
▁spect	-6180
▁store	-6181
▁strug	-6182
▁Geburt	-6183
▁forest	-6184
▁entdeckt	-6185
▁production	-6186
2,	-6187
8,	-6188
Be	-6189
tes	-6190
ceed	-6191
lant	-6192
seit	-6193
orien	-6194
reten	-6195
▁math	-6196
▁berüh	-6197
▁levels	-6198
▁handelt	-6199
▁website	-6200
▁herunter	-6201
reng	-6202
ained	-6203
attle	-6204
auber	-6205
▁Noch	-6206
▁antw	-6207
▁hell	-6208
▁ille	-6209
▁ther	-6210
▁Regel	-6211
▁forth	-6212
▁taten	-6213
▁Gründe	-6214
▁divers	-6215
▁random	-6216
arbeiter	-6217
▁Imagine	-6218
▁genetic	-6219
▁waiting	-6220
▁practice	-6221
▁schützen	-6222
▁Vergleich	-6223
▁fantastic	-6224
▁interessante	-6225
bü	-6226
itat	-6227
itten	-6228
▁Inse	-6229
▁desto	-6230
gesetzt	-6231
schiede	-6232
▁Darwin	-6233
▁bisher	-6234
▁fascin	-6235
▁freedom	-6236
▁welcher	-6237
▁dangerous	-6238
▁Architektur	-6239
Hey	-6240
ffic	-6241
lose	-6242
▁ran	-6243
▁Bang	-6244
änomen	-6245
▁Fluss	-6246
▁Verfü	-6247
▁gradu	-6248
▁Jungen	-6249
▁antwor	-6250
▁spielt	-6251
▁surger	-6252
▁argument	-6253
▁intelligence	-6254
War	-6255
ährt	-6256
▁Gal	-6257
aries	-6258
▁Mont	-6259
▁crow	-6260
▁Liebl	-6261
▁final	-6262
unächst	-6263
▁temper	-6264
▁warten	-6265
▁einzigen	-6266
▁greatest	-6267
▁direction	-6268
▁performance	-6269
iding	-6270
▁Komp	-6271
▁cele	-6272
sweise	-6273
tragen	-6274
▁Farbe	-6275
▁König	-6276
▁legal	-6277
▁Beginn	-6278
▁beauty	-6279
▁saving	-6280
▁selben	-6281
▁square	-6282
▁walked	-6283
▁Ingenie	-6284
▁describ	-6285
▁Maschinen	-6286
▁betrachtet	-6287
ael	-6288
sum	-6289
ürf	-6290
▁Ak	-6291
oden	-6292
osen	-6293
repr	-6294
önen	-6295
▁dau	-6296
essor	-6297
ählen	-6298
▁Fakt	-6299
▁Norm	-6300
▁rise	-6301
▁weap	-6302
▁brand	-6303
imately	-6304
ätzlich	-6305
▁dritte	-6306
▁intelligent	-6307
▁unterstützen	-6308
▁environmental	-6309
aust	-6310
iell	-6311
▁hyd	-6312
▁pan	-6313
▁Glob	-6314
▁Name	-6315
▁Vier	-6316
▁foss	-6317
▁mächt	-6318
▁Einzel	-6319
▁Klimaw	-6320
▁Californ	-6321
▁citizens	-6322
▁institutions	-6323
Ja	-6324
▁sus	-6325
phone	-6326
uchst	-6327
wärts	-6328
▁Liste	-6329
▁floor	-6330
▁decade	-6331
▁ebenso	-6332
▁fühlte	-6333
▁spirit	-6334
▁Individ	-6335
▁Western	-6336
▁respect	-6337
▁entweder	-6338
7,	-6339
▁Lö	-6340
ancy	-6341
▁cru	-6342
▁Gefü	-6343
▁lief	-6344
▁Schle	-6345
▁Comput	-6346
▁Drogen	-6347
▁values	-6348
▁Nahrung	-6349
▁effective	-6350
▁immediately	-6351
▁lad	-6352
etzte	-6353
hrungs	-6354
▁Bühne	-6355
▁aufzu	-6356
▁George	-6357
▁Muslim	-6358
▁Stunde	-6359
▁Vertra	-6360
▁driving	-6361
▁meeting	-6362
▁Pakistan	-6363
▁wundersch	-6364
▁herstellen	-6365
Nein	-6366
iant	-6367
▁Denk	-6368
achtet	-6369
nungen	-6370
schirm	-6371
▁shark	-6372
▁abstra	-6373
▁profit	-6374
▁secret	-6375
▁Telefon	-6376
▁Manchmal	-6377
▁Zeitpunkt	-6378
▁Organisation	-6379
ieß	-6380
hers	-6381
▁fac	-6382
ießen	-6383
▁Unser	-6384
inosaur	-6385
▁Intell	-6386
▁wealth	-6387
▁dasselbe	-6388
▁invented	-6389
▁getroffen	-6390
erven	-6391
ossen	-6392
platz	-6393
passen	-6394
▁guter	-6395
▁match	-6396
▁types	-6397
▁German	-6398
▁Gehirns	-6399
▁plastic	-6400
▁strange	-6401
▁various	-6402
▁teaching	-6403
▁Interesse	-6404
▁grundlegen	-6405
▁km	-6406
alle	-6407
ostet	-6408
▁laws	-6409
▁ahead	-6410
▁encou	-6411
▁gewiss	-6412
▁decades	-6413
▁erleben	-6414
▁Anderson	-6415
▁Englisch	-6416
▁erwarten	-6417
▁services	-6418
ikt	-6419
uzz	-6420
▁Bis	-6421
▁Two	-6422
▁grü	-6423
▁inj	-6424
▁jud	-6425
ilien	-6426
▁Chic	-6427
▁Hirn	-6428
▁Wald	-6429
▁gutes	-6430
▁Westen	-6431
▁income	-6432
▁Francisco	-6433
▁connection	-6434
▁amerikanischen	-6435
kam	-6436
rees	-6437
▁win	-6438
iated	-6439
▁rule	-6440
zugehen	-6441
▁career	-6442
▁remind	-6443
ervation	-6444
▁mehrere	-6445
frastruct	-6446
▁Lösungen	-6447
▁heutigen	-6448
▁humanity	-6449
▁Einkommen	-6450
▁Behandlung	-6451
▁California	-6452
▁Erfahrungen	-6453
▁governments	-6454
▁neighborhood	-6455
hnte	-6456
▁Dre	-6457
▁Eth	-6458
▁Mid	-6459
▁Ton	-6460
▁deb	-6461
dings	-6462
▁Lehr	-6463
▁hart	-6464
▁zero	-6465
aurant	-6466
▁hinge	-6467
▁radio	-6468
ulieren	-6469
▁Ereign	-6470
▁Punkte	-6471
▁improv	-6472
▁Artikel	-6473
ellschaften	-6474
▁Jahrhunderts	-6475
osc	-6476
▁Gh	-6477
▁Dan	-6478
▁Drit	-6479
▁Gold	-6480
▁apply	-6481
▁celebr	-6482
▁decide	-6483
▁method	-6484
▁wenige	-6485
▁Vorstell	-6486
▁bedeuten	-6487
▁erinnere	-6488
ikanischen	-6489
imensional	-6490
▁condition	-6491
uc	-6492
ammt	-6493
apes	-6494
▁Pat	-6495
anced	-6496
hrten	-6497
onent	-6498
▁Cong	-6499
▁Schn	-6500
▁jene	-6501
▁Instr	-6502
▁Tisch	-6503
▁concl	-6504
barkeit	-6505
▁Lernen	-6506
▁babies	-6507
▁behaup	-6508
▁popular	-6509
▁although	-6510
▁instance	-6511
▁following	-6512
▁Institution	-6513
▁Verständnis	-6514
▁Veränderungen	-6515
ih	-6516
▁.	-6517
ads	-6518
zul	-6519
▁vo	-6520
brit	-6521
ringt	-6522
round	-6523
▁uses	-6524
▁relev	-6525
▁forget	-6526
▁mobile	-6527
▁nahmen	-6528
▁useful	-6529
gefunden	-6530
▁terrible	-6531
▁Medikamente	-6532
1,	-6533
urm	-6534
▁Mär	-6535
gency	-6536
▁Amaz	-6537
▁Körp	-6538
▁Prot	-6539
▁Wesen	-6540
▁erfor	-6541
▁choices	-6542
▁spricht	-6543
▁electron	-6544
▁schicken	-6545
▁remarkable	-6546
cies	-6547
esis	-6548
▁Big	-6549
▁Fen	-6550
▁Kir	-6551
▁ord	-6552
▁sad	-6553
ypoth	-6554
▁blog	-6555
reprene	-6556
ssystem	-6557
▁Kamera	-6558
▁enormous	-6559
▁possibly	-6560
▁ebenfalls	-6561
▁verkaufen	-6562
▁infrastruct	-6563
aign	-6564
aste	-6565
iete	-6566
iles	-6567
▁Jul	-6568
▁Kol	-6569
▁Mir	-6570
angel	-6571
▁Gewe	-6572
▁laut	-6573
anning	-6574
▁surve	-6575
▁telev	-6576
▁Teilen	-6577
▁honest	-6578
▁ehrlich	-6579
▁install	-6580
▁durchschnitt	-6581
rt	-6582
öse	-6583
▁GP	-6584
▁Go	-6585
▁Sil	-6586
▁wün	-6587
Warum	-6588
arter	-6589
▁Wege	-6590
▁Your	-6591
▁gift	-6592
▁Jedes	-6593
▁Think	-6594
▁Polize	-6595
▁Worten	-6596
▁expand	-6597
▁selten	-6598
▁wählen	-6599
gebracht	-6600
▁Charles	-6601
▁effects	-6602
kur	-6603
wise	-6604
▁Aud	-6605
▁Mut	-6606
▁Neu	-6607
▁Sub	-6608
▁unf	-6609
masch	-6610
stück	-6611
▁Grad	-6612
▁NASA	-6613
▁Text	-6614
▁fuel	-6615
▁fällt	-6616
▁liber	-6617
▁raise	-6618
▁Zeiten	-6619
▁commit	-6620
▁explor	-6621
▁flying	-6622
▁Nigeria	-6623
▁politics	-6624
▁vergleich	-6625
2.	-6626
hi	-6627
itiv	-6628
aptop	-6629
ients	-6630
▁Haben	-6631
sichtig	-6632
standen	-6633
▁anyway	-6634
▁voraus	-6635
▁Chicago	-6636
▁verhind	-6637
▁challenges	-6638
oh	-6639
alley	-6640
ustom	-6641
▁Hund	-6642
▁hair	-6643
▁hous	-6644
▁uner	-6645
annien	-6646
selben	-6647
▁Ident	-6648
▁assoc	-6649
▁aware	-6650
▁trade	-6651
▁Finger	-6652
▁Austral	-6653
▁Erkennt	-6654
▁gedacht	-6655
chnologie	-6656
▁Position	-6657
▁erfunden	-6658
▁jemandem	-6659
▁Gefängnis	-6660
▁einfachen	-6661
▁financial	-6662
▁schlechte	-6663
▁societies	-6664
frastruktur	-6665
▁Verantwortung	-6666
RI	-6667
ibl	-6668
ims	-6669
ript	-6670
▁End	-6671
▁Sal	-6672
▁dür	-6673
▁Kurz	-6674
▁isol	-6675
▁poet	-6676
ildern	-6677
▁dauer	-6678
▁Bedürf	-6679
▁accept	-6680
▁Erstens	-6681
▁geschah	-6682
▁Nahrungs	-6683
▁verrückt	-6684
▁außergewöhn	-6685
▁Eigenschaften	-6686
It	-6687
uhl	-6688
▁üb	-6689
aker	-6690
bewer	-6691
hlten	-6692
stütz	-6693
ufact	-6694
▁Auge	-6695
▁vict	-6696
▁beant	-6697
▁slide	-6698
geführt	-6699
▁elektr	-6700
▁helped	-6701
▁senten	-6702
▁diseases	-6703
▁slightly	-6704
▁engineering	-6705
seh	-6706
▁75	-6707
▁Co	-6708
ding	-6709
▁male	-6710
▁mitt	-6711
▁race	-6712
▁tiss	-6713
▁dramat	-6714
▁summer	-6715
▁supply	-6716
▁Komplex	-6717
▁pressure	-6718
▁behandeln	-6719
▁understood	-6720
▁Ru	-6721
reib	-6722
räge	-6723
▁bud	-6724
endes	-6725
essed	-6726
hlung	-6727
▁Gang	-6728
ologen	-6729
▁James	-6730
▁Junge	-6731
▁Werte	-6732
▁komme	-6733
▁triff	-6734
▁worst	-6735
▁Ahnung	-6736
▁Finanz	-6737
▁target	-6738
▁Männern	-6739
▁atmosph	-6740
▁trouble	-6741
▁Designer	-6742
▁capacity	-6743
▁Schönheit	-6744
▁existiert	-6745
▁unglaubliche	-6746
Er	-6747
lapp	-6748
▁Arg	-6749
odell	-6750
▁Life	-6751
▁Wass	-6752
▁gebe	-6753
▁Great	-6754
▁artist	-6755
▁commer	-6756
▁unique	-6757
▁wunderv	-6758
▁original	-6759
▁konzentrieren	-6760
"-	-6761
maß	-6762
▁Sl	-6763
ners	-6764
▁Rep	-6765
unsch	-6766
▁Band	-6767
▁base	-6768
▁dank	-6769
▁drop	-6770
▁below	-6771
▁unver	-6772
▁Meeres	-6773
▁Tieren	-6774
▁directly	-6775
▁television	-6776
▁verbringen	-6777
How	-6778
ibr	-6779
ico	-6780
pre	-6781
anne	-6782
deut	-6783
otel	-6784
▁imm	-6785
▁From	-6786
▁Many	-6787
▁Nähe	-6788
▁Post	-6789
treten	-6790
▁Sport	-6791
▁print	-6792
isierte	-6793
▁destro	-6794
▁female	-6795
▁resist	-6796
▁shared	-6797
▁sobald	-6798
▁vorbei	-6799
▁Städten	-6800
▁survive	-6801
▁überleben	-6802
▁colleagues	-6803
▁Hum	-6804
▁Alex	-6805
▁hole	-6806
▁paid	-6807
▁tens	-6808
▁Steve	-6809
▁hinzu	-6810
▁offic	-6811
▁whose	-6812
▁Manche	-6813
▁lernte	-6814
▁mostly	-6815
▁öffnen	-6816
▁cultural	-6817
▁nachhalt	-6818
▁Industrie	-6819
▁Schlüssel	-6820
▁Fortschritt	-6821
▁temperature	-6822
▁Hom	-6823
▁Tor	-6824
▁hom	-6825
▁iPh	-6826
▁zug	-6827
ichts	-6828
omant	-6829
▁Mart	-6830
▁Mill	-6831
▁effekt	-6832
▁frühen	-6833
▁potent	-6834
▁central	-6835
▁tremend	-6836
▁Freunden	-6837
▁programs	-6838
abe	-6839
hes	-6840
spe	-6841
vit	-6842
▁2.	-6843
▁99	-6844
hner	-6845
oßen	-6846
light	-6847
▁Mitt	-6848
▁YouT	-6849
▁loss	-6850
▁agric	-6851
▁entsp	-6852
▁synth	-6853
▁verme	-6854
▁Freude	-6855
▁fangen	-6856
▁states	-6857
minister	-6858
▁eigenes	-6859
▁Projekte	-6860
▁religion	-6861
▁unabhäng	-6862
britannien	-6863
▁wunderbar	-6864
▁Intelligen	-6865
▁Wirtschafts	-6866
▁relationships	-6867
Te	-6868
ärm	-6869
geht	-6870
pack	-6871
▁194	-6872
▁Etw	-6873
folge	-6874
raten	-6875
▁boys	-6876
▁hall	-6877
▁Abend	-6878
▁Insel	-6879
▁echte	-6880
▁Physik	-6881
▁forces	-6882
▁frustr	-6883
▁invent	-6884
▁myster	-6885
▁Statist	-6886
▁prevent	-6887
▁spreche	-6888
▁Biologie	-6889
▁gegangen	-6890
▁angefangen	-6891
20	-6892
Ver	-6893
lös	-6894
nam	-6895
▁Sam	-6896
cules	-6897
stadt	-6898
▁lust	-6899
▁metap	-6900
itionen	-6901
▁Schutz	-6902
▁Schwar	-6903
▁Spitze	-6904
▁causes	-6905
▁trifft	-6906
▁Michael	-6907
▁YouTube	-6908
▁purpose	-6909
▁Antworten	-6910
▁Verfügung	-6911
▁published	-6912
▁infrastructure	-6913
kn	-6914
Why	-6915
val	-6916
ikas	-6917
izes	-6918
▁Bru	-6919
▁bat	-6920
▁neh	-6921
eting	-6922
frika	-6923
▁hört	-6924
▁Again	-6925
▁funny	-6926
▁Sommer	-6927
▁Street	-6928
▁Videos	-6929
▁double	-6930
▁meters	-6931
▁globale	-6932
▁ursprün	-6933
▁Produkte	-6934
▁creativity	-6935
▁Materialien	-6936
▁differences	-6937
▁organizations	-6938
Le	-6939
bet	-6940
▁Mö	-6941
irur	-6942
itär	-6943
üsse	-6944
▁Jan	-6945
▁Pil	-6946
▁aid	-6947
▁bio	-6948
▁vul	-6949
gründ	-6950
▁heav	-6951
ochter	-6952
▁zeich	-6953
haltung	-6954
▁oxygen	-6955
▁answers	-6956
▁explore	-6957
▁journal	-6958
▁noticed	-6959
▁algorith	-6960
▁controll	-6961
▁profound	-6962
▁industrial	-6963
▁kontrollieren	-6964
affe	-6965
iest	-6966
such	-6967
weil	-6968
icles	-6969
▁Arme	-6970
▁krie	-6971
▁sick	-6972
▁chair	-6973
▁manip	-6974
▁Region	-6975
▁Schiff	-6976
▁improve	-6977
▁Interess	-6978
▁begonnen	-6979
▁entstehen	-6980
▁Sauerstoff	-6981
▁Gelegenheit	-6982
MS	-6983
▁ve	-6984
inct	-6985
▁fro	-6986
▁sal	-6987
▁Ther	-6988
▁heat	-6989
▁Plast	-6990
▁Waffen	-6991
▁closer	-6992
▁einsch	-6993
▁seines	-6994
▁Journal	-6995
▁Kapital	-6996
▁Zustand	-6997
▁erzeugt	-6998
▁kulture	-6999
▁riesigen	-7000
▁geschafft	-7001
▁Überleben	-7002
▁herzustellen	-7003
▁Infrastruktur	-7004
erc	-7005
pft	-7006
urb	-7007
▁23	-7008
wohn	-7009
▁His	-7010
▁Tex	-7011
▁fat	-7012
azine	-7013
fraid	-7014
▁Bein	-7015
orgung	-7016
▁Bäume	-7017
▁erwäh	-7018
▁Herzen	-7019
▁Nehmen	-7020
ographic	-7021
▁Schluss	-7022
▁Schrift	-7023
▁größere	-7024
▁campaign	-7025
▁negative	-7026
▁speaking	-7027
▁transpar	-7028
▁Unterstütz	-7029
▁atmosphere	-7030
▁Leidenschaft	-7031
zil	-7032
▁mix	-7033
ampag	-7034
konom	-7035
oston	-7036
▁Dort	-7037
▁erne	-7038
▁stim	-7039
istenz	-7040
▁Kreis	-7041
▁Zelle	-7042
▁motor	-7043
▁twice	-7044
▁wider	-7045
ichtbar	-7046
▁Atlant	-7047
▁chines	-7048
▁häufig	-7049
▁genutzt	-7050
▁stopped	-7051
▁surgery	-7052
▁biological	-7053
▁entreprene	-7054
▁beeinflusst	-7055
▁institution	-7056
tech	-7057
verb	-7058
▁sou	-7059
äumen	-7060
▁ließ	-7061
ennung	-7062
▁absch	-7063
▁frame	-7064
▁Farben	-7065
▁afraid	-7066
▁akzept	-7067
▁intens	-7068
▁played	-7069
▁streets	-7070
▁Führungs	-7071
▁brauchte	-7072
▁größeren	-7073
▁aufgenommen	-7074
▁Verbindungen	-7075
elf	-7076
▁Wä	-7077
uing	-7078
▁tax	-7079
▁Iraq	-7080
▁Amazon	-7081
▁spaces	-7082
▁verfüg	-7083
▁Atmosph	-7084
▁Tochter	-7085
▁evolved	-7086
▁markets	-7087
▁schlimm	-7088
▁workers	-7089
▁Religion	-7090
▁manufact	-7091
▁networks	-7092
▁produced	-7093
▁communicate	-7094
▁Unterschiede	-7095
rot	-7096
berg	-7097
uber	-7098
▁600	-7099
▁Con	-7100
▁Tom	-7101
▁kor	-7102
▁Erzä	-7103
▁plat	-7104
▁unge	-7105
etzten	-7106
lieben	-7107
▁Colle	-7108
ception	-7109
▁Dienst	-7110
▁active	-7111
▁brilli	-7112
▁corner	-7113
▁gotten	-7114
ierenden	-7115
▁Ausdruck	-7116
▁reagieren	-7117
▁Kreativität	-7118
▁sustainable	-7119
▁wichtigsten	-7120
▁Großbritannien	-7121
lav	-7122
term	-7123
trag	-7124
▁Frü	-7125
▁Mos	-7126
▁hus	-7127
▁Stan	-7128
▁lack	-7129
fassen	-7130
wohner	-7131
▁assum	-7132
▁shock	-7133
▁sogen	-7134
entwick	-7135
▁Altern	-7136
▁Massen	-7137
▁applic	-7138
▁bezahl	-7139
▁bought	-7140
▁gather	-7141
▁highly	-7142
▁Knochen	-7143
▁kämpfen	-7144
▁Vielfalt	-7145
▁mountain	-7146
▁surround	-7147
▁profession	-7148
▁erstaunlich	-7149
▁politischen	-7150
▁Entwicklungsl	-7151
4,	-7152
bin	-7153
▁2,	-7154
▁Ext	-7155
▁saf	-7156
ergie	-7157
ibiot	-7158
istry	-7159
reibt	-7160
rench	-7161
ubble	-7162
▁Jobs	-7163
▁Micro	-7164
▁Titel	-7165
▁basis	-7166
▁feels	-7167
▁fühlt	-7168
▁shoot	-7169
▁speech	-7170
ettbewer	-7171
▁Fenster	-7172
▁missing	-7173
▁consequen	-7174
▁ermöglichen	-7175
▁Durchschnitt	-7176
do	-7177
dy	-7178
urf	-7179
größ	-7180
rect	-7181
▁Hig	-7182
▁Wid	-7183
aling	-7184
mente	-7185
▁Last	-7186
anging	-7187
imeter	-7188
▁Opfer	-7189
▁Suche	-7190
▁oppos	-7191
▁smell	-7192
ktionen	-7193
▁Boston	-7194
▁custom	-7195
▁easily	-7196
▁seemed	-7197
▁Angeles	-7198
▁Instead	-7199
▁achieve	-7200
▁notwend	-7201
▁Werkzeuge	-7202
▁weiterhin	-7203
▁experiments	-7204
▁responsibility	-7205
bank	-7206
eden	-7207
▁Get	-7208
▁Kore	-7209
▁bein	-7210
▁vast	-7211
estens	-7212
▁dance	-7213
▁dying	-7214
▁parad	-7215
▁10,000	-7216
▁Center	-7217
▁Klasse	-7218
▁Rücken	-7219
▁Thanks	-7220
▁Wunder	-7221
ulations	-7222
zeichnen	-7223
▁endlich	-7224
▁entlang	-7225
geschichte	-7226
▁molecules	-7227
▁psycholog	-7228
▁verantwort	-7229
▁beeinflussen	-7230
▁Geschwindigkeit	-7231
tr	-7232
ibe	-7233
ida	-7234
aced	-7235
odes	-7236
stes	-7237
▁Bon	-7238
▁äuß	-7239
artig	-7240
frage	-7241
heben	-7242
schte	-7243
water	-7244
brauch	-7245
schuld	-7246
▁fühle	-7247
▁hielt	-7248
▁Schlag	-7249
▁surprising	-7250
col	-7251
gas	-7252
holt	-7253
uert	-7254
▁nöt	-7255
hause	-7256
hilfe	-7257
▁Anst	-7258
▁bomb	-7259
▁koll	-7260
▁Paris	-7261
▁kenne	-7262
istisch	-7263
▁Ansatz	-7264
▁Brazil	-7265
▁Risiko	-7266
▁electr	-7267
▁Gefühle	-7268
▁degrees	-7269
industrie	-7270
▁Phänomen	-7271
▁einfacher	-7272
▁produziert	-7273
▁differently	-7274
zif	-7275
glie	-7276
gypt	-7277
leun	-7278
ogel	-7279
▁amb	-7280
▁Eins	-7281
▁Lang	-7282
▁coff	-7283
▁gilt	-7284
▁tele	-7285
imente	-7286
indern	-7287
▁Green	-7288
▁Osten	-7289
▁Wikip	-7290
▁birds	-7291
▁photo	-7292
▁rough	-7293
▁seien	-7294
▁bemerk	-7295
▁eating	-7296
▁langen	-7297
ognitive	-7298
▁creates	-7299
▁dorthin	-7300
▁helping	-7301
▁knowing	-7302
▁planets	-7303
▁Karriere	-7304
▁Kilometer	-7305
▁experiences	-7306
edy	-7307
▁od	-7308
lder	-7309
load	-7310
onym	-7311
▁Pop	-7312
akten	-7313
▁Ganz	-7314
▁Mach	-7315
▁More	-7316
▁Over	-7317
▁seas	-7318
stände	-7319
▁Nichts	-7320
▁Norden	-7321
▁magnet	-7322
▁reduce	-7323
ribution	-7324
▁Materie	-7325
▁seltsam	-7326
▁Geschäfts	-7327
▁designers	-7328
▁efficient	-7329
▁significant	-7330
Ge	-7331
abt	-7332
üst	-7333
▁ut	-7334
Wenn	-7335
ulen	-7336
wahr	-7337
▁Wal	-7338
entle	-7339
haben	-7340
ließt	-7341
▁Loch	-7342
▁ausz	-7343
▁none	-7344
▁nütz	-7345
▁wire	-7346
schutz	-7347
▁auszu	-7348
▁rapid	-7349
mutlich	-7350
▁iPhone	-7351
▁schaut	-7352
▁window	-7353
ollywood	-7354
▁Klassen	-7355
▁members	-7356
▁diversity	-7357
▁Temperatur	-7358
stag	-7359
used	-7360
▁Spr	-7361
▁Sun	-7362
ratic	-7363
▁Kein	-7364
▁krit	-7365
▁nehme	-7366
ungspro	-7367
▁switch	-7368
▁element	-7369
▁handeln	-7370
▁daughter	-7371
▁erlauben	-7372
▁stellten	-7373
hö	-7374
gin	-7375
kop	-7376
uum	-7377
mmer	-7378
üben	-7379
▁20.	-7380
fälle	-7381
▁Holz	-7382
▁King	-7383
▁Todes	-7384
▁initi	-7385
▁trick	-7386
▁satell	-7387
▁communication	-7388
kle	-7389
ekten	-7390
markt	-7391
rauch	-7392
setzt	-7393
▁Blog	-7394
▁kürz	-7395
gebaut	-7396
izient	-7397
änderte	-7398
▁Schlaf	-7399
▁nearly	-7400
▁Begriff	-7401
▁perfekt	-7402
▁Soldaten	-7403
▁bringing	-7404
▁entsteht	-7405
▁erstellen	-7406
▁complexity	-7407
▁Kommunikation	-7408
Un	-7409
dr	-7410
▁Kä	-7411
izen	-7412
rupt	-7413
▁Jer	-7414
▁Lat	-7415
▁fle	-7416
antas	-7417
bruch	-7418
mmern	-7419
mögen	-7420
▁flex	-7421
▁gene	-7422
▁prep	-7423
▁teen	-7424
gramme	-7425
ording	-7426
▁Beruf	-7427
▁gaben	-7428
▁Nerven	-7429
▁broken	-7430
▁flight	-7431
▁genome	-7432
▁kostet	-7433
▁ändert	-7434
ationale	-7435
▁Neuronen	-7436
▁spending	-7437
▁Botschaft	-7438
▁Wikipedia	-7439
▁behandelt	-7440
▁scientist	-7441
▁politische	-7442
▁Zusammenhang	-7443
▁Gesellschaften	-7444
cell	-7445
hung	-7446
▁Pre	-7447
▁tom	-7448
▁Glas	-7449
▁darf	-7450
izität	-7451
▁Virus	-7452
▁agree	-7453
▁analy	-7454
▁visit	-7455
▁Result	-7456
▁ganzes	-7457
▁verein	-7458
▁Präsident	-7459
▁entschied	-7460
chem	-7461
eler	-7462
ober	-7463
omas	-7464
house	-7465
▁bloß	-7466
erecht	-7467
umente	-7468
▁buchst	-7469
▁demand	-7470
▁engage	-7471
▁lights	-7472
▁Ameisen	-7473
▁Einsatz	-7474
▁dagegen	-7475
▁studying	-7476
▁commercial	-7477
▁conference	-7478
▁consciousness	-7479
bu	-7480
500	-7481
orb	-7482
rian	-7483
urop	-7484
▁GPS	-7485
▁Kop	-7486
▁Wol	-7487
▁afr	-7488
▁jün	-7489
laden	-7490
olden	-7491
right	-7492
▁rare	-7493
▁vari	-7494
▁1,000	-7495
▁Typen	-7496
▁email	-7497
▁künst	-7498
▁legen	-7499
▁sport	-7500
▁weird	-7501
▁Online	-7502
▁erhält	-7503
▁leiden	-7504
▁College	-7505
▁devices	-7506
▁hearing	-7507
▁addition	-7508
▁verkauft	-7509
arr	-7510
det	-7511
oom	-7512
angt	-7513
ieso	-7514
▁pig	-7515
pping	-7516
▁Good	-7517
▁Satz	-7518
aining	-7519
riffen	-7520
▁enter	-7521
▁gross	-7522
änglich	-7523
▁Kohlen	-7524
▁batter	-7525
▁breast	-7526
▁Version	-7527
▁extreme	-7528
▁Insekten	-7529
▁Korallen	-7530
▁Werkzeug	-7531
▁betrifft	-7532
▁bemerkens	-7533
▁tremendous	-7534
▁Bedingungen	-7535
▁opportunities	-7536
▁BG	-7537
▁eg	-7538
▁dom	-7539
▁saß	-7540
andid	-7541
weite	-7542
▁Deut	-7543
▁bees	-7544
▁boat	-7545
▁join	-7546
▁Stein	-7547
brechen	-7548
▁Middle	-7549
▁Sterne	-7550
▁Wunsch	-7551
▁presen	-7552
▁vulner	-7553
kosystem	-7554
▁Diskuss	-7555
▁begeist	-7556
▁focused	-7557
erspektive	-7558
▁landscape	-7559
▁erforschen	-7560
▁Komplexität	-7561
opt	-7562
kung	-7563
olds	-7564
▁Les	-7565
beweg	-7566
quenz	-7567
▁Proz	-7568
▁Szen	-7569
▁davor	-7570
▁könnt	-7571
▁Global	-7572
▁Karten	-7573
▁Sozial	-7574
▁therap	-7575
▁Kontakt	-7576
▁Zentrum	-7577
▁alleine	-7578
▁forever	-7579
▁weiteres	-7580
▁Professor	-7581
▁ecosystem	-7582
▁interpret	-7583
▁verursacht	-7584
▁Intelligenz	-7585
ias	-7586
pfl	-7587
pted	-7588
▁Zur	-7589
seits	-7590
▁Feld	-7591
▁aufw	-7592
▁rede	-7593
artige	-7594
formen	-7595
▁Klima	-7596
▁fully	-7597
bedingt	-7598
zubauen	-7599
▁fairly	-7600
entlicht	-7601
▁Niemand	-7602
▁letztes	-7603
▁mission	-7604
▁Actually	-7605
alifornien	-7606
▁benötigen	-7607
▁Atmosphäre	-7608
▁Klimawandel	-7609
▁investieren	-7610
1.	-7611
na	-7612
ays	-7613
▁Ah	-7614
angs	-7615
orgt	-7616
▁Lab	-7617
icket	-7618
▁Jede	-7619
▁habt	-7620
uments	-7621
▁Babys	-7622
▁Ziele	-7623
klärung	-7624
stronom	-7625
▁Kunden	-7626
▁bedeut	-7627
▁sexual	-7628
▁Aufgaben	-7629
▁Gemeinde	-7630
▁gewonnen	-7631
▁überzeugt	-7632
dimensional	-7633
▁beschreiben	-7634
▁imagination	-7635
▁Unterstützung	-7636
▁,	-7637
mel	-7638
▁ep	-7639
inde	-7640
▁san	-7641
asche	-7642
▁Trad	-7643
▁sowie	-7644
auschen	-7645
führung	-7646
ivalent	-7647
mission	-7648
▁bitten	-7649
▁passed	-7650
isierten	-7651
▁Sekunde	-7652
▁identity	-7653
▁Fernsehen	-7654
▁entwickelten	-7655
▁kommunizieren	-7656
6,	-7657
bie	-7658
die	-7659
äbe	-7660
▁sü	-7661
▁ta	-7662
Okay	-7663
emen	-7664
igur	-7665
lecht	-7666
▁adapt	-7667
▁bread	-7668
zeichen	-7669
▁cooper	-7670
▁klingt	-7671
▁physic	-7672
▁symmet	-7673
▁ancient	-7674
▁Universums	-7675
▁verbreitet	-7676
▁Zusammenarbeit	-7677
▁veröffentlicht	-7678
▁Kö	-7679
▁UN	-7680
ippe	-7681
reci	-7682
▁Mat	-7683
etwas	-7684
urcht	-7685
▁Abst	-7686
▁Golf	-7687
▁Müll	-7688
▁disk	-7689
▁stem	-7690
▁zent	-7691
fallen	-7692
▁Robert	-7693
▁leider	-7694
▁artists	-7695
▁schafft	-7696
▁Zweitens	-7697
Sie	-7698
utt	-7699
änn	-7700
▁CE	-7701
lymp	-7702
teln	-7703
▁Air	-7704
▁Pot	-7705
▁wis	-7706
ugier	-7707
usive	-7708
▁Fest	-7709
▁Tanz	-7710
▁trag	-7711
wirken	-7712
▁lucky	-7713
▁pleas	-7714
▁Inform	-7715
▁aspect	-7716
▁yellow	-7717
istische	-7718
▁steigen	-7719
▁umgehen	-7720
▁inspired	-7721
▁opposite	-7722
▁Institute	-7723
▁Lieblings	-7724
▁Untersuch	-7725
▁creatures	-7726
▁phenomenon	-7727
cles	-7728
▁Gar	-7729
▁hau	-7730
based	-7731
igend	-7732
krieg	-7733
ograp	-7734
▁eure	-7735
▁gros	-7736
▁Higgs	-7737
▁avoid	-7738
▁cheap	-7739
▁neuer	-7740
▁party	-7741
▁Jugend	-7742
▁Wandel	-7743
▁desert	-7744
▁streng	-7745
zwischen	-7746
▁Schwier	-7747
▁buchstä	-7748
▁despite	-7749
▁farmers	-7750
▁recover	-7751
▁religious	-7752
▁unbedingt	-7753
▁Ausbildung	-7754
▁überzeugen	-7755
▁alternative	-7756
▁possibility	-7757
za	-7758
far	-7759
anst	-7760
stud	-7761
▁Tun	-7762
krebs	-7763
ätsel	-7764
▁core	-7765
▁hero	-7766
▁mort	-7767
▁note	-7768
▁nutz	-7769
person	-7770
▁disor	-7771
ography	-7772
▁Fällen	-7773
▁lautet	-7774
▁signal	-7775
▁Schmerz	-7776
▁Zeichen	-7777
▁failure	-7778
▁turning	-7779
ungssystem	-7780
▁vermutlich	-7781
▁wunderschön	-7782
▁Organisationen	-7783
sa	-7784
king	-7785
spra	-7786
unte	-7787
halte	-7788
losen	-7789
print	-7790
▁Fach	-7791
▁Heil	-7792
▁Stär	-7793
▁Take	-7794
▁erfü	-7795
▁fash	-7796
▁host	-7797
antage	-7798
▁simpl	-7799
▁easier	-7800
▁gentle	-7801
▁rechten	-7802
▁accident	-7803
▁describe	-7804
▁Hintergrund	-7805
▁herausgefunden	-7806
bi	-7807
ety	-7808
igr	-7809
▁27	-7810
hört	-7811
spro	-7812
ügel	-7813
üren	-7814
▁Pri	-7815
frist	-7816
▁Pers	-7817
▁Sche	-7818
▁repe	-7819
▁Zusch	-7820
▁giant	-7821
▁mouth	-7822
▁prior	-7823
▁sorry	-7824
▁spiel	-7825
▁tolle	-7826
▁dreams	-7827
▁events	-7828
▁notion	-7829
▁British	-7830
▁Plastik	-7831
▁figured	-7832
▁sharing	-7833
ständlich	-7834
▁Großteil	-7835
▁außerdem	-7836
▁dieselbe	-7837
▁wiederum	-7838
▁Identität	-7839
▁particles	-7840
▁vollkommen	-7841
▁durchgeführt	-7842
cel	-7843
iop	-7844
know	-7845
uden	-7846
ührt	-7847
▁250	-7848
▁ess	-7849
▁gun	-7850
chnen	-7851
impan	-7852
zweif	-7853
▁Adam	-7854
▁ship	-7855
führer	-7856
▁Thomas	-7857
▁epidem	-7858
▁raised	-7859
▁Einfach	-7860
▁Spielen	-7861
▁moments	-7862
ification	-7863
▁partners	-7864
▁structures	-7865
▁übertragen	-7866
▁beschäftigt	-7867
▁importantly	-7868
2-	-7869
60	-7870
car	-7871
inc	-7872
ruf	-7873
▁Po	-7874
obel	-7875
asion	-7876
elesc	-7877
▁Drei	-7878
oppelt	-7879
▁Laden	-7880
▁names	-7881
otograf	-7882
▁drehen	-7883
▁Gesetze	-7884
▁Gründen	-7885
▁Objekte	-7886
▁foreign	-7887
▁fragten	-7888
▁geführt	-7889
▁benefits	-7890
▁deutlich	-7891
▁entirely	-7892
▁verdienen	-7893
▁Landwirtschaft	-7894
Don	-7895
This	-7896
iche	-7897
▁Bal	-7898
▁usw	-7899
anner	-7900
volle	-7901
▁Gest	-7902
▁held	-7903
▁mill	-7904
▁spot	-7905
▁wood	-7906
kehren	-7907
rennen	-7908
usagen	-7909
▁Anges	-7910
▁Liter	-7911
▁Masse	-7912
▁Statt	-7913
▁Vogel	-7914
▁sitzt	-7915
▁ancest	-7916
▁origin	-7917
▁selber	-7918
▁sorgen	-7919
▁Science	-7920
▁erklärt	-7921
▁stecken	-7922
▁Forscher	-7923
▁Schimpan	-7924
▁besitzen	-7925
▁rational	-7926
▁Problemen	-7927
▁gestalten	-7928
▁definition	-7929
▁sicherlich	-7930
8.	-7931
oe	-7932
aos	-7933
ota	-7934
itzt	-7935
stab	-7936
▁Bio	-7937
▁Asia	-7938
▁Fabr	-7939
▁abzu	-7940
▁fell	-7941
▁recy	-7942
▁sinn	-7943
abetes	-7944
▁Basis	-7945
▁Keine	-7946
▁Mobil	-7947
▁coast	-7948
▁digit	-7949
▁wirst	-7950
▁Sorgen	-7951
▁Zuerst	-7952
▁coffee	-7953
▁haupts	-7954
▁However	-7955
▁regular	-7956
fähigkeit	-7957
▁benötigt	-7958
▁bezahlen	-7959
▁buchstäblich	-7960
di	-7961
▁Vö	-7962
fält	-7963
osis	-7964
vity	-7965
▁cry	-7966
▁dur	-7967
▁zuk	-7968
etten	-7969
▁Fund	-7970
▁jung	-7971
▁mamm	-7972
▁poem	-7973
▁puzz	-7974
worfen	-7975
▁Beine	-7976
▁Handy	-7977
▁Stoff	-7978
▁calls	-7979
▁exerc	-7980
▁krank	-7981
istence	-7982
zusehen	-7983
▁French	-7984
▁Nutzen	-7985
▁Spiele	-7986
▁brings	-7987
▁entspr	-7988
▁erstes	-7989
richtung	-7990
▁Gewicht	-7991
▁Modelle	-7992
▁eingesch	-7993
▁elements	-7994
▁erwartet	-7995
▁metaphor	-7996
▁zufällig	-7997
▁Vertrauen	-7998
▁suffering	-7999
▁necessarily	-8000
ipe	-8001
oge	-8002
ibel	-8003
ötet	-8004
aters	-8005
cting	-8006
krank	-8007
▁Janu	-8008
▁Sehr	-8009
▁vorh	-8010
isible	-8011
▁Treib	-8012
wechsel	-8013
▁Mexico	-8014
▁Valley	-8015
▁charge	-8016
▁schöne	-8017
▁contact	-8018
▁fashion	-8019
▁require	-8020
▁European	-8021
▁billions	-8022
▁gelangen	-8023
▁brilliant	-8024
▁sozusagen	-8025
▁natürliche	-8026
PA	-8027
oz	-8028
ros	-8029
ords	-8030
pper	-8031
tert	-8032
▁Cam	-8033
▁Fün	-8034
▁shr	-8035
hnten	-8036
ending	-8037
ährung	-8038
▁Affen	-8039
▁Obama	-8040
▁accur	-8041
▁attem	-8042
▁indic	-8043
▁proud	-8044
▁quote	-8045
artment	-8046
gewicht	-8047
setzung	-8048
▁dürfen	-8049
▁Kontext	-8050
▁anderem	-8051
▁concent	-8052
▁illegal	-8053
▁kümmern	-8054
▁virtual	-8055
▁Sometimes	-8056
wissenschaft	-8057
▁responsible	-8058
Du	-8059
cked	-8060
eine	-8061
ausch	-8062
zelle	-8063
▁Graf	-8064
▁Hack	-8065
▁Rede	-8066
▁Sein	-8067
▁ausl	-8068
▁forg	-8069
▁Falls	-8070
▁dreht	-8071
▁grass	-8072
▁hohen	-8073
▁laugh	-8074
▁tough	-8075
▁wohin	-8076
▁bridge	-8077
▁remote	-8078
▁werfen	-8079
▁appreci	-8080
▁zukünft	-8081
▁distance	-8082
▁modernen	-8083
▁bestimmen	-8084
▁repräsent	-8085
▁Bildschirm	-8086
▁background	-8087
▁leadership	-8088
▁mindestens	-8089
▁competition	-8090
ola	-8091
▁tox	-8092
idden	-8093
itely	-8094
lafen	-8095
▁Boot	-8096
▁Brot	-8097
▁iron	-8098
▁leid	-8099
▁läch	-8100
▁plus	-8101
mother	-8102
ördern	-8103
▁Child	-8104
▁Staat	-8105
▁bound	-8106
▁compl	-8107
▁condu	-8108
▁helps	-8109
▁gewöhn	-8110
▁opened	-8111
▁photos	-8112
▁pounds	-8113
▁sculpt	-8114
▁tissue	-8115
▁Drittel	-8116
▁abgesch	-8117
▁derzeit	-8118
▁philosop	-8119
▁previous	-8120
▁relevant	-8121
▁Milliarde	-8122
▁öffentlich	-8123
van	-8124
▁Wü	-8125
gern	-8126
renz	-8127
sens	-8128
spir	-8129
▁cla	-8130
agers	-8131
ocken	-8132
▁Link	-8133
▁Verk	-8134
▁Very	-8135
▁anti	-8136
▁edge	-8137
▁hung	-8138
inhalb	-8139
ulated	-8140
▁Ghana	-8141
▁hängt	-8142
▁ideal	-8143
▁Satell	-8144
▁Vision	-8145
▁beteil	-8146
▁corpor	-8147
▁steckt	-8148
▁ausgest	-8149
▁leading	-8150
▁studied	-8151
▁täglich	-8152
▁weapons	-8153
ffentlich	-8154
▁Kindheit	-8155
▁erinnert	-8156
▁Konferenz	-8157
▁entwerfen	-8158
▁necessary	-8159
▁Kalifornien	-8160
xis	-8161
apie	-8162
path	-8163
▁Ass	-8164
▁Rem	-8165
▁pet	-8166
ulous	-8167
werte	-8168
▁Irak	-8169
▁bird	-8170
▁seed	-8171
idents	-8172
laufen	-8173
▁stolz	-8174
▁Fische	-8175
▁Kontin	-8176
▁clever	-8177
▁lieber	-8178
▁master	-8179
▁oceans	-8180
▁verwir	-8181
▁wächst	-8182
ifically	-8183
▁Wichtig	-8184
▁counter	-8185
▁holding	-8186
▁identif	-8187
ibilities	-8188
▁document	-8189
▁tausende	-8190
▁Institutionen	-8191
.'	-8192
3,	-8193
An	-8194
len	-8195
▁Ach	-8196
▁Bur	-8197
▁Tur	-8198
▁ast	-8199
▁daß	-8200
▁dou	-8201
bling	-8202
etter	-8203
hafte	-8204
▁Inst	-8205
▁halb	-8206
öffnet	-8207
▁broad	-8208
▁gebra	-8209
▁Themen	-8210
▁hinweg	-8211
▁sector	-8212
▁Polizei	-8213
▁balance	-8214
▁falsche	-8215
▁husband	-8216
▁matters	-8217
▁related	-8218
▁shouldn	-8219
forschung	-8220
istischen	-8221
▁believed	-8222
▁separate	-8223
▁allgemein	-8224
▁intellect	-8225
▁irgendwann	-8226
▁ultimately	-8227
▁verwandeln	-8228
▁öffentliche	-8229
▁Lebensmittel	-8230
squ	-8231
▁Ac	-8232
▁Ox	-8233
onds	-8234
rale	-8235
soft	-8236
▁Hil	-8237
eared	-8238
fisch	-8239
sagen	-8240
▁Eing	-8241
▁Kann	-8242
zeiten	-8243
▁Egypt	-8244
▁Herst	-8245
▁faith	-8246
▁stuck	-8247
▁weder	-8248
atively	-8249
ometers	-8250
▁Mechan	-8251
▁adults	-8252
▁dollar	-8253
▁failed	-8254
▁glaubt	-8255
▁religi	-8256
▁versus	-8257
▁destroy	-8258
▁Leistung	-8259
▁verfolgen	-8260
▁interagieren	-8261
▁unfortunately	-8262
▁II	-8263
iens	-8264
ifen	-8265
▁Haw	-8266
▁Emot	-8267
ancing	-8268
ession	-8269
ighten	-8270
▁Schne	-8271
▁leads	-8272
▁offer	-8273
▁truck	-8274
▁Gefahr	-8275
▁Stress	-8276
▁aussch	-8277
▁colors	-8278
▁convin	-8279
▁romant	-8280
▁testen	-8281
jährigen	-8282
▁Bildern	-8283
▁correct	-8284
▁getötet	-8285
▁succeed	-8286
▁weiteren	-8287
▁Charakter	-8288
▁childhood	-8289
▁einsetzen	-8290
esentlichen	-8291
▁überrascht	-8292
5.	-8293
▁Cr	-8294
▁DH	-8295
care	-8296
enkt	-8297
kton	-8298
wahl	-8299
▁Akt	-8300
▁Dra	-8301
▁Lad	-8302
▁Log	-8303
▁Mad	-8304
▁Sen	-8305
▁ban	-8306
▁mor	-8307
asten	-8308
ffekt	-8309
icted	-8310
itete	-8311
▁1950	-8312
▁Bett	-8313
▁Jack	-8314
▁wand	-8315
tended	-8316
▁Haiti	-8317
▁fragt	-8318
▁river	-8319
▁töten	-8320
▁weiss	-8321
▁Island	-8322
▁contra	-8323
ausenden	-8324
▁Verkehr	-8325
▁Verlust	-8326
▁kompliz	-8327
▁Strukturen	-8328
▁investment	-8329
iban	-8330
yram	-8331
▁Mod	-8332
▁Off	-8333
▁lat	-8334
▁ter	-8335
chern	-8336
ckten	-8337
itzer	-8338
▁Ecke	-8339
▁Once	-8340
atoren	-8341
uadrat	-8342
▁Jungs	-8343
▁mouse	-8344
gesehen	-8345
▁Geräte	-8346
▁insects	-8347
▁Außerdem	-8348
▁platform	-8349
▁prototyp	-8350
▁Gegenteil	-8351
▁Microsoft	-8352
▁concerned	-8353
▁professional	-8354
▁hauptsächlich	-8355
ua	-8356
bas	-8357
ded	-8358
ses	-8359
vin	-8360
prob	-8361
wegs	-8362
▁Did	-8363
▁Inn	-8364
▁Lar	-8365
▁joy	-8366
▁pun	-8367
izien	-8368
schlä	-8369
▁auth	-8370
▁hate	-8371
▁lies	-8372
▁pair	-8373
jekten	-8374
▁Apple	-8375
▁Zeich	-8376
▁anges	-8377
▁cloud	-8378
▁halte	-8379
▁noise	-8380
▁resol	-8381
issions	-8382
▁Heimat	-8383
esterday	-8384
▁General	-8385
▁leaving	-8386
▁Dinosaur	-8387
▁Galaxien	-8388
▁scheinen	-8389
▁discovery	-8390
▁university	-8391
▁vollständig	-8392
▁letztendlich	-8393
Ar	-8394
Der	-8395
aken	-8396
aled	-8397
apse	-8398
olph	-8399
oret	-8400
ößen	-8401
▁Pan	-8402
▁Pra	-8403
▁tue	-8404
▁Maus	-8405
▁Volk	-8406
▁click	-8407
▁exhib	-8408
▁newsp	-8409
ampagne	-8410
ächtnis	-8411
▁Nation	-8412
▁Rahmen	-8413
▁Versch	-8414
▁deeply	-8415
▁erweit	-8416
▁slowly	-8417
▁Wahrneh	-8418
▁Konflikt	-8419
▁sequence	-8420
▁influence	-8421
▁verbracht	-8422
▁Erinnerung	-8423
▁gefährlich	-8424
▁wichtigste	-8425
▁Kohlenstoff	-8426
▁interessieren	-8427
▁möglicherweise	-8428
oben	-8429
vere	-8430
▁tit	-8431
idung	-8432
inkel	-8433
▁Lern	-8434
▁exch	-8435
▁glam	-8436
leitet	-8437
schaff	-8438
▁Kohle	-8439
▁Metap	-8440
▁crash	-8441
▁moves	-8442
▁caught	-8443
▁degree	-8444
▁lesson	-8445
illionen	-8446
▁Sprachen	-8447
▁nächstes	-8448
▁Aktivität	-8449
▁gegenseit	-8450
▁schließen	-8451
▁begeistert	-8452
igm	-8453
xim	-8454
öpf	-8455
eper	-8456
▁Deb	-8457
▁Mem	-8458
illed	-8459
riage	-8460
scher	-8461
▁Manh	-8462
▁reve	-8463
▁begeg	-8464
▁wheel	-8465
▁Bauern	-8466
▁Konsum	-8467
▁protein	-8468
▁traffic	-8469
▁typical	-8470
ikanische	-8471
▁Stanford	-8472
▁Teilchen	-8473
▁compared	-8474
▁emotions	-8475
▁finanzie	-8476
▁vorhanden	-8477
▁Verhaltens	-8478
▁constantly	-8479
best	-8480
enty	-8481
nden	-8482
thal	-8483
▁Ans	-8484
▁Fel	-8485
▁kit	-8486
ipped	-8487
ippen	-8488
▁tour	-8489
itiven	-8490
itness	-8491
nissen	-8492
▁Motor	-8493
▁Mount	-8494
▁angew	-8495
▁argue	-8496
▁embra	-8497
▁frage	-8498
hältnis	-8499
▁deinen	-8500
▁gehabt	-8501
▁letter	-8502
▁basiert	-8503
▁gewisse	-8504
▁trained	-8505
▁besseren	-8506
▁creation	-8507
▁fighting	-8508
▁president	-8509
▁eingesetzt	-8510
▁verhindern	-8511
▁versuchten	-8512
ete	-8513
set	-8514
▁ru	-8515
▁Aug	-8516
▁cro	-8517
▁Bras	-8518
▁Bush	-8519
▁Code	-8520
▁Frem	-8521
▁Geme	-8522
▁Open	-8523
▁Sing	-8524
▁ants	-8525
▁enth	-8526
▁Brenn	-8527
▁Defin	-8528
▁Filme	-8529
▁walls	-8530
▁Meilen	-8531
▁begins	-8532
▁closed	-8533
▁finanz	-8534
▁gesund	-8535
▁proper	-8536
▁sister	-8537
▁factory	-8538
▁insight	-8539
▁Experten	-8540
▁Standard	-8541
▁finished	-8542
▁majority	-8543
richtungen	-8544
▁Forschungs	-8545
▁wunderbare	-8546
▁fascinating	-8547
ffentlichkeit	-8548
Os	-8549
Nun	-8550
ita	-8551
loss	-8552
▁emb	-8553
▁sac	-8554
letzt	-8555
▁Lied	-8556
▁band	-8557
▁bone	-8558
▁opin	-8559
▁seat	-8560
▁weib	-8561
ategie	-8562
▁Außen	-8563
▁alter	-8564
▁paint	-8565
▁starb	-8566
jährige	-8567
▁Häuser	-8568
▁Philos	-8569
▁garden	-8570
▁phones	-8571
▁Fleisch	-8572
▁acceler	-8573
▁capable	-8574
▁erzähle	-8575
▁reprodu	-8576
▁independ	-8577
▁strategy	-8578
▁strength	-8579
▁surprise	-8580
▁zunehmen	-8581
▁described	-8582
▁collective	-8583
▁interaction	-8584
▁amerikanische	-8585
AR	-8586
gabe	-8587
läuf	-8588
obby	-8589
roph	-8590
teid	-8591
▁Ehe	-8592
▁Ham	-8593
▁Nan	-8594
▁Nar	-8595
▁Opt	-8596
▁fab	-8597
▁kap	-8598
eline	-8599
orrow	-8600
unken	-8601
▁hohe	-8602
werten	-8603
▁Kapit	-8604
▁Solar	-8605
▁Spekt	-8606
▁faces	-8607
▁talks	-8608
▁Elektr	-8609
▁Gewebe	-8610
▁attach	-8611
▁bieten	-8612
▁budget	-8613
▁narrat	-8614
▁parent	-8615
▁reward	-8616
▁stelle	-8617
▁bemerkt	-8618
▁managed	-8619
▁quantum	-8620
▁normalen	-8621
▁otherwise	-8622
möglichkeit	-8623
▁depression	-8624
▁mathematics	-8625
ka	-8626
gro	-8627
pet	-8628
bahn	-8629
oler	-8630
udes	-8631
▁Hal	-8632
▁Kal	-8633
▁spl	-8634
allel	-8635
apers	-8636
ength	-8637
isher	-8638
offen	-8639
ordin	-8640
pielt	-8641
utzer	-8642
▁Entw	-8643
▁Fünf	-8644
▁Sind	-8645
▁Span	-8646
▁gäbe	-8647
▁Folge	-8648
▁Genom	-8649
▁Olymp	-8650
▁Stift	-8651
▁coral	-8652
▁bright	-8653
▁dauert	-8654
▁paying	-8655
ologists	-8656
▁Militär	-8657
zubringen	-8658
▁Elektron	-8659
▁advantage	-8660
▁disappear	-8661
▁operating	-8662
▁praktisch	-8663
▁Interaktion	-8664
▁irgendetwas	-8665
▁unterschiedlich	-8666
Se	-8667
▁65	-8668
läss	-8669
▁ton	-8670
auern	-8671
uries	-8672
ängst	-8673
▁Arch	-8674
▁Dunk	-8675
▁Flor	-8676
▁Have	-8677
▁roof	-8678
agiert	-8679
neiden	-8680
▁holen	-8681
▁teuer	-8682
ributed	-8683
▁Händen	-8684
▁Republ	-8685
▁detail	-8686
▁manage	-8687
▁museum	-8688
maschine	-8689
▁Verletz	-8690
▁benefit	-8691
▁display	-8692
▁schönen	-8693
▁Audience	-8694
▁Verstand	-8695
▁engineers	-8696
▁entworfen	-8697
▁organisms	-8698
▁perfectly	-8699
▁arbeiteten	-8700
▁unterscheiden	-8701
har	-8702
hte	-8703
pra	-8704
äst	-8705
▁Ug	-8706
cast	-8707
icon	-8708
iern	-8709
▁Syn	-8710
▁era	-8711
▁ält	-8712
fahrt	-8713
▁arch	-8714
▁king	-8715
▁moon	-8716
mutter	-8717
uliert	-8718
▁Count	-8719
▁equal	-8720
▁hyper	-8721
▁kennt	-8722
▁erster	-8723
▁nannte	-8724
▁reform	-8725
▁justice	-8726
▁wenigen	-8727
▁followed	-8728
▁Folgendes	-8729
▁currently	-8730
▁schlimmer	-8731
▁principles	-8732
▁verantwortlich	-8733
isc	-8734
ädt	-8735
gans	-8736
keln	-8737
mitt	-8738
sinn	-8739
well	-8740
▁21.	-8741
aming	-8742
▁hasn	-8743
▁herr	-8744
▁myth	-8745
▁purs	-8746
▁whom	-8747
▁Autor	-8748
▁Innen	-8749
▁Laufe	-8750
▁Texas	-8751
▁Three	-8752
▁climb	-8753
▁contr	-8754
▁eleph	-8755
▁homes	-8756
▁immun	-8757
▁kurze	-8758
▁Haufen	-8759
▁Zimmer	-8760
▁finger	-8761
▁Manhatt	-8762
▁Stimmen	-8763
▁artific	-8764
▁präsent	-8765
▁schaute	-8766
▁volunte	-8767
▁Gespräch	-8768
▁galaxies	-8769
▁hunderte	-8770
▁Schwester	-8771
▁Wettbewer	-8772
▁invisible	-8773
▁mentioned	-8774
▁Erkenntnis	-8775
▁existieren	-8776
▁consumption	-8777
▁civilization	-8778
4.	-8779
ae	-8780
pos	-8781
ppe	-8782
aked	-8783
inkt	-8784
prof	-8785
▁Eig	-8786
▁Ins	-8787
▁row	-8788
▁spr	-8789
▁Beob	-8790
▁empt	-8791
▁fiel	-8792
▁soil	-8793
▁stup	-8794
▁wear	-8795
iminal	-8796
▁categ	-8797
▁linken	-8798
▁schien	-8799
▁Gedanke	-8800
▁einiger	-8801
▁weather	-8802
blichkeit	-8803
▁Algorith	-8804
▁feedback	-8805
▁investig	-8806
▁meistens	-8807
▁effizient	-8808
▁surprised	-8809
▁beantworten	-8810
▁Dad	-8811
▁Gas	-8812
▁prä	-8813
alent	-8814
esign	-8815
geber	-8816
ialog	-8817
known	-8818
▁Diag	-8819
▁earn	-8820
▁meat	-8821
ipment	-8822
schule	-8823
▁Beste	-8824
▁Bitte	-8825
▁brief	-8826
▁grown	-8827
▁musst	-8828
▁setzt	-8829
▁somit	-8830
artigen	-8831
ologist	-8832
▁Rätsel	-8833
▁harder	-8834
▁limited	-8835
▁station	-8836
▁treated	-8837
▁worried	-8838
▁gehalten	-8839
▁Australia	-8840
▁Schimpansen	-8841
80	-8842
cil	-8843
▁PM	-8844
iors	-8845
otic	-8846
prom	-8847
▁Law	-8848
macht	-8849
osion	-8850
▁Each	-8851
▁Mund	-8852
▁Star	-8853
▁flie	-8854
▁magn	-8855
▁schm	-8856
hrough	-8857
▁cycle	-8858
▁lebte	-8859
▁regel	-8860
▁traur	-8861
▁veget	-8862
meister	-8863
▁Mütter	-8864
▁Toilet	-8865
▁benutz	-8866
▁empath	-8867
▁incent	-8868
▁leader	-8869
▁ließen	-8870
▁Mission	-8871
▁dritten	-8872
▁empower	-8873
▁nochmal	-8874
▁vehicle	-8875
▁wearing	-8876
▁Moleküle	-8877
▁aufhören	-8878
▁angesehen	-8879
▁wichtigen	-8880
▁Landschaft	-8881
▁businesses	-8882
▁entspricht	-8883
▁entstanden	-8884
▁equivalent	-8885
▁grandmother	-8886
▁hoffentlich	-8887
NS	-8888
aks	-8889
▁ju	-8890
alog	-8891
lieb	-8892
wide	-8893
▁195	-8894
▁due	-8895
aufte	-8896
craft	-8897
▁1990	-8898
▁Dass	-8899
afrika	-8900
fragen	-8901
immung	-8902
weiten	-8903
▁Kenya	-8904
▁Radio	-8905
▁Trotz	-8906
▁heads	-8907
▁ausgeb	-8908
▁belong	-8909
▁desire	-8910
▁galaxy	-8911
▁lebens	-8912
▁Deutsch	-8913
▁Project	-8914
▁bekamen	-8915
▁everyday	-8916
▁received	-8917
önlichkeit	-8918
▁Katastrop	-8919
▁languages	-8920
▁Individuen	-8921
▁Perspektive	-8922
▁kompliziert	-8923
If	-8924
nel	-8925
pel	-8926
tte	-8927
▁'9	-8928
▁22	-8929
aped	-8930
erte	-8931
▁Rat	-8932
▁Rot	-8933
▁pal	-8934
▁tag	-8935
ischt	-8936
place	-8937
throp	-8938
wagen	-8939
▁Rock	-8940
▁arms	-8941
▁drag	-8942
▁horr	-8943
heimer	-8944
hängig	-8945
▁Ihres	-8946
▁Neben	-8947
▁Nobel	-8948
▁klass	-8949
▁surge	-8950
glieder	-8951
▁Andere	-8952
▁Bruder	-8953
▁Effekt	-8954
▁Irgend	-8955
▁Minute	-8956
▁erlebt	-8957
▁stabil	-8958
▁wisdom	-8959
▁Körpers	-8960
▁Spiegel	-8961
▁invited	-8962
▁erkannte	-8963
▁fotograf	-8964
▁magazine	-8965
▁multiple	-8966
▁Everybody	-8967
▁Gegensatz	-8968
▁allerdings	-8969
▁interessanter	-8970
icy	-8971
aßen	-8972
gers	-8973
omme	-8974
oons	-8975
▁Anw	-8976
▁Dok	-8977
▁zog	-8978
acher	-8979
andem	-8980
owers	-8981
▁Hins	-8982
▁bull	-8983
bracht	-8984
stream	-8985
▁Ganze	-8986
▁Start	-8987
▁limit	-8988
bewesen	-8989
▁circle	-8990
▁fourth	-8991
▁mittel	-8992
▁mitten	-8993
▁müsste	-8994
▁unless	-8995
▁Gleiche	-8996
▁dennoch	-8997
▁depress	-8998
▁married	-8999
▁normale	-9000
▁watched	-9001
ungskraft	-9002
▁Eindruck	-9003
▁molecule	-9004
▁planning	-9005
▁Politiker	-9006
▁classroom	-9007
▁Experimente	-9008
▁hergestellt	-9009
▁vergleichen	-9010
Talk	-9011
ctic	-9012
▁cam	-9013
▁rat	-9014
plane	-9015
▁Aust	-9016
▁Sens	-9017
▁agre	-9018
▁fold	-9019
ischem	-9020
pected	-9021
▁Willi	-9022
zentrum	-9023
▁Obwohl	-9024
▁100,000	-9025
▁genauer	-9026
▁schwarz	-9027
▁Nationen	-9028
▁demokrat	-9029
▁launched	-9030
▁Manhattan	-9031
▁wesentlich	-9032
▁Unternehmer	-9033
asi	-9034
obe	-9035
rol	-9036
ares	-9037
icke	-9038
ifik	-9039
wich	-9040
zing	-9041
▁Int	-9042
▁Mac	-9043
▁Zer	-9044
▁Does	-9045
▁Samm	-9046
▁Säug	-9047
▁Vide	-9048
▁aufs	-9049
▁gold	-9050
▁wave	-9051
▁zeit	-9052
gruppe	-9053
▁Dabei	-9054
▁Etwas	-9055
▁Would	-9056
▁lunch	-9057
▁natur	-9058
▁nutzt	-9059
▁plane	-9060
▁roten	-9061
▁Folgen	-9062
▁Steuer	-9063
▁Uganda	-9064
▁exists	-9065
▁hoffen	-9066
▁lustig	-9067
▁stammt	-9068
▁gestern	-9069
▁highest	-9070
▁mothers	-9071
▁Tausende	-9072
▁designer	-9073
▁survival	-9074
▁Brasilien	-9075
▁equipment	-9076
▁agriculture	-9077
hel	-9078
▁Cy	-9079
wärt	-9080
▁Net	-9081
▁Jeff	-9082
▁Pfle	-9083
▁coal	-9084
▁vacc	-9085
aschen	-9086
ipping	-9087
ushing	-9088
▁chann	-9089
▁lernt	-9090
▁pages	-9091
▁quiet	-9092
▁users	-9093
▁Grenze	-9094
▁academ	-9095
▁belief	-9096
▁breath	-9097
▁debate	-9098
▁schick	-9099
▁string	-9100
▁stupid	-9101
▁Elektro	-9102
▁Gehirne	-9103
▁gelesen	-9104
▁partner	-9105
▁soldiers	-9106
▁brauchten	-9107
▁seriously	-9108
▁universal	-9109
▁Bewegungen	-9110
▁persönlich	-9111
avig	-9112
ocks	-9113
äuse	-9114
▁Tie	-9115
▁dry	-9116
izont	-9117
▁1980	-9118
▁Fett	-9119
▁Pfer	-9120
▁Pres	-9121
▁Roll	-9122
▁beis	-9123
▁dran	-9124
▁umge	-9125
gewalt	-9126
istent	-9127
▁Found	-9128
iologen	-9129
▁10.000	-9130
▁Fakten	-9131
▁Wellen	-9132
▁dinner	-9133
▁gering	-9134
▁thinks	-9135
▁toward	-9136
▁zahlen	-9137
▁Germany	-9138
▁Zuhause	-9139
▁curious	-9140
▁drawing	-9141
▁organic	-9142
▁relativ	-9143
▁aufbauen	-9144
▁brachten	-9145
▁normally	-9146
▁hopefully	-9147
▁Augenblick	-9148
▁Eigentlich	-9149
▁entwickelte	-9150
So	-9151
gyp	-9152
▁26	-9153
▁La	-9154
adel	-9155
urer	-9156
▁Cal	-9157
▁Ill	-9158
▁sum	-9159
itung	-9160
leren	-9161
osing	-9162
tocin	-9163
▁Atem	-9164
▁Eben	-9165
▁bear	-9166
ondere	-9167
▁Klang	-9168
▁Other	-9169
▁north	-9170
▁wahre	-9171
▁wieso	-9172
ordnung	-9173
▁Kräfte	-9174
▁Martin	-9175
▁Oxford	-9176
▁Zucker	-9177
▁aufgew	-9178
▁echten	-9179
▁shapes	-9180
▁starke	-9181
▁vieler	-9182
▁Vorteil	-9183
▁brauche	-9184
▁fördern	-9185
▁nervous	-9186
▁privile	-9187
▁tausend	-9188
▁wechsel	-9189
▁welchen	-9190
▁erfinden	-9191
▁identify	-9192
▁economics	-9193
▁principle	-9194
▁reduzieren	-9195
▁beschlossen	-9196
uel	-9197
ura	-9198
äum	-9199
geln	-9200
sage	-9201
▁Pfl	-9202
▁Vis	-9203
▁gig	-9204
gment	-9205
▁Flag	-9206
▁Impf	-9207
▁Phot	-9208
▁Zell	-9209
▁intu	-9210
▁reef	-9211
▁situ	-9212
minist	-9213
rument	-9214
▁fresh	-9215
▁grade	-9216
▁round	-9217
▁steps	-9218
▁Beweis	-9219
▁Chirur	-9220
▁Rechte	-9221
▁diskut	-9222
▁beinhal	-9223
▁bezahlt	-9224
▁compare	-9225
▁testing	-9226
imensions	-9227
▁schlagen	-9228
▁Entdeckung	-9229
▁associated	-9230
▁instrument	-9231
▁kilometers	-9232
▁distribution	-9233
▁increasingly	-9234
oca	-9235
▁af	-9236
akte	-9237
rete	-9238
▁Pac	-9239
▁Sor	-9240
▁rie	-9241
orfen	-9242
power	-9243
ähren	-9244
▁Elef	-9245
▁Gras	-9246
▁Orig	-9247
▁ober	-9248
▁puts	-9249
atures	-9250
▁2,000	-9251
▁Carol	-9252
▁Erleb	-9253
▁Reich	-9254
▁Smith	-9255
▁trägt	-9256
▁enable	-9257
▁hidden	-9258
▁perman	-9259
▁Element	-9260
▁Theater	-9261
▁article	-9262
▁eindeut	-9263
▁players	-9264
▁reichen	-9265
▁signals	-9266
▁stärker	-9267
▁Hinsicht	-9268
▁property	-9269
▁sentence	-9270
▁continent	-9271
▁existence	-9272
▁irgendein	-9273
▁processes	-9274
▁yesterday	-9275
▁Australien	-9276
▁statistics	-9277
▁verbrachte	-9278
▁Dinosaurier	-9279
▁generations	-9280
ls	-9281
que	-9282
tle	-9283
▁BF	-9284
kept	-9285
leid	-9286
olit	-9287
▁120	-9288
inted	-9289
mäßig	-9290
riffe	-9291
▁Mess	-9292
▁beat	-9293
▁cosm	-9294
▁engl	-9295
▁tail	-9296
anders	-9297
riften	-9298
▁Jeden	-9299
▁Krise	-9300
▁Milch	-9301
▁State	-9302
▁dolph	-9303
▁folks	-9304
▁rural	-9305
▁saved	-9306
▁Linien	-9307
▁fossil	-9308
▁leaves	-9309
▁motion	-9310
▁verlie	-9311
▁Nachdem	-9312
▁illustr	-9313
▁Methoden	-9314
▁Mikroben	-9315
▁ordinary	-9316
▁resource	-9317
▁zunächst	-9318
▁Gemeinden	-9319
▁according	-9320
▁gestorben	-9321
▁studieren	-9322
▁technical	-9323
▁dimensions	-9324
▁erscheinen	-9325
▁transformation	-9326
ani	-9327
box	-9328
can	-9329
anen	-9330
pass	-9331
▁Mas	-9332
▁Ple	-9333
▁Ven	-9334
▁1960	-9335
▁Dere	-9336
▁Null	-9337
▁männ	-9338
▁rück	-9339
werden	-9340
▁Stock	-9341
▁chain	-9342
▁infin	-9343
▁sites	-9344
▁south	-9345
amerika	-9346
fassung	-9347
reitung	-9348
▁Streit	-9349
▁driver	-9350
▁filled	-9351
▁spring	-9352
▁illness	-9353
▁starten	-9354
▁vorbere	-9355
▁warming	-9356
▁Prototyp	-9357
▁abhängig	-9358
▁airplane	-9359
▁behalten	-9360
▁struggle	-9361
ituationen	-9362
▁Hollywood	-9363
▁cognitive	-9364
▁Medikament	-9365
▁Organismen	-9366
▁comfortable	-9367
BI	-9368
ait	-9369
üte	-9370
▁32	-9371
erin	-9372
gien	-9373
herr	-9374
life	-9375
▁Hem	-9376
▁Sar	-9377
▁mel	-9378
agina	-9379
bares	-9380
cking	-9381
kreis	-9382
▁1970	-9383
▁Budd	-9384
▁Wild	-9385
▁date	-9386
▁fuhr	-9387
▁scen	-9388
▁tall	-9389
▁tear	-9390
▁Armen	-9391
▁Hotel	-9392
▁awful	-9393
▁daily	-9394
▁lifet	-9395
▁nötig	-9396
▁stood	-9397
▁subst	-9398
▁vorbe	-9399
▁wobei	-9400
fordert	-9401
▁Aspekt	-9402
▁Ausmaß	-9403
▁Jemand	-9404
▁Staats	-9405
▁caused	-9406
▁circum	-9407
▁grunds	-9408
▁island	-9409
▁kurzem	-9410
▁kurzen	-9411
▁safety	-9412
▁Ansicht	-9413
▁Details	-9414
▁Arbeiten	-9415
▁Lebewesen	-9416
▁verbreiten	-9417
▁Elektrizität	-9418
▁Generationen	-9419
▁verschwinden	-9420
Yes	-9421
mas	-9422
wie	-9423
That	-9424
anth	-9425
comp	-9426
engu	-9427
pekt	-9428
▁11.	-9429
▁gap	-9430
cture	-9431
erung	-9432
estic	-9433
rator	-9434
rehen	-9435
teuer	-9436
▁Ange	-9437
▁jähr	-9438
▁pure	-9439
▁tons	-9440
▁trip	-9441
▁vess	-9442
▁zahl	-9443
ichern	-9444
▁aufta	-9445
▁fängt	-9446
▁halbe	-9447
▁novel	-9448
▁solch	-9449
▁versp	-9450
▁Grafik	-9451
▁announ	-9452
▁gender	-9453
▁losing	-9454
achstums	-9455
▁Spieler	-9456
▁dealing	-9457
▁gehören	-9458
▁setting	-9459
▁Elemente	-9460
▁Japanese	-9461
▁effektiv	-9462
▁geändert	-9463
▁kürzlich	-9464
▁schwarze	-9465
▁Abschluss	-9466
▁Netzwerke	-9467
▁designing	-9468
▁Everything	-9469
▁Satelliten	-9470
▁beeindruck	-9471
▁importance	-9472
▁schlechter	-9473
▁experienced	-9474
▁researchers	-9475
▁medizinische	-9476
▁AB	-9477
▁Ol	-9478
acle	-9479
anch	-9480
atom	-9481
aurs	-9482
wach	-9483
▁Eng	-9484
▁Sur	-9485
▁Top	-9486
▁bom	-9487
▁nan	-9488
▁ruh	-9489
ancen	-9490
▁Brun	-9491
▁hadn	-9492
▁hide	-9493
▁pock	-9494
ifying	-9495
▁Tests	-9496
▁angeb	-9497
▁anger	-9498
▁blieb	-9499
▁colon	-9500
▁crime	-9501
▁erled	-9502
▁heavy	-9503
▁niedr	-9504
▁shoes	-9505
▁spoke	-9506
orthern	-9507
▁Garten	-9508
▁explan	-9509
▁implic	-9510
▁lebten	-9511
▁Website	-9512
▁angesch	-9513
▁covered	-9514
▁theater	-9515
▁Existenz	-9516
▁Schatten	-9517
▁Zeitalter	-9518
▁vergangen	-9519
▁Foundation	-9520
▁electrical	-9521
▁consequences	-9522
▁International	-9523
hh	-9524
kan	-9525
▁3.	-9526
aler	-9527
ardo	-9528
icip	-9529
izop	-9530
phen	-9531
▁Dat	-9532
▁Hör	-9533
▁Nov	-9534
▁Pfe	-9535
▁cow	-9536
emble	-9537
erves	-9538
ingly	-9539
neten	-9540
zieht	-9541
▁Atom	-9542
▁Beim	-9543
▁Mass	-9544
▁Ober	-9545
▁Viet	-9546
▁copy	-9547
▁enem	-9548
▁libr	-9549
▁valu	-9550
onents	-9551
recher	-9552
▁Kreuz	-9553
▁Weile	-9554
▁facts	-9555
▁heran	-9556
▁scene	-9557
gegeben	-9558
schrift	-9559
▁drüben	-9560
▁fields	-9561
▁finish	-9562
▁hypoth	-9563
▁meiste	-9564
▁movies	-9565
▁reicht	-9566
▁zählen	-9567
izophren	-9568
▁Britain	-9569
▁arrived	-9570
▁erkennt	-9571
▁clinical	-9572
▁convinced	-9573
▁geschickt	-9574
▁wondering	-9575
▁artificial	-9576
▁beobachtet	-9577
▁zugänglich	-9578
▁natürlichen	-9579
▁beschäftigen	-9580
üge	-9581
▁NG	-9582
aser	-9583
down	-9584
▁10-	-9585
▁700	-9586
▁Bob	-9587
▁Wei	-9588
▁bie	-9589
besch	-9590
chnet	-9591
▁Dach	-9592
▁Talk	-9593
▁bits	-9594
▁flag	-9595
▁grab	-9596
▁soph	-9597
▁chimp	-9598
▁layer	-9599
▁liked	-9600
▁passt	-9601
▁signs	-9602
ografie	-9603
▁Träume	-9604
▁damage	-9605
▁forced	-9606
▁poetry	-9607
▁Beweise	-9608
▁killing	-9609
▁Vorfahren	-9610
▁aufregend	-9611
▁beschloss	-9612
▁professor	-9613
▁Geschlecht	-9614
▁Interessen	-9615
▁considered	-9616
üb	-9617
hek	-9618
uhr	-9619
zed	-9620
zep	-9621
mann	-9622
oses	-9623
würd	-9624
▁10,	-9625
▁Alz	-9626
▁Rio	-9627
▁Ros	-9628
▁unl	-9629
elben	-9630
ifest	-9631
igern	-9632
karte	-9633
nimmt	-9634
▁Gand	-9635
▁Sitz	-9636
▁dots	-9637
▁spät	-9638
merzen	-9639
rechte	-9640
▁Korea	-9641
▁Their	-9642
▁Viren	-9643
▁cloth	-9644
▁einst	-9645
▁maint	-9646
▁negot	-9647
auspiel	-9648
stellte	-9649
▁Health	-9650
▁Welche	-9651
▁Yorker	-9652
▁kombin	-9653
▁nieder	-9654
▁picked	-9655
▁sample	-9656
▁steigt	-9657
programm	-9658
zusetzen	-9659
▁Gedicht	-9660
▁Student	-9661
▁calling	-9662
▁morgens	-9663
▁analysis	-9664
▁astronom	-9665
▁entgegen	-9666
▁microbes	-9667
▁zerstört	-9668
▁Emotionen	-9669
▁Tradition	-9670
▁essential	-9671
▁Produktion	-9672
▁darstellen	-9673
▁auseinander	-9674
▁connections	-9675
▁grundlegende	-9676
9.	-9677
Do	-9678
gte	-9679
ula	-9680
▁Fa	-9681
ader	-9682
iano	-9683
test	-9684
uous	-9685
▁Cor	-9686
▁dat	-9687
▁Camp	-9688
▁Echt	-9689
▁Gree	-9690
▁Teen	-9691
▁fern	-9692
▁gesp	-9693
▁resc	-9694
▁surf	-9695
ibliot	-9696
▁Peter	-9697
▁Zitat	-9698
▁autom	-9699
▁holes	-9700
▁recon	-9701
erneath	-9702
frieden	-9703
gedacht	-9704
▁advert	-9705
▁analog	-9706
▁deeper	-9707
▁körper	-9708
▁muscle	-9709
▁refuge	-9710
inosaurs	-9711
▁appropr	-9712
▁opening	-9713
▁spannen	-9714
▁anwenden	-9715
▁engineer	-9716
▁sprachen	-9717
▁ungewöhn	-9718
▁Erklärung	-9719
▁Jahrzehnt	-9720
▁erscheint	-9721
▁satellite	-9722
▁verbindet	-9723
▁definieren	-9724
▁Wahrnehmung	-9725
▁traditionellen	-9726
He	-9727
isf	-9728
▁sy	-9729
ario	-9730
bles	-9731
fish	-9732
kont	-9733
ompl	-9734
resp	-9735
rett	-9736
▁19.	-9737
▁SMS	-9738
oster	-9739
▁Such	-9740
▁drin	-9741
▁ethn	-9742
▁gall	-9743
▁getr	-9744
▁weak	-9745
▁wide	-9746
schaut	-9747
staben	-9748
▁folgt	-9749
▁solid	-9750
▁wuchs	-9751
▁Canada	-9752
▁Lachen	-9753
▁enorme	-9754
▁player	-9755
▁spezif	-9756
struktur	-9757
ätigkeit	-9758
▁battery	-9759
▁cutting	-9760
▁letters	-9761
▁monitor	-9762
▁Nachbarn	-9763
▁deswegen	-9764
▁diagnost	-9765
▁feelings	-9766
▁nützlich	-9767
▁reaction	-9768
▁Alzheimer	-9769
▁President	-9770
▁Zuschauer	-9771
▁beschleun	-9772
▁chemicals	-9773
▁management	-9774
▁Architekten	-9775
▁faszinierend	-9776
▁possibilities	-9777
-1	-9778
3.	-9779
Pl	-9780
ky	-9781
rix	-9782
zut	-9783
▁95	-9784
▁Ap	-9785
▁Bu	-9786
agon	-9787
frei	-9788
ltra	-9789
unkl	-9790
▁Mel	-9791
omben	-9792
passt	-9793
▁Kerl	-9794
▁Ungl	-9795
▁mosqu	-9796
▁quasi	-9797
▁verbl	-9798
▁übrig	-9799
drücken	-9800
steigen	-9801
▁Batter	-9802
▁Mexiko	-9803
▁berühm	-9804
▁encoun	-9805
▁establ	-9806
▁setzte	-9807
▁trials	-9808
zuführen	-9809
▁Florida	-9810
▁Malaria	-9811
▁Maßstab	-9812
▁autonom	-9813
▁sources	-9814
▁spielte	-9815
▁variety	-9816
▁expected	-9817
▁whenever	-9818
▁chemistry	-9819
▁verfügbar	-9820
▁zerstören	-9821
issenschaft	-9822
▁aufzubauen	-9823
▁expression	-9824
▁healthcare	-9825
▁innovative	-9826
▁Schwierigkeiten	-9827
DP	-9828
IP	-9829
asc	-9830
Mail	-9831
agos	-9832
edic	-9833
ping	-9834
skop	-9835
▁191	-9836
▁Urs	-9837
affee	-9838
linge	-9839
▁2007	-9840
▁Anim	-9841
▁Schu	-9842
▁Verd	-9843
▁blow	-9844
▁erle	-9845
▁kick	-9846
▁klin	-9847
▁youn	-9848
▁Fälle	-9849
▁Human	-9850
▁Parad	-9851
▁Seele	-9852
▁Seine	-9853
▁Titan	-9854
▁Union	-9855
▁empty	-9856
▁flies	-9857
▁minim	-9858
▁perce	-9859
▁waves	-9860
bereich	-9861
wirkung	-9862
▁credit	-9863
▁videos	-9864
elescope	-9865
▁Berechn	-9866
▁Vietnam	-9867
▁aggress	-9868
▁erwähnt	-9869
▁annehmen	-9870
▁erstellt	-9871
▁marriage	-9872
▁messages	-9873
▁aufgebaut	-9874
▁Mitarbeiter	-9875
enz	-9876
vis	-9877
yer	-9878
▁ap	-9879
oute	-9880
▁Hor	-9881
▁Jim	-9882
▁ten	-9883
gerät	-9884
▁Fehl	-9885
▁Prim	-9886
▁Show	-9887
▁Soll	-9888
▁ends	-9889
▁vote	-9890
isters	-9891
▁Neues	-9892
▁fähig	-9893
▁sympt	-9894
▁Größen	-9895
▁Umfeld	-9896
▁Voraus	-9897
▁schaff	-9898
bewegung	-9899
ographie	-9900
▁experts	-9901
▁niedrig	-9902
▁umgeben	-9903
▁worüber	-9904
▁Freundin	-9905
▁gewissen	-9906
▁tomorrow	-9907
▁Konsequen	-9908
▁dinosaurs	-9909
▁collection	-9910
▁schlechten	-9911
▁underneath	-9912
▁construction	-9913
ET	-9914
Is	-9915
MA	-9916
bru	-9917
fir	-9918
hst	-9919
baut	-9920
dest	-9921
ller	-9922
▁Jew	-9923
▁ens	-9924
▁inh	-9925
▁sla	-9926
▁tri	-9927
alyse	-9928
iable	-9929
iency	-9930
rooms	-9931
staat	-9932
state	-9933
▁Klin	-9934
▁Koll	-9935
▁Verw	-9936
▁beit	-9937
▁diet	-9938
▁hurt	-9939
▁wake	-9940
acters	-9941
igsten	-9942
nitten	-9943
orient	-9944
ported	-9945
ündete	-9946
▁broke	-9947
▁honor	-9948
▁pengu	-9949
▁rates	-9950
▁unend	-9951
▁zieht	-9952
outhern	-9953
ulating	-9954
▁Gewinn	-9955
▁Saturn	-9956
▁heißen	-9957
▁dynamic	-9958
▁müssten	-9959
verbrauch	-9960
▁Weltraum	-9961
▁advanced	-9962
▁exercise	-9963
▁requires	-9964
imensionen	-9965
▁Bereichen	-9966
▁verhalten	-9967
▁Korruption	-9968
▁corruption	-9969
▁vermitteln	-9970
verständlich	-9971
▁Deutschland	-9972
ees	-9973
oli	-9974
uts	-9975
alem	-9976
emin	-9977
iend	-9978
ints	-9979
izer	-9980
rägt	-9981
▁DNS	-9982
asste	-9983
ierer	-9984
iform	-9985
rufen	-9986
▁Mary	-9987
▁Merk	-9988
▁Tour	-9989
▁Weib	-9990
▁beib	-9991
iences	-9992
▁Sogar	-9993
▁Zweck	-9994
▁außen	-9995
züglich	-9996
▁Chemie	-9997
▁Erwart	-9998
▁Geräus	-9999
▁ergibt	-10000
▁formen	-10001
▁kannte	-10002
▁sharks	-10003
▁Schnitt	-10004
▁capture	-10005
▁solcher	-10006
▁Kulturen	-10007
▁consumer	-10008
▁location	-10009
stellungen	-10010
versorgung	-10011
▁Verhältnis	-10012
▁characters	-10013
▁inspiriert	-10014
▁relatively	-10015
▁transition	-10016
▁independent	-10017
▁intellectual	-10018
▁800	-10019
▁Hey	-10020
▁Joe	-10021
▁ped	-10022
▁pil	-10023
genda	-10024
lying	-10025
▁Belo	-10026
▁Bron	-10027
▁chap	-10028
▁flat	-10029
▁höre	-10030
▁rief	-10031
▁summ	-10032
▁trib	-10033
▁user	-10034
design	-10035
imming	-10036
plomat	-10037
▁Betra	-10038
▁Cambr	-10039
▁Parte	-10040
▁prove	-10041
▁teeth	-10042
▁vorne	-10043
▁Schuld	-10044
▁status	-10045
▁treten	-10046
▁voices	-10047
▁zusätz	-10048
▁Komment	-10049
▁cartoon	-10050
▁keeping	-10051
▁rapidly	-10052
▁roughly	-10053
▁thoughts	-10054
▁valuable	-10055
▁carefully	-10056
▁entdeckte	-10057
▁interface	-10058
▁organized	-10059
▁sophistic	-10060
▁Überrasch	-10061
▁untersucht	-10062
▁schrecklich	-10063
▁transparent	-10064
azz	-10065
dam	-10066
hai	-10067
▁wü	-10068
atik	-10069
bors	-10070
irat	-10071
▁Sir	-10072
▁Sum	-10073
▁zut	-10074
anzös	-10075
glied	-10076
iques	-10077
▁Dire	-10078
▁evil	-10079
esents	-10080
holfen	-10081
uanten	-10082
▁Stufe	-10083
▁appar	-10084
▁fewer	-10085
▁spont	-10086
▁Anteil	-10087
▁Damals	-10088
▁Inhalt	-10089
▁Kaffee	-10090
▁Riesen	-10091
▁facing	-10092
▁prefer	-10093
▁gebeten	-10094
▁cultures	-10095
▁emerging	-10096
▁epidemic	-10097
▁ersetzen	-10098
▁exchange	-10099
▁komplexe	-10100
▁verteilt	-10101
▁represents	-10102
▁situations	-10103
▁verbessert	-10104
▁Situationen	-10105
möglichkeiten	-10106
EC	-10107
mü	-10108
ris	-10109
äne	-10110
ült	-10111
▁Ec	-10112
▁Zä	-10113
laub	-10114
osex	-10115
star	-10116
umin	-10117
▁Bay	-10118
▁bul	-10119
inahe	-10120
inson	-10121
phäre	-10122
▁Fast	-10123
▁diss	-10124
▁gain	-10125
▁qual	-10126
▁shel	-10127
ichert	-10128
kosten	-10129
▁Black	-10130
▁Brook	-10131
▁Could	-10132
▁Gates	-10133
▁Letzt	-10134
▁Vögel	-10135
▁beweg	-10136
▁ermut	-10137
ikalien	-10138
spielen	-10139
▁Anyway	-10140
▁Einsch	-10141
▁gelöst	-10142
▁review	-10143
wachstum	-10144
▁Auswahl	-10145
▁beinahe	-10146
▁victims	-10147
isationen	-10148
▁Bereiche	-10149
▁convince	-10150
▁generate	-10151
▁hydrogen	-10152
▁relative	-10153
▁Geheimnis	-10154
▁behaviors	-10155
▁notwendig	-10156
▁producing	-10157
▁vermeiden	-10158
▁Diskussion	-10159
▁vulnerable	-10160
▁stattdessen	-10161
▁specifically	-10162
-,	-10163
war	-10164
▁KB	-10165
adow	-10166
izon	-10167
sver	-10168
▁Day	-10169
▁GDP	-10170
▁Mah	-10171
▁lic	-10172
▁wom	-10173
itals	-10174
maßen	-10175
▁Kurs	-10176
▁Stör	-10177
▁Trag	-10178
▁blau	-10179
▁ride	-10180
▁scre	-10181
▁cards	-10182
▁geist	-10183
▁passw	-10184
gründet	-10185
igungen	-10186
quality	-10187
zufügen	-10188
▁Doktor	-10189
▁fellow	-10190
▁houses	-10191
▁length	-10192
▁skelet	-10193
issionen	-10194
▁Entfern	-10195
▁Konflik	-10196
▁Risiken	-10197
▁TEDTalk	-10198
▁cameras	-10199
▁microsc	-10200
▁nations	-10201
▁primary	-10202
▁welchem	-10203
▁überprü	-10204
▁übersch	-10205
ologische	-10206
▁Congress	-10207
▁entstand	-10208
▁gefangen	-10209
▁Cambridge	-10210
▁chimpanze	-10211
▁emissions	-10212
▁Buchstaben	-10213
▁Definition	-10214
▁Großmutter	-10215
▁properties	-10216
▁unabhängig	-10217
▁Erwachsenen	-10218
▁effectively	-10219
▁Informations	-10220
▁menschlicher	-10221
▁persönlichen	-10222
▁entrepreneurs	-10223
ehm	-10224
oma	-10225
aube	-10226
elly	-10227
ämpf	-10228
▁Bem	-10229
▁Tim	-10230
▁hur	-10231
▁rig	-10232
▁van	-10233
orted	-10234
otten	-10235
▁Homo	-10236
▁Inte	-10237
▁corn	-10238
▁lady	-10239
▁neut	-10240
▁thro	-10241
▁trop	-10242
jemand	-10243
punkte	-10244
▁Antar	-10245
▁Febru	-10246
▁Moral	-10247
▁Offen	-10248
▁admit	-10249
▁claim	-10250
▁fiber	-10251
▁reven	-10252
▁Signal	-10253
▁Tonnen	-10254
▁ausgel	-10255
▁bottle	-10256
▁hinten	-10257
▁langer	-10258
qualität	-10259
▁Fahrrad	-10260
▁depends	-10261
▁details	-10262
▁neurosc	-10263
▁release	-10264
▁theoret	-10265
▁Geräusch	-10266
▁Verbesser	-10267
▁langfrist	-10268
▁schwimmen	-10269
▁persönliche	-10270
ij	-10271
nü	-10272
lad	-10273
▁Sy	-10274
▁Dro	-10275
▁Jes	-10276
▁Pen	-10277
▁Wow	-10278
istor	-10279
uropä	-10280
ville	-10281
weile	-10282
▁Früh	-10283
▁Vern	-10284
▁snow	-10285
▁suit	-10286
fernen	-10287
iglich	-10288
omente	-10289
▁Brief	-10290
▁Gutes	-10291
▁Lager	-10292
▁Pingu	-10293
▁Stuhl	-10294
▁added	-10295
▁shall	-10296
achtung	-10297
areness	-10298
ständen	-10299
▁Bedroh	-10300
▁Flücht	-10301
▁Wetter	-10302
▁height	-10303
▁Werbung	-10304
▁Wissens	-10305
▁contain	-10306
▁viruses	-10307
besondere	-10308
▁besuchen	-10309
▁versteht	-10310
▁Potential	-10311
▁entertain	-10312
▁movements	-10313
▁unterstützt	-10314
▁Wesentlichen	-10315
LA	-10316
obi	-10317
ups	-10318
erer	-10319
gant	-10320
ockt	-10321
rass	-10322
rict	-10323
what	-10324
wing	-10325
▁asp	-10326
▁err	-10327
▁sen	-10328
appen	-10329
cling	-10330
▁Bund	-10331
▁Four	-10332
▁arts	-10333
▁biom	-10334
▁maps	-10335
▁ring	-10336
rücken	-10337
äusern	-10338
▁crowd	-10339
steroid	-10340
ziehung	-10341
▁Leider	-10342
▁Nieder	-10343
▁define	-10344
▁dunkle	-10345
▁sauber	-10346
▁seitdem	-10347
▁standen	-10348
▁carrying	-10349
▁lifetime	-10350
▁parallel	-10351
▁schätzen	-10352
▁Strategie	-10353
▁Transport	-10354
▁besondere	-10355
▁industrie	-10356
▁westlichen	-10357
▁fantastisch	-10358
▁Erinnerungen	-10359
▁erstaunliche	-10360
Na	-10361
ruh	-10362
sun	-10363
vey	-10364
flug	-10365
ifer	-10366
quar	-10367
ught	-10368
▁tap	-10369
oking	-10370
▁2008	-10371
▁Prob	-10372
▁Wall	-10373
▁Wurz	-10374
▁cure	-10375
▁deta	-10376
▁exec	-10377
▁firm	-10378
▁grid	-10379
▁liqu	-10380
▁mode	-10381
▁soft	-10382
▁unit	-10383
lösung	-10384
▁Süden	-10385
▁Women	-10386
▁refer	-10387
▁sugar	-10388
▁übert	-10389
itarian	-10390
▁Kriegs	-10391
▁Stärke	-10392
▁Virgin	-10393
▁assign	-10394
▁bauten	-10395
▁explod	-10396
▁inevit	-10397
▁Präsent	-10398
▁Viertel	-10399
▁authent	-10400
▁berührt	-10401
▁erhielt	-10402
▁hierher	-10403
▁promise	-10404
▁radical	-10405
▁sending	-10406
▁Arbeiter	-10407
▁Kongress	-10408
▁Zwischen	-10409
▁circumst	-10410
▁exponent	-10411
▁verstehe	-10412
▁Operation	-10413
▁generally	-10414
▁interests	-10415
▁molecular	-10416
▁mortality	-10417
▁beinhaltet	-10418
▁politicians	-10419
▁mathematical	-10420
▁Persönlichkeit	-10421
wä	-10422
ena	-10423
han	-10424
ähn	-10425
▁SS	-10426
▁ce	-10427
oles	-10428
rain	-10429
▁LED	-10430
▁Tes	-10431
▁gay	-10432
▁gee	-10433
▁ing	-10434
▁nor	-10435
halts	-10436
hythm	-10437
ätter	-10438
▁Expl	-10439
▁Tele	-10440
▁acqu	-10441
▁grün	-10442
▁irre	-10443
▁Rechn	-10444
▁Wieso	-10445
▁drauf	-10446
▁hotel	-10447
▁maxim	-10448
▁risks	-10449
▁schwe	-10450
▁smile	-10451
aurants	-10452
▁Gegend	-10453
▁Wolken	-10454
▁battle	-10455
▁besagt	-10456
▁bubble	-10457
▁conver	-10458
▁meinte	-10459
▁remain	-10460
▁winter	-10461
bination	-10462
▁Erkrank	-10463
▁Fernseh	-10464
▁Respekt	-10465
▁engaged	-10466
▁however	-10467
▁überein	-10468
▁beweisen	-10469
▁langweil	-10470
▁leichter	-10471
▁official	-10472
▁prepared	-10473
▁released	-10474
▁eindeutig	-10475
▁components	-10476
▁discussion	-10477
▁beschrieben	-10478
▁feststellen	-10479
▁internationale	-10480
▁internationalen	-10481
DA	-10482
Look	-10483
rans	-10484
samm	-10485
▁Krä	-10486
▁Yet	-10487
▁bow	-10488
chron	-10489
nungs	-10490
oting	-10491
ränkt	-10492
▁Hell	-10493
▁Mult	-10494
▁Teuf	-10495
▁erwe	-10496
▁hind	-10497
▁unex	-10498
▁verg	-10499
▁Derek	-10500
▁Pfund	-10501
▁atoms	-10502
▁beach	-10503
▁chart	-10504
▁chron	-10505
▁doubt	-10506
▁navig	-10507
▁occup	-10508
▁staff	-10509
▁stehe	-10510
ierungs	-10511
▁Epidem	-10512
▁Helden	-10513
▁Lungen	-10514
▁Normal	-10515
▁bietet	-10516
▁blauen	-10517
▁durchs	-10518
▁factor	-10519
▁organs	-10520
zukommen	-10521
▁Galaxie	-10522
▁enthält	-10523
▁konstru	-10524
▁regener	-10525
▁regions	-10526
▁selling	-10527
▁vergröß	-10528
abilities	-10529
▁Bildungs	-10530
▁Minister	-10531
▁darunter	-10532
▁graduate	-10533
▁trillion	-10534
▁vertraut	-10535
▁wertvoll	-10536
▁Anwendung	-10537
▁aufnehmen	-10538
▁digitalen	-10539
▁introduce	-10540
▁lediglich	-10541
▁introduced	-10542
▁restaurant	-10543
▁techniques	-10544
erechtigkeit	-10545
▁Kombination	-10546
▁vorzustellen	-10547
▁wirtschaftliche	-10548
aa	-10549
ora	-10550
▁85	-10551
abol	-10552
airs	-10553
netz	-10554
▁Pet	-10555
▁dün	-10556
boden	-10557
opter	-10558
schau	-10559
▁Alph	-10560
▁Empf	-10561
▁genü	-10562
▁seid	-10563
▁shop	-10564
▁vent	-10565
igungs	-10566
penden	-10567
▁Bauch	-10568
▁Darum	-10569
▁Grand	-10570
▁Hilfs	-10571
▁Schäd	-10572
▁Since	-10573
▁goals	-10574
▁metal	-10575
▁serve	-10576
▁sides	-10577
▁sucht	-10578
prechen	-10579
▁Herren	-10580
▁begren	-10581
▁buying	-10582
▁compar	-10583
▁fehlen	-10584
▁fisher	-10585
▁furcht	-10586
▁sparen	-10587
▁Wechsel	-10588
▁liefern	-10589
▁steuern	-10590
▁verring	-10591
▁Echtzeit	-10592
▁systemat	-10593
▁Wohlstand	-10594
▁entfernen	-10595
▁terrorism	-10596
▁Bedürfnisse	-10597
▁Chemikalien	-10598
Man	-10599
Wow	-10600
bek	-10601
bers	-10602
fert	-10603
half	-10604
illa	-10605
inte	-10606
▁Hol	-10607
▁Sow	-10608
▁biz	-10609
greif	-10610
icing	-10611
▁Tief	-10612
▁Zahn	-10613
▁jüng	-10614
▁sorg	-10615
angers	-10616
gehend	-10617
haften	-10618
porary	-10619
reffen	-10620
▁divid	-10621
▁silen	-10622
▁steel	-10623
▁traum	-10624
ermaßen	-10625
▁August	-10626
▁Danach	-10627
▁Ozeane	-10628
▁Symbol	-10629
▁Winter	-10630
▁gelebt	-10631
▁mirror	-10632
▁Bestand	-10633
▁Geistes	-10634
▁factors	-10635
▁gefällt	-10636
▁impress	-10637
▁lokalen	-10638
▁malaria	-10639
▁äußerst	-10640
▁folgende	-10641
▁gespielt	-10642
▁pleasure	-10643
▁weiterer	-10644
▁ähnliche	-10645
▁employees	-10646
▁gegründet	-10647
▁Depression	-10648
▁gemeinsame	-10649
▁übernehmen	-10650
▁Zivilisation	-10651
▁gesellschaft	-10652
70	-10653
pa	-10654
▁x	-10655
ati	-10656
fäh	-10657
lem	-10658
öss	-10659
▁MT	-10660
bell	-10661
foot	-10662
grad	-10663
okus	-10664
äfte	-10665
▁Lou	-10666
antom	-10667
gling	-10668
igste	-10669
ratch	-10670
▁Jung	-10671
▁Long	-10672
▁Weiß	-10673
▁atom	-10674
▁stir	-10675
▁unus	-10676
▁verf	-10677
elling	-10678
izienz	-10679
ternal	-10680
▁Gehen	-10681
▁Platt	-10682
▁Tumor	-10683
▁armen	-10684
▁befre	-10685
▁horse	-10686
▁imple	-10687
▁verab	-10688
anthrop	-10689
▁assist	-10690
▁blocks	-10691
▁detect	-10692
▁former	-10693
▁geomet	-10694
▁junger	-10695
▁medium	-10696
▁regard	-10697
▁replic	-10698
▁thanks	-10699
▁worlds	-10700
▁Einheit	-10701
▁Fliegen	-10702
▁Taliban	-10703
▁gravity	-10704
▁kriegen	-10705
▁mistake	-10706
▁proport	-10707
▁Mehrheit	-10708
▁kreieren	-10709
▁schlafen	-10710
ologischen	-10711
▁Philosoph	-10712
▁invention	-10713
▁radiation	-10714
▁überrasch	-10715
▁definitely	-10716
▁protection	-10717
▁überwinden	-10718
▁Stattdessen	-10719
▁gegenseitig	-10720
▁environments	-10721
lyn	-10722
ppy	-10723
uba	-10724
wel	-10725
▁CD	-10726
umps	-10727
▁Ehr	-10728
▁bag	-10729
▁dot	-10730
▁phr	-10731
▁que	-10732
▁sem	-10733
acken	-10734
ittel	-10735
level	-10736
▁Allt	-10737
▁Coll	-10738
▁Gore	-10739
▁Paar	-10740
▁bare	-10741
▁beiz	-10742
▁fürs	-10743
▁rout	-10744
▁runs	-10745
▁soul	-10746
▁tank	-10747
mechan	-10748
rieren	-10749
▁Diagn	-10750
▁Stern	-10751
▁inher	-10752
▁tumor	-10753
forscht	-10754
gruppen	-10755
▁Handel	-10756
▁Mengen	-10757
▁contem	-10758
▁option	-10759
▁scared	-10760
▁stattf	-10761
▁attempt	-10762
▁grundle	-10763
▁lessons	-10764
▁moderne	-10765
▁replace	-10766
▁Deswegen	-10767
▁Lebenser	-10768
▁affected	-10769
▁beispiel	-10770
▁disaster	-10771
▁spectrum	-10772
▁Grundlage	-10773
▁Südafrika	-10774
▁mountains	-10775
▁newspaper	-10776
▁pollution	-10777
▁practical	-10778
▁wirkliche	-10779
▁veränderte	-10780
▁Sicherheits	-10781
▁combination	-10782
▁evolutionary	-10783
aj	-10784
▁33	-10785
burg	-10786
hips	-10787
leib	-10788
mehr	-10789
mord	-10790
nahm	-10791
pers	-10792
ugel	-10793
ulin	-10794
uses	-10795
▁Fal	-10796
▁wra	-10797
anned	-10798
iogen	-10799
iveau	-10800
▁Cart	-10801
▁arab	-10802
▁clip	-10803
▁erwä	-10804
▁nett	-10805
apital	-10806
icious	-10807
▁Hunde	-10808
▁Küste	-10809
▁Weihn	-10810
▁goods	-10811
▁obser	-10812
▁stock	-10813
▁sweet	-10814
erstand	-10815
wärmung	-10816
zwungen	-10817
▁Blumen	-10818
▁Brücke	-10819
▁Hunger	-10820
▁Kompon	-10821
▁Mandel	-10822
▁Sobald	-10823
▁driven	-10824
▁heisst	-10825
▁robust	-10826
▁season	-10827
▁singen	-10828
▁verblü	-10829
▁Bibliot	-10830
▁berühmt	-10831
▁chicken	-10832
▁kitchen	-10833
▁manchen	-10834
▁opinion	-10835
▁reached	-10836
▁dahinter	-10837
▁recorded	-10838
▁Erfindung	-10839
▁Interview	-10840
▁encounter	-10841
▁typically	-10842
▁Schauspiel	-10843
▁democratic	-10844
▁verwandelt	-10845
▁Statistiken	-10846
▁großartigen	-10847
▁schwieriger	-10848
6.	-10849
▁:	-10850
not	-10851
umn	-10852
▁3,	-10853
..."	-10854
anes	-10855
aven	-10856
ifth	-10857
ikes	-10858
ränk	-10859
▁Ray	-10860
▁Rom	-10861
▁ums	-10862
akers	-10863
iring	-10864
orous	-10865
utete	-10866
▁brit	-10867
▁tape	-10868
▁wars	-10869
urance	-10870
▁5,000	-10871
▁Erdbe	-10872
▁Kenia	-10873
▁Poten	-10874
▁Space	-10875
▁Würde	-10876
▁estim	-10877
▁innen	-10878
▁leist	-10879
▁polar	-10880
▁Gesamt	-10881
▁Privat	-10882
▁Russia	-10883
▁Sprach	-10884
▁aftern	-10885
▁ausgew	-10886
▁cortex	-10887
▁ingred	-10888
▁kümmer	-10889
▁pulled	-10890
▁soviel	-10891
▁talent	-10892
underten	-10893
▁Central	-10894
▁Momente	-10895
▁Pacific	-10896
▁Schicks	-10897
▁centers	-10898
▁fishing	-10899
▁glaubte	-10900
▁include	-10901
▁zeigten	-10902
▁Aufnahme	-10903
▁sichtbar	-10904
▁dieselben	-10905
▁neighbors	-10906
▁photograp	-10907
▁scheinbar	-10908
▁worldwide	-10909
▁Instrument	-10910
▁fasziniert	-10911
▁perception	-10912
▁Aktivitäten	-10913
▁Jahrzehnten	-10914
▁Stammzellen	-10915
▁akzeptieren	-10916
▁Gerechtigkeit	-10917
▁funktionierte	-10918
äub	-10919
gely	-10920
rüst	-10921
west	-10922
äden	-10923
▁Fas	-10924
▁Hen	-10925
▁adj	-10926
▁erz	-10927
▁hey	-10928
▁mat	-10929
▁wüs	-10930
otion	-10931
seins	-10932
▁Nase	-10933
▁dogs	-10934
▁froh	-10935
▁gang	-10936
▁gere	-10937
▁rote	-10938
ammelt	-10939
unkten	-10940
▁Blatt	-10941
▁Jesus	-10942
▁White	-10943
▁false	-10944
▁keeps	-10945
▁ought	-10946
▁toler	-10947
▁toxic	-10948
▁Fabrik	-10949
▁Inspir	-10950
▁Laptop	-10951
▁eingel	-10952
▁satisf	-10953
▁stream	-10954
▁vieles	-10955
▁Perhaps	-10956
▁Richtig	-10957
▁actions	-10958
▁dropped	-10959
▁electro	-10960
▁erhöhen	-10961
▁forests	-10962
▁gewählt	-10963
▁nachden	-10964
▁privacy	-10965
▁singing	-10966
schriften	-10967
▁Spektrum	-10968
▁Ungleich	-10969
▁bemerken	-10970
▁mögliche	-10971
▁required	-10972
leistungen	-10973
▁Gegenwart	-10974
▁Gesichter	-10975
▁traveling	-10976
▁angenommen	-10977
▁literature	-10978
▁psychology	-10979
▁Einstellung	-10980
▁Terrorismus	-10981
▁Innovationen	-10982
▁menschliches	-10983
▁collaboration	-10984
▁medizinischen	-10985
▁sophisticated	-10986
örm	-10987
Amer	-10988
arre	-10989
bage	-10990
gibt	-10991
oint	-10992
uits	-10993
zipl	-10994
▁Brü	-10995
▁Imp	-10996
▁lon	-10997
adium	-10998
agram	-10999
ahnen	-11000
igare	-11001
illen	-11002
ologe	-11003
▁Cont	-11004
▁bicy	-11005
▁eggs	-11006
gesamt	-11007
illing	-11008
plätze	-11009
ueller	-11010
▁3,000	-11011
▁Damen	-11012
▁Einen	-11013
▁Wüste	-11014
▁baute	-11015
▁embar	-11016
▁input	-11017
▁notes	-11018
▁Anders	-11019
▁Behind	-11020
▁anonym	-11021
▁belieb	-11022
▁bestät	-11023
▁hoping	-11024
▁liquid	-11025
▁realen	-11026
▁ungehe	-11027
putation	-11028
scheidet	-11029
▁Gebiete	-11030
▁Signale	-11031
▁applied	-11032
▁feature	-11033
losigkeit	-11034
stitution	-11035
▁Nachhalt	-11036
▁Vorteile	-11037
▁features	-11038
▁vehicles	-11039
▁verdient	-11040
▁Allgemein	-11041
▁erweitern	-11042
▁naturally	-11043
▁personally	-11044
▁participate	-11045
▁unglaublichen	-11046
aat	-11047
▁28	-11048
▁Ve	-11049
igem	-11050
ombe	-11051
▁Cra	-11052
▁Dep	-11053
▁Squ	-11054
alled	-11055
athan	-11056
belie	-11057
eding	-11058
ieben	-11059
ielle	-11060
kehrt	-11061
▁2010	-11062
▁Laut	-11063
▁hits	-11064
hängen	-11065
iraten	-11066
ruppen	-11067
sprung	-11068
▁Erinn	-11069
▁Kabel	-11070
▁Koran	-11071
▁Power	-11072
▁Sympt	-11073
▁aging	-11074
▁jener	-11075
▁legit	-11076
▁skill	-11077
▁unbek	-11078
dlichen	-11079
▁France	-11080
▁Neurow	-11081
▁senses	-11082
schlagen	-11083
▁Lektion	-11084
▁Wirkung	-11085
▁besitzt	-11086
▁courage	-11087
▁unusual	-11088
▁Betracht	-11089
▁Diagramm	-11090
▁Herstell	-11091
▁Schritte	-11092
▁combined	-11093
▁elektron	-11094
▁ultimate	-11095
▁Billionen	-11096
▁ancestors	-11097
▁encourage	-11098
bevölkerung	-11099
▁meaningful	-11100
▁destruction	-11101
▁fundamentally	-11102
▁technological	-11103
BM	-11104
kul	-11105
rey	-11106
▁Tö	-11107
eres	-11108
etik	-11109
oted	-11110
ulse	-11111
▁Leg	-11112
▁hem	-11113
ettet	-11114
linie	-11115
räume	-11116
stron	-11117
▁Kenn	-11118
▁arme	-11119
▁iPod	-11120
▁länd	-11121
▁mile	-11122
▁remo	-11123
▁tats	-11124
▁wine	-11125
mented	-11126
▁Phase	-11127
▁Scott	-11128
▁Teles	-11129
▁cyber	-11130
▁dedic	-11131
▁fährt	-11132
▁score	-11133
▁topic	-11134
▁Dunkel	-11135
▁Kirche	-11136
▁Pflege	-11137
▁Säuget	-11138
▁church	-11139
▁formed	-11140
▁lachen	-11141
▁senden	-11142
ierungen	-11143
▁Absicht	-11144
▁ansieht	-11145
▁operate	-11146
arbeitung	-11147
erstörung	-11148
▁Business	-11149
▁Zunächst	-11150
▁besseres	-11151
▁birthday	-11152
▁falschen	-11153
▁gefallen	-11154
▁stronger	-11155
▁Überzeug	-11156
▁Literatur	-11157
▁afternoon	-11158
▁awareness	-11159
▁increased	-11160
▁mechanism	-11161
▁überlegen	-11162
▁activities	-11163
▁algorithms	-11164
▁bezeichnen	-11165
▁efficiency	-11166
▁automatisch	-11167
▁geschlossen	-11168
▁Fortschritte	-11169
▁überraschend	-11170
Sh	-11171
va	-11172
bir	-11173
sey	-11174
önt	-11175
igma	-11176
iler	-11177
kins	-11178
sper	-11179
▁sau	-11180
build	-11181
fense	-11182
ician	-11183
iders	-11184
lager	-11185
reibe	-11186
üssen	-11187
▁Dazu	-11188
▁Eric	-11189
▁Jose	-11190
▁Penn	-11191
▁Wein	-11192
▁brut	-11193
▁peak	-11194
▁quad	-11195
▁sees	-11196
▁tick	-11197
ateful	-11198
estyle	-11199
▁Immer	-11200
▁Inner	-11201
▁Stahl	-11202
▁geste	-11203
▁pregn	-11204
▁Gottes	-11205
▁Symmet	-11206
▁acting	-11207
▁anfing	-11208
▁solved	-11209
▁sports	-11210
▁weißen	-11211
lerweile	-11212
▁accompl	-11213
▁bekomme	-11214
▁records	-11215
▁Bevölker	-11216
▁Gesichts	-11217
▁Webseite	-11218
▁internal	-11219
▁konfront	-11220
▁memories	-11221
▁mistakes	-11222
▁occurred	-11223
▁speziell	-11224
▁sunlight	-11225
▁zeichnen	-11226
▁Alexander	-11227
▁Elefanten	-11228
▁Wachstums	-11229
▁behaupten	-11230
▁embarrass	-11231
▁framework	-11232
▁functions	-11233
▁gebraucht	-11234
▁hospitals	-11235
▁foundation	-11236
▁physically	-11237
▁processing	-11238
▁underwater	-11239
▁dargestellt	-11240
▁Unterhaltung	-11241
▁grundsätzlich	-11242
▁manufacturing	-11243
▁transportation	-11244
wa	-11245
ffe	-11246
ima	-11247
see	-11248
cons	-11249
mack	-11250
very	-11251
ätzt	-11252
▁Boy	-11253
▁bug	-11254
▁ere	-11255
daten	-11256
fähig	-11257
obile	-11258
scale	-11259
umble	-11260
vable	-11261
▁2005	-11262
▁Back	-11263
▁Hill	-11264
▁bath	-11265
▁defe	-11266
▁heil	-11267
▁joke	-11268
▁zoom	-11269
forest	-11270
opping	-11271
reiche	-11272
▁Dafür	-11273
▁Folie	-11274
▁Motiv	-11275
▁Wagen	-11276
▁habit	-11277
▁immen	-11278
▁pharm	-11279
▁prime	-11280
▁tests	-11281
ription	-11282
steller	-11283
▁Führer	-11284
▁Howard	-11285
▁Mittag	-11286
▁elimin	-11287
▁studio	-11288
▁survey	-11289
▁tiefer	-11290
▁willst	-11291
ikations	-11292
material	-11293
▁Hindern	-11294
▁cooking	-11295
▁dauerte	-11296
▁empathy	-11297
▁hinunter	-11298
▁kostenlos	-11299
▁durchführen	-11300
▁aufgewachsen	-11301
▁Vorstellungen	-11302
▁beispielsweise	-11303
Ex	-11304
imb	-11305
opy	-11306
wen	-11307
▁Ky	-11308
reht	-11309
uted	-11310
utze	-11311
▁Mio	-11312
▁Okt	-11313
füllt	-11314
opath	-11315
räger	-11316
▁Five	-11317
▁Gute	-11318
▁lift	-11319
▁rene	-11320
▁trig	-11321
Dollar	-11322
System	-11323
father	-11324
friend	-11325
▁Trick	-11326
▁Zweif	-11327
▁sight	-11328
▁sowas	-11329
▁theme	-11330
▁wofür	-11331
ishment	-11332
▁Alters	-11333
▁Löcher	-11334
▁Rechts	-11335
▁Zufall	-11336
▁drives	-11337
▁fingen	-11338
▁golden	-11339
▁rocket	-11340
pflanzen	-11341
▁Afrikas	-11342
▁Chancen	-11343
▁Sternen	-11344
▁equally	-11345
▁falling	-11346
▁führten	-11347
▁herausf	-11348
▁largely	-11349
▁musical	-11350
▁suppose	-11351
▁witness	-11352
probieren	-11353
verhalten	-11354
▁Metapher	-11355
▁somewhat	-11356
▁algorithm	-11357
▁beobachte	-11358
▁computing	-11359
▁zufrieden	-11360
▁Gedächtnis	-11361
▁conservation	-11362
üf	-11363
▁PC	-11364
▁ok	-11365
▁Cop	-11366
▁Mor	-11367
▁Sup	-11368
acles	-11369
burgh	-11370
erten	-11371
zepte	-11372
▁Mike	-11373
▁club	-11374
▁heim	-11375
bücher	-11376
kelett	-11377
unting	-11378
▁Hallo	-11379
▁House	-11380
▁gründ	-11381
▁shame	-11382
▁storm	-11383
antasie	-11384
▁Besuch	-11385
▁Nobody	-11386
▁Unfall	-11387
▁Welten	-11388
▁advice	-11389
▁landen	-11390
▁laptop	-11391
▁leiten	-11392
▁merken	-11393
▁neuron	-11394
▁reisen	-11395
sprechen	-11396
▁Molekül	-11397
▁amounts	-11398
▁burning	-11399
▁discipl	-11400
▁drücken	-11401
ventional	-11402
▁Resultat	-11403
▁Russland	-11404
▁antibiot	-11405
▁digitale	-11406
▁dramatic	-11407
▁proteins	-11408
▁springen	-11409
▁swimming	-11410
▁bekannten	-11411
▁berichten	-11412
▁collected	-11413
▁erwachsen	-11414
▁Prinzipien	-11415
▁beibringen	-11416
▁Untersuchung	-11417
▁verschwunden	-11418
wissenschaften	-11419
▁Gemeinschaften	-11420
Al	-11421
Ch	-11422
urr	-11423
ania	-11424
ocal	-11425
whel	-11426
▁anx	-11427
▁mig	-11428
anche	-11429
bleme	-11430
ismen	-11431
menge	-11432
polit	-11433
sters	-11434
▁1000	-11435
▁Beij	-11436
▁Eier	-11437
▁June	-11438
▁Krit	-11439
▁Leon	-11440
▁Mama	-11441
▁Ohne	-11442
▁horm	-11443
▁kalt	-11444
ansion	-11445
aptops	-11446
ducing	-11447
garten	-11448
zeigen	-11449
▁Klein	-11450
▁Media	-11451
▁Rhyth	-11452
▁While	-11453
▁blaue	-11454
▁cents	-11455
▁umher	-11456
mutzung	-11457
prozess	-11458
rechend	-11459
▁Kanada	-11460
▁Number	-11461
▁advent	-11462
▁button	-11463
▁desper	-11464
▁erhöht	-11465
▁lokale	-11466
▁trafen	-11467
▁verknü	-11468
▁Annahme	-11469
▁diction	-11470
▁figures	-11471
▁silence	-11472
▁starben	-11473
▁visible	-11474
▁zweimal	-11475
▁bemerkte	-11476
▁concrete	-11477
▁Angestell	-11478
▁Something	-11479
▁protected	-11480
▁conclusion	-11481
▁gemeinsamen	-11482
▁photographs	-11483
▁potentially	-11484
▁konzentriert	-11485
▁afrikanischen	-11486
ema	-11487
het	-11488
▁36	-11489
▁RB	-11490
▁sä	-11491
▁ök	-11492
alte	-11493
lief	-11494
reck	-11495
▁Alt	-11496
▁Son	-11497
▁mad	-11498
▁toy	-11499
being	-11500
oring	-11501
telef	-11502
▁2050	-11503
▁Chef	-11504
▁Josh	-11505
▁Vari	-11506
▁Voll	-11507
▁fake	-11508
▁gewö	-11509
▁sets	-11510
karten	-11511
making	-11512
versch	-11513
▁Ohren	-11514
▁River	-11515
▁Shang	-11516
▁Spann	-11517
▁athle	-11518
▁piano	-11519
▁ridic	-11520
▁ultra	-11521
ategien	-11522
ultural	-11523
▁Anwend	-11524
▁Skulpt	-11525
▁achten	-11526
▁patent	-11527
▁ökonom	-11528
▁Aussage	-11529
▁Zeitung	-11530
▁besorgt	-11531
▁defined	-11532
▁kreativ	-11533
▁trinken	-11534
▁unglück	-11535
▁unteren	-11536
▁Ereignis	-11537
▁constant	-11538
▁election	-11539
▁physikal	-11540
▁presence	-11541
▁verstand	-11542
▁Marketing	-11543
▁permanent	-11544
▁schwarzen	-11545
▁vertrauen	-11546
▁percentage	-11547
▁sogenannte	-11548
▁Darstellung	-11549
▁Unfortunately	-11550
▁psychological	-11551
CA	-11552
li	-11553
ixt	-11554
oto	-11555
rin	-11556
andt	-11557
etch	-11558
führ	-11559
ihad	-11560
kind	-11561
▁FBI	-11562
▁Hon	-11563
▁Jun	-11564
▁Sec	-11565
chest	-11566
opard	-11567
unate	-11568
▁Flie	-11569
▁Gibt	-11570
▁Matt	-11571
▁Only	-11572
▁baut	-11573
▁cast	-11574
▁grad	-11575
▁load	-11576
▁plot	-11577
▁pump	-11578
modell	-11579
quelle	-11580
▁Bevor	-11581
▁adopt	-11582
▁chose	-11583
▁clock	-11584
▁inten	-11585
▁roads	-11586
▁rooms	-11587
▁split	-11588
▁städt	-11589
▁trend	-11590
ließend	-11591
▁Grippe	-11592
▁critic	-11593
▁handle	-11594
▁hinauf	-11595
▁hörten	-11596
▁orange	-11597
▁wander	-11598
vermögen	-11599
▁Anstatt	-11600
▁Nutzung	-11601
▁Verwand	-11602
▁attacks	-11603
▁einiges	-11604
▁hielten	-11605
▁quarter	-11606
▁solange	-11607
▁tonight	-11608
▁verlang	-11609
▁Männchen	-11610
▁Teenager	-11611
▁Versuche	-11612
▁abstract	-11613
▁accurate	-11614
▁creature	-11615
▁geholfen	-11616
▁genügend	-11617
▁overwhel	-11618
▁perfekte	-11619
▁subjects	-11620
▁tracking	-11621
oberfläche	-11622
▁Programme	-11623
▁darstellt	-11624
▁komplexen	-11625
▁marketing	-11626
▁operation	-11627
▁Regierungs	-11628
▁antwortete	-11629
▁confidence	-11630
▁speziellen	-11631
▁Schließlich	-11632
▁explanation	-11633
▁irgendjemand	-11634
▁organisieren	-11635
▁conversations	-11636
▁Nachhaltigkeit	-11637
7.	-11638
My	-11639
emb	-11640
las	-11641
cers	-11642
ency	-11643
gten	-11644
keys	-11645
▁Ost	-11646
▁Roh	-11647
child	-11648
chnik	-11649
elson	-11650
gence	-11651
itors	-11652
retch	-11653
veled	-11654
ünder	-11655
▁Cons	-11656
▁Hard	-11657
▁Kart	-11658
▁Play	-11659
▁Rett	-11660
▁bell	-11661
▁dens	-11662
▁erhe	-11663
▁gele	-11664
▁hook	-11665
▁lebe	-11666
▁silk	-11667
freund	-11668
iosity	-11669
umines	-11670
▁Chaos	-11671
▁Feind	-11672
▁Gemäl	-11673
▁Initi	-11674
▁films	-11675
▁günst	-11676
▁repar	-11677
▁staat	-11678
▁upper	-11679
ahnsinn	-11680
inction	-11681
sterben	-11682
▁Budget	-11683
▁Bundes	-11684
▁Eigent	-11685
▁Mangel	-11686
▁Märkte	-11687
▁Strand	-11688
▁grünen	-11689
▁stayed	-11690
▁worauf	-11691
aneously	-11692
ktivität	-11693
leistung	-11694
▁Führung	-11695
▁Musiker	-11696
▁Vorhers	-11697
▁circuit	-11698
▁clothes	-11699
▁erkannt	-11700
▁offenen	-11701
▁outcome	-11702
▁remains	-11703
▁Regionen	-11704
▁existing	-11705
▁infected	-11706
▁threaten	-11707
▁transfer	-11708
▁Kontinent	-11709
▁Verstehen	-11710
▁betroffen	-11711
▁explained	-11712
▁providing	-11713
▁sensitive	-11714
▁versteckt	-11715
unternehmen	-11716
▁Jahrzehnte	-11717
▁productive	-11718
▁surrounded	-11719
▁appropriate	-11720
▁biologische	-11721
▁inspiration	-11722
▁circumstances	-11723
▁sustainability	-11724
je	-11725
kor	-11726
osn	-11727
vas	-11728
▁ah	-11729
holz	-11730
icit	-11731
nehm	-11732
ooth	-11733
▁Amy	-11734
▁Lib	-11735
▁kop	-11736
▁spo	-11737
behör	-11738
iking	-11739
iture	-11740
ogram	-11741
olate	-11742
ormen	-11743
preis	-11744
▁Come	-11745
▁Grün	-11746
▁diam	-11747
▁flew	-11748
▁furn	-11749
▁lens	-11750
▁swim	-11751
gebiet	-11752
iertes	-11753
profit	-11754
▁Liber	-11755
▁Magie	-11756
▁Räume	-11757
▁anget	-11758
▁enden	-11759
▁frank	-11760
▁songs	-11761
▁verhe	-11762
▁voran	-11763
▁weiße	-11764
▁wisst	-11765
▁woher	-11766
identen	-11767
▁Newton	-11768
▁Status	-11769
▁anhand	-11770
▁assume	-11771
▁dunkel	-11772
▁europä	-11773
▁monkey	-11774
▁tested	-11775
tausende	-11776
▁Schaden	-11777
▁Spezial	-11778
▁breathe	-11779
▁closely	-11780
▁glamour	-11781
▁nannten	-11782
▁nowhere	-11783
▁overall	-11784
▁reverse	-11785
▁stoppen	-11786
▁treiben	-11787
▁Erlebnis	-11788
▁Hunderte	-11789
▁Kampagne	-11790
▁contrast	-11791
▁measured	-11792
▁Computern	-11793
▁authority	-11794
▁betreiben	-11795
▁enthalten	-11796
▁gebrochen	-11797
▁langsamer	-11798
▁spiritual	-11799
▁electronic	-11800
▁Sonnenlicht	-11801
▁Präsentation	-11802
▁presentation	-11803
▁bemerkenswert	-11804
▁veröffentlich	-11805
Wo	-11806
brü	-11807
ini	-11808
▁Ep	-11809
▁Us	-11810
Yeah	-11811
adic	-11812
atar	-11813
coln	-11814
gent	-11815
gren	-11816
ilde	-11817
ouds	-11818
wald	-11819
▁Ban	-11820
▁Out	-11821
▁mur	-11822
esome	-11823
stieg	-11824
▁Bege	-11825
▁Snow	-11826
▁Time	-11827
▁frem	-11828
▁hang	-11829
▁impl	-11830
▁loud	-11831
▁merk	-11832
▁tack	-11833
▁thin	-11834
osphor	-11835
source	-11836
▁Conne	-11837
▁Cyber	-11838
▁angem	-11839
▁error	-11840
▁fehlt	-11841
▁humor	-11842
▁platz	-11843
▁proto	-11844
▁renew	-11845
▁taste	-11846
stoffen	-11847
ältigen	-11848
▁border	-11849
▁extens	-11850
▁filter	-11851
▁flower	-11852
▁involv	-11853
▁joined	-11854
▁nachts	-11855
▁wirken	-11856
▁Debatte	-11857
▁Gericht	-11858
▁decline	-11859
▁doppelt	-11860
▁options	-11861
▁sensors	-11862
▁tatsäch	-11863
▁unknown	-11864
▁Antibiot	-11865
▁Geschenk	-11866
▁administ	-11867
▁horrible	-11868
▁wireless	-11869
▁Christmas	-11870
▁Geräusche	-11871
▁Potenzial	-11872
▁Schicksal	-11873
▁beteiligt	-11874
▁narrative	-11875
▁teilweise	-11876
▁Ereignisse	-11877
▁Frankreich	-11878
▁Geburtstag	-11879
▁Wettbewerb	-11880
▁appreciate	-11881
▁bezeichnet	-11882
▁moralische	-11883
▁verglichen	-11884
▁nachgedacht	-11885
▁applications	-11886
▁unterrichten	-11887
wahrscheinlich	-11888
▁DV	-11889
▁Üb	-11890
förm	-11891
lass	-11892
look	-11893
vely	-11894
▁Box	-11895
▁Jud	-11896
▁Lam	-11897
▁Ruf	-11898
barer	-11899
imine	-11900
okuss	-11901
tritt	-11902
uther	-11903
▁Ford	-11904
▁Serv	-11905
▁belo	-11906
▁cave	-11907
▁ears	-11908
▁elev	-11909
▁imit	-11910
▁milk	-11911
▁outc	-11912
▁pill	-11913
fangen	-11914
kräfte	-11915
linien	-11916
phones	-11917
recken	-11918
▁Bronx	-11919
▁Eisen	-11920
▁Henry	-11921
▁Noten	-11922
▁Wegen	-11923
▁bones	-11924
▁curve	-11925
▁datab	-11926
▁embed	-11927
▁plate	-11928
▁weigh	-11929
▁wirkt	-11930
chester	-11931
schicht	-11932
stimmen	-11933
▁Abfall	-11934
▁Futter	-11935
▁deaths	-11936
▁deploy	-11937
▁freien	-11938
▁marine	-11939
▁papers	-11940
▁whales	-11941
▁Johnson	-11942
▁evening	-11943
▁frequen	-11944
▁housing	-11945
▁therapy	-11946
▁Freiwill	-11947
▁begegnen	-11948
▁schreibt	-11949
▁symptoms	-11950
▁Basically	-11951
▁Computers	-11952
▁einfaches	-11953
▁ernsthaft	-11954
▁statement	-11955
legenheiten	-11956
▁Restaurant	-11957
▁Unterricht	-11958
▁ausgesetzt	-11959
▁controlled	-11960
▁economists	-11961
▁challenging	-11962
▁grundlegend	-11963
▁voneinander	-11964
▁Sonnensystem	-11965
ato	-11966
irk	-11967
irt	-11968
isl	-11969
▁55	-11970
▁SP	-11971
▁ew	-11972
umer	-11973
▁Hat	-11974
▁Nam	-11975
▁Ter	-11976
▁Send	-11977
▁busy	-11978
▁melt	-11979
istics	-11980
ktions	-11981
schiff	-11982
ätzung	-11983
▁Arist	-11984
▁Fokus	-11985
▁angel	-11986
▁depth	-11987
▁lying	-11988
▁skept	-11989
▁stere	-11990
▁whist	-11991
rüstung	-11992
▁Darauf	-11993
▁Detail	-11994
▁Nelson	-11995
▁Weiter	-11996
▁boring	-11997
▁relate	-11998
▁remove	-11999
▁suchte	-12000
▁suffer	-12001
▁volume	-12002
funktion	-12003
ieinhalb	-12004
▁aufgere	-12005
▁combine	-12006
▁fingers	-12007
▁gekauft	-12008
▁samples	-12009
▁weshalb	-12010
erkennung	-12011
scheinend	-12012
▁Anführer	-12013
▁Research	-12014
▁Shanghai	-12015
▁anschaut	-12016
▁provided	-12017
▁reagiert	-12018
▁sinnvoll	-12019
▁umfassen	-12020
▁Spielzeug	-12021
▁centuries	-12022
▁derselben	-12023
▁gentlemen	-12024
▁reduziert	-12025
▁Entfernung	-12026
▁laboratory	-12027
▁passionate	-12028
▁Ausstellung	-12029
▁Bevölkerungs	-12030
Ein	-12031
For	-12032
agh	-12033
zne	-12034
aufs	-12035
gefü	-12036
iser	-12037
izza	-12038
park	-12039
zykl	-12040
▁Ann	-12041
▁Sud	-12042
▁Sus	-12043
▁Ted	-12044
▁Tum	-12045
▁ack	-12046
▁anb	-12047
▁odd	-12048
▁rub	-12049
enter	-12050
läuft	-12051
onien	-12052
overn	-12053
point	-12054
rücke	-12055
▁Ehem	-12056
▁Gulf	-12057
▁Nick	-12058
▁Sant	-12059
▁Tony	-12060
▁bike	-12061
▁gras	-12062
▁grat	-12063
▁hack	-12064
▁item	-12065
▁nose	-12066
▁pool	-12067
▁stri	-12068
▁vere	-12069
dienst	-12070
gypten	-12071
muster	-12072
werken	-12073
▁Angeb	-12074
▁Armee	-12075
▁Brown	-12076
▁Erfol	-12077
▁Kateg	-12078
▁Samen	-12079
▁Saudi	-12080
▁beige	-12081
▁globe	-12082
▁resil	-12083
bewusst	-12084
etische	-12085
▁Kindes	-12086
▁Schach	-12087
▁autism	-12088
▁grosse	-12089
▁heilen	-12090
▁sensor	-12091
atastrop	-12092
▁100.000	-12093
▁Schicht	-12094
▁beliebt	-12095
▁bestand	-12096
▁comment	-12097
▁contrib	-12098
▁flowers	-12099
▁instrum	-12100
▁metabol	-12101
▁neugier	-12102
▁Argument	-12103
▁Schweden	-12104
▁allowing	-12105
▁bewirken	-12106
▁collapse	-12107
▁glaubten	-12108
▁paradigm	-12109
▁unmittel	-12110
▁villages	-12111
▁wherever	-12112
▁basierend	-12113
▁betrieben	-12114
▁irgendeine	-12115
▁transplant	-12116
▁weltweiten	-12117
▁wenigstens	-12118
▁exploration	-12119
▁transformed	-12120
▁vergangenen	-12121
▁insbesondere	-12122
geschwindigkeit	-12123
▁veröffentlichen	-12124
OL	-12125
gly	-12126
mot	-12127
▁Hi	-12128
▁LG	-12129
▁lö	-12130
bern	-12131
erie	-12132
oust	-12133
pern	-12134
▁Sah	-12135
▁Wär	-12136
brech	-12137
night	-12138
weich	-12139
▁Abra	-12140
▁Beit	-12141
▁Gemü	-12142
▁Male	-12143
▁Mosk	-12144
▁pink	-12145
▁vibr	-12146
astern	-12147
heorie	-12148
unklen	-12149
▁Brian	-12150
▁Flüss	-12151
▁Optim	-12152
▁angry	-12153
▁bedro	-12154
▁memor	-12155
▁thick	-12156
▁Fläche	-12157
▁Handys	-12158
▁Square	-12159
▁Studio	-12160
▁extent	-12161
▁gelang	-12162
▁script	-12163
▁transc	-12164
▁Aspekte	-12165
▁Indones	-12166
▁Kameras	-12167
▁Kapitel	-12168
▁Lincoln	-12169
▁ergeben	-12170
▁respekt	-12171
▁Brooklyn	-12172
▁Proteine	-12173
▁Zeitraum	-12174
▁besessen	-12175
▁genießen	-12176
▁zurückzu	-12177
▁Verbrauch	-12178
▁bezüglich	-12179
▁construct	-12180
▁determine	-12181
▁folgendes	-12182
▁standards	-12183
▁technique	-12184
▁Teilnehmer	-12185
▁capitalism	-12186
xid	-12187
▁Lu	-12188
greg	-12189
hour	-12190
iene	-12191
jahr	-12192
nach	-12193
oned	-12194
rier	-12195
zten	-12196
▁Bol	-12197
▁Dör	-12198
▁Jon	-12199
eseit	-12200
ignet	-12201
unruh	-12202
▁2009	-12203
▁Blue	-12204
▁Naja	-12205
▁News	-12206
▁Weis	-12207
▁cord	-12208
▁icon	-12209
▁obst	-12210
▁root	-12211
▁wash	-12212
jected	-12213
sunami	-12214
▁Autom	-12215
▁Roman	-12216
▁Wicht	-12217
▁brill	-12218
▁dress	-12219
▁faced	-12220
▁fixed	-12221
▁prize	-12222
▁rocks	-12223
▁stone	-12224
esented	-12225
▁Presse	-12226
▁einzus	-12227
▁erneut	-12228
▁intent	-12229
▁limits	-12230
▁linked	-12231
▁pollen	-12232
▁spüren	-12233
▁unterr	-12234
▁überqu	-12235
bekommen	-12236
▁Krieges	-12237
▁Silicon	-12238
▁beenden	-12239
▁corresp	-12240
▁embrace	-12241
▁fiction	-12242
▁fluores	-12243
▁mosquit	-12244
▁verstär	-12245
sichtlich	-12246
▁Kleidung	-12247
▁Krankenh	-12248
▁mehreren	-12249
▁momentan	-12250
▁policies	-12251
▁schauten	-12252
▁suggests	-12253
▁Aufnahmen	-12254
▁folgenden	-12255
▁footprint	-12256
▁philosoph	-12257
▁versorgen	-12258
▁Zerstörung	-12259
▁behavioral	-12260
▁Inspiration	-12261
▁Instrumente	-12262
▁application	-12263
▁instruments	-12264
▁kontrolliert	-12265
äu	-12266
kom	-12267
rid	-12268
▁Av	-12269
▁Up	-12270
anzt	-12271
ifiz	-12272
züge	-12273
▁Ten	-12274
▁cha	-12275
▁god	-12276
Spiel	-12277
aktor	-12278
force	-12279
fällt	-12280
hängt	-12281
itual	-12282
kular	-12283
samen	-12284
▁Benj	-12285
▁Feyn	-12286
▁army	-12287
▁bene	-12288
▁disg	-12289
▁hieß	-12290
▁loop	-12291
▁mush	-12292
▁suic	-12293
▁tent	-12294
eitern	-12295
iguren	-12296
leiten	-12297
usions	-12298
ördert	-12299
▁1.000	-12300
▁About	-12301
▁Party	-12302
▁angen	-12303
▁knapp	-12304
▁logic	-12305
▁stärk	-12306
▁uncom	-12307
▁woran	-12308
reibung	-12309
örtlich	-12310
▁Before	-12311
▁Stücke	-12312
▁Willen	-12313
▁clouds	-12314
▁dienen	-12315
▁gigant	-12316
▁hängen	-12317
▁nervös	-12318
▁puzzle	-12319
▁unlike	-12320
icherung	-12321
onnected	-12322
▁Gemälde	-12323
▁Mandela	-12324
▁Meister	-12325
▁Muslims	-12326
▁dancing	-12327
▁funding	-12328
▁gründen	-12329
▁director	-12330
▁gewisser	-12331
▁infinite	-12332
▁lebendig	-12333
▁untersch	-12334
▁verliert	-12335
▁wechseln	-12336
▁identical	-12337
▁intellekt	-12338
▁unterwegs	-12339
▁Sichtweise	-12340
▁eingeladen	-12341
▁hinzufügen	-12342
▁Konsequenzen	-12343
▁Lebenserwart	-12344
▁ursprünglich	-12345
beg	-12346
eed	-12347
lag	-12348
▁2:	-12349
ault	-12350
rait	-12351
rise	-12352
schn	-12353
seln	-12354
tten	-12355
ziel	-12356
älle	-12357
▁20,	-12358
▁Dig	-12359
▁Gip	-12360
▁Moo	-12361
▁dok	-12362
acing	-12363
agger	-12364
▁Akte	-12365
▁Biom	-12366
▁Blau	-12367
▁Infe	-12368
▁Ment	-12369
▁Wann	-12370
▁Witz	-12371
▁hilf	-12372
▁shut	-12373
asters	-12374
▁Clint	-12375
▁Decke	-12376
▁Dynam	-12377
▁McDon	-12378
▁boxes	-12379
▁decre	-12380
▁plans	-12381
▁presc	-12382
plicity	-12383
▁Metall	-12384
▁Schalt	-12385
▁angeht	-12386
▁ausger	-12387
▁spinal	-12388
▁William	-12389
▁causing	-12390
▁diverse	-12391
▁earthqu	-12392
▁feeding	-12393
▁letzter	-12394
▁poorest	-12395
▁pushing	-12396
▁younger	-12397
▁dokument	-12398
▁floating	-12399
▁occasion	-12400
▁wondered	-12401
ussendlich	-12402
▁aufgeregt	-12403
▁bedeutete	-12404
▁continued	-12405
▁measuring	-12406
▁niemanden	-12407
▁reference	-12408
▁Erwachsene	-12409
▁architects	-12410
▁mechanical	-12411
gesellschaft	-12412
▁Dimensionen	-12413
▁Erwartungen	-12414
▁educational	-12415
▁verursachen	-12416
▁wiederholen	-12417
▁überraschen	-12418
▁hinterlassen	-12419
▁implications	-12420
▁Klassenzimmer	-12421
But	-12422
Ent	-12423
erd	-12424
zur	-12425
ölk	-12426
▁SW	-12427
alys	-12428
cean	-12429
frau	-12430
gelt	-12431
ihen	-12432
irds	-12433
iums	-12434
ucks	-12435
ämme	-12436
▁350	-12437
▁Acc	-12438
▁Geh	-12439
▁Moz	-12440
agnet	-12441
ansas	-12442
esity	-12443
ipher	-12444
oxide	-12445
these	-12446
uting	-12447
yster	-12448
▁Acht	-12449
▁Hong	-12450
▁Klav	-12451
▁Lego	-12452
▁Mamm	-12453
▁Schm	-12454
▁Song	-12455
▁acts	-12456
▁choc	-12457
▁kons	-12458
▁trug	-12459
anlage	-12460
▁Beute	-12461
▁Detro	-12462
▁Große	-12463
▁Kurve	-12464
▁Lasst	-12465
▁Latin	-12466
▁Tiefe	-12467
▁mobil	-12468
▁whale	-12469
▁wovon	-12470
schläge	-12471
▁Flügel	-12472
▁Hypoth	-12473
▁Machen	-12474
▁Please	-12475
▁Schwer	-12476
▁Sicher	-12477
▁Zauber	-12478
▁agreed	-12479
▁corals	-12480
▁deiner	-12481
▁garant	-12482
▁höhere	-12483
▁owners	-12484
▁rechte	-12485
▁repair	-12486
▁Feynman	-12487
▁Zweifel	-12488
▁anticip	-12489
▁anzusch	-12490
▁classes	-12491
▁command	-12492
▁constra	-12493
▁frankly	-12494
▁mammals	-12495
▁robotic	-12496
▁vaccine	-12497
▁Erdbeben	-12498
▁Gebäuden	-12499
▁Physiker	-12500
▁Schlacht	-12501
▁Transpar	-12502
▁equation	-12503
▁eröffnet	-12504
▁gerettet	-12505
▁instruct	-12506
▁organism	-12507
▁disorders	-12508
▁increases	-12509
▁selection	-12510
▁telephone	-12511
▁umzugehen	-12512
▁zunehmend	-12513
▁Bibliothek	-12514
▁Ingenieure	-12515
▁Reaktionen	-12516
▁Richtungen	-12517
▁greenhouse	-12518
▁unexpected	-12519
▁Algorithmen	-12520
▁Verbreitung	-12521
▁Entdeckungen	-12522
▁entscheidend	-12523
hm	-12524
pan	-12525
▁4,	-12526
▁JH	-12527
erem	-12528
pfel	-12529
▁30-	-12530
▁DVD	-12531
▁Syr	-12532
▁rum	-12533
▁Übr	-12534
achel	-12535
▁Bell	-12536
▁Fert	-12537
▁dign	-12538
bilder	-12539
ereien	-12540
winkel	-12541
▁Anruf	-12542
▁Chile	-12543
▁Scham	-12544
▁Teams	-12545
▁Toten	-12546
▁grain	-12547
▁shell	-12548
fliegen	-12549
▁Aufbau	-12550
▁Faktor	-12551
▁Schnee	-12552
▁Sweden	-12553
▁absorb	-12554
▁berück	-12555
▁dauern	-12556
▁secure	-12557
▁severe	-12558
▁struck	-12559
abilität	-12560
aufnahme	-12561
▁Beijing	-12562
▁Finally	-12563
▁Taschen	-12564
▁beunruh	-12565
▁carried	-12566
▁existed	-12567
▁library	-12568
▁offered	-12569
▁parking	-12570
▁verschl	-12571
▁violent	-12572
▁Carolina	-12573
▁Chinesen	-12574
▁Everyone	-12575
▁Trotzdem	-12576
▁drinking	-12577
▁erfassen	-12578
▁getrennt	-12579
▁obsessed	-12580
▁synchron	-12581
▁Ernährung	-12582
▁Geschäfte	-12583
▁arguments	-12584
▁breathing	-12585
▁irgendwel	-12586
krankheiten	-12587
▁Brustkrebs	-12588
▁directions	-12589
▁eingeführt	-12590
▁Psychologie	-12591
▁eigentliche	-12592
▁vorbereitet	-12593
▁automatically	-12594
IS	-12595
Ne	-12596
kö	-12597
öd	-12598
All	-12599
nütz	-12600
rein	-12601
ätte	-12602
▁10.	-12603
▁Wil	-12604
gespr	-12605
hagen	-12606
lings	-12607
seher	-12608
vater	-12609
▁Verm	-12610
▁desk	-12611
▁legt	-12612
▁plug	-12613
▁seht	-12614
▁stro	-12615
▁zone	-12616
würdig	-12617
▁Links	-12618
▁Rwand	-12619
▁Schok	-12620
▁dozen	-12621
▁dreid	-12622
▁flood	-12623
▁grüne	-12624
▁mikro	-12625
illance	-12626
▁Berlin	-12627
▁Ethiop	-12628
▁Rezept	-12629
▁deinem	-12630
▁fokuss	-12631
▁placed	-12632
▁prepar	-12633
▁sphere	-12634
▁spider	-12635
ubringen	-12636
▁Darüber	-12637
▁Detroit	-12638
▁Redwood	-12639
▁careful	-12640
▁diagram	-12641
▁gezogen	-12642
▁mittels	-12643
▁monkeys	-12644
▁mystery	-12645
▁schmerz	-12646
▁surgeon	-12647
▁windows	-12648
▁zurecht	-12649
▁Erinnern	-12650
▁Faktoren	-12651
▁Gegenden	-12652
▁November	-12653
▁Theorien	-12654
▁Training	-12655
▁anpassen	-12656
▁asteroid	-12657
▁wünschte	-12658
▁zurückge	-12659
▁Christian	-12660
▁begreifen	-12661
▁definiert	-12662
▁economies	-12663
technologie	-12664
zeichnungen	-12665
▁Mobiltelef	-12666
▁performing	-12667
▁resistance	-12668
▁schwierige	-12669
▁distributed	-12670
▁elektrische	-12671
▁recognition	-12672
▁represented	-12673
▁wunderbaren	-12674
▁dramatically	-12675
▁interactions	-12676
▁zurückkehren	-12677
▁Überraschung	-12678
▁grundlegenden	-12679
"?	-12680
BA	-12681
mo	-12682
▁ED	-12683
▁zü	-12684
beln	-12685
gles	-12686
illy	-12687
rets	-12688
▁20-	-12689
▁Ast	-12690
▁BIP	-12691
▁Dec	-12692
▁Mur	-12693
▁Zus	-12694
▁aer	-12695
▁gre	-12696
▁sed	-12697
kette	-12698
reift	-12699
▁Dsch	-12700
▁Jane	-12701
▁Live	-12702
▁Nähr	-12703
▁Walk	-12704
▁cash	-12705
▁chip	-12706
▁jail	-12707
▁naja	-12708
▁ours	-12709
▁zuzu	-12710
ederal	-12711
fläche	-12712
pathie	-12713
▁Asien	-12714
▁Erste	-12715
▁Proto	-12716
▁Story	-12717
▁bombs	-12718
▁phase	-12719
▁pitch	-12720
▁polio	-12721
▁teams	-12722
mittelt	-12723
schauen	-12724
station	-12725
▁Flagge	-12726
▁Ganzen	-12727
▁Gemüse	-12728
▁Oberfl	-12729
▁Schuhe	-12730
▁Shakes	-12731
▁Wahlen	-12732
▁interc	-12733
▁mainly	-12734
▁späten	-12735
▁stands	-12736
▁toilet	-12737
▁traged	-12738
▁vorhin	-12739
▁zufäll	-12740
▁Ausgang	-12741
▁Medikam	-12742
▁Systems	-12743
▁channel	-12744
▁unbelie	-12745
▁Remember	-12746
▁Weisheit	-12747
▁ausgeben	-12748
▁besuchte	-12749
▁domestic	-12750
▁elephant	-12751
▁grateful	-12752
▁outcomes	-12753
▁properly	-12754
▁Weltkrieg	-12755
▁celebrate	-12756
▁component	-12757
▁consumers	-12758
▁corporate	-12759
▁spezielle	-12760
▁spreading	-12761
▁Dunkelheit	-12762
▁Heutzutage	-12763
▁Verbrechen	-12764
▁investiert	-12765
▁Eigenschaft	-12766
▁Terroristen	-12767
▁Normalerweise	-12768
Bl	-12769
Me	-12770
ado	-12771
ißt	-12772
mat	-12773
yon	-12774
zig	-12775
▁0,	-12776
▁42	-12777
▁ow	-12778
Welt	-12779
afel	-12780
aint	-12781
etts	-12782
inke	-12783
ming	-12784
ocke	-12785
otes	-12786
walk	-12787
älte	-12788
ückt	-12789
▁Roy	-12790
▁une	-12791
▁wär	-12792
▁zit	-12793
atson	-12794
iolet	-12795
isely	-12796
rimin	-12797
stuhl	-12798
▁Zehn	-12799
▁guar	-12800
▁hers	-12801
▁lung	-12802
▁mice	-12803
▁stol	-12804
auften	-12805
erlich	-12806
gnügen	-12807
kultur	-12808
▁Berge	-12809
▁Kevin	-12810
▁Misch	-12811
▁Tauch	-12812
▁alarm	-12813
▁aston	-12814
▁atmen	-12815
▁enemy	-12816
▁grows	-12817
▁rufen	-12818
▁style	-12819
▁weißt	-12820
ichtete	-12821
▁Aktion	-12822
▁Singap	-12823
▁ausges	-12824
▁ausser	-12825
▁househ	-12826
▁lehren	-12827
▁machst	-12828
▁orient	-12829
ensystem	-12830
ervative	-12831
pendence	-12832
▁Nothing	-12833
▁Stephen	-12834
▁Verlauf	-12835
▁collaps	-12836
▁neither	-12837
▁savings	-12838
▁solving	-12839
▁traurig	-12840
▁Problems	-12841
▁engaging	-12842
▁ernähren	-12843
▁illusion	-12844
▁lebenden	-12845
▁overcome	-12846
▁penguins	-12847
▁psychiat	-12848
▁studiert	-12849
▁Afrikaner	-12850
▁Bedrohung	-12851
▁Geschmack	-12852
▁Ingenieur	-12853
▁Innerhalb	-12854
▁bekämpfen	-12855
▁denselben	-12856
▁lifestyle	-12857
▁genetische	-12858
▁unsichtbar	-12859
▁populations	-12860
▁Lebenserwartung	-12861
tä	-12862
dis	-12863
mod	-12864
▁Id	-12865
▁Ra	-12866
▁kr	-12867
Aber	-12868
etti	-12869
▁tea	-12870
aktiv	-12871
ortex	-12872
▁1900	-12873
▁Bord	-12874
▁Haar	-12875
▁Knie	-12876
▁Robo	-12877
▁boom	-12878
▁cand	-12879
▁tube	-12880
▁verz	-12881
fische	-12882
ichtum	-12883
uchtet	-12884
öntgen	-12885
ündung	-12886
▁Guten	-12887
▁Woman	-12888
▁Zähne	-12889
▁diver	-12890
▁males	-12891
▁paras	-12892
▁scary	-12893
aughing	-12894
ektiven	-12895
▁Albert	-12896
▁Leiter	-12897
▁Pollen	-12898
▁Reihen	-12899
▁Schild	-12900
▁acknow	-12901
▁column	-12902
▁genius	-12903
▁hunger	-12904
▁kaufte	-12905
▁liebte	-12906
▁murder	-12907
▁neigen	-12908
▁oberen	-12909
▁phrase	-12910
▁prices	-12911
▁schlug	-12912
anischen	-12913
▁Anstieg	-12914
▁Italien	-12915
▁January	-12916
▁Neugier	-12917
▁Privats	-12918
▁borders	-12919
▁grossen	-12920
▁obesity	-12921
▁painful	-12922
▁receive	-12923
▁starken	-12924
nderungen	-12925
operation	-12926
▁Benjamin	-12927
▁anhalten	-12928
▁hardware	-12929
▁maintain	-12930
▁recommen	-12931
▁transmit	-12932
produktion	-12933
▁Denkweise	-12934
▁Plötzlich	-12935
▁anzusehen	-12936
▁practices	-12937
▁primitive	-12938
▁prototype	-12939
▁storytell	-12940
▁vorsichtig	-12941
▁wahrnehmen	-12942
▁Antibiotika	-12943
▁controlling	-12944
▁grandfather	-12945
▁sogenannten	-12946
▁fantastische	-12947
▁Nachbarschaft	-12948
▁interessanten	-12949
100	-12950
alu	-12951
oen	-12952
▁IM	-12953
▁cm	-12954
derm	-12955
iday	-12956
onna	-12957
thur	-12958
▁MRI	-12959
▁Uni	-12960
angle	-12961
folgt	-12962
hlend	-12963
lines	-12964
meter	-12965
rechn	-12966
▁Dame	-12967
▁Dist	-12968
▁Läch	-12969
▁Rick	-12970
▁lets	-12971
▁scar	-12972
bringt	-12973
called	-12974
onders	-12975
▁Absol	-12976
▁Arzne	-12977
▁Congo	-12978
▁Fried	-12979
▁Immun	-12980
▁Level	-12981
▁Sagen	-12982
▁accum	-12983
▁stack	-12984
▁tries	-12985
▁zählt	-12986
▁planen	-12987
▁plenty	-12988
▁proced	-12989
▁schlau	-12990
▁worker	-12991
stellten	-12992
▁Analyse	-12993
▁Angriff	-12994
▁Inneren	-12995
▁Islamic	-12996
▁dankbar	-12997
▁entered	-12998
▁extinct	-12999
▁license	-13000
▁raising	-13001
▁Ursprung	-13002
▁Weibchen	-13003
▁brothers	-13004
▁eingehen	-13005
▁erklärte	-13006
▁romantic	-13007
▁Projekten	-13008
▁Schreiben	-13009
▁chemische	-13010
▁destroyed	-13011
▁precisely	-13012
▁presented	-13013
▁recording	-13014
▁exhibition	-13015
▁inequality	-13016
▁ländlichen	-13017
▁philosophy	-13018
▁wundervoll	-13019
▁Wasserstoff	-13020
▁antibiotics	-13021
▁beigebracht	-13022
▁cooperation	-13023
▁inspirieren	-13024
▁conventional	-13025
▁entrepreneur	-13026
▁außergewöhnlich	-13027
OK	-13028
SP	-13029
ye	-13030
ETI	-13031
Wer	-13032
hof	-13033
sst	-13034
▁Ka	-13035
gewe	-13036
pril	-13037
prim	-13038
quis	-13039
ubes	-13040
yers	-13041
zone	-13042
▁193	-13043
▁Bre	-13044
▁IBM	-13045
▁Kuh	-13046
▁Ron	-13047
▁Sea	-13048
▁fan	-13049
▁mim	-13050
▁prü	-13051
▁twe	-13052
fühlt	-13053
isses	-13054
teils	-13055
viele	-13056
▁Base	-13057
▁Girl	-13058
▁gray	-13059
▁pour	-13060
▁scan	-13061
gänger	-13062
iratet	-13063
örtern	-13064
▁Humor	-13065
▁Katze	-13066
▁Polio	-13067
▁Stick	-13068
▁abuse	-13069
▁explo	-13070
▁harte	-13071
▁honey	-13072
▁ruhig	-13073
▁sales	-13074
▁title	-13075
▁usual	-13076
▁worum	-13077
aktoren	-13078
konomen	-13079
▁Andrew	-13080
▁Columb	-13081
▁County	-13082
▁Gandhi	-13083
▁Hacker	-13084
▁Januar	-13085
▁Kredit	-13086
▁Niveau	-13087
▁clinic	-13088
▁fabric	-13089
▁herein	-13090
▁immune	-13091
▁konsum	-13092
▁narrow	-13093
▁rising	-13094
▁slides	-13095
▁soweit	-13096
romagnet	-13097
▁Erfolgs	-13098
▁Nations	-13099
▁Verteid	-13100
▁besucht	-13101
▁designs	-13102
▁schwere	-13103
▁vessels	-13104
▁Diabetes	-13105
▁Dokument	-13106
▁Hinblick	-13107
▁Leonardo	-13108
▁Richtige	-13109
▁Schulter	-13110
▁academic	-13111
▁appeared	-13112
▁concepts	-13113
▁disorder	-13114
▁download	-13115
▁gesunden	-13116
▁particle	-13117
▁printing	-13118
▁traveled	-13119
▁Gespräche	-13120
▁Umständen	-13121
▁erforscht	-13122
▁sculpture	-13123
▁uncertain	-13124
ischerweise	-13125
▁Funktionen	-13126
▁beschreibt	-13127
▁connecting	-13128
▁entsprechen	-13129
▁genetischen	-13130
▁technischen	-13131
▁Privatsphäre	-13132
▁expectations	-13133
▁Weltbevölkerung	-13134
11	-13135
cal	-13136
ila	-13137
via	-13138
Stud	-13139
achs	-13140
dach	-13141
rome	-13142
üter	-13143
▁Bor	-13144
▁Oxy	-13145
▁Ram	-13146
▁hug	-13147
▁pip	-13148
ioxid	-13149
itial	-13150
▁Bern	-13151
▁Haie	-13152
▁Hung	-13153
▁Saal	-13154
▁denk	-13155
▁dict	-13156
▁dumm	-13157
▁limb	-13158
▁läng	-13159
▁seek	-13160
cepted	-13161
irgend	-13162
rucken	-13163
wortet	-13164
▁Aller	-13165
▁Bruno	-13166
▁Delhi	-13167
▁Democ	-13168
▁Hawai	-13169
▁imper	-13170
▁jenen	-13171
▁orbit	-13172
▁schüt	-13173
▁tasks	-13174
▁vital	-13175
▁walks	-13176
enseits	-13177
osphere	-13178
related	-13179
▁Golden	-13180
▁Portug	-13181
▁Sprung	-13182
▁Watson	-13183
▁beherr	-13184
▁colony	-13185
▁gewann	-13186
▁latest	-13187
▁repeat	-13188
▁schock	-13189
▁surely	-13190
▁tanzen	-13191
▁thrown	-13192
▁wütend	-13193
▁Montere	-13194
▁appears	-13195
▁classic	-13196
▁density	-13197
▁intense	-13198
▁stretch	-13199
▁Atlantic	-13200
▁Symptome	-13201
▁Systemen	-13202
▁attached	-13203
▁gemessen	-13204
▁imagined	-13205
▁laughing	-13206
geschlagen	-13207
▁Schmerzen	-13208
▁berechnen	-13209
▁depending	-13210
▁emergency	-13211
▁gestartet	-13212
▁translate	-13213
▁Mitglieder	-13214
▁Verwendung	-13215
▁commitment	-13216
▁department	-13217
▁fascinated	-13218
▁kulturelle	-13219
▁interactive	-13220
▁personality	-13221
▁konfrontiert	-13222
▁surveillance	-13223
▁entertainment	-13224
▁verschiedener	-13225
▁Kommunikations	-13226
Sc	-13227
Sp	-13228
Ind	-13229
abb	-13230
add	-13231
aft	-13232
ava	-13233
▁29	-13234
abin	-13235
agte	-13236
ague	-13237
innt	-13238
onic	-13239
ppen	-13240
rich	-13241
wass	-13242
yrus	-13243
▁ate	-13244
▁raw	-13245
acted	-13246
ented	-13247
estet	-13248
eters	-13249
grade	-13250
legte	-13251
lesen	-13252
ohlen	-13253
peare	-13254
ralen	-13255
riebs	-13256
while	-13257
▁2006	-13258
▁Euch	-13259
▁Nerv	-13260
▁Prop	-13261
▁brow	-13262
▁nest	-13263
▁phil	-13264
▁poly	-13265
▁prem	-13266
▁till	-13267
folgen	-13268
melzen	-13269
ptions	-13270
utzend	-13271
▁Enkel	-13272
▁Jones	-13273
▁Kongo	-13274
▁Meere	-13275
▁Sorge	-13276
▁bewir	-13277
▁fried	-13278
▁hoher	-13279
▁könne	-13280
▁liver	-13281
▁pyram	-13282
▁smoke	-13283
▁units	-13284
▁veran	-13285
▁yield	-13286
brochen	-13287
gemacht	-13288
problem	-13289
quently	-13290
▁Church	-13291
▁Tasman	-13292
▁Widers	-13293
▁behave	-13294
▁hearts	-13295
▁kaputt	-13296
▁legisl	-13297
▁linear	-13298
▁lovely	-13299
▁pocket	-13300
▁rescue	-13301
▁writer	-13302
computer	-13303
handlung	-13304
▁Bericht	-13305
▁Protein	-13306
▁Treffen	-13307
▁angehen	-13308
▁divided	-13309
▁elegant	-13310
▁erinner	-13311
▁französ	-13312
▁geteilt	-13313
▁habitat	-13314
▁positiv	-13315
▁whereas	-13316
▁Autismus	-13317
▁Besonder	-13318
▁anstelle	-13319
▁berühren	-13320
▁höchsten	-13321
▁reaching	-13322
▁shoulder	-13323
▁vielmehr	-13324
▁Entschuld	-13325
▁Vergnügen	-13326
▁ausmachen	-13327
▁chocolate	-13328
▁committed	-13329
▁exploring	-13330
▁furniture	-13331
▁gezwungen	-13332
▁kreativen	-13333
▁mitnehmen	-13334
▁Geographic	-13335
▁regelmäßig	-13336
▁Interessant	-13337
▁Neuigkeiten	-13338
▁chinesische	-13339
▁interacting	-13340
▁organisiert	-13341
▁biologischen	-13342
▁Einrichtungen	-13343
▁Investitionen	-13344
200	-13345
Gen	-13346
Let	-13347
bum	-13348
sex	-13349
▁Et	-13350
▁JA	-13351
▁JF	-13352
▁Sn	-13353
▁är	-13354
imps	-13355
ione	-13356
lers	-13357
phas	-13358
uity	-13359
▁192	-13360
▁CEO	-13361
▁Nic	-13362
▁Paz	-13363
▁ärm	-13364
aches	-13365
oppel	-13366
änner	-13367
▁Dick	-13368
▁Diff	-13369
▁Next	-13370
▁Nutz	-13371
▁appe	-13372
▁aust	-13373
▁axis	-13374
▁bild	-13375
▁excl	-13376
▁gefl	-13377
▁jewe	-13378
▁ugly	-13379
▁warf	-13380
decken	-13381
ktoren	-13382
messer	-13383
stücke	-13384
yright	-13385
ziplin	-13386
▁Bibel	-13387
▁Block	-13388
▁Subst	-13389
▁alltä	-13390
▁korre	-13391
▁physi	-13392
▁öfter	-13393
▁Früher	-13394
▁Metern	-13395
▁Rechen	-13396
▁Wälder	-13397
▁candid	-13398
▁einzuf	-13399
▁extend	-13400
▁hassen	-13401
▁kommer	-13402
▁spoken	-13403
▁winzig	-13404
äuschung	-13405
▁Clinton	-13406
▁Designs	-13407
▁awesome	-13408
▁bicycle	-13409
▁dioxide	-13410
▁dunklen	-13411
▁erneuer	-13412
▁lernten	-13413
▁muscles	-13414
▁wieviel	-13415
ianischen	-13416
▁Fahrzeug	-13417
▁Monterey	-13418
▁Sensoren	-13419
▁breaking	-13420
▁diabetes	-13421
▁dominant	-13422
▁erfüllen	-13423
▁estimate	-13424
▁gelassen	-13425
▁guarante	-13426
▁hierarch	-13427
▁involves	-13428
▁magnetic	-13429
▁recovery	-13430
▁treating	-13431
▁verfolgt	-13432
▁vernünft	-13433
▁visuelle	-13434
▁winzigen	-13435
▁Überwach	-13436
▁Fundament	-13437
▁Plattform	-13438
▁curiosity	-13439
▁customers	-13440
▁paintings	-13441
▁besonderen	-13442
▁dazwischen	-13443
▁recognized	-13444
▁Alternative	-13445
▁zurückgehen	-13446
▁identifizieren	-13447
any	-13448
äck	-13449
änz	-13450
ürt	-13451
▁37	-13452
▁TK	-13453
▁Wi	-13454
opes	-13455
▁ink	-13456
▁pin	-13457
aders	-13458
cence	-13459
fined	-13460
istin	-13461
think	-13462
using	-13463
ürzen	-13464
▁Bier	-13465
▁Farm	-13466
▁Glet	-13467
▁Iron	-13468
▁SETI	-13469
▁Turn	-13470
▁inkl	-13471
▁rush	-13472
lernen	-13473
wählen	-13474
▁Gebur	-13475
▁Sechs	-13476
▁brown	-13477
▁chest	-13478
▁femin	-13479
▁plays	-13480
▁saßen	-13481
▁schme	-13482
▁utter	-13483
gebiete	-13484
osphäre	-13485
politik	-13486
▁Atomen	-13487
▁Geruch	-13488
▁Großen	-13489
▁Laufen	-13490
▁Reisen	-13491
▁Zurück	-13492
▁adjust	-13493
▁qualif	-13494
▁schaue	-13495
▁signed	-13496
▁stirbt	-13497
▁wenden	-13498
gelassen	-13499
▁Blätter	-13500
▁Klavier	-13501
▁Konstru	-13502
▁Muskeln	-13503
▁Röntgen	-13504
▁Vorgang	-13505
▁aspects	-13506
▁balloon	-13507
▁brechen	-13508
▁ceiling	-13509
▁concert	-13510
▁dignity	-13511
▁finance	-13512
▁gesetzt	-13513
▁höheren	-13514
▁musikal	-13515
▁mächtig	-13516
▁opposed	-13517
▁orchest	-13518
▁section	-13519
▁stimmen	-13520
ränkungen	-13521
▁Ausnahme	-13522
▁Epidemie	-13523
▁Gefangen	-13524
▁achieved	-13525
▁befreien	-13526
▁erwähnen	-13527
▁hindurch	-13528
▁horizont	-13529
▁manifest	-13530
▁sandwich	-13531
▁seltsame	-13532
▁shooting	-13533
riedenheit	-13534
▁Belohnung	-13535
▁virtually	-13536
▁controvers	-13537
▁langweilig	-13538
▁glücklicher	-13539
▁Kapitalismus	-13540
▁Mathematiker	-13541
▁productivity	-13542
▁Universitäten	-13543
Ach	-13544
▁31	-13545
▁Rö	-13546
ackt	-13547
kord	-13548
utch	-13549
vier	-13550
▁202	-13551
▁Jac	-13552
▁Lux	-13553
▁adm	-13554
▁hyp	-13555
▁lit	-13556
▁tip	-13557
▁wem	-13558
oenix	-13559
rated	-13560
▁Fing	-13561
▁Gall	-13562
▁Grie	-13563
▁Klar	-13564
▁NGOs	-13565
▁Real	-13566
▁Term	-13567
▁wing	-13568
graben	-13569
ikatur	-13570
▁April	-13571
▁Knopf	-13572
▁Poliz	-13573
▁Prior	-13574
▁Szene	-13575
▁Trend	-13576
▁Voice	-13577
▁dense	-13578
▁jenem	-13579
▁likes	-13580
▁meter	-13581
▁purch	-13582
▁sheep	-13583
▁stieg	-13584
▁therm	-13585
▁tired	-13586
▁verur	-13587
stehung	-13588
uchtung	-13589
▁20,000	-13590
▁50,000	-13591
▁Extrem	-13592
▁Teufel	-13593
▁Umgang	-13594
▁agenda	-13595
▁arrang	-13596
▁eradic	-13597
▁escape	-13598
▁keines	-13599
▁pandem	-13600
▁Dadurch	-13601
▁Skelett	-13602
▁cheaper	-13603
▁rebuild	-13604
▁wanting	-13605
ulationen	-13606
▁Africans	-13607
▁Narrator	-13608
▁Prozesse	-13609
▁embedded	-13610
▁flexible	-13611
▁reported	-13612
▁riesiges	-13613
▁verblüff	-13614
▁Übergang	-13615
▁Konflikte	-13616
▁Verlangen	-13617
▁animation	-13618
▁colleague	-13619
▁conflicts	-13620
▁physische	-13621
▁privilege	-13622
▁Geschäftsm	-13623
▁angemessen	-13624
▁incentives	-13625
▁Herstellung	-13626
▁Komponenten	-13627
▁disappeared	-13628
▁irgendeinem	-13629
▁elektrischen	-13630
▁wunderschöne	-13631
▁Gleichgewicht	-13632
BC	-13633
Kon	-13634
ärt	-13635
fine	-13636
iebt	-13637
leit	-13638
lies	-13639
plom	-13640
rand	-13641
▁Fro	-13642
▁Ohr	-13643
▁Seh	-13644
▁Wut	-13645
▁bon	-13646
▁enh	-13647
class	-13648
gebra	-13649
ifted	-13650
ikale	-13651
kohol	-13652
küste	-13653
ouver	-13654
spect	-13655
ziell	-13656
ätten	-13657
▁Füße	-13658
▁Glüh	-13659
▁Juni	-13660
▁Kond	-13661
▁Ruhe	-13662
▁cute	-13663
▁häss	-13664
▁lieb	-13665
▁refr	-13666
▁sexy	-13667
▁triv	-13668
chtern	-13669
geräte	-13670
ienste	-13671
klasse	-13672
steine	-13673
uition	-13674
▁Beton	-13675
▁Still	-13676
▁aband	-13677
▁aside	-13678
▁brach	-13679
▁verpf	-13680
bleiben	-13681
ichtung	-13682
▁Medium	-13683
▁Proben	-13684
▁Tränen	-13685
▁bildet	-13686
▁billig	-13687
▁conven	-13688
▁devast	-13689
▁divide	-13690
▁drehte	-13691
▁frozen	-13692
▁hardly	-13693
▁heroes	-13694
▁ignore	-13695
▁ladies	-13696
ineering	-13697
▁Schwarz	-13698
▁Ursache	-13699
▁benutze	-13700
▁disgust	-13701
▁pretend	-13702
▁reflekt	-13703
▁removed	-13704
▁trigger	-13705
volutions	-13706
▁Batterie	-13707
▁Children	-13708
▁Personal	-13709
▁accepted	-13710
▁heiraten	-13711
▁produces	-13712
▁vertical	-13713
handlungen	-13714
▁Treibhaus	-13715
▁Verfahren	-13716
▁apartment	-13717
▁backwards	-13718
▁generated	-13719
▁insgesamt	-13720
▁insurance	-13721
▁mittleren	-13722
▁politisch	-13723
▁Prototypen	-13724
▁Schwestern	-13725
▁engagement	-13726
▁ignorieren	-13727
▁volunteers	-13728
▁Einfachheit	-13729
▁Katastrophe	-13730
▁Shakespeare	-13731
▁anscheinend	-13732
▁moralischen	-13733
▁unternehmen	-13734
▁neighborhoods	-13735
vy	-13736
eff	-13737
pal	-13738
reu	-13739
top	-13740
züg	-13741
▁BM	-13742
▁EM	-13743
▁Ku	-13744
▁Wa	-13745
eral	-13746
idet	-13747
ktis	-13748
miss	-13749
rins	-13750
zero	-13751
zähl	-13752
▁Bef	-13753
▁Exp	-13754
▁Mer	-13755
▁nit	-13756
abeth	-13757
gehör	-13758
geord	-13759
keley	-13760
oiden	-13761
▁Hans	-13762
▁Näch	-13763
▁Wäre	-13764
▁adop	-13765
▁ausb	-13766
▁cens	-13767
▁flip	-13768
▁halt	-13769
▁hing	-13770
▁prev	-13771
▁sink	-13772
▁subs	-13773
apping	-13774
lichem	-13775
ropfen	-13776
usalem	-13777
▁Gramm	-13778
▁Hitze	-13779
▁Indem	-13780
▁Küche	-13781
▁alien	-13782
▁angle	-13783
▁elder	-13784
▁highl	-13785
▁illeg	-13786
▁knock	-13787
▁shake	-13788
▁womit	-13789
century	-13790
forward	-13791
gencies	-13792
odivers	-13793
sprache	-13794
▁Indeed	-13795
▁Kommen	-13796
▁Organe	-13797
▁fliegt	-13798
▁formal	-13799
▁freund	-13800
▁inject	-13801
▁legacy	-13802
▁scales	-13803
▁vierte	-13804
▁Abraham	-13805
▁Charlie	-13806
▁Flächen	-13807
▁Schokol	-13808
▁Spinnen	-13809
▁bizarre	-13810
▁entschl	-13811
▁militär	-13812
▁spiritu	-13813
▁änderte	-13814
▁ausgesch	-13815
▁begrenzt	-13816
▁captured	-13817
▁darkness	-13818
▁dolphins	-13819
▁meetings	-13820
▁northern	-13821
▁organize	-13822
▁spannend	-13823
▁stations	-13824
▁verletzt	-13825
▁verzweif	-13826
▁veränder	-13827
▁Effizienz	-13828
▁Nachfrage	-13829
▁Parkinson	-13830
▁Vorschlag	-13831
▁continues	-13832
▁dedicated	-13833
▁neugierig	-13834
▁reduction	-13835
▁telescope	-13836
▁Jedenfalls	-13837
▁Organismus	-13838
▁Strategien	-13839
▁functional	-13840
▁nachhaltig	-13841
▁strategies	-13842
▁Präsidenten	-13843
▁Transparenz	-13844
▁mittlerweile	-13845
--	-13846
AA	-13847
lu	-13848
üd	-13849
lar	-13850
oup	-13851
▁4.	-13852
▁RM	-13853
azin	-13854
kopf	-13855
nern	-13856
▁190	-13857
▁Göt	-13858
▁Kok	-13859
▁Kos	-13860
▁cup	-13861
▁les	-13862
There	-13863
Unter	-13864
amine	-13865
athol	-13866
gänge	-13867
rückt	-13868
ttern	-13869
▁Ehre	-13870
▁Leid	-13871
▁dump	-13872
▁glac	-13873
▁mail	-13874
▁shar	-13875
▁umso	-13876
fältig	-13877
handel	-13878
körper	-13879
vested	-13880
▁Buddh	-13881
▁Front	-13882
▁Harry	-13883
▁Moore	-13884
▁breit	-13885
▁dicht	-13886
▁drove	-13887
▁evalu	-13888
▁exakt	-13889
▁islam	-13890
▁judge	-13891
▁tight	-13892
▁unvor	-13893
projekt	-13894
staaten	-13895
unclear	-13896
▁Econom	-13897
▁Marken	-13898
▁Muskel	-13899
▁actors	-13900
▁chosen	-13901
▁crying	-13902
▁hungry	-13903
▁intuit	-13904
▁missed	-13905
▁powers	-13906
▁shadow	-13907
▁silent	-13908
aufgaben	-13909
children	-13910
chnology	-13911
▁Lächeln	-13912
▁Neander	-13913
▁charity	-13914
▁entfern	-13915
▁exposed	-13916
▁implant	-13917
▁initial	-13918
▁instant	-13919
▁lecture	-13920
▁scratch	-13921
▁stammen	-13922
▁suspect	-13923
▁Berkeley	-13924
▁Diagnose	-13925
▁equality	-13926
▁football	-13927
▁frighten	-13928
▁globally	-13929
▁gründete	-13930
▁laughter	-13931
▁nebenbei	-13932
▁schickte	-13933
▁schwerer	-13934
▁theories	-13935
▁Höhepunkt	-13936
▁Weihnacht	-13937
▁abgesehen	-13938
▁gegenwärt	-13939
▁weibliche	-13940
▁accessible	-13941
▁collecting	-13942
▁contribute	-13943
▁earthquake	-13944
▁governance	-13945
▁motivation	-13946
▁optimistic	-13947
▁reparieren	-13948
▁Philosophie	-13949
▁advertising	-13950
▁analysieren	-13951
▁wundervolle	-13952
▁Medikamenten	-13953
▁Unternehmens	-13954
▁universities	-13955
?",	-13956
Auf	-13957
eda	-13958
obs	-13959
oir	-13960
sec	-13961
ahen	-13962
atts	-13963
bing	-13964
oots	-13965
tein	-13966
uana	-13967
ürzt	-13968
▁15-	-13969
▁Dir	-13970
▁Rak	-13971
▁Tib	-13972
▁Wen	-13973
▁aim	-13974
▁bub	-13975
▁irr	-13976
iance	-13977
lösen	-13978
ämpft	-13979
▁Befe	-13980
▁Zero	-13981
▁batt	-13982
▁beer	-13983
▁dish	-13984
▁disp	-13985
▁east	-13986
▁fulf	-13987
▁fung	-13988
▁golf	-13989
▁klug	-13990
acular	-13991
annter	-13992
dollar	-13993
vollen	-13994
▁Leber	-13995
▁Louis	-13996
▁Never	-13997
▁Pferd	-13998
▁Staub	-13999
▁Wärme	-14000
▁crack	-14001
▁finds	-14002
▁fluid	-14003
▁japan	-14004
▁lokal	-14005
▁route	-14006
▁skull	-14007
▁übern	-14008
iveness	-14009
wachsen	-14010
▁Bedarf	-14011
▁Besitz	-14012
▁Disney	-14013
▁Gipfel	-14014
▁Höhlen	-14015
▁Katzen	-14016
▁Palest	-14017
▁Social	-14018
▁Spring	-14019
▁auszud	-14020
▁beides	-14021
▁beseit	-14022
▁bother	-14023
▁evolve	-14024
▁muslim	-14025
▁neural	-14026
▁oldest	-14027
▁weapon	-14028
mögliche	-14029
ständige	-14030
▁Dutzend	-14031
▁amongst	-14032
▁anthrop	-14033
▁attract	-14034
▁distant	-14035
▁efforts	-14036
▁gewöhnt	-14037
▁reflect	-14038
▁setzten	-14039
▁touched	-14040
▁Biologen	-14041
▁geöffnet	-14042
▁leuchten	-14043
▁minister	-14044
▁provides	-14045
▁verwende	-14046
▁authentic	-14047
▁gesammelt	-14048
▁indischen	-14049
▁infiziert	-14050
▁mechanics	-14051
▁searching	-14052
▁Wichtigste	-14053
▁historical	-14054
▁inzwischen	-14055
▁microscope	-14056
▁resolution	-14057
▁electronics	-14058
▁probability	-14059
▁schizophren	-14060
▁neuroscience	-14061
Reg	-14062
eme	-14063
lax	-14064
zum	-14065
▁0.	-14066
▁72	-14067
▁UC	-14068
▁kg	-14069
AIDS	-14070
ason	-14071
male	-14072
rang	-14073
uman	-14074
unft	-14075
ühen	-14076
▁Oct	-14077
▁Put	-14078
▁Wes	-14079
▁fed	-14080
▁obl	-14081
▁wet	-14082
▁woo	-14083
habil	-14084
isted	-14085
romos	-14086
▁..."	-14087
▁Anti	-14088
▁Feed	-14089
▁Line	-14090
▁Mumb	-14091
▁Pole	-14092
▁Prüf	-14093
▁Vict	-14094
▁debt	-14095
▁dick	-14096
▁dust	-14097
▁flog	-14098
▁mold	-14099
action	-14100
ailand	-14101
gender	-14102
mensch	-14103
▁Brand	-14104
▁Ernst	-14105
▁Logik	-14106
▁advoc	-14107
▁beruh	-14108
▁blank	-14109
▁dient	-14110
▁einzu	-14111
▁eröff	-14112
▁fruit	-14113
▁march	-14114
▁schol	-14115
▁seeds	-14116
▁tears	-14117
▁youth	-14118
endeten	-14119
▁Arthur	-14120
▁Erzähl	-14121
▁Jewish	-14122
▁Mannes	-14123
▁Preise	-14124
▁Really	-14125
▁Rwanda	-14126
▁barely	-14127
▁distra	-14128
▁echtes	-14129
▁facial	-14130
▁feiern	-14131
▁geheim	-14132
▁interf	-14133
▁invite	-14134
▁lebend	-14135
▁locked	-14136
▁underg	-14137
American	-14138
▁Alkohol	-14139
▁constru	-14140
▁enormen	-14141
▁essence	-14142
▁herself	-14143
▁jeweils	-14144
▁lebende	-14145
▁letting	-14146
▁richten	-14147
▁suicide	-14148
▁verließ	-14149
▁Gebieten	-14150
▁Schweine	-14151
▁Umstände	-14152
▁Vermögen	-14153
▁Virginia	-14154
▁controls	-14155
▁hingehen	-14156
▁kleinere	-14157
▁Übrigens	-14158
▁Internets	-14159
▁beitragen	-14160
▁benutzten	-14161
▁elsewhere	-14162
▁empfinden	-14163
▁nachdenkt	-14164
▁ähnlichen	-14165
▁apparently	-14166
▁arabischen	-14167
▁boundaries	-14168
▁simplicity	-14169
▁wiederholt	-14170
▁Konsumenten	-14171
▁ingredients	-14172
▁Verbesserung	-14173
▁traditionelle	-14174
jo	-14175
aze	-14176
ctu	-14177
▁48	-14178
apor	-14179
avor	-14180
case	-14181
cont	-14182
lime	-14183
äger	-14184
äher	-14185
▁Mov	-14186
▁Unt	-14187
▁ham	-14188
▁mic	-14189
▁ras	-14190
ruppe	-14191
selbe	-14192
thiop	-14193
äufer	-14194
▁Myth	-14195
▁Ross	-14196
▁ages	-14197
▁boss	-14198
▁ehem	-14199
▁glad	-14200
▁rely	-14201
▁vorn	-14202
archie	-14203
etball	-14204
ighted	-14205
rition	-14206
schild	-14207
▁Ocean	-14208
▁Santa	-14209
▁Wände	-14210
▁abund	-14211
▁drill	-14212
▁fifth	-14213
▁heben	-14214
▁minor	-14215
▁posit	-14216
▁reefs	-14217
▁verbr	-14218
▁views	-14219
▁wound	-14220
cellent	-14221
erkrank	-14222
ospiele	-14223
wandeln	-14224
▁Dialog	-14225
▁Glücks	-14226
▁Joseph	-14227
▁Michel	-14228
▁Mozart	-14229
▁Tasche	-14230
▁Vortra	-14231
▁degrad	-14232
▁fließt	-14233
▁heaven	-14234
▁nahezu	-14235
▁paraly	-14236
▁rating	-14237
▁simult	-14238
▁trends	-14239
▁verlor	-14240
▁wahren	-14241
gleichen	-14242
▁Pflanze	-14243
▁advance	-14244
▁geraten	-14245
▁symbols	-14246
▁tragedy	-14247
▁unsicht	-14248
▁verletz	-14249
▁Fantasie	-14250
▁Konzentr	-14251
▁Oxytocin	-14252
▁Pinguine	-14253
▁Schlagze	-14254
▁aircraft	-14255
▁aufrecht	-14256
▁confront	-14257
▁contains	-14258
▁contract	-14259
▁criminal	-14260
▁früheren	-14261
▁kreative	-14262
▁pregnant	-14263
▁sozialer	-14264
▁symmetry	-14265
▁wahrhaft	-14266
▁Bedürfnis	-14267
▁Karikatur	-14268
▁Resultate	-14269
▁Techniken	-14270
▁Toiletten	-14271
▁antworten	-14272
▁implement	-14273
▁Handlungen	-14274
▁emotionale	-14275
▁gemeinnütz	-14276
▁journalist	-14277
imensionalen	-14278
▁Anwendungen	-14279
▁Oberflächen	-14280
▁innovations	-14281
▁underground	-14282
▁Ungleichheit	-14283
▁festgestellt	-14284
▁communications	-14285
CH	-14286
Fl	-14287
zz	-14288
Ges	-14289
Und	-14290
▁AM	-14291
▁Gi	-14292
▁MR	-14293
fäll	-14294
füll	-14295
ilit	-14296
itis	-14297
last	-14298
osit	-14299
rest	-14300
sely	-14301
öten	-14302
▁130	-14303
▁Dop	-14304
▁Ign	-14305
▁Mik	-14306
▁Zie	-14307
athed	-14308
athon	-14309
embly	-14310
stage	-14311
wohnt	-14312
ächer	-14313
▁2001	-14314
▁Abed	-14315
▁Brut	-14316
▁Doug	-14317
▁Fels	-14318
▁Kühl	-14319
▁Work	-14320
▁bias	-14321
▁fram	-14322
▁gefr	-14323
▁hire	-14324
▁leap	-14325
Wissen	-14326
etzung	-14327
fahrer	-14328
porter	-14329
school	-14330
sprach	-14331
straße	-14332
wörter	-14333
▁2000,	-14334
▁Autob	-14335
▁Bible	-14336
▁Figur	-14337
▁Hyper	-14338
▁Robot	-14339
▁Schon	-14340
▁Serie	-14341
▁balls	-14342
▁conce	-14343
▁dirty	-14344
▁laser	-14345
▁minus	-14346
▁realm	-14347
▁recyc	-14348
▁stets	-14349
nderung	-14350
äuschen	-14351
▁Klinik	-14352
▁Mumbai	-14353
▁Nature	-14354
▁Ratten	-14355
▁Vorder	-14356
▁achiev	-14357
▁allgem	-14358
▁borrow	-14359
▁erlaub	-14360
▁fertil	-14361
▁innere	-14362
▁keinem	-14363
▁layers	-14364
▁mochte	-14365
▁poison	-14366
▁poster	-14367
▁retire	-14368
▁smooth	-14369
▁stages	-14370
▁tenden	-14371
▁öffnet	-14372
fortable	-14373
gefallen	-14374
ierendes	-14375
▁Atlanta	-14376
▁Büchern	-14377
▁Depress	-14378
▁Eastern	-14379
▁Erstaun	-14380
▁Fremden	-14381
▁Handeln	-14382
▁Sequenz	-14383
▁airport	-14384
▁beliefs	-14385
▁heutige	-14386
▁höchste	-14387
▁methods	-14388
▁pointed	-14389
▁trocken	-14390
▁visited	-14391
▁zuhören	-14392
▁Schwarze	-14393
▁Teleskop	-14394
▁aktuelle	-14395
▁anbieten	-14396
▁einziges	-14397
▁getestet	-14398
▁geworfen	-14399
▁surfaces	-14400
▁Maßnahmen	-14401
▁erhielten	-14402
▁letztlich	-14403
▁verpflich	-14404
▁Motivation	-14405
▁afterwards	-14406
▁mechanisms	-14407
▁vorgestellt	-14408
▁chinesischen	-14409
▁transparency	-14410
Fi	-14411
Can	-14412
iva	-14413
ozi	-14414
▁46	-14415
▁DP	-14416
brid	-14417
ktar	-14418
meth	-14419
real	-14420
tery	-14421
viet	-14422
äude	-14423
▁17.	-14424
▁Bek	-14425
▁Had	-14426
▁Tok	-14427
▁dum	-14428
▁wed	-14429
▁ört	-14430
Mails	-14431
dauer	-14432
iller	-14433
phere	-14434
ricul	-14435
▁Beat	-14436
▁Brad	-14437
▁Hind	-14438
▁Koch	-14439
▁Muse	-14440
▁Pitt	-14441
▁Sper	-14442
▁dive	-14443
▁entt	-14444
▁toys	-14445
enschw	-14446
gested	-14447
▁Extra	-14448
▁Haare	-14449
▁Italy	-14450
▁Marke	-14451
▁Prize	-14452
▁crops	-14453
▁legte	-14454
▁pilot	-14455
▁seats	-14456
▁stops	-14457
▁yours	-14458
Projekt	-14459
gesting	-14460
▁Bomben	-14461
▁Daniel	-14462
▁Datens	-14463
▁Daumen	-14464
▁Ebenen	-14465
▁Magnet	-14466
▁Varian	-14467
▁Würden	-14468
▁adding	-14469
▁capita	-14470
▁commod	-14471
▁dialog	-14472
▁stable	-14473
inkommen	-14474
▁Flederm	-14475
▁Kinders	-14476
▁Schnell	-14477
▁Seattle	-14478
▁anfängt	-14479
▁bedeckt	-14480
▁consume	-14481
▁crucial	-14482
▁extract	-14483
▁granted	-14484
▁inspire	-14485
▁speaker	-14486
▁symmetr	-14487
▁tauchen	-14488
▁Arbeitsk	-14489
▁ausgehen	-14490
▁befassen	-14491
▁database	-14492
▁external	-14493
▁gefahren	-14494
▁jährlich	-14495
▁lighting	-14496
▁verliebt	-14497
▁vorwärts	-14498
▁überlebt	-14499
▁Jerusalem	-14500
▁Versuchen	-14501
▁passwords	-14502
▁Rückenmark	-14503
▁terrorists	-14504
▁vereinfach	-14505
▁verstecken	-14506
▁übersetzen	-14507
▁diskutieren	-14508
▁schlimmsten	-14509
▁verarbeiten	-14510
▁hinsichtlich	-14511
▁repräsentiert	-14512
Gl	-14513
And	-14514
auc	-14515
eid	-14516
pox	-14517
▁AT	-14518
▁fo	-14519
baum	-14520
born	-14521
eing	-14522
gert	-14523
meid	-14524
reme	-14525
utan	-14526
▁Ara	-14527
▁FDA	-14528
▁Mig	-14529
▁Soz	-14530
▁Syl	-14531
▁Süß	-14532
▁bot	-14533
▁lap	-14534
▁lux	-14535
▁tät	-14536
eiden	-14537
mächt	-14538
▁Egal	-14539
▁Jord	-14540
▁Mahl	-14541
▁Mall	-14542
▁Stil	-14543
▁anst	-14544
▁trat	-14545
fällig	-14546
icient	-14547
ogramm	-14548
spanne	-14549
▁Achse	-14550
▁Indus	-14551
▁Lesen	-14552
▁Mäuse	-14553
▁Risik	-14554
▁Rover	-14555
▁Sarah	-14556
▁Smart	-14557
▁genoc	-14558
▁hydro	-14559
▁miser	-14560
▁recru	-14561
▁relax	-14562
angehen	-14563
anlagen	-14564
lechter	-14565
quellen	-14566
viously	-14567
ylinder	-14568
▁Anweis	-14569
▁Inseln	-14570
▁Vagina	-14571
▁Wright	-14572
▁attend	-14573
▁danken	-14574
▁emphas	-14575
▁enthus	-14576
▁farmer	-14577
▁forder	-14578
▁füllen	-14579
▁output	-14580
▁wartet	-14581
▁waters	-14582
jähriger	-14583
▁Ehemann	-14584
▁Hundert	-14585
▁Schwanz	-14586
▁beträgt	-14587
▁ethical	-14588
▁gelangt	-14589
▁interse	-14590
▁kreiert	-14591
▁liberal	-14592
▁passing	-14593
▁prosper	-14594
▁pulling	-14595
▁radikal	-14596
▁smoking	-14597
▁suspend	-14598
aktivität	-14599
▁Bewohner	-14600
▁Gebäudes	-14601
▁Griechen	-14602
▁McDonald	-14603
▁Therapie	-14604
▁Toilette	-14605
▁ausmacht	-14606
▁freiwill	-14607
▁isolated	-14608
▁privaten	-14609
▁schreibe	-14610
▁textbook	-14611
▁Ansichten	-14612
▁announced	-14613
▁calculate	-14614
▁delivered	-14615
▁depressed	-14616
▁musicians	-14617
▁strangers	-14618
▁ungeheuer	-14619
▁verrückte	-14620
▁verteilen	-14621
▁Ausrüstung	-14622
▁Population	-14623
▁Versorgung	-14624
▁Verteilung	-14625
▁affordable	-14626
▁ausgegeben	-14627
▁capability	-14628
▁suggesting	-14629
▁chimpanzees	-14630
▁demonstrate	-14631
▁spectacular	-14632
▁Berechnungen	-14633
▁schreckliche	-14634
▁beeindruckend	-14635
▁Globalisierung	-14636
99	-14637
yo	-14638
.'"	-14639
isy	-14640
agan	-14641
lter	-14642
städ	-14643
ueen	-14644
wehr	-14645
üten	-14646
▁Tar	-14647
▁Zut	-14648
▁coo	-14649
▁fün	-14650
▁sle	-14651
Where	-14652
asien	-14653
iffen	-14654
pruch	-14655
raged	-14656
ringe	-14657
ronen	-14658
uldig	-14659
▁Appl	-14660
▁Chip	-14661
▁Etwa	-14662
▁Held	-14663
▁Horm	-14664
▁Konz	-14665
▁Wirk	-14666
▁bask	-14667
▁komp	-14668
▁neat	-14669
▁nets	-14670
▁peer	-14671
▁pile	-14672
▁quer	-14673
▁tuna	-14674
bsites	-14675
enness	-14676
fühlen	-14677
iessen	-14678
zenten	-14679
▁Anrei	-14680
▁Frühl	-14681
▁Kosov	-14682
▁Künst	-14683
▁Medic	-14684
▁Somal	-14685
▁Waffe	-14686
▁chief	-14687
▁drawn	-14688
▁edges	-14689
▁helic	-14690
▁lasse	-14691
▁selbe	-14692
▁spark	-14693
▁upset	-14694
▁wings	-14695
▁zehnt	-14696
bezogen	-14697
griffen	-14698
ogether	-14699
version	-14700
▁Abhäng	-14701
▁Chines	-14702
▁Fahrer	-14703
▁Hawaii	-14704
▁Sektor	-14705
▁befest	-14706
▁breakt	-14707
▁durfte	-14708
▁höchst	-14709
▁offene	-14710
▁richer	-14711
▁shrimp	-14712
▁untern	-14713
▁ältere	-14714
gekommen	-14715
▁Betrieb	-14716
▁Kohlend	-14717
▁Whether	-14718
▁Wurzeln	-14719
▁circles	-14720
▁gelehrt	-14721
▁gesunde	-14722
▁happier	-14723
▁indigen	-14724
▁kümmert	-14725
▁origami	-14726
▁paradox	-14727
▁Baseball	-14728
▁Demonstr	-14729
▁Erschein	-14730
▁Feedback	-14731
▁Konzepte	-14732
▁Mitglied	-14733
▁ausreich	-14734
▁category	-14735
▁district	-14736
▁speakers	-14737
▁zentrale	-14738
▁accidents	-14739
▁aktuellen	-14740
▁bedeutend	-14741
▁dimension	-14742
▁elections	-14743
▁leistungs	-14744
▁positiven	-14745
▁Department	-14746
▁integrated	-14747
▁physischen	-14748
▁treatments	-14749
▁verringern	-14750
▁Flüssigkeit	-14751
▁kulturellen	-14752
▁Katastrophen	-14753
▁auszudrücken	-14754
▁breakthrough	-14755
▁participants	-14756
▁verschwindet	-14757
organisationen	-14758
▁uncomfortable	-14759
▁ausschließlich	-14760
IN	-14761
eds	-14762
urd	-14763
ölf	-14764
▁LT	-14765
▁RS	-14766
bart	-14767
fold	-14768
phys	-14769
reut	-14770
uens	-14771
ästh	-14772
▁Beh	-14773
▁Bür	-14774
▁Cap	-14775
▁Dez	-14776
▁Las	-14777
▁Tee	-14778
▁Van	-14779
▁ego	-14780
▁rab	-14781
▁unw	-14782
ading	-14783
cohol	-14784
größe	-14785
ikely	-14786
liest	-14787
olera	-14788
stern	-14789
▁1930	-14790
▁Kosm	-14791
▁Sund	-14792
▁Thun	-14793
▁bars	-14794
▁nutr	-14795
▁quit	-14796
▁soap	-14797
lessly	-14798
othing	-14799
usters	-14800
utical	-14801
▁2007,	-14802
▁Alask	-14803
▁Appar	-14804
▁Third	-14805
▁Volks	-14806
▁altes	-14807
▁anzuf	-14808
▁banks	-14809
▁freie	-14810
▁herab	-14811
▁jelly	-14812
▁lasst	-14813
▁lungs	-14814
▁sheet	-14815
▁spots	-14816
▁veter	-14817
schafft	-14818
▁Astron	-14819
▁Moskit	-14820
▁Patent	-14821
▁dozens	-14822
▁emerge	-14823
▁observ	-14824
▁perpet	-14825
▁rhythm	-14826
▁strand	-14827
▁territ	-14828
▁tricks	-14829
▁werdet	-14830
▁Everest	-14831
▁Lehrern	-14832
▁chapter	-14833
▁defense	-14834
▁parties	-14835
▁protest	-14836
▁reduced	-14837
▁shelter	-14838
▁traject	-14839
▁widersp	-14840
▁Überall	-14841
▁älteren	-14842
▁Ausgaben	-14843
▁Gedichte	-14844
▁benutzte	-14845
▁conclude	-14846
▁dynamics	-14847
▁includes	-14848
▁jenseits	-14849
▁sicherst	-14850
▁Abenteuer	-14851
▁Fahrzeuge	-14852
▁Symmetrie	-14853
▁dependent	-14854
▁erledigen	-14855
▁gestaltet	-14856
▁inklusive	-14857
▁inspiring	-14858
▁nationale	-14859
▁schrieben	-14860
▁separated	-14861
▁variation	-14862
bedingungen	-14863
ungsprozess	-14864
▁ausdrücken	-14865
▁biologists	-14866
▁protecting	-14867
▁reputation	-14868
▁ridiculous	-14869
▁umzusetzen	-14870
▁wirklichen	-14871
▁Mechanismus	-14872
▁Videospiele	-14873
▁einzigartig	-14874
▁photography	-14875
▁predictions	-14876
▁Journalisten	-14877
▁agricultural	-14878
▁irgendwelche	-14879
▁characteristics	-14880
',	-14881
'.	-14882
40	-14883
NC	-14884
RA	-14885
idi	-14886
krä	-14887
▁AG	-14888
Bahn	-14889
Jähr	-14890
amie	-14891
bole	-14892
ffer	-14893
gner	-14894
hten	-14895
mass	-14896
ownt	-14897
rist	-14898
strö	-14899
stör	-14900
verl	-14901
ödie	-14902
▁'60	-14903
▁Anh	-14904
▁Dal	-14905
▁Jup	-14906
▁Neg	-14907
▁hip	-14908
[...]
